<unk>	0
<s>	0
</s>	0
,	-2.59878
.	-2.99566
▁ᎠᎴ	-3.36131
▁ᎾᏍᎩ	-3.78769
;	-3.89317
Ꮓ	-4.08882
▁ᎯᎠ	-4.43282
▁ᎨᏒ	-4.72615
▁	-4.81845
Ꭲ	-4.82407
▁ᎥᏝ	-5.15261
▁ᎨᏒᎢ	-5.19861
ᏰᏃ	-5.27534
Ꭹ	-5.27555
?	-5.31601
▁ᎨᏎᏍᏗ	-5.33383
▁ᎤᏁᎳᏅᎯ	-5.34892
▁Ꭴ	-5.43664
▁ᏃᎴ	-5.45837
Ꮧ	-5.56428
▁Ꭰ	-5.56933
▁ᏴᏫ	-5.57686
Ꮙ	-5.61902
Ꭿ	-5.697
▁ᎩᎶ	-5.72676
▁ᎢᏳᏍᏗ	-5.80691
▁ᎾᏍᏉ	-5.80759
Ꭽ	-5.80846
▁Ꮎ	-5.83248
▁ᎾᎿ	-5.85007
▁ᎾᏍᎩᏯ	-5.86024
⁠	-5.86612
▁ᎠᏎᏃ	-5.87981
▁ᎠᏴ	-5.88478
▁ᏱᎩ	-5.92699
▁ᎢᎦ	-5.95656
▁ᎪᎱᏍᏗ	-5.9601
▁ᏥᎩ	-5.98837
-	-5.99106
▁ᏱᎰᏩ	-6.00002
▁ᏂᎦᏛ	-6.02412
▁ᏂᎯ	-6.02808
Ꮎ	-6.05134
▁ᎤᎬᏫᏳᎯ	-6.05336
▁ᏂᎨᏒᎾ	-6.05463
▁ᏥᏌ	-6.06177
Ᏹ	-6.09169
Ꮫ	-6.11409
ᏍᏗ	-6.12027
▁“	-6.13541
ᏍᎩᏂ	-6.17349
Ꮣ	-6.18075
▁Ꮷ	-6.2342
▁ᎣᏍᏛ	-6.2406
▁ᎯᎠᏃ	-6.25185
▁Ꮧ	-6.25256
▁ᎤᏪᏥ	-6.2939
▁ᎢᏳᏃ	-6.34968
▁ᎾᏍᎩᏃ	-6.37786
▁ᏧᏪᏥ	-6.3896
▁ᎦᎶᏁᏛ	-6.42553
▁Ꮵ	-6.43036
▁ᎠᏂ	-6.44286
Ꭶ	-6.4461
▁ᏄᏪᏎᎢ	-6.44622
▁ᏞᏍᏗ	-6.4477
▁ᎿᏉ	-6.46345
▁ᎡᎶᎯ	-6.47459
▁ᎨᏍᏗ	-6.50755
▁Ꮳ	-6.5338
▁ᎿᏉᏃ	-6.53802
▁ᎤᏲ	-6.54085
▁Ꮪ	-6.57375
Ꮕ	-6.57604
▁ᎦᏙ	-6.58908
▁ᎤᏛᏁ	-6.59472
▁ᎤᏣᏘ	-6.63322
▁Ᏹ	-6.63626
▁ᎠᏍᎦᏯ	-6.63964
Ꮒ	-6.64311
▁ᎠᏥᎸ	-6.66399
▁”	-6.67152
▁ᏫᎵᎻ	-6.71741
,”	-6.72259
▁ᎾᎯᏳ	-6.72959
▁ᏂᎦᎥ	-6.74288
▁ᎬᏂᎨᏒ	-6.75152
▁ᎠᎹ	-6.76233
▁ᎦᎸᏉᏗᏳ	-6.76681
▁ᎬᏂᏳᏉ	-6.77615
▁ᏄᏍᏛ	-6.77724
Ꮈ	-6.78829
▁ᎡᎯ	-6.78914
▁ᎦᎸᎳᏗ	-6.79282
▁ᎧᏃᎮᏛ	-6.79873
▁ᎠᏁᎯ	-6.80516
▁ᎤᏩᏒ	-6.81022
▁ᎠᏰᎵ	-6.83942
Ꭸ	-6.84456
▁ᎠᏕᎸ	-6.84574
Ꮟ	-6.84962
▁ᎤᏤᎵ	-6.86514
▁ᎨᏎᎢ	-6.86753
Ꮅ	-6.86974
▁ᎠᏎ	-6.8735
▁ᎤᏂ	-6.89758
▁ᏌᏉ	-6.90095
▁ᏰᎵ	-6.90458
▁ᎤᏤᎵᎦ	-6.90485
▁ᎢᏣ	-6.91235
▁ᎢᏴᏛ	-6.92185
▁ᎪᎯ	-6.92674
ᏗᏱ	-6.9386
Ꮢ	-6.93908
Ꮄ	-6.94494
▁Ꮣ	-6.94831
Ᏻ	-6.9508
▁ᎦᏙᎯ	-6.96763
▁ᏔᎵ	-6.97
▁ᎤᏍᏗ	-6.97216
▁ᎾᏂᎥ	-6.97294
▁Ꭲ	-6.97603
▁ᎣᏏᏳ	-6.98074
Ꮂ	-6.99063
▁ᎤᏟ	-6.99541
Ꭰ	-7.00563
▁Ꭿ	-7.00914
▁ᎢᏏᎵ	-7.01926
▁ᎣᏍᏓ	-7.02239
ᏍᎪ	-7.02874
▁[	-7.02895
▁ᏗᎧᎿᏩᏛᏍᏗ	-7.03831
▁Ꭶ	-7.05249
▁ᎠᏓᏅᏙ	-7.06572
▁ᎠᏂᏍᎦᏯ	-7.0758
▁ᎨᏎ	-7.09871
▁ᏔᎵᏁ	-7.12214
▁ᎢᏥᏈᏱ	-7.12936
.”	-7.13595
ᏍᎩ	-7.15492
Ꭺ	-7.15772
▁ᎬᏩ	-7.15945
▁ᎼᏏ	-7.15997
▁ᎢᏳ	-7.17552
▁ᎢᎬᏱ	-7.20134
▁ᎨᏒᎩ	-7.20322
▁⁠	-7.20888
Ꭼ	-7.21082
▁ᎡᎳᏗ	-7.21191
!	-7.21691
▁ᏚᏳᎪᏛ	-7.21834
▁ᏩᎦ	-7.21883
▁ᏤᎦᏈ	-7.22815
▁Ᏻ	-7.2287
▁ᎠᏫ	-7.24402
]	-7.24425
▁ᎤᏂᏣᏘ	-7.25373
Ꮑ	-7.25457
ᎨᏍᏗ	-7.26626
▁ᎤᎾ	-7.2721
▁ᎡᏆᎭᎻ	-7.27382
▁ᎢᏳᎵᏍᏙᏗᏱ	-7.27458
ᏙᏗ	-7.27552
Ꮿ	-7.27982
▁ᎦᏙᏃ	-7.28266
:	-7.28353
Ꮝ	-7.28516
▁ᎢᏗᏢ	-7.28862
▁ᏏᏆ	-7.30275
▁ᏇᎵᏲ	-7.30842
▁ᎾᎥ	-7.3111
▁ᏲᎾ	-7.32435
▁Ꮻ	-7.32614
▁ᎠᎨᏴ	-7.32901
▁ᎬᏗ	-7.34199
▁ᏦᏩ	-7.34974
▁ᎠᏏ	-7.35618
▁ᏌᎳᏓ	-7.36089
▁ᏅᎩ	-7.36114
▁ᏦᎢ	-7.36354
▁Ꮽ	-7.37326
!”	-7.37624
▁ᏄᏪᏒᎩ	-7.38364
▁ᏂᎦᏓ	-7.38789
?”	-7.39314
▁ᏄᏪᏎᎴᎢ	-7.39852
Ꮃ	-7.39953
▁ᏅᏯ	-7.4093
Ꮵ	-7.42405
▁ᏧᏓᎴᏅᏛ	-7.43743
▁ᎢᏥ	-7.43867
▁ᎠᏓ	-7.44185
▁ᎦᎪ	-7.44187
▁ᏐᏈᎵ	-7.44316
▁ᎦᏚ	-7.44999
▁ᏱᎨᏎᏍᏗ	-7.45043
▁ᏂᎪᎯᎸ	-7.47385
▁ᎤᏙᎯᏳᎯᏯ	-7.48467
▁ᏥᏌᏃ	-7.48634
▁Ꮿ	-7.48699
Ꮞ	-7.48726
Ꭾ	-7.49811
▁Ꮒ	-7.50436
ᏍᎬ	-7.50868
▁ᏂᏚᏪᏎᎴᎢ	-7.51678
▁ᏝᏍᎪ	-7.53425
▁ᎠᏂᏧᏏ	-7.54211
▁ᏣᎬᏫᏳᎯ	-7.54629
▁ᎤᎬᏩᎵ	-7.55255
▁ᎠᏆ	-7.55597
▁ᏧᏤᎵ	-7.55712
▁ᎦᎵᏉᎩ	-7.55777
▁ᏓᎶᏂᎨ	-7.55789
▁Ꮔ	-7.5597
▁ᎬᏩᏍᏓᏩᏗᏙᎯ	-7.57867
▁ᏄᏪᏎᎸᎩ	-7.57979
▁ᎦᏓ	-7.58198
▁ᎡᏍᎦ	-7.58413
▁ᏂᎦᏗᏳ	-7.59203
▁ᎢᏧᎳᎭ	-7.61481
▁ᎤᏙᏓ	-7.61568
▁ᏰᎵᏉ	-7.62339
▁Ꭼ	-7.62544
▁Ꭸ	-7.6346
▁ᎣᏂ	-7.63579
Ꮨ	-7.64751
▁ᏈᏓ	-7.66143
▁Ꮥ	-7.66177
▁ᎪᏪᎵ	-7.67227
▁ᏚᏂ	-7.67506
▁ᏄᏪᏎᎴ	-7.67533
▁Ꮭ	-7.68749
▁ᎤᏤᏍᏙ	-7.69023
Ᏼ	-7.69242
▁ᎠᎩ	-7.69283
▁ᎢᏴ	-7.69578
▁ᎢᎩ	-7.70368
▁ᏣᏂ	-7.70424
▁ᏥᎷᏏᎵᎻ	-7.71266
▁ᎠᏧᏣ	-7.72025
▁ᏂᏚᏪᏎᎸᎩ	-7.72062
▁ᎦᏚᎲ	-7.72112
▁ᎠᏏᏉ	-7.72181
▁ᎬᏂ	-7.72639
▁ᏅᏗᎦᎵᏍᏙᏗᎭ	-7.73586
▁ᎠᏂᎨᏴ	-7.74337
▁ᎤᏅᏒ	-7.75368
▁ᏱᎨᏎ	-7.76493
▁ᏉᎳ	-7.77427
▁ᏧᎾᏓᎴᏅᏛ	-7.77503
▁ᎡᏙᏓ	-7.77507
▁ᎢᏤ	-7.77604
▁ᎢᏯᏂᏛ	-7.78377
▁ᎬᏂᏛ	-7.78554
▁ᏍᎩ	-7.79241
▁ᏄᎬᏫᏳᏒ	-7.79933
▁ᏂᎬᎾᏛ	-7.7997
▁Ꭱ	-7.81296
▁ᎢᎦᎢ	-7.81563
▁ᎾᏍᎩᏯᎢ	-7.82115
▁ᏣᎵ	-7.82442
▁ᏐᏉ	-7.82529
▁ᎠᏂᏔᎵ	-7.82974
▁ᎪᎯᏳᏗ	-7.83592
Ꮀ	-7.8363
Ꮲ	-7.84243
ᏔᏅᎯ	-7.85423
▁ᎯᏍᎩ	-7.85459
ᏍᎨᏍᏗ	-7.85707
▁ᎡᎳᏂ	-7.85794
▁ᎾᎥᏂ	-7.85806
▁ᏄᎵᏍᏔᏁᎢ	-7.86377
▁ᏑᎾᎴ	-7.86438
Ꭵ	-7.86495
▁Ꭷ	-7.86744
▁ᎤᎵᏂᎩᏛ	-7.86758
▁Ꮩ	-7.87313
▁ᎤᏓᎵᎢ	-7.87737
ᎸᎯ	-7.87744
Ꮜ	-7.87786
▁ᎤᏙᎯᏳᎯ	-7.87863
▁ᎤᏁᏨ	-7.87888
▁ᏥᎪ	-7.88108
▁ᎼᏏᏃ	-7.88341
▁ᎠᏣᏗ	-7.88562
▁ᏗᎦᎳᏫᎢᏍᏗᏱ	-7.88882
▁Ꭽ	-7.89613
ᎸᎩ	-7.89668
▁ᎢᎨᏎᏍᏗ	-7.9125
▁ᎢᎬᏱᏗᏢ	-7.91251
▁ᎤᏓᏙᎵᏍᏗ	-7.91255
▁ᏄᏂᏪᏎᎢ	-7.91298
ᎮᏍᏗ	-7.91456
▁ᏧᏂ	-7.9196
ᎴᎢ	-7.92428
Ꮳ	-7.92775
▁ᎩᎦᎨ	-7.92944
▁ᎠᏯ	-7.93008
Ꮸ	-7.94654
▁ᏗᎦᎸᏫᏍᏓᏁᏗ	-7.94765
▁ᎩᎳ	-7.94767
▁ᏧᎾ	-7.94786
▁ᏗᎧᎿᏩᏗᏙᎯ	-7.95013
▁ᎤᏛᏅ	-7.95314
ᏔᏅ	-7.95555
▁ᎠᎵᏍᏓᏴᏗ	-7.9575
▁ᏗᏣ	-7.95783
▁ᎢᏧᎳ	-7.96648
▁ᏌᏌ	-7.96951
Ꮻ	-7.97536
Ꮩ	-7.97592
Ꮥ	-7.97632
▁ᎡᏏᎩ	-7.98307
▁ᎤᏓ	-7.98492
▁ᎠᎾᎵᏅᏟ	-7.98904
▁ᎭᏫᏂ	-7.99705
▁ᏓᏆᎴᎳ	-7.99908
▁ᎰᎻ	-8.00942
▁ᎦᎶᎯᏍᏗᏱ	-8.01035
▁ᏅᏩᏓᎴ	-8.01431
▁ᎢᎾᎨ	-8.01512
▁ᎤᏩᏌ	-8.01543
▁ᏒᏃᏱ	-8.01939
▁ᎤᏥ	-8.0259
▁ᏍᎩᎾᎾ	-8.02911
▁ᏧᎬᏩᎶᏗ	-8.04031
▁ᎢᎬᏱᏱ	-8.04059
▁ᎬᏩᎦᏘᏯ	-8.05066
▁ᎤᏃᏕᎾ	-8.05068
▁ᏅᏙ	-8.05448
▁Ꭵ	-8.05612
▁ᏔᎳᏚ	-8.06133
▁ᎢᎸᎯᏳ	-8.072
▁Ꭳ	-8.07458
▁ᎦᎸᎶᎢ	-8.07704
▁ᏚᏙᎥ	-8.08033
▁ᏱᎨᏎᎢ	-8.08287
ᏍᏛ	-8.08291
Ꮤ	-8.09338
▁ᎦᏲᏟ	-8.10383
▁ᎤᎾᏤᎵᎦ	-8.10821
ᏒᎢ	-8.11326
ᏍᎦ	-8.11384
▁ᏧᎾᏁᎶᏗ	-8.11633
▁ᎠᏏᏴᏫ	-8.11799
▁ᏚᎾ	-8.1195
▁ᏥᏳ	-8.12206
ᏅᎯ	-8.12268
▁ᏅᏩᏙᎯᏯᏛ	-8.12756
▁ᎦᏳᎳ	-8.12769
▁ᎣᎩ	-8.12969
ᏉᏍᎩᏂ	-8.13559
▁ᏄᎵᏍᏔᏅ	-8.1378
▁ᎢᏓᎵᏅᏟ	-8.13909
▁ᎤᏚᎩ	-8.14086
▁ᏗᎦ	-8.14711
▁Ꮹ	-8.14856
▁ᏱᎨᏒᎾ	-8.15071
ᏍᎩᏂᏃᏅ	-8.15336
ᏍᎪᎢ	-8.15397
▁ᎠᏰᎸ	-8.16037
▁ᎠᏆᏤᎵ	-8.16096
▁ᎤᏍᏆᏂᎪᏗ	-8.16219
ᏁᎢ	-8.16975
▁ᎦᏓᎭ	-8.18068
▁ᎡᏆ	-8.18442
▁ᏓᏂ	-8.18482
▁ᎢᎪᎯᏛ	-8.18666
▁ᎠᎬᏱ	-8.18697
ᏎᎢ	-8.19803
▁ᎭᏫᏂᏗᏢ	-8.19866
▁ᎠᏇᏥ	-8.19869
▁ᏧᏤᎵᎦ	-8.2035
▁ᎩᎳᏉ	-8.20722
▁ᏅᏓᏳᏓᎴᏅᎯ	-8.21096
▁ᏂᏨᏪᏎᎭ	-8.21109
▁ᎭᏢ	-8.21114
▁ᏄᏂᏪᏒᎩ	-8.21165
ᎸᎢ	-8.2216
▁ᎤᏇᏓᎵ	-8.22342
▁ᎤᎾᏓᏅᏘ	-8.22379
▁ᏐᎢ	-8.22517
▁ᎢᏳᏩᏂᏌᏛ	-8.23611
▁ᎢᏳᏰᏃ	-8.23814
▁ᎢᏐ	-8.23897
▁ᎯᎳ	-8.23935
▁ᏠᎨᏏ	-8.24908
▁ᎤᏁᎳᎩ	-8.24909
▁Ꮫ	-8.25044
▁ᏃᏗ	-8.25352
▁ᏄᏍᏗ	-8.25959
▁ᎢᏯᎦᏴᎵ	-8.26191
▁ᎤᏕᎵᏛ	-8.26214
▁ᏧᏙᎢᏛ	-8.26223
▁ᏄᏪᏒ	-8.26229
▁ᎢᎦᏛ	-8.26559
▁ᎦᎵᏦᏛ	-8.2674
▁ᎠᏓᏁᎸ	-8.26899
ᏍᏗᏱ	-8.27191
▁ᏧᏍᏆᏴᏍᏗ	-8.2758
ᎲᎢ	-8.27703
▁ᎤᏛᏛᏁ	-8.27954
Ꮆ	-8.28057
Ꮖ	-8.28271
▁ᏍᏉ	-8.28599
▁ᎢᏳᎵᏍᏙᏗ	-8.28647
▁ᏄᎵᏍᏔᏁ	-8.28748
▁ᏗᎪᏢᏔᏅᎯ	-8.28859
▁ᎠᏁᎲ	-8.28984
▁ᎢᎪᎯᏓ	-8.3023
ᏒᎩ	-8.30504
▁ᎠᏁᎲᎢ	-8.31063
▁ᏄᏓᎴᏒ	-8.3175
▁ᏦᎢᏁ	-8.31996
ᏅᎩ	-8.32028
ᎪᎢ	-8.32553
▁ᎠᏍᏓᏯ	-8.32985
▁ᎦᏁᎸ	-8.32999
▁ᎤᎾᏤᎵ	-8.33998
▁Ꮶ	-8.34026
ᎨᎢ	-8.34114
▁ᎠᎾᏙᎴᎰᏍᎩ	-8.34361
▁Ꮟ	-8.34926
▁ᏃᏉ	-8.35583
▁ᎠᏍᎪᎯᏧᏈ	-8.35817
▁ᎩᎬ	-8.35829
▁ᏥᎨᏒ	-8.35997
▁ᏕᏥ	-8.36071
Ꮴ	-8.36429
▁ᎡᎳᏆᏗ	-8.37263
▁ᎠᏲᎱᎯᏍᏗ	-8.3727
▁ᏧᏅᏏᏓᏍᏗ	-8.37271
ᏙᏗᏱ	-8.37274
▁ᏄᎵᏍᏔᏅᎩ	-8.3787
▁ᏕᎦ	-8.37995
▁ᎠᎦᏴᎵᎨ	-8.38013
▁ᎤᏒ	-8.38044
▁ᏌᏩᏂ	-8.38706
▁ᎠᏂᏆᎵᏏ	-8.38707
ᎮᎢ	-8.39176
▁ᎧᏅᏂᏍᎩ	-8.39786
Ꮹ	-8.39969
▁ᎤᏂᏃᏕᎾ	-8.40207
▁ᏥᏳᎯ	-8.40307
▁ᎤᏃᎴ	-8.40314
▁ᎤᏁᎬ	-8.40391
▁ᎤᏒᎯ	-8.40828
▁ᎡᏣ	-8.41411
▁ᎠᏍᎦᏂ	-8.415
▁ᏄᏂᎬᏫᏳᏒ	-8.41719
▁ᏧᏕᏘᏴᏛ	-8.4172
▁ᎠᎺᏉᎯ	-8.41727
ᎬᎢ	-8.41747
▁ᎠᏍᎪᎵ	-8.42742
▁ᏗᏥ	-8.42769
Ꮚ	-8.43119
▁ᎤᏂᎬᏫᏳᎯ	-8.43291
▁ᎡᏥ	-8.43895
▁ᎨᏐᎢ	-8.44019
ᏍᎬᎢ	-8.4443
▁ᎢᏯ	-8.44638
▁ᎢᎦᏤᎵ	-8.44695
▁ᎠᏙᎴᎰᏍᎩ	-8.44827
Ꮯ	-8.44858
▁ᏂᎬ	-8.45486
Ꭴ	-8.45611
Ꭷ	-8.46249
▁ᏗᏂᎧᎿᏩᏗᏙᎯ	-8.46402
▁ᎤᏬᏰᏂ	-8.46412
▁ᏣᏄᏏ	-8.46437
▁ᏅᏩᎾᏓᎴ	-8.47149
▁ᏂᎯᏍᎩᏂ	-8.47185
Ᏺ	-8.47792
▁ᎤᏓᏅᏘ	-8.47963
ᏍᏙᏗ	-8.48144
Ꮷ	-8.48441
▁ᎨᏐ	-8.48904
▁ᎠᏥ	-8.49202
▁ᎾᎿᏂ	-8.4982
ᎨᎶᎯ	-8.50311
▁ᎢᏗ	-8.50801
▁ᏑᏓᎵ	-8.5093
▁ᏧᏂᏍᏆᏂᎪᏙᏗ	-8.51362
▁ᎥᎥ	-8.51382
▁ᏂᎬᏅ	-8.51633
▁ᏗᏂᏲᎵ	-8.52177
▁ᎢᏨ	-8.52201
▁ᎦᎸᎶ	-8.52252
▁ᎤᏙᎯᏳ	-8.52267
Ꭳ	-8.52804
▁ᎤᏴᏍᏗ	-8.52881
▁ᎠᏲᎵ	-8.52962
▁ᎡᏆᎻ	-8.53035
Ᏸ	-8.53043
▁ᎤᎵᏂᎩᏗᏳ	-8.53054
▁ᎡᏝᏪᎯ	-8.53178
ᏁᎸ	-8.53867
▁ᎠᎦᏴᎵᎨᎢ	-8.53948
▁ᏤᏥ	-8.5434
▁ᎦᎵᏦᏕ	-8.54744
▁ᎦᎾᏝᎢ	-8.54769
▁ᎪᎰᏍᏗ	-8.54784
▁ᎠᏂᏴᏫᏯ	-8.54785
▁ᎤᎵᏏᎩ	-8.54816
▁ᏨᏒ	-8.54925
▁ᎢᏨᏒ	-8.54967
▁ᎤᏅᏗ	-8.55622
▁ᎣᏓᎸ	-8.55702
▁ᏔᎵᏁᏃ	-8.56427
▁ᏗᏂᏲᏟ	-8.56494
▁ᎠᏓᎨᏳᏗ	-8.56539
▁ᎨᎵᎵ	-8.56578
Ꭱ	-8.56677
▁ᎦᎸᏉᏗ	-8.56767
▁Ꮨ	-8.56907
▁ᎤᏁᎳᏅᎯᏃ	-8.57042
ᎦᎵ	-8.57061
▁ᏥᎨᏒᎩ	-8.57116
▁ᏥᎨᏎᎢ	-8.57192
ᎠᏁᎶᎯ	-8.57209
Ꮘ	-8.57932
▁ᎢᏯᎩᏳᏍᏈᏛ	-8.58284
▁ᎠᏍᎩᎾ	-8.5832
▁ᎤᏤᎵᎪᎯ	-8.58341
▁ᎪᎢ	-8.58403
▁ᎠᎩᎾ	-8.58922
▁ᎭᎾ	-8.59097
▁ᏄᏓᎴ	-8.59618
▁ᎠᏄᏬ	-8.59926
▁ᏗᏃᏪᎵᏍᎩ	-8.60098
▁ᎤᏅᏏᏓᏍᏗ	-8.60179
▁ᏕᏫ	-8.60193
▁ᎧᏁᏌᎢ	-8.60202
▁ᎩᏟ	-8.61965
▁ᎦᏰᎪᎩ	-8.61973
▁ᎦᏚᎲᎢ	-8.62102
▁ᎠᎾ	-8.6215
▁ᎠᎦᏔᎲᎢ	-8.62452
▁ᎭᏂ	-8.62769
▁(	-8.63837
▁ᎧᏁᏍᎦ	-8.63837
▁ᎠᏂᏧᏣ	-8.63843
▁ᎤᎬᏫᏳᏌᏕᎩ	-8.63901
▁ᎠᏛ	-8.63997
Ꮭ	-8.64276
▁ᏫᏥ	-8.64485
▁ᏗᏆᏤᎵ	-8.6561
▁ᎴᏆᏂ	-8.6576
▁ᎠᏃᎯᏳᎲᏍᎩ	-8.65765
▁ᏥᏍᏕᏥ	-8.65769
▁ᎤᏣᏔᏅᎯ	-8.65779
▁ᎠᏰᎳᏍᏗ	-8.65802
▁ᏄᏍᏕᏍᏗ	-8.65882
▁ᎤᏛᎦᏅ	-8.65931
▁ᎢᎦᏓ	-8.66708
▁ᎤᏰᎸᏗ	-8.66833
▁ᏣᏤᎵ	-8.67418
ᏍᎨᎢ	-8.67608
▁ᎠᏂᏍᎩᎾ	-8.67727
▁ᏗᎦᏙᎵ	-8.67772
▁ᏔᎷᎩᏍᎩ	-8.67902
▁Ꮕ	-8.68381
▁ᎨᎳᏍᏗᏱ	-8.68493
ᏍᏓ	-8.68938
ᏔᏅᎩ	-8.69031
ᏁᏗᏱ	-8.69172
▁Ꮁ	-8.69329
▁ᏕᏣ	-8.69464
▁ᎠᏌᎻᏓ	-8.69721
▁ᏗᎾᏓᏅᏟ	-8.69722
▁ᎨᏥᏅᏏᏛ	-8.6973
▁ᎺᎵ	-8.69765
▁ᏅᏲᎯ	-8.69786
▁ᏧᏁᏥ	-8.69817
▁ᎠᏗᎾ	-8.69819
▁ᎠᏂᏏᏴᏫᎭ	-8.69821
▁ᎤᏲᎱᏒ	-8.7006
▁ᎢᎦᏛᏃ	-8.70364
▁ᏂᎦ	-8.70594
▁ᎤᏰᎸᏛ	-8.70975
ᏍᏔᏅ	-8.71172
▁ᎠᎲ	-8.71212
ᏔᏁ	-8.71307
▁ᎤᎪᎲ	-8.71379
▁ᏱᎦ	-8.71539
▁ᏗᏣᏤᎵ	-8.71612
▁Ᏼ	-8.71641
▁ᎢᎸᎯᏢ	-8.71762
▁ᎦᏩᏒᎩ	-8.71762
▁ᎢᏳᏕᏘᏴᏛ	-8.71772
▁ᏧᏂᏲᎱᏒᎯ	-8.71774
▁ᎤᏕᏁᎴᎢ	-8.71789
▁ᎪᏢᏔᏅᎯ	-8.71879
▁ᎰᏩ	-8.71882
o	-8.72276
▁ᎠᎦᏙᎥᎯᏍᏗ	-8.72277
▁ᎠᏍᎪᎯ	-8.72279
ᏧᏈ	-8.72412
▁ᏥᎨᏎ	-8.72782
▁ᎢᏳᏍᎩᏂ	-8.73046
▁ᎦᏍᎩᎸ	-8.73053
▁ᎠᏎᏉ	-8.73057
▁ᎬᏅ	-8.73124
▁ᎤᏁ	-8.73139
▁Ꮀ	-8.73682
▁ᏅᏓᎬᏩᏓᎴᏅᏛ	-8.73846
▁Ꮸ	-8.73897
▁ᏃᏯ	-8.73904
▁ᏣᏁᎳᏅᎯ	-8.73921
ᏍᎨ	-8.73922
▁ᎤᏠᏱ	-8.74111
▁ᎢᏳᎾᏍᏗ	-8.74119
▁ᏂᎪᎯᎸᎢ	-8.74534
ᏗᎭ	-8.74586
ᏗᎦᎳᏫᎢᏍᏗᏱ	-8.75063
▁ᏓᏔᎴᏒ	-8.75145
▁ᎤᎾᏓᏡᎬ	-8.75225
▁ᎧᏁᎬ	-8.75227
ᎬᎾ	-8.75805
▁ᏗᏓᏍᏚᏗᏱ	-8.75974
▁ᎭᏫᏯ	-8.75978
Ꮠ	-8.76129
▁ᏥᎦᏔᎭ	-8.7617
ᏔᏁᎢ	-8.76674
▁ᎤᎷᏨ	-8.76936
▁ᏅᏗᎦᎵᏍᏙᏗᏍᎨ	-8.77102
▁ᏄᏪᏎ	-8.77111
ᎲᎩ	-8.77396
▁ᎨᏴ	-8.77562
ᎭᏩ	-8.77671
▁ᏥᏚ	-8.77785
ᏅᎢ	-8.7788
▁ᏔᏕᏲᎲᏍᎩ	-8.78147
▁ᏆᎴᏗ	-8.78155
▁ᏗᏤᏥ	-8.78174
▁ᎥᏣᏱ	-8.78182
▁ᎤᎾᏤᎵᎪᎯ	-8.78187
▁ᏧᏂᎸᏫᏍᏓᏁᎯ	-8.7823
▁ᏓᎦ	-8.78559
▁ᎤᏐᏅ	-8.78566
▁ᏗᏂ	-8.78568
ᏎᏍᏗ	-8.78918
▁ᎤᎾᏛᎦᏅ	-8.79475
▁ᎢᎸᏍᎩ	-8.79759
▁ᏒᎦᏔ	-8.8037
▁ᏅᎦᏍᎪᎯ	-8.8037
▁ᎤᎵᎮᎵᏍᏗ	-8.80405
▁ᏅᏓᎦᎵᏍᏙᏗᏍᎬᎩ	-8.80431
▁ᎤᎴᏅᎮ	-8.80437
▁ᎤᏲᎢᏳ	-8.80508
▁ᎠᎳᏂ	-8.80509
▁ᎬᏘ	-8.8053
▁ᏚᏬᎡᎢ	-8.80541
▁ᎡᎶᏛ	-8.80589
▁ᎠᏂᏯᏫᏍᎩ	-8.80828
▁ᎠᏂᏐᎢ	-8.81475
ᎲᎾ	-8.81568
▁ᏂᎯᏃ	-8.81628
▁-	-8.81654
▁ᎦᏁᎸᎢ	-8.81678
▁Ꮴ	-8.81681
▁ᎾᏍᎩᏍᎩᏂ	-8.81694
▁ᎤᏙ	-8.81703
▁ᎦᎵᏦᏛᎢ	-8.81731
▁ᎤᎧᏛ	-8.81867
▁ᎦᏍᎩᎶ	-8.82029
▁ᏗᎬ	-8.82034
▁ᎢᏯᏂ	-8.82051
▁ᎠᎹᏱ	-8.82074
▁ᏌᏉᏉ	-8.82306
▁ᏗᏅᏃᏛ	-8.82378
▁ᏥᏍᏆ	-8.82431
▁ᎡᎺᏅ	-8.82643
▁ᎬᏩᏚᏫᏛ	-8.82646
▁ᎩᎳᏈᏴ	-8.82655
▁ᎤᏣᎴᏍᏗ	-8.82661
▁ᎠᎬᏱᏣ	-8.82709
▁ᎣᎯᏍᏙᏗ	-8.82715
▁ᎭᏫᏂᏣ	-8.82723
▁ᏣᎳᎩ	-8.8274
▁ᎬᏔᏅᎯ	-8.82851
▁ᏂᏣ	-8.83382
▁ᎬᏂᎨ	-8.83407
▁ᎣᏂᏃ	-8.83501
ᎾᏍᎩ	-8.8378
▁ᎤᎾᏙᏓᏆᏍᎬ	-8.84144
▁ᏂᏚᏪᏎᎴ	-8.84191
▁ᎤᏙᎴᎰᏒ	-8.84445
▁ᎤᏓᏅᏙ	-8.84477
▁ᏗᎬᏩ	-8.84646
▁ᎴᏥᎵ	-8.84967
▁ᎠᏂᏲᏍᎩ	-8.84976
▁ᎠᏂᏣᎳᎩ	-8.84977
▁ᎦᎸᎳᏗᏢ	-8.85286
▁ᎠᎵ	-8.85429
▁ᎤᏅ	-8.85788
ᎴᏍᏗ	-8.86035
▁ᎠᎦ	-8.86345
ᎨᎳᏍᏗᏱ	-8.86414
▁ᏥᎨᏐ	-8.86557
▁ᏂᏥᎥ	-8.86572
▁ᏍᎩᏴ	-8.86798
▁ᎤᎵ	-8.86866
▁ᏗᏄᏬ	-8.87154
▁Ꭺ	-8.87185
▁ᏫᎾᏍᏛᎾ	-8.87348
▁ᎡᏉᏂ	-8.87366
▁ᏧᏒᎯᏛ	-8.8743
▁ᏎᎵ	-8.87483
▁ᎪᎩ	-8.87542
▁ᏤᎯ	-8.87822
ᏗᏍᎩ	-8.88412
▁ᏂᎦᏪᏍᎬ	-8.88467
▁ᎡᎭ	-8.88491
▁ᏚᏏᎳᏛ	-8.88873
▁ᏂᏚ	-8.89067
▁Ꮤ	-8.89352
Ꮇ	-8.89459
▁ᎤᏪᏘ	-8.89724
▁ᎫᏩ	-8.89728
▁ᏖᎸᎳᏗ	-8.89787
▁ᏃᏈᏏ	-8.89824
▁ᎠᏕᎳ	-8.89855
▁ᎾᏂᏪᏍᎨᎢ	-8.89876
▁ᎠᏆᏤᎵᎦ	-8.90135
▁ᎦᏚᏏ	-8.90242
ᏁᎸᎯ	-8.90414
ᏗᏍᎬ	-8.90557
▁ᏧᏗᏱ	-8.91237
▁ᎠᏋᏒ	-8.91288
Ꮋ	-8.91354
Ꮺ	-8.916
▁ᎢᎾᎨᎢ	-8.91731
▁ᏑᎾᎴᎢ	-8.9192
▁ᎨᎾᏂ	-8.92075
▁Ꭻ	-8.92273
▁ᏭᏕᎵᎬ	-8.92297
▁ᎤᏏᏙᎵ	-8.92304
▁ᏂᎬᏩᏪᏎᎴᎢ	-8.92339
▁ᏕᎯ	-8.92347
▁ᎢᏳᏟᎶᏛ	-8.92374
▁ᎪᏱᏁᎢ	-8.9252
▁ᏙᏱ	-8.92987
▁ᏤᏍᏗ	-8.93012
▁ᏱᏚ	-8.93023
ᎯᏳ	-8.9317
▁ᎠᏂᎦᏔᎲ	-8.93626
▁ᎤᎵᏏᎬ	-8.94025
▁ᎤᏁᏤ	-8.94147
ᏕᏍᏗ	-8.94647
Ꮔ	-8.94729
ᏛᎾ	-8.94785
▁ᏗᏨᏍᏙᏗ	-8.94858
▁ᎦᎶᏇ	-8.94859
▁ᏑᎾᏓᏡᎩ	-8.94859
▁ᎩᎦ	-8.9487
▁ᏃᏊ	-8.94875
ᏓᏁᏗ	-8.94974
▁ᎢᎾᏛ	-8.95
▁ᏅᏗᎦᎵᏍᏙᏗᏍᎨᏍᏗ	-8.95131
▁ᏱᏓ	-8.95286
ᎬᎩ	-8.95304
▁ᎠᏴᏃ	-8.95318
▁ᎦᎵ	-8.95408
▁ᎦᎶᎯᏍᏗ	-8.95642
▁ᏥᎨᏐᎢ	-8.95718
ᏒᎾ	-8.95904
▁ᏗᎫᎪᏙᏗ	-8.964
▁ᎤᏪᎵᏎ	-8.96563
▁ᏄᎾᏍᏛ	-8.96685
▁ᎡᎯᏍᏗ	-8.96708
▁ᏡᎬ	-8.96789
▁ᎣᏥ	-8.96831
▁ᎤᏁᏤᎴ	-8.9687
▁ᎤᎾᏓ	-8.96959
▁ᎣᎭᏁ	-8.97048
▁ᎨᏥ	-8.97245
▁ᎤᏁᎳᏅᎯᏍᎩᏂ	-8.97296
▁ᎣᎦ	-8.97379
▁ᎬᏃᏛ	-8.97497
▁ᏣᏥ	-8.97517
▁ᏗᎵᏍᏓᏴᏗᏱ	-8.97518
▁ᎠᏥᎸᏉᏗᏳ	-8.97571
▁ᎠᎰᎵ	-8.97578
▁ᏫᏚ	-8.97612
▁ᎤᏁᎦ	-8.97644
ᏔᏂ	-8.98117
▁ᎤᎬᏫᏳ	-8.98425
▁ᎤᏩ	-8.98654
ᎯᎠ	-8.98679
▁ᎬᏂᏳᏉᏃ	-8.98997
▁ᎤᏍᎪᎸ	-8.99068
▁ᎡᎶ	-8.99347
▁ᎤᏪᎷᏁ	-8.99372
▁ᏄᏛᏁᎴ	-8.99396
▁ᏱᏣ	-8.99495
▁ᎤᏚᎵᏍᎬ	-8.99499
▁ᎠᏆᏓᏅᏙ	-8.99673
▁ᎤᏪ	-8.99999
▁ᏧᎾᏤᎵ	-9.0012
▁ᏧᏬᏰᏂ	-9.00189
▁ᏂᎦᏪᎭ	-9.00226
▁ᎥᏞᏍᏗ	-9.00232
▁ᏍᏓᏯ	-9.00286
▁ᎤᏂᎷᏤ	-9.00293
▁ᏣᏁᎭ	-9.00392
▁ᎠᏎᏉᏉ	-9.00667
▁ᏓᏳ	-9.00876
▁ᎨᏣ	-9.01015
▁ᎢᏅ	-9.01252
▁ᎮᎾ	-9.01263
▁ᎠᏰᎸᎢ	-9.02039
▁ᎠᏓᏅᏖᏍᎬ	-9.02144
▁ᎬᏩᏂ	-9.02747
▁ᎠᎵᏍᎪᎸᏙᏗ	-9.02761
▁ᏗᎧᎸᎬ	-9.02963
▁ᏧᏆᎶᎦ	-9.02963
▁ᏦᎠᏍᎪᎯ	-9.02964
ᏍᏘ	-9.02966
▁ᎩᎶᏍᎩᏂ	-9.02987
▁ᏄᎾ	-9.02989
▁ᎤᎩᎬ	-9.02991
▁ᏗᏂᎳᏫᎩ	-9.03
▁ᏅᏃᎯ	-9.03094
▁ᏧᎾᏤᎵᎦ	-9.03138
▁ᎩᎦᎨᎢ	-9.03809
▁ᎤᏩᏒᏉ	-9.03881
▁ᏕᎤ	-9.04365
ᏁᏢᏔᏅᏛ	-9.04541
ᏒᎯ	-9.04959
▁ᏅᏗᎦᎵᏍᏙᏗᏍᎬ	-9.05038
▁ᎣᏏ	-9.05152
▁ᏓᎾ	-9.05293
▁ᎢᏣᎵᏍᏓᏁᏗ	-9.05554
▁ᏍᎩᎾ	-9.05679
▁ᏩᎭᏯ	-9.05821
▁ᏙᏱᏗᏢ	-9.05838
ᎯᏍᏗ	-9.05895
Ꮪ	-9.0608
▁ᎤᏍᏆᏂᎩᏗ	-9.06125
▁ᎡᎶᏗ	-9.06156
ᏗᏍᎨᏍᏗ	-9.06256
▁ᎤᏠᏱᏉ	-9.06331
ᎰᎢ	-9.06502
▁ᏧᏓ	-9.06537
▁ᎤᎦᏔ	-9.06556
▁ᎠᏙᎯ	-9.06565
▁ᏛᎦ	-9.06653
ᏙᎢᏳᏍᏗ	-9.06935
▁ᎬᎩ	-9.07118
▁ᎤᏣᏘᏂ	-9.07993
ᏁᎴ	-9.08077
ᏛᎢ	-9.08337
▁ᎢᏳᎾᎵᏍᏓᏁᏗ	-9.08539
▁ᎢᏳᎾᏛᏁᏗ	-9.08562
▁ᎯᏍᎦᏍᎪᎯ	-9.08762
▁ᏂᏚᏳᎪᏛᎾ	-9.08763
▁ᏎᏓᏂ	-9.08763
▁ᏎᎷ	-9.08767
▁ᏣᏁᏢᏔᏅᎯ	-9.08791
▁ᏣᏙᏓ	-9.0883
▁ᎤᏂᏙᏓ	-9.08851
▁ᏩᏍᏛ	-9.0887
▁ᏱᏥᎦᏔᎭ	-9.0889
▁ᎢᏤᎲ	-9.08942
ᎩᏍᏗ	-9.09006
▁ᏥᎻ	-9.09057
Ꮦ	-9.09105
▁ᎠᏗᏔᏍᏗ	-9.09263
▁ᎶᏗ	-9.09424
▁ᎾᎥᏂᎨ	-9.09438
▁ᎤᎵᏍᏆᎸᏗ	-9.10049
▁ᎠᏂᏅ	-9.10366
Ꮱ	-9.10576
▁ᎤᏐᏱ	-9.10742
▁ᎤᏬᏢ	-9.10796
▁ᏓᏥ	-9.10866
▁ᎨᎵ	-9.11594
▁ᎤᎵᏍᏓᏴᏗ	-9.1163
▁ᏱᎦᎵᏍᏙᏓ	-9.11792
▁ᎠᏥᏅᏏᏓᏍᏗ	-9.11798
▁ᎵᎠ	-9.11799
▁ᎤᎵᏍᏈᏗ	-9.11799
▁ᎢᏥᏍᎦᏯ	-9.11818
▁ᏚᎾᏙᎥ	-9.11862
--	-9.11887
▁ᎠᎦᏔᎲ	-9.11919
▁ᎤᎧᎵᏨᎯ	-9.1197
▁ᏧᏓᏏ	-9.11984
▁ᏎᎦ	-9.1203
▁ᎤᎾᏝᎢ	-9.12068
▁ᎪᎳ	-9.12191
▁ᎤᏍᎪᏍ	-9.12626
▁ᏂᏗ	-9.12712
▁ᎢᏤᎲᎢ	-9.12715
▁ᎦᏬᏂᏍᎬ	-9.13578
▁ᏄᏪᏎᎸ	-9.139
▁ᎠᏴᏍᎩᏂ	-9.14039
▁ᎡᎲ	-9.14138
▁ᎡᎵ	-9.142
▁ᎵᏇᎩ	-9.14917
▁ᎨᎻᎵ	-9.14917
▁ᎤᎦᎾᏍᏛ	-9.14925
▁ᏚᏅᏓᏒ	-9.14928
▁ᎠᏂᏴᏫ	-9.14934
▁ᎠᎨᏳᏣ	-9.14952
▁ᏏᏌ	-9.15002
▁ᎤᏲᎱᏎᎢ	-9.15007
▁ᏥᏄᏍᏗ	-9.15026
▁ᎬᏙᏗ	-9.15116
▁ᎦᏁᎦ	-9.15204
▁ᎤᎷᏤ	-9.1522
Ꮼ	-9.15273
▁ᎦᎸᎳᏗᏣ	-9.15296
ᎸᎭ	-9.15298
ᏙᎸᎢ	-9.15902
▁ᏅᏓ	-9.15921
Ꮏ	-9.16016
▁Ᏺ	-9.16137
▁ᎬᏅᎢ	-9.16258
▁ᏓᎩ	-9.16991
ᏁᏗ	-9.17564
▁ᎢᏯᏛᏁᏗ	-9.17925
▁ᏧᎸᏫᏍᏓᏁᎯ	-9.18143
▁ᏔᎴᎲᎦ	-9.18146
▁ᎠᏂᏳᏩᏁᎦ	-9.18151
▁ᏧᏓᏆᏙᎩ	-9.18152
▁ᏥᎪᏪᎳ	-9.18156
▁ᏓᏆᎴᎷ	-9.1816
▁ᎢᎬᏁᎸᎯ	-9.18178
▁ᎦᏚᎢᏣ	-9.18189
▁ᎢᎾᏓ	-9.18241
ᏁᎭ	-9.18347
Ꮗ	-9.18447
▁ᏭᎷᏤ	-9.18543
▁ᎤᏕᏯᏙᏗ	-9.18581
▁ᎢᏳᎵᏍᏓᏁᏗ	-9.187
▁ᎠᏗᎭ	-9.18953
▁ᎦᏚᎢ	-9.19293
▁ᎤᎾᎵ	-9.19645
▁ᎤᎶᎩᎸ	-9.20002
ᏏᏴᏫᎭ	-9.20267
▁ᎤᏂᏍᎦᏅᏨ	-9.20311
ᏍᎪᎯ	-9.2047
▁ᎬᏗᏍᎬ	-9.20514
▁ᎤᏛᎦᏁ	-9.20648
▁ᏄᎵᏍᏔᏂᏙᎸ	-9.20672
▁ᎤᏂᏲ	-9.20932
ᏗᏍᎪ	-9.21104
▁ᏈᎵᎩ	-9.2134
▁ᎦᎷᏯᏍᏗ	-9.21476
▁ᏅᏓᎦᎵᏍᏔᏂ	-9.21477
▁ᏔᎳᏍᎪᎯ	-9.21478
▁ᎢᏣᎵᏅᏟ	-9.2148
▁ᏕᏧᎬ	-9.21484
▁ᎤᎾᏓᏤᎵᏛ	-9.21487
▁ᎦᏅᏍᏙᏗ	-9.21488
▁ᎠᏂᎨᏯ	-9.21488
▁ᎢᏥᏙᏓ	-9.21507
▁ᎯᏅᏏᏓᏍᏗ	-9.21508
▁ᏧᎾᏛᏐᏅᎯ	-9.21529
▁ᎢᏣᏛᏁᏗᏱ	-9.21562
▁ᏎᎦᏨ	-9.21627
ᏍᏔᏁᎢ	-9.21664
▁ᏍᎪᎯ	-9.21892
▁ᎦᎵᏉᎩᏁ	-9.22215
ᏛᎩ	-9.2249
ᎬᎿᎨ	-9.22512
▁ᎠᏂᏓ	-9.22524
▁ᏥᏓ	-9.22639
ᎯᏍᏗᏱ	-9.23183
▁ᎤᏂᎪᎲ	-9.23211
▁ᏂᎯᏰᏃ	-9.23813
ᎣᏍᏓ	-9.24105
▁ᎤᏛᎾ	-9.24617
▁ᏐᎣᏁᎳ	-9.24924
▁ᏓᎿᏩ	-9.24937
▁ᎤᎩᏨᏛ	-9.24941
▁ᎢᏯᏛᏁᎯ	-9.2495
▁ᏥᏂᎬᏅ	-9.24958
▁ᎢᏨᎨᏳᎢ	-9.24966
▁ᏂᎦᎵᏍᏗᎭ	-9.24979
▁ᎦᎸᏉᏙᏗ	-9.25002
▁ᎤᎴᏂᏙᎴᎢ	-9.25023
ᏙᎯ	-9.2513
▁ᏭᎶᏎᎢ	-9.25366
▁ᎢᏯᏍᏗ	-9.25415
▁ᎡᎮᎢ	-9.25442
▁ᎾᎯᏳᏉ	-9.25649
▁ᎤᎪᎮ	-9.25726
▁ᎤᎷᏨᎩ	-9.25744
▁ᎤᏪᏅᏎ	-9.25937
▁ᏂᎦᎥᏉ	-9.2641
▁ᎠᏓᏅᏓᏗᏍᏗ	-9.26655
ᎨᏳᎯᏳ	-9.26819
▁ᎤᏁᏤᎸ	-9.27018
▁ᏩᏯ	-9.27244
ᏍᎬᎾ	-9.27418
ᎠᏗᏔᏍᏗ	-9.27565
ᏗᎦᏅᏌᏗ	-9.27597
▁ᏗᎦᏚᎲ	-9.27677
▁ᏗᎨᏒ	-9.2797
▁ᎤᎵᏍᏆᏗᏍᏗ	-9.28248
▁ᏧᏂᎾᏫ	-9.28293
▁ᏂᎬᎾᏛᎢ	-9.28362
▁ᎠᏂᏍᎦᎾ	-9.28386
ᎧᏔᎮᎢ	-9.28393
▁ᎧᏃᎯᏰᎩ	-9.28505
▁ᎥᏓᎵ	-9.28512
▁ᏅᎬᏩᏪᏎᎸᎩ	-9.28524
▁ᎤᎾᏫ	-9.28537
▁ᎢᏥᎦᏔᎭ	-9.28554
▁ᏏᏓᏁᎸᎯ	-9.28604
▁ᎤᏟᎯᏳ	-9.2864
▁ᎠᏂᏃᎯᎵᏙᎯ	-9.28656
▁ᎠᏓᏁᎯ	-9.28664
▁ᎦᏛᎦ	-9.28848
▁ᎠᏤᎯ	-9.28877
▁ᏤᎭ	-9.29211
▁ᎢᎬᏩ	-9.29225
▁ᎪᏪᎸᎢ	-9.29356
▁ᎠᏂᎦᏔᎲᎢ	-9.29645
▁ᏂᏓ	-9.29672
▁ᏧᏂᏍᏗ	-9.29922
▁ᏧᏩ	-9.30356
▁ᎦᏓᏁ	-9.30701
▁ᏅᏩᏓᎴᏃ	-9.30831
▁ᎪᏪᎸ	-9.3094
▁ᎠᏯᏙ	-9.31111
▁ᏴᏫᏉ	-9.31293
▁ᎤᎿ	-9.31327
▁ᎤᏕᏘᏴᏌᏗᏒ	-9.31355
▁ᎠᏂᏬᏂᏍᎬ	-9.31385
▁ᏄᏩᏁᎴ	-9.31393
▁ᎠᏍᏛ	-9.31394
▁ᏂᎦᎵᏍᏗᏍᎬ	-9.31494
▁ᏚᎴᏅ	-9.31711
ᏅᏒ	-9.31769
▁ᎦᏄᎸ	-9.31863
▁ᎦᏙᎬ	-9.31908
▁ᎠᏠᏁᏗ	-9.32199
▁ᏗᏇᏥ	-9.322
▁ᏅᏓᏳᎶᏒᎯ	-9.32207
▁ᎡᏉᎯᏳ	-9.3221
▁ᎠᎦᏘᏏᏗᏢ	-9.32223
▁ᎦᏬᏂᏍᎩ	-9.32227
▁ᏧᏳᎪᏗ	-9.32237
▁ᏗᏰᎸᎯ	-9.32242
▁ᏩᎶᏏ	-9.32259
▁ᎤᏔᎳᏬᎯᏍᏗ	-9.32274
▁ᎦᎷᏨᎭ	-9.32274
▁ᎾᏍᎩᏯᏉ	-9.32334
▁ᎯᎪ	-9.32368
▁ᎠᏓᏫ	-9.32435
▁ᎠᏆᏛᏅ	-9.32487
▁ᎠᎹᏟ	-9.32488
▁ᎦᎸ	-9.32558
ᏅᎾ	-9.32668
ᎲᎦ	-9.32772
▁ᏗᎾ	-9.32779
ᏁᎳ	-9.32862
ᏛᏁᏗ	-9.33138
▁ᏥᏣ	-9.33764
▁ᎨᎦ	-9.33969
▁ᎠᎦᏗ	-9.34002
ᎧᏂ	-9.3401
ᏕᎾ	-9.34181
▁ᎤᏁᏨᎩ	-9.34379
▁ᏄᏛᏁᎸ	-9.34487
---	-9.3489
▁ᎦᏙᎨ	-9.34972
▁ᏙᏛ	-9.3505
▁ᏄᏍᏕ	-9.35065
▁ᏕᎤᏙᎥ	-9.35234
▁ᏓᏳᏓᎴᏅ	-9.35262
ᎨᏒ	-9.35426
▁ᎠᏆᏚᎵ	-9.35615
▁ᏧᎸᏫᏍᏓᏁᏗ	-9.35878
▁ᎠᎦᏴᎵ	-9.35963
▁ᏗᏏᏓᎵ	-9.36046
▁ᎣᏣᎵᏅᏟ	-9.36046
▁ᏤᎩᏏᏂ	-9.36047
▁ᎯᎸᎢᏴ	-9.36048
▁ᏆᏂᏆ	-9.36048
▁ᎢᏓᏓᏅᏟ	-9.36053
▁ᎨᏥᎸᏉᏗ	-9.36057
▁ᏗᎨᎦᏁᎶᏗ	-9.36057
▁ᎠᏈᎻᎴᎩ	-9.36065
▁ᏓᎦᎷᏥ	-9.36068
▁ᏗᎨᏫ	-9.36081
▁ᎤᎦᎵᏍᏗ	-9.36097
▁ᎠᏁᏙᎯ	-9.36119
▁ᎬᏩᏕᏁᎴᎢ	-9.36148
▁ᎾᎩᏪᏎᎸᎩ	-9.36156
▁ᏕᏣᏓᏅᏛᎢ	-9.36253
▁ᏦᏰᏂ	-9.36302
▁ᎢᎬ	-9.36338
▁ᎤᏔᎾ	-9.36339
▁ᎠᏂᎪᎢ	-9.36526
ᏱᎩ	-9.36789
▁ᏴᎩ	-9.37309
ᎢᏳᏍᏗ	-9.37596
▁ᏗᎩ	-9.37628
▁ᎦᏰ	-9.37705
”	-9.37841
▁ᎣᏓᎸᎢ	-9.37844
▁ᏧᎬ	-9.37861
▁ᏓᏆ	-9.37947
▁ᎪᏪᎵᎯ	-9.37986
ᏨᎩ	-9.38064
▁ᎪᎯᏓ	-9.38449
Ꮡ	-9.38595
e	-9.38718
▁ᏄᎵᏍᏔᏅᎢ	-9.38781
▁ᏕᏣᏙᎥ	-9.39212
ᏅᏏᏛ	-9.39301
▁ᎠᎵᏍᏚᎶ	-9.3942
▁ᎥᎩ	-9.39424
▁ᎠᏤ	-9.39436
▁ᏱᏗ	-9.39604
ᏍᏙ	-9.3967
▁ᏄᏩᏁᎸ	-9.39725
▁ᎦᎨ	-9.39822
▁ᏥᏕ	-9.39844
▁ᎢᏣᏤᎵ	-9.39931
▁ᎪᏍᏚ	-9.40051
▁ᏘᏅᏏᏓᏍᏗ	-9.40053
▁ᏄᏂᎬᏫᏳᏌᏕᎩ	-9.40059
▁ᏗᏓᏅᏙ	-9.40072
▁ᎢᎳᏯ	-9.40079
▁ᎤᎾᎵᏍᏕᎸᏙᏗ	-9.40087
▁ᎤᏗᎴᎩ	-9.40088
▁ᏗᏘᏂᏙᎯ	-9.40112
▁ᏐᎳ	-9.40122
▁ᏗᏜ	-9.40159
▁ᎤᏍᎦᏃᎵ	-9.40191
▁ᎠᏍᏓᏱ	-9.40227
▁ᎤᏩᏒᎯᏳ	-9.4025
ᏁᎵ	-9.40327
▁ᏗᏣᏤᎵᎦ	-9.4038
▁Ꮡ	-9.40415
▁ᎠᏆᏚᎵᎭ	-9.40415
▁ᎤᏕᏅᎯ	-9.4044
▁ᎤᏙᎯᏳᏒ	-9.40635
▁ᎬᏗᏍᎩ	-9.40782
▁ᏙᏳ	-9.40793
▁ᏯᏆ	-9.40913
ᎢᏍᏗᏱ	-9.41043
▁ᏞᎦ	-9.41146
▁ᏕᎨ	-9.41269
ᎦᏅᎯᏛ	-9.41279
▁ᏗᎨ	-9.41715
ᏍᏆ	-9.42311
▁ᏓᎬ	-9.42339
t	-9.42791
▁ᎥᏍᎩ	-9.42854
▁ᎯᏯ	-9.42919
▁Ꭹ	-9.43069
▁ᏧᏂᏢᎩ	-9.43308
Ꮰ	-9.43356
▁ᏭᏂ	-9.43406
▁ᎠᏥᎸᏱ	-9.43504
▁ᏥᏈ	-9.43915
▁ᎤᎶᏐᏅ	-9.43923
▁ᎾᏃ	-9.43934
ᎥᎢ	-9.44009
ᏕᎢ	-9.4407
▁ᎠᎧᎵᎢ	-9.44164
▁ᎠᏰᏙᎳᏛᏗ	-9.44203
▁ᏓᏏᎳᏛ	-9.44208
▁ᏩᏏᏓᏂ	-9.44212
▁ᎠᏍᏆᎨᏂ	-9.44213
▁ᏩᏚᎵᏏ	-9.44213
▁ᏧᏕᏘᏴᏓ	-9.44214
▁ᏚᏬᏢᏔᏅᎩ	-9.44215
ᎠᏂᎳᏍᏓᎸ	-9.44217
▁ᏥᏔᎦ	-9.44217
▁ᏧᏯᏖᎾ	-9.44217
▁ᎤᏬᏚᎯ	-9.44253
▁ᎧᏃᎮᏍᎩ	-9.44261
▁ᎤᏅᏌ	-9.44282
▁ᏱᏄᏍᏗ	-9.44292
▁ᏧᏂᎸᏫᏍᏓᏁᏗᏱ	-9.44314
▁ᎠᎹᏰᎵ	-9.44326
▁ᏱᏥ	-9.44584
▁ᏥᏁᎬᎢ	-9.44615
▁ᏱᏗᏥ	-9.44726
ᎵᏍᏗ	-9.44935
▁ᎤᏲᎱᏒᎯ	-9.44965
▁ᎤᎵᏍᏗ	-9.44976
▁ᎨᏂ	-9.45099
▁ᎫᏢᏗ	-9.45139
ᏌᏛ	-9.45363
▁Ꭾ	-9.4572
ᏛᎦ	-9.45743
▁ᎧᏁᎬᎢ	-9.45816
▁ᏗᎦᎸᏉᏗ	-9.45981
▁ᏚᏁᏤᎴ	-9.4599
▁ᎠᏍᎦᎾ	-9.46091
▁ᎤᏂᏥ	-9.46116
▁ᏗᏆ	-9.46571
▁ᎾᏂᎥᏉ	-9.46767
▁ᏙᎯ	-9.46954
ᎯᏍᏙᏗ	-9.47088
▁ᏂᏥ	-9.47159
▁ᎠᏔᎴᏒ	-9.47171
▁ᎠᎲᎢ	-9.47232
▁ᏦᎩ	-9.473
▁ᏚᏙᎥᎢ	-9.4739
▁ᏧᏪᏅᏒ	-9.47725
▁ᏗᏓᎴᏂᏍᎬ	-9.4775
▁ᎠᏦᏴ	-9.47757
▁ᎦᏥ	-9.47763
▁ᏂᏕ	-9.47938
▁ᎤᏬᎸ	-9.48062
▁ᏗᎦᎫᏍᏛᏗ	-9.48327
▁ᏍᏈᏍᏓ	-9.4856
▁ᎵᏫ	-9.48564
▁ᎨᏥᏅᏏᏓᏍᏗ	-9.48566
▁ᏌᏊ	-9.48575
▁ᏌᎪᏂᎨ	-9.48582
▁ᎧᏂᎩᏓ	-9.48592
▁ᎤᎦᎾᏍᏓ	-9.48593
▁ᏚᏬᏢᏅᎩ	-9.48595
▁ᎦᎶᏙᏗ	-9.48599
▁ᎢᎩᏙᏓ	-9.48606
▁ᎾᏍᎦᏅᎾ	-9.48609
▁ᎠᏂᎩᏏ	-9.48656
▁ᏍᏔᏯ	-9.48658
▁ᎤᏬᏗᎨ	-9.4867
▁ᎤᎾᏁᎳᎩ	-9.48674
▁ᎫᎫ	-9.48707
▁ᎠᏢᏗᏱ	-9.48727
▁ᎤᏓᏅᏘᏳ	-9.48858
▁ᎠᏲᎩ	-9.48865
▁ᎠᎩᏏ	-9.48908
▁ᎤᏅᏟ	-9.48927
ᏐᎢ	-9.49024
▁ᏚᎸᏫᏍᏓᏁᎲᎢ	-9.49109
▁ᎢᏳᏍᏗᏉ	-9.4923
▁ᎦᏅᎯᏛ	-9.49481
▁ᎤᎾᎵᎢ	-9.49657
▁ᎤᏓᏅᏖ	-9.49761
▁Ꮑ	-9.49828
▁ᎡᎲᎢ	-9.49998
▁ᎢᎦᏘ	-9.50202
ᎡᎢ	-9.50236
ᎢᏍᏗ	-9.50431
ᏍᎦᏅᎢᏍᏗ	-9.50761
▁ᏫᎦ	-9.51226
▁ᎤᎸᏉᏗ	-9.51248
▁ᏅᎩᏁ	-9.51313
▁ᎾᎥᎢ	-9.5159
ᏤᏍᏗ	-9.52131
▁ᏓᏓᎿᏩᏍᏛ	-9.52234
▁ᏓᏆᏙᎥ	-9.52263
▁ᏂᏚᎩᏨᏂᏒ	-9.5227
▁ᎤᏂᏣᏖ	-9.52312
▁ᎤᏃᏴᎬ	-9.52317
ᎠᎴ	-9.52368
▁ᏍᏆ	-9.52374
▁ᎢᎦᎦᏛ	-9.52421
▁ᏧᎾᏍᏗ	-9.52479
▁ᎢᎾ	-9.52551
ᏍᎬᎩ	-9.52635
ᎲᏏ	-9.52742
▁ᏗᎧᏃᏗ	-9.52914
▁ᎠᎦᏘᏏ	-9.53104
▁ᏗᏖᎵᏙ	-9.53115
▁ᏧᏃᏰᏂ	-9.53116
▁ᎤᏍᎦᏎᏗ	-9.53119
▁ᏅᏛᎩᏅᏏᏛ	-9.53128
▁ᏂᎦᏪᏍᎨᎢ	-9.5313
▁ᏗᏂᎦᏙᎵ	-9.53149
▁ᎾᏎᎵᏗ	-9.53151
▁ᎠᎩᏅᏏᏙᎯ	-9.53153
▁ᎠᏂᎪᏕᏍᎩ	-9.53168
▁ᎯᎸᎯᏳ	-9.53172
▁ᎬᏂᏗᏳ	-9.53177
▁ᏦᎳᏂ	-9.53183
▁ᎤᏍᏆᎸᎲ	-9.5321
▁ᏥᎦ	-9.53212
▁ᏗᎧᏃᏗᏱ	-9.5333
▁ᏚᎪᎮ	-9.53349
▁ᏅᏗᎦᎵᏍᏙᏗᏍᎪ	-9.53404
▁ᎤᏂᎷᏨᎩ	-9.53525
▁ᎦᏬᏂᎯᏍᏗ	-9.53577
ᎴᎯᏐᏗ	-9.53631
▁ᎭᎾᎾ	-9.53724
▁ᏙᏓ	-9.5382
▁ᏗᏤ	-9.53821
▁ᏫᏣ	-9.53826
▁ᎠᎼ	-9.53857
ᏒᎭ	-9.53916
▁ᎤᏥᎸᎢ	-9.53954
ᎡᎵ	-9.5403
▁ᎤᏪᎿᎢ	-9.54167
ᏚᎵᏍᎬᎾ	-9.54235
▁ᏭᎷᏤᎢ	-9.54309
▁ᏧᏍᏗ	-9.5437
ᎦᏔᎲᎾ	-9.54405
▁ᎤᏒᎢ	-9.54426
▁ᎢᎬᏁᏗ	-9.54484
ᎠᏋᏌ	-9.54547
ᏂᏏ	-9.54595
ᏁᎲ	-9.54967
ᏍᏔ	-9.55314
ᏁᎳᏅᎯ	-9.55428
▁ᏗᎦᏓ	-9.55515
▁ᎠᎬ	-9.56111
ᏤᎢ	-9.56133
Ꮉ	-9.56271
▁ᎬᏩᎾ	-9.56425
▁ᏅᏛ	-9.56447
▁ᎤᏍᎦᏅᏨ	-9.56677
▁ᎦᏛᎬ	-9.56999
▁ᎦᎳᎨᏴ	-9.57013
▁ᏕᎦᏚᎲ	-9.57017
▁ᏗᎩᎦᏴᎵᎨ	-9.57028
▁ᏂᏣᏛᏁᎸ	-9.5703
ᎩᏎ	-9.57041
,]	-9.57045
▁ᏚᏂᎸᏫᏍᏓᏁᎲ	-9.57065
▁ᎦᏓᏅᏖᏍᎬ	-9.57075
▁ᏚᎾᏓᏅᏛ	-9.5711
▁ᎦᏅᏅ	-9.57203
▁ᎤᏕᏅ	-9.57235
ᏁᎴᎢ	-9.57337
▁ᏚᏯ	-9.57339
▁ᏇᏂ	-9.57662
▁ᎢᏤᎾ	-9.57708
▁ᎤᏂᏬᏂᎯᏍᏗ	-9.57781
▁ᎤᎾᎵᏍᏓᏴᏗ	-9.57817
▁ᎤᏂᏴᏍᏗ	-9.57819
c	-9.57834
▁ᎢᏥᏈ	-9.57846
▁ᎢᏳᏩᎫᏗ	-9.57867
▁ᏄᏃᎯᏳᏒᎾ	-9.57867
▁ᏒᎧᏔ	-9.57867
▁ᎢᏳᏓᎴᎩ	-9.57868
▁ᎢᏥᏡᏱ	-9.57868
▁ᏚᏙᎡᎢ	-9.57871
▁ᎢᏳᏩᏂᎸ	-9.57874
▁ᎦᎵᏆᏍᎪᎯ	-9.57877
▁ᏙᎴᏛ	-9.57878
▁ᏫᏥᎢᎦ	-9.57878
▁ᏪᏌ	-9.57884
▁ᎢᏤᏯᏔᎮᏍᏗ	-9.57886
▁ᎦᏃᎸᎥᏍᎬ	-9.57895
▁ᎢᏌᏯ	-9.57896
▁ᎢᏗᎦᏔᎭ	-9.57897
▁ᏅᏓᏳᎵᏍᏙᏔᏅᎩ	-9.57905
▁ᏄᎬᏫᏳᏌᏕᎩ	-9.57911
▁ᎢᏨᏲᏎᎭ	-9.57927
▁ᏗᎹᏗ	-9.57935
▁ᏧᏙᏓᏆᏓ	-9.57936
▁ᏥᏍᏚ	-9.57946
▁ᎤᎯᏐᏗ	-9.57973
▁ᎤᎵᏑᏫᏓ	-9.57983
▁ᎠᏏᎾᏌᏂ	-9.58003
▁ᎤᏲᏨ	-9.58048
▁ᏓᏯᎢ	-9.58091
▁ᎠᎫᏴᏙᏗ	-9.581
▁ᏗᎦᎪᏗᏱ	-9.58117
ᎪᎯ	-9.58142
▁ᎦᎾᏰᎯᏍᏗ	-9.58148
▁ᎤᎾᏫᏱ	-9.58176
▁ᎤᎾᏄᎪᏫᏒᎯ	-9.58202
▁ᏗᏦᏢᏗ	-9.58227
▁ᎠᎴᏬ	-9.58254
▁ᏉᎳᏃ	-9.58269
▁ᎠᏆᏛᎦᏅᎩ	-9.58282
ᏍᏔᏂ	-9.58425
▁ᏭᏴᎴᎢ	-9.58447
▁ᏁᎳ	-9.5862
▁ᏩᏍᏗ	-9.58814
▁ᎾᏂᎥᎢ	-9.58815
ᎲᏍᎩ	-9.59036
▁ᏧᏪ	-9.59564
▁ᎠᎩᏍᏗ	-9.59784
ᎩᎶ	-9.59913
▁ᎢᏤᎯ	-9.59958
▁ᏫᏓ	-9.60152
ᏁᎸᎩ	-9.60332
▁ᎡᏘ	-9.60683
ᏁᎮᏍᏗ	-9.60701
▁ᎤᏲᎢ	-9.60716
ᎶᏗ	-9.60855
▁ᎠᏓᏁᎸᎢ	-9.60921
ᏑᏴᎾ	-9.60963
▁ᏳᎾ	-9.61081
▁ᏄᏍᏛᎢ	-9.61147
ᎪᏗ	-9.61341
ᎾᏝᎢ	-9.61603
Ꮾ	-9.6183
ᏔᏅᎭ	-9.6189
ᎦᏘ	-9.61908
▁ᎠᏂᏃᎮᏍᎬ	-9.62001
ᎤᏁᎳᏅᎯ	-9.62035
▁ᎠᎪ	-9.62065
▁ᏓᏓᏁᎸ	-9.62092
▁ᏭᎶᏒ	-9.62613
▁ᎯᎸ	-9.62613
▁ᎾᏍᎩᏉ	-9.62626
▁ᏣᎾ	-9.6264
ᏥᏌ	-9.62665
ᏛᎬᎦ	-9.62729
▁ᎡᏉᏗ	-9.62755
▁ᎢᏳᎾᏛᎿᏕᎩ	-9.62867
▁Cr	-9.62868
▁ᏍᎦᏚᎩ	-9.62868
▁ᏂᏥᏪᎭ	-9.62868
▁ᏎᎩᎵ	-9.62869
▁ᏗᏂᎭᏄᎸᎯ	-9.62874
▁ᏧᏓᏕᏒᏛ	-9.62875
▁ᎡᏈᏌ	-9.62876
▁ᎠᏦᎭᏴ	-9.62881
▁ᎤᎪᏏᏓ	-9.62882
▁ᎠᎩᎵᏯ	-9.62893
▁ᏔᎷᏣ	-9.62903
▁ᏍᎩᏃᎲᏏ	-9.62903
▁ᎤᏩᏙᎯᏴᏓ	-9.62906
▁ᎢᏳᏓᎴᏅᏛ	-9.62906
▁ᎢᎳᎪ	-9.62906
▁ᎤᏂᎬᏫᏳᏌᏕᎩ	-9.62908
▁ᎢᏳᏩᏂᏐᏗᏱ	-9.62908
▁ᎢᏳᏩᏁᏗᏱ	-9.62919
▁ᏗᎪᏪᎵᏍᎩ	-9.62932
▁ᏓᏣ	-9.62966
▁ᏙᏰ	-9.62983
ᏁᎯ	-9.63025
▁ᏒᎮᏱᏣ	-9.63026
▁ᎢᎬᏁᎯ	-9.63032
▁ᎡᏓ	-9.63035
▁ᎠᎵᏍᏕᎸᏙᏗ	-9.63049
▁ᎤᏰᎯ	-9.63053
▁ᏛᎾ	-9.63213
▁ᏱᏂ	-9.63215
)	-9.63275
▁ᏣᏁᎳ	-9.63362
▁Ꮖ	-9.63442
ᏙᎩ	-9.63578
▁ᎡᎵᏍᏗ	-9.63668
▁ᏚᎾᏓᏅᏛᎢ	-9.63738
▁ᎧᎸᎢ	-9.63769
▁ᏭᎾ	-9.63805
▁ᏗᎪᏪᎶᏗ	-9.63806
▁ᎤᎾᎵᎪ	-9.64225
▁ᏄᏛᏁᎴᎢ	-9.64486
▁ᎦᎸᎳᏗᏳ	-9.64518
▁ᎠᏙ	-9.64541
▁ᏣᏤᎵᎦ	-9.64658
▁ᎢᏯᏂᎢ	-9.64676
▁ᏱᏨ	-9.64752
ᏉᏃ	-9.64796
▁ᎤᎾᏓᏡᎬᎢ	-9.64816
▁ᏗᏦ	-9.64819
▁ᎤᏂᎸᏉᏗ	-9.65367
▁ᏓᎾᏓ	-9.65615
▁ᏂᎦᏗ	-9.65656
▁ᎤᏥᎸ	-9.65788
ᏛᎯ	-9.65819
▁ᏗᎧᎿᏩᏛᏍᏗᏱ	-9.65875
▁ᎤᏓᏅᏖᏗ	-9.65879
ᎵᏍᏙᏗ	-9.65984
ᏅᏓ	-9.65993
▁ᏄᏪᏒᎢ	-9.66068
▁Ᏸ	-9.66272
▁ᏗᏗ	-9.66956
▁ᏃᏥ	-9.67168
ᎦᏔᎭ	-9.67172
▁ᎤᎨᏓᎵᏴ	-9.67236
▁ᎧᎳᏩᏗᏒ	-9.67236
▁ᎤᏅᏏᏴ	-9.67237
▁ᎢᏦᎯᏳᏒ	-9.673
▁ᎠᏤᎵᏍᏛ	-9.67305
▁ᎠᏃ	-9.67312
ᏂᎸ	-9.6755
▁ᎾᏂ	-9.67714
▁ᎨᎳ	-9.67717
▁ᏕᎩ	-9.67737
▁ᎦᏁᏌᎢ	-9.6781
▁ᎤᏅᏒᏉ	-9.67842
▁ᏨᏗᏓᎴᎲᏍᎦ	-9.68131
▁ᎠᏙᎳᏅᏍᏗ	-9.68131
▁ᎥᏳᎩ	-9.68133
▁ᏗᏟᎶᏍᏔᏅᎯ	-9.68133
▁ᏦᏓᏂ	-9.68144
▁ᎠᏂᏫᏅ	-9.68146
▁ᎤᎩᏨᏓ	-9.68149
▁ᏱᏅᏗᎦᎵᏍᏙᏗᎭ	-9.68155
▁ᎢᏳᎾᎵᏍᏙᏗᏱ	-9.68162
▁ᏗᏓᏘᏂᏙᎯ	-9.68169
▁ᎡᎵᏊ	-9.68169
▁ᎢᏯᎾᏛᏁᎯ	-9.68181
▁ᎬᏩᏟᏍᏗ	-9.68184
▁ᏧᎪᎳ	-9.68198
▁ᎠᏟᎶᏍᏗ	-9.68201
▁ᎪᎯᏗᏳ	-9.68208
▁ᎨᎵᏍᎬ	-9.68252
▁ᏧᏓᎴᏅᏓ	-9.68271
▁ᎠᏥᏍᏛ	-9.68286
▁ᎪᎨᏱ	-9.68305
▁ᎮᎦ	-9.68341
▁ᎤᏚᎵᏍᎨᏍᏗ	-9.68347
▁ᎤᏚᎸᏗ	-9.68372
▁ᎢᏣᏤᎵᎦ	-9.68396
▁ᎢᎦᎦᏘ	-9.68418
ᏍᏕᎸᏗ	-9.68479
▁ᎾᏍᎩᏴ	-9.6854
▁ᏗᏆᏤᎵᎦ	-9.68589
▁ᎤᏚᎵᎭ	-9.68679
ᏕᎵ	-9.68878
▁ᎠᏁᎭ	-9.69005
▁ᎯᎠᏍᎩᏂ	-9.69242
▁ᎦᏂ	-9.69258
▁ᎤᏕ	-9.69468
▁ᏧᏓᏃ	-9.69682
▁ᎤᏂᏣᏔ	-9.69766
▁ᎣᏂᏱ	-9.69866
ᏂᏗᏳ	-9.70007
ᎶᎯ	-9.70389
▁ᎤᎵᏬᏨ	-9.70551
ᎸᏗ	-9.70576
ᎷᎦ	-9.70701
▁ᏁᎳᎩ	-9.70872
▁ᎤᏚᎵ	-9.70943
ᎡᏗᏱ	-9.71611
▁ᏯᎩ	-9.71612
▁ᏄᏂ	-9.71747
▁ᎢᎨ	-9.71905
▁ᎾᎾᏛᏁᎲ	-9.71977
ᎪᏍᏓᏱ	-9.72198
▁ᎡᏙᎲ	-9.72367
ᎾᏏ	-9.72388
▁ᏱᎬ	-9.72392
▁ᎤᏪᎵᎯᏍᏗ	-9.72402
▁ᏚᎳᏍᎬ	-9.72652
ᏰᎵ	-9.72804
▁ᏭᏯᏅᎮ	-9.72805
▁ᎠᎾᎢᏒ	-9.72851
▁ᏕᏡᎬ	-9.72879
▁ᎤᏂᎷᏨ	-9.72909
▁ᏕᎭᎷᎨ	-9.72919
▁ᏄᎾᏛᏅ	-9.72978
▁ᎠᏆᏚᎵᏍᎬ	-9.73081
▁ᎤᏁᏨᎢ	-9.73113
▁ᏭᎷᏨ	-9.73182
▁ᏐᏓᎻ	-9.73455
▁ᏗᏥᎾᏫ	-9.73456
ᎸᎾ	-9.73487
ᎶᏛ	-9.73541
Ꭻ	-9.73593
▁ᎤᎷᎯᏍᏗ	-9.73666
ᏚᏓᎴᏍᏙᏗ	-9.73684
▁Perry	-9.73686
▁ᏅᏬᏘ	-9.73686
▁ᎠᎵᏍᏔᏴᏗ	-9.73686
▁ᏧᎦᎾᏮ	-9.73687
▁ᎤᏏᏩ	-9.73706
▁ᏗᏕᏲᏗ	-9.73707
▁ᎧᏂᎩᏛ	-9.73709
▁ᎤᏂᎩᎬ	-9.7371
▁ᎤᏫᏯ	-9.73716
▁ᏧᎾᎩᎸᏗ	-9.73718
▁ᎤᎾᏰᎯᏍᏗ	-9.73719
▁ᎤᏬᏢᏔᏅᎩ	-9.7372
▁ᎤᏁᎫᏥᏛ	-9.73733
▁ᎠᏆᏁᎳᏅᎯ	-9.73748
▁ᎠᎵᏍᎪᎸᏔᏅᎯ	-9.73752
▁ᏳᏚᎵᏍᎨ	-9.73781
▁ᎧᎸ	-9.73786
▁ᎤᎶᏒᏍᏗ	-9.7383
▁ᎤᏢᎩ	-9.73852
▁ᏂᏗᎥ	-9.73864
▁ᏂᎦᎵᏍᏓ	-9.73898
ᏌᎳᏓ	-9.7394
▁ᏚᏓᏘᎾᎥᎢ	-9.73942
▁ᎤᏂᏍᏆᏂᎪᏎᎢ	-9.73946
▁ᎠᏍᏚᏗ	-9.73958
▁ᎢᏳᎾᏛᏁᏗᏱ	-9.74137
ᎤᏅ	-9.74219
▁ᎤᏍᏆᏂᎪᏗᏳ	-9.74245
▁ᏄᏛᏁᎸᎩ	-9.74462
▁ᎤᎭ	-9.74595
▁ᏐᎢᏱ	-9.74706
▁ᎣᏏᏉ	-9.74758
▁ᏗᎨᏒᎢ	-9.75013
▁ᏴᎬ	-9.75047
▁ᎦᏅ	-9.75082
▁ᏳᏂ	-9.75163
ᏖᏍᏗ	-9.75244
▁ᎠᏗ	-9.75449
▁ᎤᏁᎸ	-9.7554
▁ᎤᏁᏨᎯ	-9.75555
▁ᏡᎬᎢ	-9.75569
▁ᎠᏫᏅ	-9.75589
▁ᏂᎦᏪᏍᎬᎢ	-9.75621
▁ᏓᏨ	-9.75786
▁ᎢᏧ	-9.75809
▁ᎤᎸ	-9.76014
ᎦᏛ	-9.76175
▁ᏁᎰ	-9.7648
▁ᎠᏏᏴᏫᏃ	-9.76505
▁ᎤᏬᎵ	-9.76751
ᎡᎯ	-9.76793
▁ᏫᎬᏩ	-9.76812
ᎵᎦ	-9.77211
ᏠᎾᏍᏗ	-9.77429
▁ᎠᏜ	-9.77443
ᏍᏊ	-9.77581
ᎥᏍᎬ	-9.77749
n	-9.77899
▁ᏚᏳᎪᏛᎢ	-9.77923
ᏍᏉ	-9.78032
▁ᏗᏓ	-9.78046
▁ᎠᏎᎩ	-9.78105
▁ᎤᏕᏁᎸ	-9.78202
▁ᎠᏰᏙᎳᏛ	-9.78209
▁ᎠᎾᏓ	-9.78223
▁ᎢᏳᎢ	-9.78357
▁ᏔᎵᎭ	-9.78576
▁ᎤᏓᏂᎵᎨ	-9.78622
▁ᏗᎪ	-9.78631
▁ᎠᎾᏛ	-9.78664
▁ᎤᎵᏁᏨ	-9.78682
▁ᏓᏁᏩᏗᏒ	-9.78764
▁ᏕᎨᏌᏗᏒ	-9.78788
▁ᎤᏓᏅᏖᎴ	-9.78851
▁ᎤᏬ	-9.78922
ᏲᎯ	-9.78951
ᎠᏯ	-9.78992
▁ᏱᎨ	-9.79002
▁ᎤᏍᎪᎵ	-9.79038
▁ᏯᎾ	-9.79042
▁ᎡᏝᏪ	-9.79267
▁ᎤᏓᏴᏍᏗ	-9.79372
▁ᎪᏪᎳ	-9.79381
▁ᏕᎦᎶᏗ	-9.79394
ᏴᏫ	-9.79437
▁ᎤᏕᎰᎯᏍᏗ	-9.79467
▁ᎡᏗ	-9.79545
▁ᎷᏈᏂ	-9.79568
▁ᏗᏂᎵᎠᏅᎯᏛ	-9.79568
▁ᏱᏄᎵᏍᏔᎾ	-9.79568
▁ᎢᏈᎬᎢ	-9.79569
▁ᎤᎵᎪᎲᏍᏗ	-9.79569
▁ᏧᎦᏒᏍᏗ	-9.7957
▁ᏍᏆᏞᏍᏗ	-9.79572
▁ᎹᏏᏙᏂ	-9.79573
▁ᎠᎾᏓᏅᏟ	-9.79579
▁ᎬᏔᏂᏓᏍᏗ	-9.79582
▁ᏞᎩᏳ	-9.79582
▁ᎠᎪᏄ	-9.79585
▁ᏗᏍᏓᏓᏅᏟ	-9.79587
ᎨᏳᏎᏍᏗ	-9.79588
▁ᏌᎺᎵᏱ	-9.79589
▁ᏧᎳᏏᏕᏂ	-9.7961
▁ᎠᏫᏄᏣ	-9.79612
▁ᏗᎦᏅᏙᏗ	-9.79617
▁ᎢᏨᏗᏍᎨᏍᏗ	-9.79628
▁ᎢᏳᏪᏅᏍᏗ	-9.79629
▁ᏧᏍᏆᏅᎾ	-9.79636
▁ᎠᏂᎦᏓᎭ	-9.7964
▁ᎡᏏᏱ	-9.79656
▁ᎠᏥᎾᏝᎢ	-9.79676
▁ᎤᏬᏚᎯᏳ	-9.79715
▁ᎤᏬᏚᏨ	-9.79754
▁ᏎᎳᏱ	-9.79768
▁ᏁᎲᎾ	-9.79772
▁ᎫᎴ	-9.7981
▁ᏥᏥ	-9.79845
▁ᏔᎵᏧᏈ	-9.79851
▁ᏧᎾᏓ	-9.79884
▁ᎤᏂᏴᏍᏗᏱ	-9.79887
▁ᎠᎪᏩᏛᏗ	-9.79917
▁ᎤᏟᏍᏓ	-9.79925
ᏩᏛᎲ	-9.79941
▁ᏱᎨᏐᎢ	-9.80046
▁ᏤᎮᎢ	-9.80104
▁ᎣᏁ	-9.80145
▁ᎠᏁᎮᎢ	-9.80176
ᏨᎯ	-9.80315
▁ᏚᎴᏁᎢ	-9.80378
▁ᎤᎴ	-9.80417
▁ᏰᎭ	-9.80459
▁ᎠᏓᏁᏗ	-9.80708
ᏩᏛᏗ	-9.80723
ᏅᏟ	-9.80751
▁ᎠᏓᎯ	-9.80831
ᏫᏒ	-9.81211
ᎸᏉᏙᏗ	-9.81323
ᏢᏙᏗ	-9.81387
▁ᎠᏥᎸᏉᏗ	-9.81512
▁ᏥᏯ	-9.81548
▁ᎢᏳᎾ	-9.81565
▁ᏒᎯ	-9.81715
ᏯᏅᏛ	-9.8191
▁ᎦᏍᎩᎸᎢ	-9.81934
▁ᏙᎯᏱ	-9.82643
▁ᎤᎨᏳᎯ	-9.82697
ᎴᏂ	-9.82747
ᏛᎭ	-9.83009
▁ᏚᎴᏁ	-9.83103
▁ᎤᏂᏠᏱ	-9.83182
▁ᎤᏁᏅᏎ	-9.83183
▁ᏚᎾᏓ	-9.83386
ᏉᏰᏃ	-9.83468
a	-9.837
▁ᏨᏍᎩᏃ	-9.83918
▁ᎤᏣ	-9.84032
▁ᎠᏂᏙᎾᎥ	-9.84411
▁ᏅᏓᏳ	-9.84535
ᎡᎭ	-9.84573
ᎳᏅᎯ	-9.84597
▁ᎦᏁᎲ	-9.84599
ᎢᏳ	-9.84659
Ꮁ	-9.84679
ᏅᏒᎩ	-9.8475
▁ᏗᏣᏓᏅᏙ	-9.84834
ᏛᏗ	-9.84867
ᎳᏗ	-9.84895
ᏗᏍᎨ	-9.8493
▁ᎤᏰᏤ	-9.84959
▁ᎠᏆᎧᏛ	-9.84969
▁ᎠᏆᏛᎦᏅ	-9.84976
▁ᏓᏠᎯᏍᏛ	-9.85009
▁ᎠᏁᏙᎲ	-9.85012
▁ᏭᎶᏎ	-9.85034
▁ᏙᎩ	-9.85065
▁ᏙᏓᎸ	-9.85124
▁ᎤᏓᏅᏎ	-9.85189
▁ᎠᏴᏫᏯ	-9.8539
▁ᏏᎩᎻ	-9.85533
▁ᎠᏥᎦᏘᏗᏍᏗ	-9.85559
ᏚᎦ	-9.8556
▁ᎬᏆ	-9.85576
▁ᎢᏳᏟᎶ	-9.85634
▁ᏔᎵᏁᎢ	-9.85672
▁ᎤᏓᎵ	-9.85692
▁ᎢᏳᏛᏁᏗ	-9.85765
y	-9.85808
▁ᎦᎷᏯᏍᏘ	-9.85818
▁ᎬᏩᏍᏓᏩᏛᏎᎢ	-9.85819
▁ᎢᏏᎺᎵ	-9.85819
▁ᎤᎵᏗᏨ	-9.85819
ett	-9.85819
▁ᏅᏓᏳᏂᎶᏒᎯ	-9.8582
▁ᏗᏰᏙᎳᏛᏗ	-9.85821
▁ᏗᎬᏔᏂᏓᏍᏗ	-9.85823
▁ᏑᎾᏙᏓᏆᏍᏗ	-9.85823
▁ᏂᎬᏩᏪᏎᎸᎩ	-9.85824
▁ᎢᏯᏅᏙ	-9.85824
▁ᎠᏖᎵᏙ	-9.85827
▁ᎤᎴᏂᏙᎸ	-9.85829
▁ᎢᎦᏪᏍᏗ	-9.85831
▁ᎭᏩᏧ	-9.85833
▁ᏚᏘᏅᏎ	-9.85837
▁ᎠᎦᎵᏍᎬ	-9.85841
▁ᎢᏓ	-9.85849
▁ᎢᏳᏓᏅᎯᏓ	-9.85849
▁ᏕᎹᏍᎦ	-9.85851
▁ᎠᏂᎨᎾᏂ	-9.85851
▁ᎠᏫᏒᏗᏱ	-9.85851
▁ᏗᎳᏑᎶ	-9.85855
▁ᎦᏂᎦᏔ	-9.85856
ᏩᎬᏘ	-9.85857
▁ᏣᏓᎵᎢ	-9.85874
▁ᏌᎾᏱ	-9.85884
▁ᏥᏚᏙᎥ	-9.85889
▁ᎤᏁᎵᏤᎢ	-9.859
▁ᎠᎪᏙᏗ	-9.85913
▁ᎤᎾᏁᎳᏅᎯ	-9.85913
▁ᏎᎻ	-9.85917
▁ᎠᎩᎵᏲᎢᏍᏗ	-9.85923
▁ᎧᏃᎮᏓ	-9.85923
▁ᎤᎾᏰᎯᏍᏗᏳ	-9.85928
▁ᏗᏦᏢᏙᏗ	-9.85931
▁ᎤᎾᏠᎾᏍᏗ	-9.85936
▁ᏙᏱᏨ	-9.85942
▁ᎠᏰᏟ	-9.85954
ᏙᏓ	-9.85955
▁ᏱᏂᎦᎵᏍᏓ	-9.85965
▁ᏏᏲ	-9.86052
▁ᎤᏂᎯᏍᏗᏱ	-9.86067
▁ᎠᎩᏰᎸᎭ	-9.86086
▁ᏈᎳ	-9.8611
▁ᎤᎷᎯᏍᏗᏱ	-9.86118
▁ᎠᏍᎪᎯᏁ	-9.86125
▁ᏧᏒᎯ	-9.86127
▁ᎾᏂᏪᏍᎬᎩ	-9.86202
▁ᎢᎬᏓ	-9.86203
▁ᏚᎸᏫᏍᏓᏁᎲ	-9.86256
▁ᎠᎱᏍᏕ	-9.86285
▁ᎤᏴ	-9.86298
▁ᏗᏂᏅᏌᏗ	-9.86306
▁ᎠᏁᎩ	-9.86375
▁ᏕᎬ	-9.86475
▁ᎢᎬᏒ	-9.86494
▁ᎨᎵᎠ	-9.86505
▁ᏓᏁᏩᏗᏒᎢ	-9.86688
▁ᏄᎾᏛᏅᎢ	-9.86743
▁ᏕᎭᎷᎨᎢ	-9.86744
ᎸᏉᏗᏳ	-9.87083
▁ᎤᏓᏅ	-9.87205
▁ᎠᎿᏬ	-9.87298
▁ᏗᎨᏥ	-9.87377
ᎸᏉᏗ	-9.8764
▁ᏓᏓ	-9.87779
ᏔᏅᎢ	-9.87885
▁ᏕᎦᏛ	-9.87889
ᎭᏂ	-9.88092
▁ᏣᏉ	-9.88171
ᏃᎮᎭ	-9.8822
▁ᎨᏴᎢ	-9.88247
▁ᏴᎦ	-9.8834
ᎪᎵᏰᏍᎩ	-9.88699
,)	-9.88984
ᎵᏏ	-9.8929
▁ᏥᏓᏂ	-9.89751
▁ᎤᏂᏁ	-9.89927
▁ᎤᎾᏙᎴᎰᏒ	-9.89992
▁ᏳᏩ	-9.90099
▁ᎤᏇᏓᎸ	-9.90116
ᎵᏍᎦᏍᏙᏛ	-9.90396
▁ᏩᎩ	-9.90498
ᏗᏍᎨᎢ	-9.90771
▁ᏤᏣ	-9.91036
ᎦᏅᎯᏓ	-9.91113
▁ᏚᎸᏫᏍᏓᏁᎸ	-9.9118
ᎵᏍᏆᏗᏍᎩ	-9.91225
▁ᏄᏛᏅ	-9.91249
▁Ꮠ	-9.91366
▁ᎤᏚᎵᏍᎨ	-9.91449
▁ᏥᎬ	-9.91507
ᎵᏱ	-9.91514
▁ᏎᎳ	-9.91603
ᏍᏗᏍᎬ	-9.91612
ᏣᏓ	-9.91623
▁Ꮲ	-9.91629
▁ᏕᏥᎸᏫᏍᏓᏁᎲ	-9.91666
▁ᏭᏴᎴ	-9.91707
▁ᏅᏗᎦᎵᏍᏙᏗ	-9.91754
▁ᎡᎮ	-9.91831
▁ᏫᏚᏂ	-9.91839
▁ᏗᏁᎲ	-9.91982
▁ᎤᏪᏙᎸ	-9.92177
▁ᏗᎧᏃᎩᏍᏗ	-9.92241
▁ᎤᏪᏅᏍᏗ	-9.92335
ᏴᏓ	-9.92342
ᏲᎯᏍᏗ	-9.92478
▁ᎠᎾᏓᎾᏏᏂᏙᎯ	-9.92485
▁ᎠᏗᏆᎸᏕᏲ	-9.92485
▁ᎠᎵᏰᎾ	-9.92488
▁ᎦᏣᏄᎳ	-9.92488
▁ᏌᎶᎵ	-9.92489
▁ᎠᏨᏍᏙᏗ	-9.9249
▁ᏗᏥᏲᎵ	-9.92496
▁ᎢᎬᏩᎵᏍᏙᏗ	-9.92501
▁ᎢᏣᎵᏍᏙᏗᏱ	-9.92505
▁ᎠᏒᎬ	-9.92506
▁ᏥᏄᏪᏎᎢ	-9.92515
▁ᏗᏂᏏᏗ	-9.92515
▁ᎠᏤᎷᎩ	-9.92519
▁ᎠᏂᎩᎷᏫ	-9.92524
▁ᎤᎵᏍᎨᏛ	-9.92534
ᎵᏰᎢᎶᎯᏍᏗ	-9.92544
▁ᏫᎦᎷᎩ	-9.92545
▁ᏫᎶᎯ	-9.92575
▁ᏗᏂᏰᎸ	-9.92575
▁ᎤᎾᎳᏅᎯ	-9.9258
▁ᏄᎾᏓᎴᏒ	-9.92611
▁ᎤᏲᎱᎯᏍᏗᏱ	-9.9268
▁ᎤᎴᏫᏍᏔᏅ	-9.92712
▁ᎠᏥᎳ	-9.92728
▁ᎭᏫᏂᏨ	-9.92733
▁ᎧᏫ	-9.92765
▁ᎢᏳᏍᏘ	-9.92769
▁ᎠᎾᏓᏅᏖᏍᎬ	-9.92772
▁ᎤᏟᏂᎩᏓ	-9.92791
▁ᎧᏃᎮᏗ	-9.92793
▁ᏯᎦᏔᎮ	-9.92825
▁ᎤᏂᏣᏛᎩ	-9.92829
▁ᏭᏂᎶᏎᎢ	-9.92852
▁ᏗᎩᏏ	-9.92862
▁ᎡᎩ	-9.92871
ᏄᎦ	-9.92894
ᎦᏙᏃ	-9.92909
▁ᏂᎪᎯᎸᎾᏉ	-9.92921
▁ᏥᎨᏳᎢ	-9.9295
▁ᎤᏴᏜ	-9.92962
▁ᎦᏥᏯ	-9.92975
▁ᎠᎢᏒᎢ	-9.9311
▁ᎡᎮᏍᏗ	-9.93216
ᏯᏖᏅ	-9.93232
▁ᏂᎦᎵᏍᏙᏗ	-9.93257
▁ᏚᎸᏫᏍᏓᏁᎸᎢ	-9.93315
▁ᎠᏁᏙᎲᎢ	-9.93364
▁ᎢᎦᏤᎵᎦ	-9.93386
▁ᎪᎨ	-9.93411
▁ᏗᏁᎲᎢ	-9.93486
▁ᎡᏙᎲᎢ	-9.93509
▁ᎤᏓᏅᏅ	-9.93609
▁ᏍᎩᏯ	-9.93762
ᏰᎯ	-9.93885
▁ᏙᎦ	-9.93924
▁ᏑᏓᎵᏁ	-9.93993
▁ᎤᏛᏁᎢ	-9.94041
▁ᎡᎾ	-9.94044
▁ᏱᏗᏣ	-9.94121
ᎳᎻ	-9.94432
▁ᎢᏅᎯ	-9.94445
▁ᏩᏁ	-9.94541
ᏍᏗᏍᎨᏍᏗ	-9.94636
;]	-9.94697
▁ᏂᏙᏓᏳ	-9.94757
▁ᎤᏂᎷᏤᎢ	-9.94787
▁ᏂᏥᎥᎢ	-9.94854
▁ᎠᏂᏐ	-9.94955
ᏤᎸ	-9.95004
▁ᏂᎪᎯᎸᎾ	-9.95012
ᏃᎲᏏ	-9.95023
ᎪᏩᏛᏗ	-9.95036
▁ᎠᏓᏰᏍ	-9.95288
▁ᎠᎩᎭ	-9.95379
ᏍᏔᏅᎩ	-9.95434
▁ᎠᏋᏒᏉ	-9.95499
▁ᏧᏅ	-9.95693
▁ᏕᏣᏓ	-9.95839
ᎵᏗ	-9.95842
▁ᎦᏨ	-9.9601
▁ᏙᏓᎦ	-9.96057
▁ᎤᏛ	-9.96334
ᎲᏍᎨᏍᏗ	-9.96383
▁Ꮜ	-9.96563
ᏗᏍᎪᎢ	-9.96719
▁ᏣᏚ	-9.96756
▁ᎪᎯᏍᎩᏂ	-9.96829
▁ᏱᎬᏩ	-9.96884
▁ᎤᎦ	-9.9718
ᏙᎴᎰᎯᏍᏗ	-9.97211
ᏧᏈᏍᏗ	-9.97443
▁ᏄᏓ	-9.97562
▁ᎦᏛ	-9.97709
▁ᎦᏁ	-9.97899
ᏅᏗ	-9.9797
ᏙᎥ	-9.9836
▁ᎢᏳᏪ	-9.98397
▁ᎢᏍᏗ	-9.98409
▁ᏧᎾᏄᏬ	-9.98495
▁ᎤᏍᎦ	-9.98671
▁ᎤᏬᏢᏅ	-9.98731
ᎦᎶᏁᏛ	-9.98775
▁ᎡᎳᏪ	-9.98817
▁ᏓᏫᏒ	-9.98881
▁ᎠᏨᏯ	-9.98912
▁ᏭᏂᎷᏨ	-9.99108
▁ᎠᏰ	-9.99143
▁ᏚᏁᎴ	-9.99191
ᎪᏩᏘᎭ	-9.99221
▁Ꮞ	-9.99284
▁ᏧᎵ	-9.9929
ᏓᎵ	-9.99381
▁ᎤᏓᏅᏛ	-9.99422
▁ᏤᏈ	-9.99545
▁ᎠᏛᎪᏗ	-9.99547
▁ᏗᎪᏪᎵ	-9.99576
▁ᎤᏩᏛᎲ	-9.99607
▁ᎠᏂᏌᏚᏏ	-9.99628
▁ᎦᎶᏄᎮ	-9.99628
▁ᎬᏍᎦᎢᏍᏓᎩ	-9.99628
▁ᏂᎦᏅᎯᏎᏍᏗ	-9.99628
▁ᏌᏯᏂ	-9.99628
▁ᏑᏓᎴᎩ	-9.99628
▁ᏄᏜᏏᏛᏒᎾ	-9.99628
▁ᏗᏁᎶᏙᏗ	-9.99628
▁ᏧᏃᏑᎶᏨᎯ	-9.99629
▁ᏢᏓᏥ	-9.9963
▁ᎤᎶᏒᏍᏔᏅᎯ	-9.99632
▁ᎢᏨᏔᏲᏎᎭ	-9.99635
▁ᏧᎾᎳᏏᏕᏂ	-9.99637
▁ᏧᎾᏦᎯᏍᏗ	-9.99639
▁ᎢᏳᏓᎨᏛ	-9.9964
▁ᎳᏏᎳ	-9.9964
▁ᎢᎩᏍᏕᎵᏍᎩ	-9.99644
▁ᎢᏣᏓᏙᎵᏍᏗᏍᎨᏍᏗ	-9.99647
▁ᎤᏚᏫᏛ	-9.99649
▁ᏫᏂᎦᎵᏍᏓ	-9.99652
▁ᏫᏄᏒᎸ	-9.99652
▁ᎦᏃᏍᎩᏍᎩ	-9.99654
▁ᎣᏌᏂ	-9.99656
▁ᎣᎦᏁᎳᏅᎯ	-9.99659
▁ᎦᏰᏌᏗ	-9.99665
▁ᎾᏛᏁᎮᏍᏗ	-9.99665
▁ᎤᏴᏣ	-9.99671
▁ᎠᎦᏘᏯ	-9.99678
▁ᎤᎾᎴᏅᎮ	-9.9968
▁ᎠᏂᎦᏔᎿᎢ	-9.99682
▁ᎬᎪᏩᏛᏗ	-9.99683
▁ᏚᎦᏒᏍᏛ	-9.99684
▁ᎠᎵᎮᎵᏍᏗ	-9.99685
▁ᎢᎦᏪᏛ	-9.99692
▁ᏗᏯᏖᎾ	-9.99696
▁ᎤᎦᏃᏩ	-9.9976
▁ᎤᎵᏍᎨᏓ	-9.99761
▁ᏂᎦᏚ	-9.99783
▁ᏧᎾᏓᎵᎢ	-9.99785
▁ᎢᏳᏅᏁᏗᏱ	-9.99828
ᏛᏳᎨᏗ	-9.99831
▁ᎠᏓᏅᏖᏗ	-9.99883
▁ᎤᏤ	-9.99911
ᏔᏲᏎᎴ	-9.99948
▁ᏣᏁᎮᎢ	-9.99957
▁ᎦᏁᎳ	-9.99997
▁ᎠᏂᏁᎵ	-10
▁Ꮼ	-10.0001
▁ᎤᏬᏢᏅᎯ	-10.0005
ᏍᏗᏍᎩ	-10.0006
▁ᏧᎸᏫᏍᏓᏁᏗᏱ	-10.0006
▁ᏗᎦᎵᎠᏅᎯᏛ	-10.0006
▁ᏄᎾᏛᏁᎸᎩ	-10.0008
▁ᎠᏥᎸᎠᏁᎶᎯ	-10.0018
▁ᏚᏳᎪᏗ	-10.002
▁ᎤᎾᏄᎪᏫᏎᎢ	-10.0022
▁ᎤᏔᎷᎩᏍᎩ	-10.0025
▁ᏯᏆᏚᎵ	-10.003
▁ᏓᎬᎾ	-10.0033
▁ᏭᎶᏒᎩ	-10.0038
▁ᏯᏂ	-10.0039
▁ᎬᏩᏛᏛᏁ	-10.004
▁ᎠᎦᏔᎭ	-10.0043
▁ᎾᎥᏂᏳ	-10.0046
▁ᎭᏓᏅᏖᏍᎬ	-10.0055
▁ᏓᏠᎯᏍᏛᎢ	-10.0058
ᏃᎯᏎᎸ	-10.0059
▁ᏕᎬᏩ	-10.006
▁ᏧᎵᎢ	-10.0062
ᎸᏌᏛ	-10.0063
▁ᏕᎨᏌᏗᏒᎢ	-10.0063
ᏎᎸ	-10.0085
▁ᎤᏁᏤᎸᎩ	-10.009
ᎷᏥᏏ	-10.0093
▁ᏚᏪ	-10.0096
an	-10.0098
▁ᎠᏔᎴᏒᎢ	-10.0101
ᏌᏘ	-10.0114
ᏍᏕ	-10.0115
▁ᏧᏪᏘ	-10.0143
▁ᎤᏣᏛ	-10.0145
ᎲᏍᎬ	-10.017
ᏕᎩ	-10.017
▁ᎬᏗᏍᎬᎢ	-10.018
▁ᎤᏯ	-10.0193
ᏍᏛᎾ	-10.0212
▁ᎤᎴᏅ	-10.0224
▁ᎠᏰᎸᏗ	-10.0234
▁ᎤᏰᎸᏛᎢ	-10.0264
▁ᎤᏂᎵ	-10.0313
ᏁᏥ	-10.0318
▁ᏍᎩᏃ	-10.0323
ᏍᏔᏁ	-10.0328
▁ᏤᎩ	-10.0329
▁ᎤᏲᏉ	-10.0333
ᎯᎭ	-10.0359
▁ᏗᏣᏓ	-10.0367
ᎵᏓᏍᏗ	-10.0368
▁ᎠᏓᏅᏙᏍᎩᏂ	-10.037
▁ᏂᏙ	-10.0375
ᏓᏡᎬ	-10.0376
▁ᏥᎨᏒᎢ	-10.0389
ᏢᎢ	-10.0394
▁ᎯᎦᏔᎭ	-10.0395
ᎢᏍ	-10.0419
ᎭᏗ	-10.0445
▁ᎪᎯᏛ	-10.0457
▁ᎠᏍᏓ	-10.0458
ᎴᎭ	-10.046
▁ᎤᏄᏬ	-10.0487
ᎦᏘᏍᏙᏗ	-10.0503
▁ᎤᏦ	-10.0524
▁ᏥᏅᏏᏓᏍᏗ	-10.0545
▁ᎧᎵ	-10.0564
▁ᎤᎫᏴᏗ	-10.0583
▁ᏄᏍᏛᎾ	-10.059
ᏁᎲᎢ	-10.0603
ᏤᎵ	-10.0604
▁ᎠᏁᏙᎮ	-10.0622
▁ᏕᎨᏴ	-10.0639
▁ᏓᏅᏅ	-10.0642
▁---	-10.0644
▁ᏗᏓᏁᎸ	-10.0649
▁ᏚᎾᏓᏡᏩᏗᏒ	-10.065
▁ᏑᎾᎴᏃ	-10.0668
▁ᎠᎦᏍᎦᏂ	-10.0669
▁ᎤᏄᎪᏨ	-10.068
▁ᏫᎬ	-10.069
▁ᏅᏃ	-10.0693
▁ᏚᏅ	-10.0695
▁ᎤᏛᏐᏅ	-10.0698
▁ᎣᏣ	-10.0698
▁ᎠᏂᏃᎯᎵᏙ	-10.0708
▁ᎦᏅᎬ	-10.071
▁ᏚᎪᎲ	-10.0713
▁ᏗᎦᎪᏗ	-10.0715
▁ᎠᏒᎨ	-10.0716
ᏅᏅ	-10.0717
▁ᎩᎶᎢ	-10.0719
▁ᎯᏆ	-10.0725
▁ᎤᏲᎱᎯᏍᏗ	-10.0726
ᎪᏣᎴᏛ	-10.0727
▁ᎤᏓᏅᏖᎸ	-10.073
▁ᎤᎪ	-10.073
▁ᏍᏏᏉᏯ	-10.0732
▁ᏗᎦᏙᏌᏗᏍᏗᏱ	-10.0732
▁ᏗᏂᎨᏫ	-10.0732
▁ᏚᏑᎬ	-10.0732
▁ᏀᎾ	-10.0732
▁ᏌᏙᏂ	-10.0732
▁ᏧᎾᏦᏴᏍᏗ	-10.0732
▁ᎮᎳᏂ	-10.0732
▁ᎾᎦᎥ	-10.0732
▁ᏗᎪᏒᏔᏅ	-10.0733
▁ᎬᎩᏍᎦᎩ	-10.0733
▁ᎨᏣᏍᎦᎩ	-10.0733
▁ᎠᏉᏰᏂ	-10.0733
▁ᎦᏚᎢᏗᏢ	-10.0733
▁ᏗᏂᎰᎵ	-10.0733
▁ᎦᏂᏓᏛ	-10.0733
▁ᎨᎦᏑᏰᏛ	-10.0733
▁ᏁᏂᏏ	-10.0733
▁ᏇᏍᏓ	-10.0734
▁ᏍᏗᏫ	-10.0734
▁ᎠᏂᎦᏔᎾᎢ	-10.0734
▁ᏗᏍᏆᎾᎳᏗᏍᏗ	-10.0735
▁ᏄᏍᏗᏓᏅ	-10.0735
▁ᎢᏳᏕᏘᏴᏓ	-10.0735
▁ᎣᏥᎦᏔᎭ	-10.0735
▁ᎤᏕᎶᎰᏎ	-10.0736
▁ᏓᎨᏏ	-10.0736
▁ᎤᎧᏲᏛᎯ	-10.0736
.]	-10.0736
▁ᎣᎭᏂ	-10.0737
▁ᏩᏛᎬᎦ	-10.0737
▁ᎢᏥᏯᏫᏍᎨᏍᏗ	-10.0737
▁ᎠᎦᏯᎷᏗ	-10.0737
▁ᎠᏂᎩᏏᏙᎯ	-10.0738
▁ᎠᎾᎦᎵᏍᎩ	-10.0738
▁ᏗᏥᎶᏍᏔᏅ	-10.0739
▁ᎠᏂᎦᏔᎯ	-10.0739
▁ᏥᎮᎾ	-10.0739
▁ᎨᏆᏂ	-10.074
▁ᎢᏥᏅᏟ	-10.074
▁ᎠᏍᎦᏰᎬᏍᏔ	-10.0741
▁ᎦᎾᏍᏓ	-10.0741
▁ᎦᏐᎯ	-10.0744
▁ᏕᎪ	-10.0744
▁ᎤᏙᎴᎰᏎ	-10.0745
▁ᎤᏪᎷᏅᎩ	-10.0747
ᏙᎳ	-10.0749
▁ᏄᏕᏘᏴᎮᎢ	-10.0749
▁ᏓᏳᎶᏒ	-10.0751
▁ᎠᎦᏔᎿᎢ	-10.0752
▁ᎢᏕᎾ	-10.0756
▁ᏚᎧᎾᏁ	-10.0756
ᏯᎠ	-10.0761
▁ᎤᏁᎷᏁᎢ	-10.0762
▁ᎢᏥᏍᎦᏅᏨᎢ	-10.0762
▁ᎤᏁᎳᏅᎯᏱ	-10.0763
▁ᎪᏢᏅᎯ	-10.0763
▁ᎤᏂᎩᏍᏗ	-10.0766
▁ᎤᏓᏅᏒᎩ	-10.0766
▁ᎨᏙᎲ	-10.077
▁ᎤᏛᏐᏅᎯ	-10.077
▁ᎤᎵᏍᏕᎸᏙᏗ	-10.077
▁ᎠᏧᏏ	-10.0771
ᎠᏎᏃ	-10.0773
▁ᎤᎾᏛᏁᎢ	-10.0777
▁ᎤᏓᏔᏅᎯ	-10.0777
▁ᏕᎦᎶᏗᎯ	-10.0777
▁ᎤᎾᏓᏑᏴ	-10.0778
ᏣᏘ	-10.0779
▁ᎠᎩᎪᎲᎩ	-10.0779
▁ᎬᏩᎷᏤᎸᎩ	-10.0782
▁ᏓᎧᏅᎢ	-10.0782
▁ᏕᎭ	-10.0783
▁ᎬᏩᎪᎲ	-10.0789
▁ᎤᏄᎪᏤ	-10.0792
▁ᎢᏧᏩᏁ	-10.0792
▁ᎡᏙᎯ	-10.0793
▁ᎠᏥᎸᎨᎶᎯ	-10.0796
▁ᎡᎳᏗᏣ	-10.0797
▁ᎪᏢᏒᎢ	-10.0803
▁ᎨᎾᏂᏱ	-10.0804
▁ᏣᏂᏃ	-10.0808
▁ᏚᎾᏓᏡᏩᏗᏒᎢ	-10.0816
▁ᎠᎩᎾᏫ	-10.0817
▁ᎤᏂᏍᎦᏅᏨᎯ	-10.0817
ᎴᏅ	-10.0819
▁ᎤᏍᏘᏰᎬ	-10.0821
▁ᎪᏣᎴᏛ	-10.0821
ᏅᏎ	-10.0824
▁ᎠᏁᎳ	-10.0826
▁ᎮᏗ	-10.0834
ᏖᎸᏗ	-10.0834
▁ᏥᎪᎨ	-10.0837
▁ᎦᏅᎯᏓ	-10.0841
▁ᎤᎪᏗ	-10.0849
▁ᎠᏁ	-10.0852
ᎦᏗᏓ	-10.0858
▁ᏚᏂᎸᏫᏍᏓᏁᎲᎢ	-10.0869
▁ᏂᎦᏪᏍᎬᎩ	-10.0904
▁ᏗᎾᏓ	-10.0913
ᏙᏢᏅ	-10.0914
▁ᎤᎪᎮᎢ	-10.0925
▁ᏗᎬᏩᏂ	-10.0927
▁ᎤᎴᏅᎲ	-10.0929
▁ᏱᎦᎩ	-10.0931
▁ᎤᎲ	-10.0939
▁ᎦᏬᏂᏍᎬᎢ	-10.0943
ᏓᏏ	-10.0961
▁ᎤᏩᏅ	-10.0974
ᏩᏛ	-10.0985
▁Ꮾ	-10.1021
▁ᎦᎾ	-10.1041
▁ᏫᎩ	-10.1045
ᎵᏍᎪᎸᏓᏁᎸᎯ	-10.1056
▁ᎤᏲᎱᏒᎢ	-10.1057
▁ᎡᎳ	-10.1063
;)	-10.1066
▁ᎤᎿᏥ	-10.1071
ᏒᏅ	-10.1072
▁ᏥᏙ	-10.1078
ᎷᏤᏗᏱ	-10.1091
ᏅᎭ	-10.1102
ᎦᏔ	-10.1112
▁ᏙᏗ	-10.1122
▁ᎢᏳᏩ	-10.1127
▁Ꮋ	-10.1127
▁ᎧᏁᎢᏍᏗ	-10.1135
▁ᎠᏂᏂ	-10.1147
ᎫᏴᏙᏗ	-10.1149
ᏍᏕᏍᏗ	-10.1156
▁ᎾᏑᏴ	-10.1167
ᎶᎢ	-10.1169
▁ᎤᏩᏛᏗ	-10.119
ᏍᏔᏅᎯ	-10.1199
▁ᏩᏥ	-10.121
▁ᎠᎦᏔ	-10.1211
▁ᎠᎾᎵ	-10.1216
▁ᎤᏂᏁᏨ	-10.1217
ᎥᎾ	-10.1254
▁ᎯᏍᎩᏁ	-10.1292
ᏓᏂᎸᏨᎯ	-10.1303
▁ᎪᎯᏳᏗᏍᎩ	-10.1351
▁ᎠᎯᏗ	-10.138
▁ᏏᎻᏯᏂ	-10.1381
ᏓᏑᏯ	-10.1393
▁ᎣᎦᏤᎵ	-10.1401
▁ᎨᏓᎵ	-10.1404
▁ᎧᏃᎮᏍᎬ	-10.1428
▁ᏄᎾᏛᏁᎸ	-10.1434
ᏁᏤᏗ	-10.1464
▁ᏫᎦᏅᏅ	-10.1465
▁ᎠᏂᏨᏯ	-10.1466
▁ᎠᏅᏗᏍᎬ	-10.1474
▁ᎤᏜᏅᏛ	-10.1478
▁ᏕᎦᏅᏅ	-10.1481
▁ᎠᏇ	-10.1483
▁ᏫᏚᏯᏅᎮ	-10.1486
▁ᎪᏱᏁ	-10.1487
▁ᎠᏂᏁᎬ	-10.1503
▁ᏥᏙᎬ	-10.1504
▁ᏂᎬᏁ	-10.1505
▁ᎤᏂᎩᏎ	-10.1508
▁ᎠᏇᎵᏒ	-10.1511
▁ᎤᎾᏚᎵᏍᎬ	-10.1512
▁ᏚᎸᏌᏛ	-10.1513
ᏙᎵ	-10.1514
▁ᏂᏚᏩᏁᎸ	-10.1516
▁ᎠᏁᎵᏍᎨ	-10.1517
▁ᎭᎵ	-10.1518
ᎥᎯᏍᏗ	-10.1518
ᏓᏅ	-10.1519
▁ᏥᏁᎬ	-10.1524
▁ᎤᏪᏅᏒ	-10.1525
▁ᏣᏚᎵ	-10.1526
ᏗᏣ	-10.1531
▁ᏱᏥᎦᏔ	-10.1533
ᏄᏬ	-10.1541
ᏢᏗ	-10.1542
▁ᎢᏯᏆᏛᏁᏗ	-10.1543
▁ᎤᏁᏓᏍᏗ	-10.1543
▁ᎦᎴᏂ	-10.1548
▁ᏂᏨᏁᎸ	-10.1552
▁ᎡᎳᏂᎬ	-10.1557
▁ᎠᏂᏃᏍᎩᏍᎩ	-10.1565
▁ᎠᏂᏩᏥᏂ	-10.1565
▁ᎦᎳᎱᏂ	-10.1565
▁ᏕᎦᎳᏫᎥ	-10.1565
▁ᏗᏓᏬᏍᎩ	-10.1565
▁ᏧᏓᎿᏩᏛ	-10.1565
▁ᏧᏙᏓᏋᏓ	-10.1565
▁ᎾᎪᏔᏅᎾ	-10.1565
▁ᎢᏆᎶᏂ	-10.1565
▁ᏚᎾᎧᏛ	-10.1565
▁ᎤᏍᏚᎢᏒ	-10.1566
▁ᎤᏙᎴᎰᎯᏍᏗᏱ	-10.1566
▁ᏄᏓᎵᏓᏍᏛᎾ	-10.1566
▁ᏗᏂᏬᏂᏍᎩ	-10.1566
▁ᏚᏃᏢᏔᏅᎩ	-10.1566
▁ᏗᎨᏥᎤᏍᏕᏎᎸᎯ	-10.1566
▁ᎢᏕᎯ	-10.1566
▁ᎠᏓᏪᎳᎩᏍᎩ	-10.1566
▁ᏅᏓᎦᎵᏍᏙᏔᏂ	-10.1566
▁ᏅᏓᎦᎵᏍᏙᏓ	-10.1566
▁ᏗᏂᏍᎪᎵ	-10.1566
▁ᏂᎦᎵᏍᏔᏂᏙᎲ	-10.1566
▁ᏣᏔᎦ	-10.1566
▁ᏧᏆᎶᎬ	-10.1566
▁ᏄᎵᏍᏔᎾ	-10.1567
▁ᎢᏥᏰᎸᏎᏍᏗ	-10.1567
▁ᏂᏣᏛᏁᎮᏍᏗ	-10.1567
▁ᎾᎵᏍᏆᏗᏍᎬᎾ	-10.1567
▁ᎢᏣᏅᏖᏍᏗ	-10.1567
▁ᎥᎩᏅᏏᏛ	-10.1567
▁ᎤᏬᏑᎶᏨᎯ	-10.1567
▁ᏚᎾᎴᏁ	-10.1567
▁ᏦᏢᏗ	-10.1568
▁ᎢᏥᎦᏔᎮᏍᏗ	-10.1568
▁ᎢᏧᎳᏗᏢ	-10.1568
▁ᎯᏍᎦᏯ	-10.1569
▁ᏂᏚᎾᏓᏪᏎᎴᎢ	-10.1569
▁ᎡᏂᏗ	-10.1569
▁ᎠᏌᏅᏙᏗ	-10.157
▁ᎣᏂᏗᏢ	-10.157
▁ᏗᏑᏢᏛ	-10.157
▁ᎠᎵᏥᏙᎲᏍᎩ	-10.157
▁ᎢᏥᎦᏙᎥᎯᏍᏗᏱ	-10.1571
▁ᎡᏈᎵ	-10.1571
▁ᏧᎾᎵᏂᎩᏛ	-10.1571
▁ᎠᏥᎤᏍᏕᏎᎸᎯ	-10.1572
▁ᎪᎯᏳᎲᏍᎩ	-10.1572
▁ᎢᏯᏍᏘ	-10.1572
▁ᏂᎬᏪᏎᎭ	-10.1573
▁ᏧᏍᎪᎵ	-10.1574
▁ᎠᏓᏍᏓᏴᏗ	-10.1574
▁ᏣᏓᏅᏙ	-10.1574
▁ᎤᏛᎦᎾ	-10.1575
▁ᏅᏧᎵᏍᏙᏔᏅ	-10.1577
▁ᏍᎩᏙᎵᎩ	-10.158
▁ᏍᎪᏯ	-10.1583
▁ᏂᎦᎵᏍᏔᏅᎭ	-10.1583
▁ᎠᏂᏅᎢ	-10.1583
▁ᏧᏂᎳᏫᎢᏍᏗᏱ	-10.1585
▁ᎤᎵᏍᏗᏳ	-10.1585
▁ᎢᏳᎵᏍᏔᏅᎯ	-10.1585
▁ᎭᎻ	-10.1586
▁ᏄᏩᏅ	-10.1586
ᏴᏗ	-10.1586
▁ᎤᏕᎵᏒ	-10.1586
▁ᎢᏨᏯ	-10.1588
▁ᏚᏠᏱᎴᎢ	-10.1588
▁ᎠᏆᎵᏏ	-10.1588
▁ᎢᏯᏆᏛᏁᏗᏱ	-10.1588
▁ᏦᎳ	-10.159
▁ᏓᏓᏏ	-10.1591
ᏎᏗ	-10.1591
▁ᎢᏓᎵ	-10.1593
▁ᏥᎪᏩᏘᎭ	-10.1593
▁ᎹᏗ	-10.1596
▁ᎤᏪᏗᏱ	-10.16
ᏌᏂ	-10.1605
▁ᎤᏍᏆᏛ	-10.1605
▁ᎤᏣᏖ	-10.1607
▁ᎨᎥᎢ	-10.1607
ᏃᏁᎸᎩ	-10.1609
▁ᎡᏘᏴ	-10.1612
▁ᎤᏂᎩᏒᎩ	-10.1612
▁ᎧᏅᏑᎸ	-10.1613
▁ᏘᎵ	-10.1617
▁ᏓᎬᏩ	-10.1617
▁ᏱᏙ	-10.1618
▁ᏂᏚᏩᏁᎸᎩ	-10.1618
▁ᏧᏂᎾᏫᏱ	-10.162
▁ᎹᎩ	-10.1624
▁ᏧᏓᏅᏛᎢ	-10.1631
▁ᏌᏚ	-10.1637
▁ᏧᏬᏚᎯ	-10.1641
▁ᏭᏂᎷᏤᎢ	-10.1643
▁ᎾᏆ	-10.1647
▁ᏄᎾᏍᏗ	-10.1647
▁ᏗᏨ	-10.165
▁ᎨᏂᏗ	-10.1651
ᏏᏗᏒ	-10.1655
▁ᎤᏄᏢ	-10.1657
▁ᎠᎭ	-10.1662
ᎵᏍᏔᏅ	-10.1663
ᏗᏒ	-10.1665
ᏐᏅ	-10.1666
▁Ꮘ	-10.1674
▁ᏂᏫ	-10.1684
▁ᏱᏚᏂ	-10.1685
▁ᎠᏆᎵ	-10.1686
▁Ꮢ	-10.1698
▁ᏱᎰ	-10.1706
▁ᎦᏛᎬᎢ	-10.1716
▁ᎤᎪᎲᎯ	-10.1722
ᏍᏆᏂᎪᏗ	-10.1723
ᏁᎬ	-10.1749
▁ᏄᏛᏁᎸᎢ	-10.1752
ᏪᏨᎯ	-10.1761
ᏍᏔᏅᎢ	-10.1782
▁ᏚᏩ	-10.179
▁ᎤᏁᎢᏍᏗ	-10.1808
ᏘᏗ	-10.1848
▁ᎠᎩᎪᎲ	-10.185
ᎦᎸ	-10.1858
▁ᏗᎬᏙᏗ	-10.186
ᏴᎭ	-10.1863
▁ᎤᎾᏕ	-10.1863
Ꮬ	-10.1878
▁ᎤᎭᎨ	-10.1902
▁ᏫᏗ	-10.1912
▁ᏓᏥᏯ	-10.1914
▁ᏥᏴ	-10.1922
ᏍᏓᏴ	-10.1924
ᏁᎮ	-10.1931
▁ᎯᎾ	-10.1938
ᏂᏒ	-10.1949
ᏧᏏ	-10.195
▁ᎠᎦᏛ	-10.1956
▁ᎤᏙᏓᏃ	-10.1969
▁ᎤᏔᏅ	-10.1989
▁ᎠᏏᎳᏛ	-10.1992
▁ᏚᎦ	-10.1997
ᎡᏍᏗ	-10.2
▁ᏧᏙ	-10.2
ᏅᏏᏙᎯ	-10.2
ᎠᏯᏗ	-10.2015
▁ᎯᎸᎯ	-10.2022
ᎩᏓ	-10.2049
▁ᎠᏲ	-10.2049
▁ᎤᎶᏒ	-10.2055
ᏙᎮᏍᏗ	-10.2058
▁ᎤᏍᏆ	-10.2059
▁ᎨᎶᎯ	-10.2064
▁ᎤᏛᏅᎩ	-10.2065
ᎶᏒ	-10.2092
ᏗᏳ	-10.2096
▁ᏂᏣᏛᏅᎢ	-10.2097
ᏁᎸᏔᏅ	-10.2102
ᏍᎪᏃ	-10.2106
ᏪᎳ	-10.2109
▁ᏭᏂᎷᏤ	-10.2112
ᎩᏍᎨᏍᏗ	-10.212
ᏙᎵᏍᏗ	-10.2139
▁ᎤᏩᎨᏫ	-10.2139
ᎧᎵᎢ	-10.2146
ᏉᏗ	-10.2148
ᎪᎩ	-10.2148
▁ᎢᏍ	-10.2154
ᎤᏙᎯᏳ	-10.2175
ᏯᏅ	-10.218
ᎩᎳ	-10.2184
▁ᎠᏂᏁ	-10.2191
▁ᎠᎢᏒ	-10.2193
▁ᏥᎾ	-10.2202
ᏨᎢ	-10.221
ᏓᏁᎸ	-10.2217
ᏬᏂᎯᏍᏗ	-10.2222
ᏰᎸ	-10.2228
▁ᎠᏍᎦ	-10.2231
▁ᎠᏍᏚᎲ	-10.2236
▁ᏣᎩ	-10.2273
▁ᎬᏯ	-10.2286
▁ᎢᏣᏓ	-10.229
▁ᎭᎴ	-10.2298
▁ᎠᏍᎦᏅᏨ	-10.2306
ᏅᏓᏗᏍᏙᏗ	-10.2309
ᎴᏅᎯ	-10.2321
ᎥᏏ	-10.2326
ᏓᎶᏂᎨ	-10.2331
▁ᎾᏆᏛᏁᎸ	-10.2335
▁ᎠᏓᏙᎵᏍᏗ	-10.2336
▁ᎪᏢᏒ	-10.2338
ᎵᎪ	-10.2341
ᏔᎷᎩᏍᎩ	-10.2344
▁ᎾᏂᏪᏍᎬ	-10.2348
ᎨᎳᏍᏗ	-10.2349
▁ᏂᎪ	-10.2355
▁ᎠᎩᏁᏨ	-10.2356
▁ᎠᏓᏅᏖᏍᎨ	-10.2364
▁ᎡᎵᏍᎨ	-10.2367
▁ᎥᏓᎸ	-10.2372
▁ᎤᎩᏨᏅ	-10.2378
▁ᎤᎵᏂᎬᎬ	-10.2379
▁ᎠᏲᏟ	-10.238
ᏅᎦ	-10.2383
ᎢᏳᎾᏍᏗ	-10.2388
▁ᎬᏩᎷᏤᎴ	-10.2389
▁ᏣᎧᏛ	-10.2389
▁ᏗᏤᎲ	-10.239
▁ᎤᏂᏃᎮᎸ	-10.239
▁ᎦᏰᏌᏛ	-10.239
▁ᏂᏣᏛᏅ	-10.2399
ᏆᎵ	-10.2402
▁ᎤᎿᎥ	-10.2402
▁ᎤᏰᎸᏁ	-10.2403
▁ᎠᏓᏯ	-10.2407
▁ᏫᏍᎩ	-10.2407
▁ᏗᏥᏰᎸ	-10.2414
▁ᏫᏚᏯᏅᎲ	-10.2423
▁ᎬᏩᎷᏤᎸ	-10.2428
▁ᎤᎦᏔᎲᏒ	-10.2429
▁ᎾᏛᏁᎲ	-10.2434
ᏍᏚ	-10.2438
▁ᎠᏁᎵᏍᎬ	-10.2448
▁ᏗᏄᎪᏗᏍᎩ	-10.2451
▁ᎢᎬᏩᏁᏗ	-10.2451
▁ᎠᏥᎢᏍᏗ	-10.2454
ᎥᏝ	-10.2459
ᏇᏓᎵ	-10.2462
ᏙᎢ	-10.2466
▁ᏚᏅᏎ	-10.2468
▁ᎪᏢᏗ	-10.2471
▁Chap	-10.2474
▁ᏂᏓᎪᏔᏅᎾ	-10.2474
▁ᎠᏰᎳᏍᏘ	-10.2474
▁ᎡᎩᎵᏈ	-10.2474
▁ᎢᏗᏍᏓᏓᎳ	-10.2474
▁ᎦᏌᏆᎸ	-10.2474
▁ᏌᏬᏚ	-10.2474
▁ᎢᏯᎬᏁᎸᎯ	-10.2474
▁ᎠᏂᏈᎵᏍᏗ	-10.2474
▁ᏌᏱᎳ	-10.2474
▁ᏣᎦᏟᎶᏍᏔᏅᎯ	-10.2475
▁ᎧᏁᏍᎪ	-10.2475
▁ᏚᎧᏔᏍᏔᏁᎢ	-10.2475
▁ᏥᏍᎪᏴ	-10.2475
▁ᏧᏓᏕᏍᏗᏱ	-10.2475
▁ᏅᏓᎦᏥᏴᏁᎵ	-10.2475
▁ᎤᏲᏍᏛᏉ	-10.2475
▁ᎮᎼ	-10.2475
▁ᎠᏕᏒᎲᏍᎩ	-10.2475
▁ᎢᏆᎻ	-10.2475
▁ᎢᏳᏛᏁᎸᎯ	-10.2475
▁ᎠᏗᏒᏍᏗ	-10.2475
▁ᏗᏥᎦᏙᎵ	-10.2476
▁ᏥᏂᏣᏛᏅ	-10.2476
▁ᏧᎾᏓᏅᏙ	-10.2476
▁ᎤᏂᏁᎫᏥᏛ	-10.2476
▁ᎦᏌᎾᎵ	-10.2476
▁ᎤᎩᏓᏟᏅᏯ	-10.2477
▁ᎤᎳᎨᏯᏛᏤᎢ	-10.2477
▁ᏗᎿᏬ	-10.2477
▁ᎤᎴᏴᏒ	-10.2477
▁Ꮗ	-10.2477
▁ᏱᏥᏍᎦᎢᎮᏍᏗ	-10.2477
▁ᎠᎹᏳᎸᏓ	-10.2478
▁ᎧᏴᏐᎵ	-10.2478
▁ᎠᎩᎬᏫᏳᎯ	-10.2478
▁ᏣᏤᎵᎪᎯ	-10.2478
▁ᏏᎵᏱ	-10.2478
▁ᏥᏲᏎᎸ	-10.2478
▁ᎦᎫᏍᏛᏗ	-10.2479
▁ᏐᏁᎳ	-10.2479
▁ᎠᏂᏃᎮᏍᎩ	-10.248
▁ᏇᏕᎵ	-10.248
▁ᏗᎨᏥᎾᏌᎢ	-10.248
▁ᏭᎷᏣ	-10.2481
▁ᎠᏰᎲ	-10.2481
▁ᎠᎦᏔᎾᎢ	-10.2481
▁ᎤᏣᏔ	-10.2481
▁ᎤᎾᏗᏍᎦᎶᏗ	-10.2482
▁ᏓᎬᏔᏂ	-10.2482
▁ᎬᏩᏍᏓᏩᏛᏒᎩ	-10.2482
▁ᎬᎵᏍᏆᏗᏍᎩ	-10.2482
▁ᎠᏉᎳ	-10.2483
▁ᎢᏳᏩᏁᎯ	-10.2483
▁ᎠᎵᏍᎪᎸᏓᏁᏗ	-10.2484
▁ᏥᏥᎦᏔᎭ	-10.2484
▁ᏗᎬᏩᎸᏌᏛ	-10.2484
▁ᏯᎦᏔᎭ	-10.2484
▁ᎣᎩᏙᏓ	-10.2484
▁ᏚᏃᎡᎢ	-10.2484
▁ᏤᏙᎲ	-10.2486
▁ᎠᏃᏍᏛ	-10.2486
▁ᎤᏁᏢᏔᏅᎯ	-10.2487
▁ᏗᎦᏅᏍᎨᏂ	-10.2487
▁ᎾᏥᎾᏝᎥᎾ	-10.2488
▁ᏧᏂᎦᏴᎵᎨ	-10.2488
▁ᏳᏩᏁᎦ	-10.249
▁ᏏᏅᏓ	-10.249
▁ᎢᏣᏠᎾᏍᏗ	-10.2491
▁ᏭᎶᎯᏍᏗᏱ	-10.2492
▁ᎪᏪᎳᏅᎯ	-10.2493
▁ᎠᎨᏯ	-10.2493
▁ᏦᏈ	-10.2495
▁ᎬᏂᎨᏒᎢᏳ	-10.2496
▁ᎤᏁᏍᏓᎳ	-10.2499
▁ᏥᏂᎦᏪᎭ	-10.25
ᎬᏫᏳᏒ	-10.2501
▁ᎪᏢᏅ	-10.2503
▁ᎠᏥᏃᎮᏍᎬᎢ	-10.2504
▁ᏧᏁᎬ	-10.2506
▁ᏂᎦᏅᎯᏒᎩ	-10.2507
▁ᎤᎦᎹ	-10.2507
▁ᎤᎪᏩᏛᏗ	-10.2513
▁ᏂᏚᏍᏛ	-10.2515
▁ᎡᏉᏗᏱ	-10.2521
▁ᎤᏅᏏᏙᎯ	-10.2523
▁ᎤᏓᏅᏖᎸᎯ	-10.2524
▁ᎣᎩᎾᎵᎢ	-10.2529
▁ᎤᏕᏁᎸᎯ	-10.2532
ᎾᏰᏍᎬᎾ	-10.2535
▁ᎾᎦᏔᎲᎾ	-10.2537
ᎩᏍᎪ	-10.2541
▁ᎠᏁᎰ	-10.2548
▁ᏓᏕᏲᎲᏍᎬᎢ	-10.2549
▁ᎤᏬᏢᏅᎩ	-10.2551
▁ᏓᏂᏁᎸᎢ	-10.2553
▁ᎠᎭᏂ	-10.2553
ᏂᏓᏍᏗᏱ	-10.2556
▁ᎬᏂᏳ	-10.2558
▁ᎤᏍᎦᏅᏨᎯ	-10.2559
▁ᎡᎳᏗᏢ	-10.256
ᏚᎵᎭ	-10.2562
▁ᏥᎨ	-10.2577
ᏂᎩᏛ	-10.2581
▁ᏥᏄ	-10.2581
▁ᎨᎳᏍᏗ	-10.2584
ᎡᏗ	-10.2584
▁ᎤᎿᎥᎢ	-10.2584
▁ᎠᎩᏍᏗᏱ	-10.2585
▁ᏱᏕ	-10.2601
▁ᏤᏆ	-10.2602
▁ᏌᎵ	-10.2611
▁ᎠᏍᏘ	-10.2615
▁ᏕᏡᎬᎢ	-10.2619
ᏈᏍᏗ	-10.2624
▁ᎤᎾᏛᎦᏅᎯ	-10.2626
ᎵᏯ	-10.2632
▁ᎾᎨ	-10.2635
ᏑᏰᏛ	-10.2638
▁ᎠᎩᏰᎸ	-10.2658
▁ᎠᏆᏓᏅᏙᎩ	-10.2663
▁ᏕᏂ	-10.2663
ᎨᏳᏗ	-10.2668
▁ᏳᏚᎵ	-10.2676
▁ᎦᏙᎬᎩ	-10.2677
▁ᏂᎬᏁᎲ	-10.2681
ᏄᎪᏫᏒᎩ	-10.2685
ᏁᎰᎢ	-10.2691
▁ᏄᎵᏍᏔᏂᏙᎸᎢ	-10.2709
▁ᎤᏂᏍᎦᏅᏨᎢ	-10.2713
ᏕᎶᎰᎯᏍᏗ	-10.2719
ᏳᎯ	-10.2721
▁ᎦᎸᏉ	-10.2723
ᎩᎯ	-10.273
▁ᎤᎷᏤᎢ	-10.2736
▁ᎤᏗᏔᏍᏗ	-10.2745
▁ᏅᏗᎦᎵᏍᏙᏗᏍᎬᎢ	-10.2752
▁ᏦᎯᏳᏒ	-10.2758
▁ᎠᎫ	-10.2776
▁ᎠᏒᎩ	-10.2786
ᏓᏅᎦᎸᏛ	-10.279
ᏏᏁ	-10.2797
ᏔᏲᏏ	-10.2809
id	-10.2813
▁ᎤᎧᏛᎢ	-10.2822
▁ᎢᏥᏰᎸ	-10.2826
▁ᏕᏍᎩ	-10.2828
▁ᎨᏛ	-10.2841
ᎨᏂ	-10.2851
▁ᎤᎾᏛ	-10.2852
ᏔᎾ	-10.2853
ᏙᎴᎰᏏ	-10.2858
ᏁᏤᎴ	-10.2861
▁ᎢᏒ	-10.2864
▁ᎤᏂᎲ	-10.2867
▁ᎭᏩ	-10.29
ᏁᏍᏗ	-10.2904
ᎷᏣ	-10.2918
▁ᎦᏲᎵ	-10.2919
ᏗᏍᎬᎢ	-10.2927
ᎦᏙ	-10.2951
l	-10.2966
▁ᎾᎩ	-10.2999
ᎵᏍᏗᏱ	-10.3004
ᎡᎸᎩ	-10.3019
▁ᏄᏪ	-10.3029
ᎵᏏᏱ	-10.3032
▁ᏦᎢᎭ	-10.3038
▁ᎩᎵ	-10.3053
ᎦᏔᎰ	-10.306
ᎯᎯ	-10.3061
▁ᎤᏂᏰ	-10.3061
▁ᎢᏏᎵᏱ	-10.3062
▁ᏚᏁᎸ	-10.3106
ᏅᏓᏓ	-10.3112
ᏓᏍᏗ	-10.313
▁ᎠᏂᏫᎾ	-10.3143
ᏕᏅ	-10.3159
▁ᏚᏂᏲ	-10.3174
▁ᏓᏰ	-10.3184
ᏚᎵ	-10.319
ᏠᏱ	-10.3219
▁ᎠᏂᏐᎢᏃ	-10.3225
ᏅᏏᏓᏍᏗ	-10.3232
ᎥᎩ	-10.3236
ᏰᎢ	-10.324
ᎶᏨ	-10.3249
ᏁᎸᎢ	-10.3252
ᏁᏤᎸᎯ	-10.327
▁ᎯᎦᏘᏏ	-10.3272
▁ᎣᎩᎾ	-10.328
ᏎᎴ	-10.3285
ᎾᎥ	-10.3287
▁ᎪᎦ	-10.329
▁ᏣᏓ	-10.3299
ᏟᏍᏗ	-10.3312
▁ᎤᏬᏂᏒ	-10.3322
▁ᎠᏉ	-10.3324
▁ᎤᏂᏣᏛ	-10.3331
▁ᎢᎳ	-10.3335
ᎾᏄᎪᏫᏏ	-10.3335
ᏩᏛᎮ	-10.3336
ᏯᏅᎲ	-10.334
▁ᏚᎧᎿᏅ	-10.334
▁ᏗᎦᏅ	-10.3351
ᎡᎸᎯ	-10.3355
▁ᏂᎨ	-10.3356
▁ᎠᏔᎴᎦᏒ	-10.3371
▁ᎤᏃᏁᎴ	-10.3373
▁ᏄᏅ	-10.3375
▁ᏕᎦᏚᏩᏗᏒ	-10.3385
▁ᏩᎾ	-10.3387
▁ᏧᏩᎫᏔᏅᏒ	-10.3389
▁ᎤᏍᏓᎦᎸ	-10.3392
▁ᏓᏕᏲᎲᏍᎬ	-10.3393
ᏔᏅᎾ	-10.3395
▁ᏱᎨᏐ	-10.3396
ᎪᎱᏍᏗ	-10.3397
▁ᎠᏚᎢᏍᏛ	-10.3399
▁ᎣᎵᏩ	-10.3402
▁ᏚᏬᎡ	-10.3402
▁ᎤᏂᎷᏤᏗ	-10.3402
▁ᎤᏰᎸᏅ	-10.3402
▁ᏗᎫ	-10.3409
▁ᏓᏂᏁᎸ	-10.3412
ᏗᏢ	-10.3413
▁ᎤᏚ	-10.3416
▁ᎤᎷᏤᎴ	-10.3429
▁ᏤᎮ	-10.3431
▁ᎤᏬᏚ	-10.3438
▁ᏕᎪᏪᎸ	-10.3439
▁ᎤᏁᎦᎸ	-10.3443
ᏍᎦᎢᎲᎾ	-10.3445
ᏣᏛᏁᎯ	-10.345
ᏥᏲᏏ	-10.3453
▁ᎤᏅᏎ	-10.3466
rs	-10.3474
▁ᎡᏂᎾᏯ	-10.3474
▁ᎥᏘᎣᎩ	-10.3474
▁ᏑᏓᎳᏍᎪᎯ	-10.3474
▁ᏗᎫᏓᎸᏗᏱ	-10.3474
▁ᏤᎦᎳᏯ	-10.3474
ᎰᎲᏍᏗ	-10.3474
▁ᎡᎹᏂᏓ	-10.3474
▁ᎢᏍᎦᎳᏗ	-10.3474
▁ᏧᎦᏃᏮ	-10.3474
▁ᏧᏯᏖᏃᎯ	-10.3474
▁ᎤᎵᏍᏔᏴᏗ	-10.3474
▁ᎤᏂᏃᎮᎴ	-10.3474
▁ᏫᏚᎧᎿᏁ	-10.3474
▁ᏗᎧᎾᏩᏛᏍᏗ	-10.3474
▁ᏯᏃᎩᏳ	-10.3475
ᏔᏬᏍᏔᏅ	-10.3475
▁ᎤᎾᏢᏉᏗ	-10.3475
▁ᏗᏇᏅᏒ	-10.3475
▁ᏗᎾᏓᏂᏱᏍᎩ	-10.3475
▁ᎤᏯᏖᏃᎯ	-10.3475
▁ᎢᏤᎳᏗᏙᎮᏍᏗ	-10.3475
▁ᏓᏓᎶᏂ	-10.3475
▁ᎬᏉᏎᎰ	-10.3475
▁ᏗᏍᏆᎨᏂ	-10.3475
▁ᏕᎨᏥᏰᎸᏔᏅᎩ	-10.3475
▁ᏦᏍᏓᏓᏅᏟ	-10.3475
▁ᎻᎾᏌ	-10.3475
▁ᎢᏳᏩᏂᏌᏅᎯ	-10.3475
▁ᏑᎾᏓᎴᎩ	-10.3475
▁ᎦᎶᎯᏍᏗᏳᎶᏗ	-10.3475
▁ᎡᏥᎸᏉᏓ	-10.3475
▁ᏅᏓᏳᎵᏍᏙᏗᏱ	-10.3475
▁ᎨᏣᏍᏓᏩᏗᏙᎯ	-10.3476
▁ᏂᏣᏪᏒ	-10.3476
▁ᏕᎪᏪᎵᏍᎬ	-10.3476
▁ᏱᏅᎦᎵᏍᏓ	-10.3476
▁ᏅᏓᎬᏁᎵ	-10.3476
▁ᏍᎩᏄᏍᏛ	-10.3476
▁ᎪᏌᏂ	-10.3476
▁ᎠᏂᏈᎷ	-10.3476
▁ᎢᏲᏍᏛ	-10.3477
▁ᎤᏰᎸᎮ	-10.3478
▁ᎯᎨᏴ	-10.3478
▁ᏂᏣᏛᎦ	-10.3478
▁ᏧᎳᏍᎩ	-10.3479
▁ᏗᏓᎴᎲᏍᎦ	-10.3479
▁ᎢᏳᏛᎿᏕᎩ	-10.348
▁ᎢᎧᏁᏨᎯ	-10.348
▁ᎠᏓᏠᏍᏗ	-10.348
▁ᏫᏨᎷᏤᏗᏱ	-10.3481
▁ᎤᏂᎷᎯᏍᏗᏱ	-10.3481
ᎸᏉᏕᏍᏗ	-10.3481
▁ᎤᎵᏠᏯᏍᏕᏍᏗ	-10.3482
▁ᏛᏍᏆᎸᎯ	-10.3482
▁ᎠᏂᏦᎢ	-10.3483
▁ᏗᏓᏂᏐᏗᏱ	-10.3483
▁ᏑᏕᏘᏴᏛ	-10.3484
▁ᎢᏣᎵᏍᏕᎸᏙᏗ	-10.3484
▁ᎢᏣᏛᎦᏅᎯ	-10.3484
▁ᎤᎶ	-10.3485
▁ᎠᏙᎴᎰᎯᏍᏙᏗ	-10.3485
▁ᏗᎦᎴᏂ	-10.3485
▁ᎤᏛᎪᏗᏱ	-10.3486
▁ᏭᏂᎶᎯᏍᏗᏱ	-10.3486
▁ᎢᏳᏩᏁᎸᎯ	-10.3486
▁ᎠᎩᏅᏏᏛ	-10.3487
▁ᏭᏴᎸ	-10.3487
▁ᎤᏓᏙᎵᏍᏓᏁᎴᎢ	-10.3488
▁ᎤᏁᎷᏅᎩ	-10.3488
▁ᎾᏂᎦᏔᎲᎾ	-10.3488
▁ᎤᏪᎵᏍᏗ	-10.3489
▁ᏩᎩᎷᏨ	-10.3489
▁ᎤᏓᏙᎵᏣᏘᏳ	-10.3489
▁ᏦᏓᎸ	-10.349
▁ᏁᎵᏍᎬ	-10.349
ᎸᏓ	-10.3492
▁ᎠᏇᏅᏍᏗ	-10.3493
▁ᎤᏪᏙᎵᏍᏗ	-10.3493
ᎦᏚ	-10.3494
▁ᎾᏂᎠ	-10.3495
▁ᎢᎨᎬᏁᏗ	-10.3495
ᏂᏌᏁ	-10.3496
▁ᎬᏩᏔᏲᏎᎴ	-10.3496
▁ᏴᎨᏥ	-10.3496
▁ᎤᏂᏇᏓᎸᎢ	-10.3496
▁ᏂᎦᎵᏍᏗᏍᎨᏍᏗ	-10.3497
▁ᏙᏓᏳ	-10.3497
▁ᎾᎩᏪᏒᎩ	-10.35
▁ᎠᎦᏍᎬ	-10.3501
▁ᎤᏌᎳᏓᏅ	-10.3502
ᎦᏴᎵᎨ	-10.3502
▁ᎤᏂᏁᎫ	-10.3503
▁ᏗᎦᎶᏗ	-10.3504
▁ᏥᏍᏆᏯ	-10.3507
▁ᎤᎾᏕᏅᎯ	-10.3513
▁ᎤᏂᏃᎮᎸᎯ	-10.3513
▁ᏚᏂᏅᏎ	-10.3516
▁ᎤᏩᏂ	-10.3517
▁ᏤᎲᎩ	-10.3519
▁ᏂᎬᏁᎭ	-10.3519
▁ᏚᏁᏤᎸᎩ	-10.352
▁ᎢᏳᏛᏁᏗᏱ	-10.3521
▁ᎤᏰᎸᎯ	-10.3522
▁ᏙᏧᎾᏓᏅᏛᎢ	-10.3523
ᎦᏔᎯ	-10.3524
▁ᎤᏪᏅᏍᏗᏱ	-10.3526
▁ᎤᏓᏑᏯ	-10.3526
▁ᎤᎾᎵᏍᏓᏴᏗᏱ	-10.3528
▁ᏄᎾᏛᏁᎴᎢ	-10.3532
▁ᎣᎬᏒ	-10.3533
ᏲᎢᏴ	-10.3533
▁ᏫᏚᏯᏅᎲᎩ	-10.3534
▁ᎠᏆᏓᏅᏛ	-10.3534
▁ᎤᏓᎴᏅᏛ	-10.3534
ᏰᎭ	-10.3534
▁ᏅᏓᎬ	-10.3536
▁ᎤᎵᏬᏨᎯ	-10.354
▁ᎤᏪᏅᏒᎩ	-10.3542
▁ᏚᏌᎳᏓᏁ	-10.3542
▁ᎠᏥᎸᎨᎳᏍᏗᏱ	-10.3545
ᏛᏅ	-10.3548
▁ᏥᏍ	-10.3548
ᏗᏏ	-10.3555
▁ᎤᏪᏙᎸᎩ	-10.3556
▁ᎤᎩᎸ	-10.3558
▁ᎤᏄᎪᏨᎩ	-10.3564
▁ᎨᎦᎫᏴᎡ	-10.3566
▁ᎾᏂᏪᏍᎬᎢ	-10.3567
▁ᎠᏎᏍᎩᏂᏃᏅ	-10.3573
▁ᎤᏰᎸᏁᎢ	-10.3574
▁ᏙᏯ	-10.3579
▁ᎠᏨᏯᎢ	-10.3593
▁ᏕᎳ	-10.3596
▁ᎢᎾᎩ	-10.3597
▁ᎤᏂᏰᎸᏁ	-10.3603
ᏄᎪᏩ	-10.3605
ᎧᏁ	-10.361
▁ᎧᏁᏉ	-10.3612
▁ᏲᎩ	-10.3626
ᏛᏂ	-10.3627
ᏩᏒ	-10.3628
▁ᎢᏳᏓᎵ	-10.3631
▁ᎠᏤᎵᏍᏛᎢ	-10.3637
▁ᎠᏫᏍᎩ	-10.3638
▁ᎤᏂᎬ	-10.3646
▁ᎧᎪ	-10.368
ᏓᏱᎵ	-10.3685
ᏲᎯᏍᏔᏅ	-10.3687
ᎲᏍᎦ	-10.3696
▁ᏔᎵᏍᎪ	-10.3706
▁ᏄᏩᏁᎴᎢ	-10.371
▁ᏴᏓ	-10.3711
▁ᏗᎦᏚᎲᎢ	-10.3718
▁ᎤᎶᎩᎸᎢ	-10.3737
ᎯᏓ	-10.3739
▁ᏗᎦᏅᏌᏗ	-10.3743
▁ᏫᏗᎦ	-10.3753
ᎵᏍᏕᎸᏙᏗ	-10.3757
▁ᎾᏋᏁᎸ	-10.3759
ᏁᎸᎾ	-10.3759
▁ᎬᎾ	-10.3767
Ꮮ	-10.3767
ᏓᎴᏅᏛ	-10.3783
▁ᏛᏂ	-10.379
▁ᎤᎬ	-10.3802
ᏙᎸ	-10.3803
▁ᏱᏏ	-10.3811
▁ᏙᎩᎾ	-10.3837
ᏅᏔ	-10.3842
ᎸᏉᏙᏗᏱ	-10.3849
▁ᎠᏋᎭ	-10.3851
▁ᎤᎴᏁ	-10.3851
ᎰᎵ	-10.387
▁ᎠᏟ	-10.3877
ᏥᎪᏩᏛ	-10.388
▁ᏂᏕᎬᏁ	-10.3881
ᎲᏍᎪᎢ	-10.3885
ᏤᎵᎦ	-10.3885
▁ᏥᎪᎥ	-10.3892
▁ᎤᏥᎸᏒ	-10.3894
▁ᏣᏁ	-10.3905
▁ᏄᎵᏍᏔᏁᎮ	-10.3937
ᏁᏃ	-10.3942
▁ᎤᎲᎢ	-10.3969
▁ᏰᎵᏍᎨ	-10.3974
▁ᏧᏬ	-10.4011
ᏍᏆᏙᏅ	-10.4015
ᏛᏙᏗ	-10.4018
▁ᎠᏫᎾ	-10.402
ᎱᏍᏗ	-10.4022
▁ᎢᎯ	-10.4023
ᏍᏔᎾ	-10.4034
▁ᎢᏣᏓᏅᏘ	-10.4039
ᏁᎮᎢ	-10.4051
▁ᎭᏓ	-10.4055
ᎠᏈ	-10.4057
▁ᎣᎩᏂ	-10.4061
ᎦᎳ	-10.4068
▁ᏱᏙᎦ	-10.4072
▁ᏂᎬᏩ	-10.4074
ᎳᏓ	-10.4082
▁ᎣᎬ	-10.4089
ᏒᏍᏗ	-10.4096
ᏍᏕᎵᎭ	-10.4115
ᏗᏍᎬᎾ	-10.4118
ᏓᏂ	-10.4119
ᏒᏃ	-10.4128
▁ᎢᎬᏁ	-10.413
ᏓᏅᏖᏗ	-10.4131
ᏍᏓᏩᏗᏙᎯ	-10.4137
ᎾᏄᎪᏨᎯ	-10.4137
ᎧᏅ	-10.4159
▁ᎡᎦ	-10.4166
▁ᏓᏲ	-10.4167
▁ᎤᎾᏛᎦᏁ	-10.4182
ᏏᏆ	-10.4183
ᎯᏯ	-10.4184
ᏉᏍᎪ	-10.4186
ᏅᎵ	-10.4189
▁ᎦᏰᏥ	-10.4205
ᏇᏅ	-10.4211
ᏂᏗ	-10.4216
▁ᎩᎳᎯ	-10.4232
Ꮛ	-10.4234
ᏰᏌᏛ	-10.4236
ᎪᎵᏰ	-10.4245
▁ᏱᏍᎩ	-10.4246
▁Ꮉ	-10.425
ᏕᏗ	-10.4254
▁ᏱᏗᎦ	-10.4255
▁ᎤᏍ	-10.4263
▁ᎡᏥᏁᏗ	-10.4278
ᏠᏍᏗ	-10.4323
▁ᏥᏂᎦᏪ	-10.4324
ᏍᏔᏱ	-10.4327
ᎵᎢ	-10.4328
ᏦᏅ	-10.433
ᎪᎵᏰᏗ	-10.4355
ᏥᏩᏛᎲ	-10.4368
▁ᎾᎿᏉ	-10.4378
▁ᎠᏓᏅᏖᎵᏙ	-10.4382
▁ᎠᏍᎪᎯᏃ	-10.4395
ᎦᏓᏁ	-10.4404
ᏢᏅ	-10.4406
▁ᏧᎾᎴᎯᏐ	-10.4407
h	-10.4417
ᎾᏄᎪᏫᏒᎯ	-10.4429
ᎠᏎ	-10.4431
▁ᏄᏂᏪᏒ	-10.4444
ᎢᏒ	-10.4446
▁ᏱᏓᏂ	-10.4447
▁ᎤᏂᎩᏒ	-10.4448
▁ᏫᏓᏂ	-10.4455
▁ᎾᎬᏁᎸ	-10.4455
▁ᎯᏰᎸ	-10.4467
▁ᏓᏈ	-10.4468
ᏍᏆᏂᎪᏙᏗᏱ	-10.4469
ᎯᏫ	-10.4469
▁ᏂᎦᎵᏍᏗᏍᎨ	-10.4472
▁ᎣᏓᏅᏛ	-10.4484
▁ᎤᏲᎯᏍᏔᏁ	-10.4488
ᏗᏂᏅᏌᏗ	-10.449
ᎭᏕᏬ	-10.4492
▁ᏧᏴᏢ	-10.4493
▁ᎢᏣᏓᏡᎬ	-10.4497
▁ᎤᎾᎵᎮᎵᏤ	-10.4499
on	-10.4501
ᎨᎵᎠ	-10.4502
▁ᏥᏂ	-10.4503
ᎠᎩᎾ	-10.4504
ᎦᎸᎳᏗ	-10.4505
ᎠᏕᎸ	-10.4506
▁ᎡᏙᎮ	-10.4509
▁ᏕᎤᎴᏔᏅ	-10.4509
ᏍᎦᎩ	-10.4511
ᎭᏲᎲ	-10.4512
ᏗᎦᏘᏯ	-10.4512
▁ᏧᏓᏅᏛ	-10.4513
▁ᏥᏁ	-10.4518
ᎦᏔᎲ	-10.452
ᎾᏄᎪᎢᏍᏗ	-10.4522
ᎧᎵᏨᎯ	-10.4522
▁ᎤᏪᏴ	-10.4522
ᏠᎠᏏ	-10.4529
ᏲᎯᏎᎸᎩ	-10.4535
▁ᎠᏓᏁᏣᏍᏚᎶ	-10.4537
▁ᏚᏂᎸᏫᏍᏓᏁᎸ	-10.4538
▁ᎤᏗᏞ	-10.4551
▁ᎢᏙᎻ	-10.4557
▁ᏏᏓᏁᎸ	-10.4558
▁ᏧᏂᎳᏫᎢᏍᏗ	-10.4563
▁ᎠᏲᎱᏒ	-10.4564
▁ᏅᏲ	-10.4564
▁ᎠᏥᏍᏕᎸᏗ	-10.4565
▁ᏣᎾᏫ	-10.4571
▁ᏙᏧ	-10.4571
▁ᎮᎵᎠ	-10.4582
▁ᎤᎾᏕᏅ	-10.4582
▁ᏥᏰ	-10.4583
ᎭᏄᎸᎯ	-10.4584
▁Philadelphia	-10.4586
▁ᏐᎵᎹᏅ	-10.4586
▁ᏕᎨᎦᏨᏍᏗᏍᎬ	-10.4586
▁ᏕᏦᎯᏳᏎᏍᏗ	-10.4586
▁ᏚᏍᏆᎸᏔᏁ	-10.4586
▁ᎬᏩᏠᏯᏍᏗ	-10.4586
▁ᏆᎳᏆ	-10.4586
▁ᏗᎦᏒᏍᏔᏅ	-10.4586
▁ᎢᏦᎯᏳᎯ	-10.4586
▁ᏚᏩᏂᎦᏢ	-10.4586
▁ᎤᏒᎯᏰᏱ	-10.4586
▁ᏀᎢᏳ	-10.4586
▁ᏇᏚᎡᎵ	-10.4586
▁ᎤᏣᎴᏓ	-10.4586
▁ᏗᎾᏕᏲᎲᏍᎩ	-10.4586
▁ᏧᎴᎯᏌᏅᎯ	-10.4586
▁ᎨᏅᎢᏍᏗ	-10.4586
▁ᎤᏗᏔᎲ	-10.4586
▁ᏚᎧᎿᏁ	-10.4586
▁ᎧᏂᎵᏯ	-10.4586
▁ᏧᏴᏨ	-10.4586
▁ᎤᏬᏓᎸ	-10.4586
▁ᏓᏳᏂᎶᏒ	-10.4586
▁ᏧᏙᎢᏓ	-10.4586
▁ᎦᏣᏃᏍ	-10.4586
▁ᏗᎦᎸᏫᏍᏓᏁᎸᎯ	-10.4586
▁ᎢᏧᎾᏓᎳ	-10.4586
▁ᏅᏩᏙᎯ	-10.4586
▁ᎤᏄᎪᎢᏍᏗ	-10.4586
▁ᎡᏅᏍᏗ	-10.4586
▁ᎠᏚᎸᏗ	-10.4586
▁ᏧᏣᏲᏍ	-10.4586
▁ᎢᏥᏆᎵᏏ	-10.4586
▁ᏱᏣᏓᏅᏖᏗᏍᎨᏍᏗ	-10.4586
▁ᏚᏃᏢᏅᎩ	-10.4586
▁ᎤᏓᏑᏱ	-10.4586
▁ᏗᏥᎸᏫᏍᏓᏁᏗᏱ	-10.4586
▁ᎤᏓᏅᎵᏰᎥ	-10.4587
▁ᏚᏛᏛᏁ	-10.4587
▁ᎡᏣᏂᎵ	-10.4587
▁ᏓᎵᏆ	-10.4587
▁ᎢᏗᏅᏁ	-10.4587
▁ᏗᎨᏥᎾᏝᎢ	-10.4587
▁ᎦᏓᎷᏯᏛ	-10.4587
▁ᎠᎾᏛᎩᏍᎩ	-10.4588
▁ᎠᎩᎷᏥᎸ	-10.4588
▁ᏗᎬᎪᏩᏛᏗ	-10.4588
▁ᎠᏂᎴᏴᏍᎩ	-10.4588
▁ᎠᏍᏆᏚᎸ	-10.4588
▁ᎤᎵᎬᎭᎷᏴ	-10.4589
ᎾᏙᏓᏆᏍᏗ	-10.4589
▁ᏱᎪᎵᎦ	-10.4589
▁ᎤᎾᏓᏓᏍᎬ	-10.4589
▁ᏗᏛᏓᏅᎯ	-10.4589
▁ᎢᎠ	-10.4589
▁ᏗᎪᏑᎴᏗᏱ	-10.459
▁ᎾᏯᏛᎡᏍᏗ	-10.459
▁ᏧᎴᏔᏅᎯ	-10.459
▁ᎬᏩᏲᎱᎯᏍᏗ	-10.459
▁ᏧᏓᎴᏅᎲ	-10.4591
▁ᎬᏆᏛᏁᏗᏱ	-10.4591
▁ᏥᎣᎵ	-10.4591
▁ᎠᏄᎦᎸ	-10.4591
▁ᏂᏥᎦᏔᎲᎾ	-10.4592
▁ᎥᏥᎪᎥᎩ	-10.4592
▁ᎪᏍᏗ	-10.4592
▁ᎠᏓᏍᏓᏩᏗᏙᎯ	-10.4592
ᏛᏅᎢᏍᏙᏗᏱ	-10.4592
▁ᎤᏕᏁᎢ	-10.4592
▁ᎤᏓᎴᏨ	-10.4592
▁ᎤᎾᎵᏗᎩᏛ	-10.4593
▁ᎤᏬᏪᎳᏅᎯ	-10.4593
▁ᎠᏓᏪᎳᎩᏍᎬ	-10.4593
ᎳᏏᏕᎾ	-10.4594
▁ᎠᎹᎴᎩ	-10.4594
ᎤᏅᏓᏕ	-10.4594
▁ᏚᎷᏫᏍᏔᏁᎲ	-10.4594
▁ᎤᏂᎪᎮ	-10.4594
▁ᎢᎩᏅᏟ	-10.4595
▁ᏍᎩᎾᏝᎢ	-10.4595
▁ᎤᎵᏨᏓᏆᏓ	-10.4595
▁ᎢᏧᏕᏘᏴᏛ	-10.4596
▁ᎤᎬᏫᏳᏎᏍᏗ	-10.4596
▁ᏔᎸᏗ	-10.4596
▁ᎤᎶᎯᏍᏗ	-10.4597
▁ᏧᎾᏄᏩᎢ	-10.4598
▁ᎾᏁᎲᎾ	-10.4599
▁ᎠᎵᎮᎵᎬ	-10.46
▁ᎠᏁᏙᎭ	-10.46
▁ᎤᎧᎭᏛ	-10.46
▁ᎠᎩᏰᎸᎲ	-10.4601
▁ᎠᏨᏍᏛ	-10.4601
▁ᎤᎴᏫᏍᏔᏁ	-10.4602
▁ᏭᏂᏴᎴᎢ	-10.4602
▁ᎠᎵᏥᏙᎲᏍᎨ	-10.4602
▁ᎤᏂᏰᎸᏒᎩ	-10.4603
ᏥᎯᏍᏗ	-10.4603
▁ᎦᏅᏙᏗ	-10.4604
▁ᎡᏙᎭ	-10.4607
▁ᏧᏬᎸ	-10.4608
▁ᎠᏴᏤᏂ	-10.4608
▁ᎨᏥᏁᎸᎯ	-10.4609
ᏲᎭ	-10.4609
▁ᎧᏃᎩᏍᏗ	-10.4609
▁ᎥᎩᏙᏉ	-10.461
ᎦᏃᎱᎩᏍᎬ	-10.4611
▁ᎤᎾᏗᏅᏗ	-10.4612
▁ᎤᏅᏙᏗᏱ	-10.4613
▁ᏭᏂᎶᏒᎩ	-10.4614
▁ᎤᏪᎧᏅᎩ	-10.4614
▁ᏗᏂᎦᏘᏯ	-10.4615
▁ᏥᏍᎪᎵ	-10.4619
▁ᏄᏂᏪᏎᎸᎩ	-10.4619
▁ᎢᏳᏓᎵᎭ	-10.462
▁ᏯᏗᎭ	-10.462
▁ᎾᏍᎦᎢᎲᎾ	-10.4621
▁ᎾᏂᎡᎢ	-10.4622
▁ᎠᎧᎵᏬᎯ	-10.4622
▁ᎤᏨᏉᏗ	-10.4623
▁ᎤᏙᏓᏆᏓ	-10.4624
ᎩᎡᎸ	-10.4626
▁ᎠᏓᎴᏂᏍᎬ	-10.4629
▁ᏗᎦᎵᏍᏙᏗᎭ	-10.463
▁ᎠᏟᏍᏛᎢ	-10.463
▁ᎤᏕᏗᏱ	-10.463
▁ᎤᏯᏅᎯ	-10.463
ᎡᎴᎢ	-10.4631
▁ᎡᎮᎾ	-10.4631
▁ᏗᏟᏍᏗ	-10.4632
▁ᏐᏓᎻᏱ	-10.4633
▁ᎤᏪᏁᎢ	-10.4633
▁ᎠᏯᎥ	-10.4634
▁ᎢᎩᏁᎸᎯ	-10.4634
ᎶᎯᏍᏗᏱ	-10.4637
▁ᎤᏰᎸᎭ	-10.4642
▁ᏗᏐᎢ	-10.4642
▁ᏫᎦᎶᎯᏍᏗ	-10.4646
▁ᏣᏚᎵᎭ	-10.4647
▁ᏯᎩᎭ	-10.4651
▁ᏍᏓᏱ	-10.4652
▁ᏍᎩᎨᏳ	-10.4652
ᏰᏂ	-10.4656
▁ᏧᏁᎳ	-10.4657
▁ᎢᎦᏁᎳᏅᎯ	-10.4657
▁ᏓᏳᏓᎴᏅᏓ	-10.4657
▁ᏱᎾ	-10.4659
▁ᎦᏗ	-10.4661
▁ᎦᏁᏌᎢᎯ	-10.4662
▁ᏙᏥ	-10.4665
ᏗᏍᎪᏂᎯ	-10.4668
ᏅᏍᏗᏱ	-10.467
▁ᏚᏂᎸᏫᏍᏓᏁᎸᎢ	-10.467
▁ᎡᏙᎮᎢ	-10.4671
▁ᎤᎵᏏᏂ	-10.4671
▁ᏥᎨᏥ	-10.4674
▁ᎭᎾᏂ	-10.4674
▁ᎢᏯᎬᏁᏗ	-10.4677
▁ᎤᎾᏛᎦᏁᎢ	-10.4677
▁ᎤᏩᏛᎮᎢ	-10.4679
▁ᎢᏗᎦᏪᏍ	-10.4681
▁ᎤᏎᎵᏔᏅ	-10.4688
▁ᏭᎷᏨᎩ	-10.4695
▁ᎠᏒᎭ	-10.4696
▁ᏧᏂᎵ	-10.4697
▁ᎡᎵᏍᎨᎢ	-10.4703
▁ᎦᏄᎸᏒ	-10.4704
ᏁᎶᏗ	-10.4708
▁Ꮝ	-10.4708
▁ᎥᎵ	-10.4717
▁ᎬᏙᏗᏱ	-10.4718
▁ᎤᏓᏅᏖᎸᎢ	-10.4718
▁ᎤᏍᏉᏟ	-10.4718
▁ᎤᏃᎮᎴ	-10.4719
▁ᎤᏯᎢ	-10.4723
▁ᏏᎦ	-10.4725
▁ᎢᏌ	-10.4727
▁ᏕᏥᎸᏫᏍᏓᏁᎲᎢ	-10.4729
ᏍᏕᎵᏍᎬ	-10.473
ᏍᏕᎸᎯ	-10.4736
▁ᎤᏓᏅᏛᎢ	-10.4737
▁ᏄᎳ	-10.4738
▁ᎢᏦ	-10.4739
▁ᎠᏑ	-10.4744
▁ᎤᏓᏅᏎᎢ	-10.4745
ᎥᏍᎨᏍᏗ	-10.4746
▁ᏚᏁᎴᎢ	-10.4758
▁ᎾᎾᏛᏁᎲᎢ	-10.4761
▁ᏗᏟ	-10.4764
ᎳᏅ	-10.4768
▁ᎢᏦᎯᏳᏒᎢ	-10.4771
▁ᎡᎵᎩ	-10.4783
▁ᎤᏯᏅᏒ	-10.4783
▁ᎦᏓᏅᏖᏍᎬᎢ	-10.4789
▁ᏗᎬᏗ	-10.4796
▁ᏦᎾ	-10.4798
▁ᏧᎵᏏ	-10.48
▁ᏗᎬᏩᏓᏂᎸᎢᏍ	-10.4802
▁ᏗᏍᎩ	-10.4806
▁ᎡᎲᎩ	-10.4811
▁ᎠᏍᎦᎾᎢ	-10.4813
▁ᎤᏲᎴ	-10.4813
▁ᏥᏁᎸ	-10.4815
▁ᏚᏁᏤᎴᎢ	-10.4816
ᎳᏁᎢ	-10.482
ᏍᏛᏱ	-10.4833
ᎦᏨ	-10.484
▁ᎠᎦᏘᏰ	-10.4856
▁ᏅᏗ	-10.4857
▁ᎦᏯ	-10.486
ᎪᎵᏰᎡ	-10.4864
▁ᎠᎾᏗᏍᎪ	-10.4865
▁Ꮂ	-10.4866
▁ᎤᏪᏅᏎᎢ	-10.4869
▁ᏅᏓᏳᎾᎵᏍᎪᎸᏔ	-10.487
▁ᏧᎾᏄᎪᏫᏎᏗ	-10.4874
▁ᎠᏍᏛᎢ	-10.4892
▁ᎪᏍᏔ	-10.4909
▁ᎤᎪᎲᎩ	-10.4915
▁ᏗᏂᏩᎾᎦᎳ	-10.4917
▁ᎤᎾᏄᎪᏫᏒ	-10.4922
▁ᎤᏁᎳ	-10.4925
ᏁᏤᎵ	-10.4938
▁ᎠᏓᏅᏖᏍᎬᎢ	-10.4939
ᎢᎦ	-10.4943
▁ᎤᏅᏅ	-10.4948
▁ᎤᏪᎷᏁᎢ	-10.4951
▁ᎤᎵᏍᏚᎢ	-10.4964
▁ᏇᎵᏥ	-10.4968
ᏲᎰᏎᎸ	-10.4979
▁ᏗᏂᏃ	-10.5002
▁ᎠᏲᎱᏍ	-10.501
▁ᎤᎾᏙᏓᏆᏍᎬᎢ	-10.501
▁ᎤᏍᎪ	-10.5012
▁ᎠᏂᏤ	-10.5017
ᏂᏫ	-10.5031
▁ᎤᎾᎩᎸ	-10.5035
▁ᎠᏆᏓᏅᏖᏗ	-10.5035
ᏬᎥ	-10.5039
▁ᏅᏗᎦᎵᏍᏙᏗᏍᎨᎢ	-10.5045
▁ᎠᏥᏁᎸ	-10.5051
▁ᎦᏚᏱ	-10.5059
ᎥᎦ	-10.5081
▁ᎠᏋ	-10.5086
▁ᎤᏂᏴ	-10.5093
ᏓᏁᏟᏴᏛ	-10.5095
▁ᎤᏂᏩᏛᏗ	-10.511
▁ᎢᏣᎵ	-10.5127
ᏍᏛᎢ	-10.5131
▁ᏗᎲ	-10.5147
ᎦᏙᎥᎯᏍᏗᏱ	-10.5163
▁ᏙᏘ	-10.5173
ᏚᏓ	-10.5176
ᎣᎢ	-10.5179
ᏍᏆᏂᎪᏕᏍᏗ	-10.5182
▁ᏂᎦᎵᏍᏙᏗᏍᎨ	-10.5185
ᎳᏗᏍᏗ	-10.519
▁ᎤᎾᏄᎪᏫᏎ	-10.5194
▁ᏚᏓ	-10.5208
ᏃᎮᏍᎬᎢ	-10.5214
ᏂᏯ	-10.5219
▁ᎠᎦᏕ	-10.5223
ᎷᎩ	-10.5231
ᏅᏓᏛ	-10.5237
ᏂᏙᎯ	-10.524
▁ᏕᎫ	-10.525
▁ᎤᎵᎮᎵᏤ	-10.5251
▁Ꮺ	-10.5255
▁ᏧᎴ	-10.5256
ᏛᏔᏂ	-10.528
ᎳᏏ	-10.5281
▁ᎠᎨ	-10.5283
▁ᎢᏥᎩᏍᏗ	-10.5293
ᎢᏴ	-10.5296
ᏟᎶᏍᏙᏗ	-10.5303
ᏛᏁᏗᏱ	-10.5305
▁ᎾᎦᏛ	-10.5342
▁ᏂᏨ	-10.5358
▁ᏙᎯᏳ	-10.5361
ᎨᏛ	-10.5362
▁ᎬᏗᎭ	-10.5374
▁ᏛᎩ	-10.5381
ᎵᏍᎬ	-10.5382
▁ᎤᏥᏃ	-10.5387
ᏍᎦᏰᎬᏍᏓ	-10.54
▁ᎡᏣᎫᏴ	-10.5402
ᏎᎸᎩ	-10.5403
Ꮽ	-10.541
▁ᏙᏓᏣ	-10.5416
▁ᏲᎦ	-10.5424
▁ᏗᏨᏂᏗ	-10.5426
ᏓᎳ	-10.5428
ᏛᏁᎵ	-10.5431
▁Ꮏ	-10.5455
ᏍᏖ	-10.5461
ᎮᏃ	-10.5462
▁ᎢᏥᎲ	-10.5474
▁ᏚᏯᏪ	-10.5476
ᎴᏅᏛ	-10.5477
▁ᏂᏛ	-10.5477
ᏙᎴ	-10.5485
▁ᎤᏁᎴ	-10.5485
▁ᎡᎳᏪᏱ	-10.5487
ᎾᏝᎠ	-10.5503
▁ᎢᏍᏓ	-10.5511
▁ᎦᏅᎨ	-10.5515
ᏪᏒ	-10.5517
▁ᏱᏫ	-10.5524
ᎨᏍᏗᏗ	-10.5526
ᏣᎵ	-10.5546
▁ᏕᏨ	-10.5546
▁ᏚᏙ	-10.5549
ᏅᏖ	-10.5558
ᏲᎵ	-10.5562
▁ᎤᏂᎦᏙᎥᏒ	-10.5568
▁ᏦᏥ	-10.5582
▁Ꮮ	-10.5582
▁ᎠᏢ	-10.5584
▁ᎠᏗᏍᎬ	-10.5584
▁ᏂᎯᎾ	-10.5587
▁ᎤᎧᏔ	-10.5589
ᏘᏰ	-10.5591
ᎬᏫᏳᎯ	-10.5592
▁ᏨᏗ	-10.5593
ᏙᎵᏨ	-10.5596
ᏘᏲᏍᏗ	-10.5597
▁ᏂᎯᏍᎪ	-10.5598
▁ᏣᏆ	-10.5601
▁ᎤᎦᏛ	-10.5602
▁ᎦᏣᏄᎵ	-10.562
ᏯᎥᎢ	-10.5633
▁ᎢᏣᏚᎵ	-10.564
ᏁᏎᎢ	-10.5641
ᏍᏔᏅᎭ	-10.5642
▁ᏕᏣᎧ	-10.5681
ᏠᏨ	-10.5693
▁ᏂᏚᏪᏎᎸ	-10.5699
▁ᎦᎶ	-10.5705
▁ᏧᎳᏑᎶ	-10.5709
ᏲᎪ	-10.5716
ᏙᎬ	-10.5719
ᏦᏁ	-10.572
▁ᏓᎵᏍᏗᎳᏁᎬ	-10.5732
▁ᏙᏓᏆᏍᎬ	-10.5742
▁ᎤᏁᎵᏎ	-10.5743
▁ᏗᎦᏅᏬ	-10.5743
▁ᎤᏬᎴ	-10.5746
▁ᎢᏕᎲ	-10.5747
▁ᏓᏂᎳᏫᎥ	-10.5749
▁ᏗᏥᎦᏴᎵᎨ	-10.575
▁ᏓᏟᎶᏍᏛ	-10.575
▁ᎧᎸᎬ	-10.5751
ᎶᏐᏅ	-10.5751
▁ᎤᏗᏛᎮ	-10.5751
▁ᎢᎩᏍᎦᏅᏨ	-10.5753
▁ᎤᏬᏎᎴ	-10.5753
▁ᏳᏫ	-10.5754
▁ᎯᎠᏉ	-10.5755
r	-10.5756
ᏴᎵ	-10.5756
▁ᎠᏂᏙᎾᎡ	-10.5757
▁ᎤᏚᎢᏍᏔᏅ	-10.5757
▁ᏚᎴᎯᏌᏅ	-10.5761
ᏁᏨ	-10.5762
▁ᎤᏪᎧᏁᎴ	-10.5762
ᏥᎨᏳᎢ	-10.5763
ᏕᎬ	-10.5765
▁ᎠᏂᎦᏴᎵᎨ	-10.5768
▁ᏓᏂᎧᏅ	-10.577
▁ᏧᎦᏴᎵᎨ	-10.5773
ᎠᎹ	-10.5775
▁ᎡᎵᏍᎬ	-10.5778
ᎵᏬᏨ	-10.578
ᎬᏫᏳᏌᏕᎩ	-10.5782
▁ᎦᎢᏒ	-10.5783
ᎾᏉ	-10.5784
▁ᎭᏗ	-10.5786
ᏟᏂᎩᏓ	-10.5789
ᎤᏍᏆᏂᎩᏗ	-10.5791
▁ᏚᏁᏤᎸ	-10.5793
▁ᎦᏆᏘ	-10.5794
ᎧᎵᏬᎯ	-10.5795
ᏛᏁᎲ	-10.5797
ᎤᏙᎯᏳᎯ	-10.58
▁ᎠᏁᎮ	-10.5806
▁ᎪᏢᏔᏅ	-10.5806
ᏅᎪᏤ	-10.5808
▁ᎠᏕ	-10.5808
▁ᏤᏅᏍᏗ	-10.581
▁ᎤᏩᏛᎮ	-10.5811
▁ᏚᎷᏫᏍᏔᏁ	-10.5812
ᏂᎦᏓ	-10.5813
▁ᎤᏂᏍᏆᏂᎪᏙᏗ	-10.5813
▁ᎤᏂᏗ	-10.5813
▁ᎪᎹᎵ	-10.5813
ᎸᏫᏍᏓᏁᏗ	-10.5817
▁ᎢᏥᏍᏆᏂᎪᏙᏗ	-10.5817
▁ᎪᏍᏓ	-10.5817
ᏔᏲᏎᎸᎩ	-10.5819
▁ᎠᏓᎨᏗ	-10.582
ᎴᎯᏌᏅ	-10.5822
▁ᎢᏳᏅᏁᏗ	-10.5822
▁ᎨᏥᏁᏗ	-10.5825
▁ᎤᎾᏅᏗ	-10.5827
▁ᎤᏰᎸᏎ	-10.5832
ᏴᏐᎵ	-10.5832
ᎾᏓᎴᎩ	-10.5835
▁ᎡᏉᏄᎶᏗ	-10.5836
▁ᎤᏂᏚᏯᏍᏗ	-10.5836
▁ᎤᏓᏏᏂᏕᎾ	-10.5836
▁ᎤᏪᏲᏓᏛ	-10.5836
▁ᎾᏂᎳᏍᏓᎸ	-10.5836
▁ᏅᏓᎬᏴᏁᎵ	-10.5836
▁ᏈᏯᏏᏆ	-10.5836
▁ᏗᎾᏙᏂᏍᎩ	-10.5836
▁ᏦᎩᎸᏫᏍᏓᏁᎯ	-10.5836
ᎦᏌᏯᏍᏕᏍᏗ	-10.5836
▁ᎠᏣᏪᏐᎸᏍᏙᏗᏱ	-10.5836
▁ᎦᎵᏦᏙᏙᏗ	-10.5836
▁ᏆᎻᏆᏂ	-10.5836
▁ᎢᏰᏆ	-10.5836
▁ᏗᎧᏁᎢᏍᏗ	-10.5836
▁ᎯᎦᏙᎵ	-10.5836
▁ᎯᎧᏅᎭ	-10.5836
▁ᏂᏚᎾᏓᏪᏎᎸᎩ	-10.5836
▁ᏫᏂᎦᎵᏍᏙᏓ	-10.5836
▁ᎤᏓᏛᏛᏁ	-10.5836
▁ᎦᏅᏃᏩ	-10.5836
▁ᏗᏉᏰᏂ	-10.5836
▁ᎠᏂᏙᎾᎢ	-10.5836
▁ᏧᏁᎿᎢ	-10.5836
▁ᏧᏩᏂᎦᏝᏅ	-10.5836
▁ᏄᏬᎯᏳᏒᎾ	-10.5836
▁ᏧᏃᏚᎯ	-10.5836
▁ᏗᏆᎳᏏᏕᏂ	-10.5836
▁ᏅᏓᎪᎯᏥ	-10.5836
▁ᎤᏢᏉᏗ	-10.5836
▁ᏅᏃᎱᎶᏗ	-10.5836
▁ᎢᎳᏏᏗ	-10.5836
▁ᏧᎾᏓᏍᏚᏗ	-10.5836
▁ᎬᏩᏕᏁᎸᎯ	-10.5836
▁ᏕᏥᏲᎵᎸᎭ	-10.5836
▁ᎦᏣᏄᎸ	-10.5836
▁ᏗᎦᏃᏣᏟ	-10.5836
▁ᎤᏪᏚᎲ	-10.5836
▁ᎤᏬᏞ	-10.5836
▁ᎪᏒᏔᏅ	-10.5836
▁ᏱᏄᎵᏍᏔᏅ	-10.5836
▁ᎤᏂᎸᏉᏔᏁ	-10.5836
▁ᎤᏂᎬᎥᏍᎩ	-10.5836
▁ᏅᏓᏳᏓᎴᏅᏛ	-10.5837
▁ᏱᏤᎵᎯᏍᎨᏍᏗ	-10.5837
ᏍᎦᎣᏅ	-10.5837
▁ᎰᏪᎸᎦ	-10.5837
▁ᏓᎩᏯᏪᎦ	-10.5837
▁ᏧᏓᏘᎾᎢ	-10.5837
▁ᎦᏯᎴᏍᏗ	-10.5837
▁ᏗᎧᏂᎨ	-10.5837
▁ᎤᎾᏓᏑᏰᏛ	-10.5837
▁ᎢᏨᏍᏗᏰᏗᎭ	-10.5837
▁ᎥᎩᏅᏟ	-10.5837
▁ᎢᎬᏪᏅᏛ	-10.5838
▁ᏂᏚᏅᏏᏴ	-10.5838
▁ᏧᏃᏩ	-10.5839
▁ᎬᏩᏓᏍᏕᎸᏗ	-10.5839
▁ᏕᎪᏢᏩᏗᏒ	-10.5839
▁ᏗᏁᏙᎲ	-10.5839
▁ᏄᏠᎾᏍᏛᎾ	-10.5839
▁ᎠᏂᎾᏁᏍᎬ	-10.5839
▁ᎢᎧᏁᎢᏍᏗ	-10.5839
▁ᏗᎩᏅᏒ	-10.5839
▁ᎠᏆᏓᎵᎢ	-10.5839
ᏃᎴ	-10.5839
▁ᏄᏂᎲᎾ	-10.5839
▁ᎠᏂᏯᎢ	-10.5839
▁ᏌᏈ	-10.5839
▁ᎤᏂᏑᎸᏓ	-10.584
▁ᎲᏗᏍᎨᏍᏗ	-10.584
▁ᎿᏛᎦ	-10.584
▁ᎦᏌᎴᏂ	-10.584
▁ᎡᏣᎸᏉᏗᏳ	-10.584
▁ᎤᏍᏗᎩᏛ	-10.584
▁ᎢᏥᏪᏍᏗᏱ	-10.584
▁ᏚᎦᏌᏛ	-10.584
▁ᎠᏆᎵᏍᏓᏴᏗ	-10.5841
▁ᎠᎹᏳᎶᏗ	-10.5841
▁ᎤᏕᎶᎰᏒ	-10.5841
▁ᏗᎫᎪᏗᏍᎩ	-10.5841
ᏕᎦ	-10.5841
▁ᎠᏁᏢᏔᏅᎯ	-10.5842
▁ᏙᏗᏣᏓᏅᏛᎢ	-10.5842
▁ᏫᎨᏥᏲᎵᎭ	-10.5842
▁ᏓᎭᏃᏫ	-10.5842
▁ᎡᏃᏱ	-10.5842
▁ᏚᏦᎯᏍᏛ	-10.5842
ᎳᎩᏒ	-10.5843
▁ᎠᎾᏓᏙᎵᏍᏓᏁᎯ	-10.5843
▁ᎬᏁᏍᏗ	-10.5843
▁ᎤᎩᎵᏲᏨ	-10.5843
▁ᎦᎵᎡᎵᎦ	-10.5844
▁ᏧᏙᏓᏆᏛ	-10.5844
ᎿᏕᎩ	-10.5844
▁ᎠᎬᏓᎨᏂ	-10.5844
▁ᎯᏬᏂᏍᎬ	-10.5844
▁ᏗᏓᏬᏍᏗ	-10.5845
▁ᎠᏯᏖᎾ	-10.5845
▁ᎤᏃᏍᏛ	-10.5845
▁ᏚᏭ	-10.5845
▁ᎤᏂᎵᏦᏩᏛ	-10.5845
▁ᎠᎬᎭᎸᏛ	-10.5846
▁ᏱᏍᎦᎢᎮᏍᏗ	-10.5846
▁ᏓᎬᏁᎵ	-10.5846
▁ᎤᏂᏍᏆᏂᎪᏒᎩ	-10.5846
▁ᎤᎾᏛᏁᎸᏗ	-10.5846
▁ᏥᏅᏗᎦᎵᏍᏙᏗᎭ	-10.5847
▁ᎤᏛᏅᎢᏍᏔᏁ	-10.5847
▁ᎤᎭᎸᏂᎯ	-10.5847
▁ᎤᏘᏴᎯ	-10.5847
▁ᎠᎦᏙᎵ	-10.5848
▁ᎠᎦᎸᏓ	-10.5848
▁ᎬᏩᏃᏁᎴ	-10.5849
▁ᎠᏂᏥᎸᏍᎩ	-10.5849
▁ᎠᎪᏎᎮᏍᏗ	-10.5849
▁ᎢᎪᎯ	-10.585
▁ᏫᏚᎾ	-10.585
▁ᎹᎾ	-10.5852
▁ᎩᎾᎵᎢ	-10.5853
▁ᏅᏓᏰ	-10.5854
▁ᏓᏆᎧᎾᏅ	-10.5854
▁ᎦᏟᏓ	-10.5854
▁ᎮᏂᎵ	-10.5855
▁ᎠᎪᏔᏅᎯ	-10.5855
▁ᎠᏓᏰᎨᏍᏗ	-10.5855
▁ᏂᏨᎦ	-10.5856
▁ᎢᏥᏁᏍᏗ	-10.5856
▁ᎤᏃᎯᏳᏗᏱ	-10.5856
▁ᎠᏥᏅᏏᏛ	-10.5858
▁ᏕᎬᏗᏍᎬ	-10.5858
▁ᎠᎴᏂᏍᎩ	-10.5859
▁ᏧᎾᏄᎪᏫᏒᎯ	-10.5861
▁ᎭᏂᏣ	-10.5862
ᎳᏚ	-10.5862
▁ᎤᏂᏩᏛᎮ	-10.5863
ᏯᏅᎲᎩ	-10.5863
▁ᎠᏂᏴᎩ	-10.5863
▁ᎤᏰᏨ	-10.5864
▁ᏄᎾᎵᏍᏓᏁᎸ	-10.5864
ᎲᏍᎬᎾ	-10.5865
▁ᏕᎧᏁᏤ	-10.5865
▁ᎤᎾᎦᏙᏍᏕᎢ	-10.5866
▁ᎤᏂᏁᎬ	-10.5867
▁ᎩᎳᏊ	-10.5868
▁ᏗᎵᏍᎪᎸᏓᏁᎸᎯ	-10.5869
ᏰᎢᎵᏓᏍᏗ	-10.5869
▁ᎠᏲᏙᏗ	-10.587
.)	-10.5872
▁ᎤᎾᏕᏗᏱ	-10.5873
▁ᎠᏂᎯᏗ	-10.5873
▁ᏣᎨ	-10.5878
▁ᏄᏛᏅᎢ	-10.5879
▁ᏬᎩᎷᏨᎩ	-10.5882
ᏍᏚᏗ	-10.5882
▁ᎤᏡᏗᏍᎩ	-10.5883
▁ᎤᏗᏗᏢ	-10.5884
▁ᎠᎪᎵᏰᏗ	-10.5885
▁ᎤᏂᎩᏍᏗᏱ	-10.5887
▁ᎠᎬᏗᏍᎬᎢ	-10.5887
▁ᏮᏛ	-10.5888
▁ᏗᏥᎾᏫᏱ	-10.589
▁ᎦᏟᎮ	-10.5892
▁ᎤᏪᏅᎩ	-10.5892
ᏎᎭ	-10.5894
▁ᏧᏁᏤᎢ	-10.5894
▁ᏗᏧ	-10.5895
ᏲᎾ	-10.5899
▁ᎤᎵᏍᏆ	-10.59
▁ᎠᎯᏓ	-10.59
ᏯᏔᎮᏍᏗ	-10.5901
▁ᏙᏓᎨ	-10.5902
▁ᏗᏁᎯ	-10.5905
▁ᎠᏂᎩᏍᎬ	-10.5907
▁ᏎᏉ	-10.5907
▁ᎤᎾᏅᏅ	-10.5908
▁ᎤᎵᏍᏆᏛ	-10.5908
▁ᎤᏌᎯᎸᎢ	-10.5909
▁ᏓᏍᏛᎢ	-10.5909
ᏁᏆ	-10.5914
▁ᎠᎵᎮᎵᎨ	-10.5917
▁ᎤᏂᏁᏨᎩ	-10.5922
▁ᎢᎩᏍᎦᏅᏨᎢ	-10.5922
▁ᏕᏥᏁᎸ	-10.5926
▁ᎤᎾᏓᏅᏎ	-10.5928
ᎧᎭ	-10.5931
▁ᎾᏆᏍᏛ	-10.5931
ᎤᏲ	-10.5932
▁ᎦᏓᏍᎬᎢ	-10.5933
▁ᎤᎴᏅᎩ	-10.5935
▁ᏗᎨᏣ	-10.5938
▁ᏗᎪᏢ	-10.5938
▁ᎠᏓᎯᎯ	-10.5939
ᎦᏯ	-10.5945
▁ᎦᏁᏟᏴᏍᏗ	-10.5946
▁ᎠᏥᏛᏙᏗ	-10.5954
▁ᏚᏩᏛᎮ	-10.5954
▁ᎤᏬᎯᏳ	-10.5955
▁ᎪᏛ	-10.5961
▁ᏅᎵᏌᎵᏉ	-10.5963
▁ᎮᏓ	-10.5964
▁ᎤᏤᎸ	-10.5972
▁ᎤᏂᎩᏎᎢ	-10.5973
ᎴᎾ	-10.5976
▁ᎦᏰᏫᏍ	-10.5978
▁ᎤᏚᎸᎲ	-10.5979
▁ᎬᎨᏳᎢ	-10.5985
▁ᏓᏤᎸ	-10.5989
ᏕᏯᏙᏔᏅᎩ	-10.5991
▁ᎤᏂᎪᎲᎯ	-10.5991
▁ᎣᏒ	-10.5991
▁ᎤᏬᏢᏅᎢ	-10.5995
ᎸᏉᏛᎾ	-10.5999
▁ᏱᏂᎬ	-10.6
▁ᏏᎳ	-10.6001
▁ᏮᏓ	-10.6003
ᏔᏲᏍᏗ	-10.601
ᏇᎵ	-10.6014
ᎡᎵᏍᏗ	-10.6015
ᏐᏉ	-10.6017
▁ᎪᏪᎸᎩ	-10.6026
▁ᏣᎪ	-10.6027
ᎿᎢ	-10.6029
▁ᏥᎳ	-10.603
ᏄᎪ	-10.604
▁ᏝᎨ	-10.6042
▁ᎦᎬᏩ	-10.6045
ᏁᎰ	-10.6052
ᏞᏍᏗ	-10.6059
▁ᎦᏅᏅᎢ	-10.6076
▁ᏂᏚᎩᏨᏂᏒᎢ	-10.6079
▁ᏴᎦᎦ	-10.6082
ᎠᏆ	-10.6087
▁ᎤᏩᏔᏅ	-10.6092
▁ᏄᏓᎴᎯ	-10.6094
▁ᎤᏬᎸᎢ	-10.6097
ᎩᏍᎬ	-10.6101
▁ᎡᏍᎦᏂ	-10.6102
ᏫᏍᎩ	-10.6103
ᏔᏂᏓ	-10.6103
ᏍᎬᏏ	-10.6111
ᏃᎮᎸ	-10.6114
ᏙᎵᎩ	-10.6116
▁ᎠᏓᏙᎵᏍᏙᏗ	-10.6125
▁ᎠᎵᏍᏆᏗᏍ	-10.6127
▁ᎵᏏ	-10.6129
ᏴᎩ	-10.6131
ᏎᎸᎯ	-10.6132
▁ᎤᏍᏆᎸ	-10.6137
▁ᎠᏂᏍᎦᎾᎢ	-10.6148
▁ᏄᏍᏕᎢ	-10.6148
▁ᏍᎩᏍᏕᎸ	-10.6149
▁ᎮᎯ	-10.6153
ᏍᏙᏗᏱ	-10.6158
ᎩᏍᏗᏱ	-10.6159
ᏓᏴᎳᏛ	-10.6159
ᏦᏰᏂ	-10.6161
ᎫᏩ	-10.6162
▁ᏅᏩᏍᏛ	-10.6165
▁ᎤᎦᏃ	-10.6166
▁ᎤᏁᏤᎸᎢ	-10.6166
▁ᎾᏍ	-10.6171
ᎦᎹ	-10.6182
▁ᎥᏣ	-10.6183
▁ᎤᎾᏛᎦᏅᎩ	-10.6183
▁ᎲᎦ	-10.6184
▁ᏓᎶᏂᎨᎢ	-10.6192
▁ᏥᏅ	-10.6193
▁ᏕᎨᏥ	-10.6197
ᏍᏚᎢᏒ	-10.6204
ss	-10.6213
ᎧᏏ	-10.6215
▁ᏓᎦᏥ	-10.6224
▁ᏚᏬ	-10.6225
ᎷᏤ	-10.6226
▁ᎠᎩᎸᏉᏗ	-10.623
ᏣᏁ	-10.6236
▁ᎤᏁᏒ	-10.6238
▁ᎢᏥᎩ	-10.624
ᏦᏩᏛ	-10.6251
▁ᎢᏣᏟᏂᎬᏁ	-10.6259
▁ᎤᏙᏳ	-10.6259
▁ᎠᎦᏅ	-10.626
ᏒᎲᏍᏗ	-10.626
ᏪᏎᏗ	-10.626
ᎵᏍᏔᏁ	-10.6265
ᎬᎾᎨ	-10.6269
▁ᏆᎾ	-10.6275
▁ᎤᏩᏁ	-10.6278
▁ᏙᏓᎬ	-10.6287
▁ᎬᏩᏍᏓᏩᏗ	-10.6293
▁...	-10.6302
ᏢᏅᎯ	-10.6312
ᏳᏍᏗ	-10.6316
▁ᎠᎦᏙ	-10.633
▁ᎢᎸ	-10.6335
▁ᎠᏂᏔᎵᎭ	-10.6336
▁ᎾᏕᏘᏴ	-10.6341
ᏥᎶᏏ	-10.6341
ᎵᏓ	-10.6351
ᏏᏗ	-10.6356
ᎶᏏ	-10.6359
ᏂᏴ	-10.6365
ᏁᎲᎩ	-10.6378
▁ᎤᏂᎷᏤᎸ	-10.6386
ᎴᏃ	-10.6387
ᏘᏃᎮᎸᎩ	-10.6388
▁ᎤᏬᏂᎯᏍᏗ	-10.6406
ᎾᎵ	-10.6415
▁ᎯᏁᎸ	-10.6416
▁ᏙᏉ	-10.6419
ᏓᏁᎮᏍᏗ	-10.642
ᏓᏅᏖᎴ	-10.6423
ᏥᏃᎮᏍᎩ	-10.6429
▁ᎠᎩᏰᎸᏅ	-10.6431
▁ᏓᏂᎸ	-10.6443
ᏍᏓᏁ	-10.6449
ᏗᏍᏔᏁ	-10.6449
ᎾᏩ	-10.6456
▁ᏲᏥ	-10.6471
ᏏᎾᏌᏂ	-10.6472
ᏦᏢᏙᏗ	-10.6474
ᏚᎬ	-10.6482
ᏬᏂᏍᎬ	-10.6484
ᏁᏅ	-10.6488
ᏗᏯ	-10.6491
ᎵᎹ	-10.65
▁ᎤᏪᏅᏎᏃ	-10.6517
▁ᎨᎢ	-10.6529
▁ᎠᏌ	-10.6538
ᎯᏳᎲᏍᎦ	-10.654
▁ᏥᏕᎦ	-10.6542
ᎵᏍᏙ	-10.655
▁ᎨᎩ	-10.6554
▁ᎠᎦᏔᎮ	-10.6558
▁ᎠᏁᎶᎯ	-10.6575
▁ᎤᏅᏣ	-10.6577
▁ᎬᏒ	-10.6581
▁ᎠᏥᏰ	-10.659
ᎪᎲ	-10.6596
▁ᎤᎩᏍᏗ	-10.6598
▁ᎬᏩᎪᏩᏛ	-10.6601
▁ᏗᏅ	-10.6603
ᎩᏍᏙᏗ	-10.6621
▁ᏑᎾᎴᏉ	-10.6629
ᏰᎸᎲ	-10.6633
▁ᏧᏄᏬ	-10.6652
ᎢᏍᏔᏂ	-10.6666
▁ᏳᏓ	-10.6671
ᎵᏨ	-10.6681
▁ᏗᎧ	-10.6681
▁ᎤᏭ	-10.6686
▁ᎢᏣᎵᎮᎵ	-10.6697
ᏰᎸᏗ	-10.6709
ᏏᏳ	-10.6712
▁ᏄᏬ	-10.6713
▁ᏳᏪ	-10.6714
▁ᎢᎪ	-10.6717
ᏓᏱ	-10.6742
▁ᏗᎩᎦ	-10.6742
▁ᎢᏗᎦᏘ	-10.6748
ᎳᏛ	-10.6749
▁ᏥᏳᎪ	-10.6749
ᏣᏅᎩ	-10.6759
ᏍᎦᏃᎳ	-10.6761
ᎾᏄᎪᏩ	-10.6763
▁ᎠᏘ	-10.6764
ᏥᎪᏩᏛᏗᏱ	-10.6768
ᏏᎳ	-10.6769
ᎷᏤᎸ	-10.6772
▁ᏚᎪ	-10.6773
ᏴᎵᎸ	-10.6775
ᏅᎪᎢᏍᏗ	-10.6777
▁ᏓᎬᎩ	-10.6777
ᏅᏓᏗᏍᏗ	-10.6778
▁ᏗᎩᏲᎯ	-10.6785
▁ᎯᏍᎩᎦᏚ	-10.6788
▁ᎦᏙᎦ	-10.6796
▁ᏦᎦ	-10.6804
▁ᏱᏣᏓ	-10.6807
ᏑᏰᏒ	-10.6807
ᏁᏉᏥ	-10.6817
ᎾᏄᎪᏫᏎᎸ	-10.682
▁ᏚᏃ	-10.6822
▁ᎤᏩᏒᏍᎩᏂ	-10.6831
ᏁᏟᏴᎾ	-10.6838
ᎷᎯᏍᏗ	-10.684
ᏫᏎᎴᎢ	-10.6841
▁ᎤᏂᎶᏒ	-10.6844
ᏓᏁᎮ	-10.6857
▁ᎤᏍᏆᏂᎪᏙᏗ	-10.6859
ᏕᎶᏆᏍᏗ	-10.6861
ᎤᏍᏗ	-10.6873
ᎡᎸ	-10.6878
▁ᏕᏅ	-10.6885
▁ᏥᏂᎬ	-10.6886
▁ᎦᏂᏏ	-10.6888
▁ᎤᏁᏅ	-10.6891
▁ᏫᏨᏲᏪᎳ	-10.6893
ᏘᏃᎸ	-10.6905
ᏲᏍᏙᏗ	-10.691
ᎷᏨ	-10.6928
▁ᏱᏓᎩ	-10.6933
ᏰᎸᎭ	-10.6942
▁ᏔᎵᏚ	-10.6946
▁ᏣᏚᎵᏍᎬ	-10.6947
▁ᏂᎦᎥᎩ	-10.6947
▁ᎦᏬᏂ	-10.6948
▁ᎤᏰ	-10.6953
▁ᎤᎧ	-10.6984
▁ᏗᎨᎦ	-10.6991
▁ᏓᎨᏣ	-10.7015
ᎪᏩᏛ	-10.7021
Ꮶ	-10.7024
▁ᎤᏃᏴ	-10.703
▁ᏧᎦ	-10.7032
ᎩᏯ	-10.7042
ᏤᎭ	-10.7048
ᏯᏂᏍᎬ	-10.705
▁ᏈᎵ	-10.7057
▁ᏚᏂᎧᎵ	-10.7059
ᎶᎯᏍᏗ	-10.7059
ᎵᏙᎴ	-10.7061
ᎦᏅᎦ	-10.7065
Ꮌ	-10.7073
ᎪᏛ	-10.71
▁ᏥᏚᏂ	-10.7104
▁ᎤᏃᎮᎸ	-10.7119
ᏍᎦᏃᎵ	-10.7147
▁ᎤᎵᎮᎵᏨ	-10.715
▁ᏂᏣᏛᏁᎲ	-10.7153
▁ᎤᏂᏙ	-10.7157
ᎴᎣ	-10.716
▁ᏕᎦᎳᏅᏛ	-10.7162
▁ᏚᎾᏄᎪᏫᏎᎴ	-10.7163
▁ᎦᎦᎶ	-10.7168
▁ᎠᏐᏴ	-10.7168
▁ᏓᏂᏙᎨ	-10.7169
d	-10.7172
▁ᏕᎦᎶᎨᏒ	-10.7173
▁ᎦᏃ	-10.7175
ᏧᏍᏆᏴᏍᏗ	-10.7178
▁ᎤᏦᏱᎴ	-10.718
ᏗᎦᎵᎠᏅᎯᏛ	-10.7181
▁ᏭᏂᎶᏎ	-10.7183
▁ᏤᎲ	-10.7184
▁ᎤᏌᎯᎸ	-10.7185
ᏍᏆᏂᎪᏔᏂ	-10.7186
▁ᏕᏣᏓᏅᏛ	-10.7186
ᏂᏙᎸ	-10.7186
ᏑᎾᎴ	-10.7187
▁ᎧᏁᏌ	-10.7188
▁ᎠᏍᏆᎵᏍᎬ	-10.7188
ᎬᏂᎨ	-10.7188
▁ᎤᏓᏑᏴ	-10.7188
▁ᎤᎾᏄᎪᏫᏎᎴ	-10.719
▁ᏂᎨᏎ	-10.7191
▁ᏄᎾᏛᏁᎴ	-10.7192
▁ᎠᏂᏍᎦᎢᎲ	-10.7201
ᎸᏍᏔᏅ	-10.7203
▁ᎠᏩᏛᏗ	-10.7203
ᎳᏁ	-10.7205
ᏓᎴᏂᏍᎬ	-10.7206
ᏍᏈᏯ	-10.7206
▁ᏬᎩᎷᏨ	-10.7211
▁ᏂᎦᏅᎯᏒ	-10.7213
▁ᎠᏍ	-10.7213
▁ᏄᎾᎵᏍᏔᏁ	-10.7215
▁ᎠᏆᏣ	-10.7221
▁ᎤᏂᏴᎮ	-10.7221
▁ᎾᏯᏛᎥ	-10.7222
▁ᎢᏥᏠ	-10.7222
▁ᏚᎸ	-10.7225
▁ᏓᎩᎸᏫᏍᏓᏁᎲ	-10.7225
ᏆᏏ	-10.7228
▁ᏚᏩᏂᎦᎸ	-10.7228
▁ᎤᏁᏝᏅ	-10.723
▁ᏗᏘᏲᎯ	-10.7233
▁ᏧᏭᎪᏙᏗ	-10.7239
▁ᏂᎦᎵᏍᏔᏅ	-10.7239
▁ᎤᏁᎢᏍᏔᏅ	-10.724
▁ᏑᏟᎶ	-10.724
▁ᎤᏪᏓᏍᏗ	-10.7244
▁ᎤᎾᏂᎩᏒ	-10.7246
▁ᏂᎦᏛᏁᎲ	-10.7246
ᎢᏍᏙᏗ	-10.7246
▁ᎥᏞ	-10.7247
▁ᎤᎾᏛᎪᏗ	-10.7254
ᏙᏓᏆᏓ	-10.7255
ᎦᏘᏕᎯ	-10.7257
▁ᏭᏩ	-10.7258
▁ᎧᏃᎮ	-10.7262
▁ᎠᏩᎾᎦᎳ	-10.7263
▁ᎤᏁᏉᏨ	-10.7263
▁ᎪᎵᏍᏗ	-10.7264
▁ᏥᎦᏘᏏ	-10.7264
▁ᎠᎵᏏᎾᎯᏍᏔᏅᎯ	-10.7264
▁ᎠᏲᏓᏌᎲ	-10.7264
▁ᎤᏚᏓᎴᏛ	-10.7264
▁ᎤᏩᎭᏂᎴ	-10.7264
▁ᏂᎩᏪᏎᎸᎭ	-10.7264
▁ᏅᏛᏆᏓᎴᏅᎯ	-10.7264
▁ᏅᏧᏓᎴᏅᎲᎾ	-10.7264
▁ᏦᏑᏫ	-10.7264
▁ᎠᏓᏅᏖᏍᎪ	-10.7264
▁ᎤᎾᏗᏍᎦᏟ	-10.7264
▁ᎨᎴᏏᏱ	-10.7264
▁ᏗᏦᏪᎵᏍᎩ	-10.7264
▁ᏚᎨᏓᎵᏴ	-10.7264
▁ᎠᏐᎥᏍᏙᏗ	-10.7264
▁ᎤᏂᎩᎵᏲᎢᏍᏗ	-10.7264
▁ᏏᎵᏆ	-10.7264
▁ᏅᏥᏪᏎᎸᎩ	-10.7264
▁ᎠᎾᏓᏍᎦᎶᎩ	-10.7264
▁ᎤᎪᎵᏰᎥ	-10.7264
▁ᏄᎾᏓᎡᏍᏗ	-10.7264
▁ᏣᏓᏲᏁᎸᎩ	-10.7264
▁ᎤᏛᎴᎮ	-10.7264
▁ᎠᏂᏰᎪᎩ	-10.7264
▁ᎠᏓᏪᎯ	-10.7264
▁ᎤᏪᏐᏅᏴ	-10.7264
▁ᎢᏣᏛᏓᏍᏓ	-10.7264
▁ᏕᎦᏅᏙᎬ	-10.7264
▁ᎢᎳᎩᏳ	-10.7264
▁ᏤᏆᎳᏂ	-10.7264
▁ᎧᏄᎦᏟ	-10.7264
▁ᎠᎪᏕᏍᎩ	-10.7265
▁ᎢᎪᏪᎳ	-10.7265
▁ᎠᏍᎩᏓᏍᎬ	-10.7265
▁ᎤᏭᏢᏔᏅᎩ	-10.7265
▁ᎦᏗᎨᏂ	-10.7265
▁ᎤᎵᏏᏂᏕᏅ	-10.7265
▁ᎤᎵᏲᏗ	-10.7265
▁ᏧᏁᎵᏁ	-10.7265
▁ᎶᎻ	-10.7265
ᎦᎵᎷᎨᏍᏗ	-10.7265
▁ᏗᎧᏃᎩᏍᏙᏗ	-10.7265
▁ᏕᏥᏃᎩᏍᎨᏍᏗ	-10.7265
▁ᎾᎨᎢᏴ	-10.7265
▁ᎠᎾᏓᏍᏓᏩᏗᏙᎯ	-10.7265
▁ᏩᎩᎷᏣ	-10.7265
▁ᎭᏰᎵᏍᏗ	-10.7265
▁ᏓᏲᏤᏏ	-10.7265
▁ᎠᎾᎵᏍᏕᎵᏍᎩ	-10.7265
▁ᏂᎩᏪᏏ	-10.7265
▁ᎠᎾᏓᏤᎵ	-10.7265
▁ᏱᏂᎬᏁᎭ	-10.7265
▁ᏕᏥᎧᎿᏩᏗᏙᎮᏍᏗ	-10.7265
▁ᏫᏗᎶᎯ	-10.7265
▁ᏔᏘᏄᎦ	-10.7265
▁ᎠᏦᎳᏅ	-10.7266
▁ᏚᎭᏄᏮ	-10.7266
▁ᏗᎦᎶᏔᏅ	-10.7266
▁ᎠᏓᏲᏁᎮᏍᏗ	-10.7266
▁ᏚᏍᏓᎦᎸ	-10.7266
▁ᏕᎪᏪᎴᏍᏗ	-10.7266
▁ᎢᏦᎯᏳᏗᏱ	-10.7266
▁ᎤᏛᎦᏍᏕ	-10.7266
▁ᏓᎦᏛᏁᎵ	-10.7266
▁ᏧᏂᏁᏟᏴᏍᏗ	-10.7266
ᏘᏯᏍᏓᏁ	-10.7266
▁ᏄᏪᎲᎾ	-10.7267
▁ᏓᏱᎾ	-10.7267
▁ᏧᎾᎬᏩᎶᏗ	-10.7267
▁ᏗᏣᎴᎲᎦ	-10.7267
▁ᎡᏥᏅᏏᏓᏍᏗ	-10.7267
▁ᏥᏚᏳᎪᏗ	-10.7268
▁ᎢᎬᏛᏁᏗ	-10.7268
▁ᏗᎾᎢᏒ	-10.7268
▁ᎨᏥᏍᏕᎸᏗ	-10.7268
▁ᏧᏂᎶᎸᏗ	-10.7268
▁ᎦᏂᎩᎸ	-10.7268
▁ᎠᎫᏩᏌ	-10.7268
ᏍᏗᏍᎨ	-10.7268
▁ᎠᏂᎪᎲᎭ	-10.7268
▁ᎤᎬᎥᏍᎩ	-10.7268
▁ᎢᏯᏥᎸᏉᏗ	-10.7268
ᎧᏁᎸ	-10.7269
▁ᏗᎪᏢᏅᎯ	-10.7269
▁ᎬᏬᎯᏳᏅᎩ	-10.7269
▁ᎣᎦᏚᎵᎭ	-10.7269
▁ᎢᏳᏪᏎᎸᎯ	-10.7269
▁ᏍᎩᏍᏓᏩᏚᎦ	-10.7269
▁ᎪᎰᏍ	-10.727
▁ᎤᏂᎪᏩᏛᏗᏱ	-10.727
▁ᎠᏍᏕᏯᏓ	-10.727
▁ᎯᎸᏉᏓ	-10.727
▁ᏣᎦᏨᏍ	-10.727
▁ᎠᏂᎨᏳᏣ	-10.7271
▁ᏥᏣᏛᎩᎭ	-10.7271
▁ᏂᏣᏛᎿᏕᎬᎢ	-10.7271
▁ᎢᏣᏚᎵᏍᎨᏍᏗ	-10.7272
▁ᎢᏥᏯᎡᏍᏗ	-10.7272
▁ᏓᎭᏏ	-10.7272
▁ᎯᏍᎪᎵ	-10.7272
▁ᎭᏓᏅᎾ	-10.7272
▁ᎠᏍᎩᏗᏍᎨᎢ	-10.7272
▁ᏣᏙᎳᏅᏍᏗ	-10.7272
▁ᏍᏈᏍᏔ	-10.7272
▁ᏗᎦᎶᎩᏍᎩ	-10.7272
▁ᏗᏣᎧᏅᎦ	-10.7272
▁ᎠᏠᏗᏱ	-10.7272
▁ᏂᏴᏁᎸ	-10.7272
▁ᎢᏣᎵᎮᎵᎨᏍᏗ	-10.7272
▁ᎨᏥᏅᏒᎯ	-10.7273
▁ᏇᏗᏂᏱ	-10.7273
▁ᏗᎩᎸᏫᏍᏓᏁᏗᏱ	-10.7273
▁ᏫᏥᎷᏨᎭ	-10.7273
▁ᎤᎶᏗᏢ	-10.7274
▁ᎤᎾᏛᏅᎩ	-10.7274
▁ᏑᏓᎵᏍᎪᎯ	-10.7274
▁ᏭᏕᎵᏨ	-10.7274
▁ᏝᏬᏚ	-10.7275
▁ᏧᏂᎸᏫᏍᏓᏁᏗ	-10.7275
▁ᎠᏂᎦᏲᏟ	-10.7275
▁ᎡᏥᏯᏅᏛ	-10.7275
▁ᎢᏯᏓᏅᏖᏗ	-10.7275
ᏍᏓᏱ	-10.7275
▁ᏎᏘ	-10.7275
▁ᏰᏙᎭ	-10.7276
▁ᏗᏣᏓᎴᏅᏛ	-10.7276
▁ᏧᎷᏫᏍᏔᏁᏗ	-10.7276
▁ᎠᎩᎵᎨᏂ	-10.7277
▁ᏈᎵᏏ	-10.7277
▁ᎤᎿᎷᏒᎩ	-10.7277
▁ᏍᎪᏁ	-10.7277
▁ᎦᏃᏙᏗᏱ	-10.7277
▁ᎤᎾᏓᏙᎵᏍᏓᏁᎸᎩ	-10.7277
▁ᏚᏯᏪᎨ	-10.7278
ᏫᏛᎲ	-10.7278
ᏲᏒᎩ	-10.7279
▁ᎪᎯᎢᏴ	-10.728
ᏒᏗ	-10.728
▁ᎢᎦᎵᏍᏙᏗᏱ	-10.728
▁ᎢᏨᏃᎮᎮᎸ	-10.7281
▁ᏚᏃᎸ	-10.7281
ᏄᏍᏗ	-10.7282
▁ᏃᎩᏪᏎᎸ	-10.7283
▁ᎤᏓᏙᎵᏣᏛ	-10.7284
ᏟᏌᏂ	-10.7285
▁ᎤᎦᏔᏔᏅᎯ	-10.7286
▁ᏓᎾᏕᏲᎲᏍᎬ	-10.7287
ᏲᏍᏔᏂ	-10.7287
▁ᎹᎦ	-10.7288
▁ᏄᏩᏁᎰ	-10.7288
▁ᎤᏃᎯᏳᏅᎯ	-10.7289
▁ᎠᏓᏁᏣᏍᏚᎶᎩᎯ	-10.7289
▁ᏯᏂᎦᏔᎮ	-10.729
▁ᎠᏍᎫᏕᏍᏗᏱ	-10.729
ᏗᏔᎯ	-10.7291
▁ᎤᏛᏒᎯ	-10.7292
▁ᎢᎦᎦᏓ	-10.7294
▁ᎲᏓ	-10.7295
▁ᎢᏍᏕᎾ	-10.7295
▁ᎠᎦᏔᎯᏳ	-10.7296
▁ᎬᏩᏛᏗ	-10.7297
▁ᎤᎳᏏᏕᏂ	-10.7297
▁ᎤᏓᏴᏎᎢ	-10.7297
▁ᎤᏍᏓᏱᏕ	-10.7298
▁ᏓᎧᏅ	-10.7298
▁ᏥᏁᎦ	-10.7298
▁ᎤᏁᏉᏨᎯ	-10.73
▁ᎪᏪᎴ	-10.73
▁ᎤᏁᏝᏅᎯ	-10.73
▁ᎤᏪᎧᏁᎢ	-10.7301
▁ᎤᎾᏄᎪᎢᏍᏗ	-10.7301
▁ᎤᏃᎯᏳᏅᎩ	-10.7302
▁ᎯᏲᎵ	-10.7302
▁ᏓᏨᏁᎵ	-10.7302
▁ᎩᎳᎯᏳ	-10.7303
▁ᏇᎵᎩ	-10.7303
▁ᎢᎫᏩ	-10.7303
▁ᏄᎾᎵᏍᏔᏅ	-10.7304
▁ᏥᏙᎦ	-10.7305
▁ᎠᏂᏃᎮᎭ	-10.7306
ᏩᏔ	-10.7307
ᏨᏗ	-10.7308
▁ᎤᎾᏛᎪᏗᏱ	-10.731
▁ᎤᏦᏍᏗ	-10.731
▁ᏗᎦᏥ	-10.731
▁ᎢᏳᏒᎯ	-10.731
▁ᎤᏪᏍᎩᎸᎢ	-10.731
▁ᏫᏥᎦᏛᎢ	-10.731
▁ᎤᎪᏩᏛᏗᏱ	-10.7311
▁ᏗᎪᏩᏛᏗ	-10.7311
▁ᏥᏯᎵᎡᎵᏤ	-10.7311
▁ᎨᎵᏍᎩ	-10.7311
▁ᏂᏚᏩᏁᎴᎢ	-10.7312
▁ᏧᏓᎵᎢ	-10.7312
▁ᏥᎪᏩᏘᏍᎬ	-10.7314
▁ᎻᎳ	-10.7317
▁ᎡᏓᏍᏗ	-10.7317
▁ᎾᏯᏛᎥᎩ	-10.7318
▁ᏱᏅ	-10.7318
▁ᎤᎩᏒᎩ	-10.7319
▁ᎤᎾᏂᎩᏒᎩ	-10.732
▁ᎤᏓᏙᎵᏍᏔᏁᎢ	-10.7322
ᏅᏬᏗᏱ	-10.7322
▁ᏗᎾᏓᎪᎾᏗᏍᎬᎢ	-10.7323
▁ᎤᏍᏆᏂᎪᏛ	-10.7323
▁ᎠᎾᏓᎪᎾᏗᏍᎬᎢ	-10.7323
▁ᎦᏓᏙᎵᏍᏗᏍᎬᎢ	-10.7324
ᎡᎲ	-10.7327
▁ᎤᎾᏓᏅᏖᎴ	-10.7327
▁ᎢᎦᎵᎢ	-10.7329
▁ᎤᏁᎯ	-10.7329
▁ᏥᎬᏩ	-10.7329
▁ᎤᎾᏕᏗ	-10.7332
▁ᎠᎦᏍᎩ	-10.7333
▁ᎤᏩᏔᏅᎩ	-10.7334
ᏂᏍᏗ	-10.7334
▁ᎤᎾᏂᎩᏎᎢ	-10.7336
ᏙᎲᎢ	-10.7337
▁ᎤᏇᏓᎵᏉ	-10.7338
ᎴᏅᎲ	-10.7339
▁ᏥᏰᎸᎢ	-10.7339
ᏛᏁᎸ	-10.7341
▁ᎠᎪᎾ	-10.7342
▁ᎤᏂᏣᏖᏍᏗ	-10.7343
▁ᎤᎾᏓᏅᏖᎸ	-10.7344
▁ᏥᏄᏍᏕ	-10.7349
▁ᏚᏩᏂᎦᎸᎢ	-10.7349
▁ᎤᏦᏱᎴᎢ	-10.7349
ᏣᎵᏍᏙ	-10.7349
ᏓᏛᏍᎩ	-10.735
▁ᎦᏯᎸ	-10.735
▁ᎤᎩᏎᎢ	-10.7356
ᎶᎸᏗ	-10.7356
▁ᎠᎢᏒᎩ	-10.7357
▁ᎦᏟ	-10.7363
ᏓᏁᎯ	-10.7363
ᏴᎮᎢ	-10.7366
▁ᎤᏗᏛᎮᎢ	-10.7367
▁ᎣᎩᎾᎵᎪ	-10.7367
▁ᎤᏲᎢᏴ	-10.7371
▁ᎣᎵᏩᏲ	-10.7371
ᏏᏔᏛ	-10.7373
ᎲᏎ	-10.7374
▁ᎦᏲᏟᎨ	-10.7376
▁ᎠᏟᏍᏗ	-10.7376
▁ᏭᏂᎷᏨᎩ	-10.7376
▁ᎤᏪᏴᎢ	-10.7377
ᏂᎦ	-10.7378
ᏍᎦᏎᏗ	-10.7378
ᏅᏃ	-10.7379
▁ᏫᎦᎷᎬ	-10.7379
▁ᎤᎩᏒ	-10.7379
▁ᎢᏣᏓᏅᏖᏍᎬ	-10.7383
▁ᏦᎨ	-10.7385
ᏗᏂᏍᎪᏂᎯ	-10.7385
ᏚᎢᏍᏓᏁᎴ	-10.7387
ᏕᎶᎰᏌ	-10.7388
▁ᎢᏗᎬᏁ	-10.7395
▁ᎮᎵ	-10.7395
▁ᏣᏗᎭ	-10.7395
▁ᏕᎦᎧᎲ	-10.7395
▁ᏧᏁᎦ	-10.7397
▁ᎤᏍᎪᏒ	-10.7399
ᎤᏩᏂᎦᎸ	-10.7399
▁ᎢᏨᏗᏍᎬ	-10.7402
▁ᎠᎩᏁᏨᎢ	-10.7403
ᏃᎯᏎᎴ	-10.7403
▁ᏥᏫ	-10.7405
▁ᎤᏂᎾᏫ	-10.7406
▁ᎫᎦ	-10.7406
▁ᏗᏐᏴ	-10.7408
▁ᏂᏕᎬᏁᎲ	-10.7412
▁Ꮬ	-10.7413
▁ᏫᏚᏯᏅᎮᎢ	-10.7416
▁ᎠᏥᎾ	-10.742
▁ᎯᎦᏔᎲ	-10.7421
▁ᎤᏄᎪᏤᎢ	-10.7422
▁ᎤᏅᏎᎢ	-10.7425
▁ᎠᎾᎵᎮᎵᎨ	-10.7426
▁ᎢᏔ	-10.7426
▁ᎠᏁᎮᏍᏗ	-10.7427
▁ᎾᏛᏁᎲᎢ	-10.7427
▁ᎤᏁᏍᎩᎸ	-10.7433
ᎵᏍᎪᎸᏓᏁᏗᏱ	-10.7437
▁ᎤᎷᏤᎴᎢ	-10.7442
▁ᎤᏁᏍᏔ	-10.7442
▁ᎤᏩᏔᏁ	-10.7443
▁ᏥᏕᏣ	-10.7445
ᏣᏗ	-10.7447
▁ᏧᏁᏗᏱ	-10.7447
▁ᏚᏙᏍᏛ	-10.7448
ᏈᏱ	-10.7451
▁ᎡᎾᎢ	-10.7453
▁ᎤᏬᏨ	-10.7453
ᏙᎭ	-10.7459
▁ᏂᏥᏪᏎᎸ	-10.7466
ᏛᎦᏅ	-10.7466
▁ᎤᏪᎭ	-10.7468
ᏔᏁᏍᏗ	-10.7468
▁ᏄᏩᏁᎸᎩ	-10.7471
▁ᎤᏬᏂᏎ	-10.7473
ᏧᏂᏲᎯᏍᏗᏱ	-10.7474
ᎨᏎᎢ	-10.7477
ᎪᎵᏯ	-10.7486
▁ᏧᏁᏤᎴ	-10.7487
▁ᎤᏂᏅ	-10.7487
ᏙᎵᎦ	-10.749
▁ᏱᏥᏰᎸ	-10.7495
ᏌᏛᏗ	-10.7498
▁ᎤᏕᎸ	-10.7501
▁ᎤᏂᎪᎲᎩ	-10.7512
▁ᏧᎾᏦ	-10.7516
▁ᏗᎩᎦᏴᎵᎨᎢ	-10.7535
▁ᎤᏩᏂᎸ	-10.7538
▁ᎢᎩᏁᎸ	-10.7538
▁ᏃᏳ	-10.7539
ᏐᏗ	-10.7541
ᏠᏒ	-10.7548
ᏄᎪᏫᏏ	-10.7549
▁ᎢᏣᏓᏅᏖ	-10.7554
▁ᏧᏪᏅᏒᎢ	-10.7561
▁ᎠᏦᏴᎢ	-10.7561
▁ᎾᏏ	-10.7562
▁ᎤᏍᎦᏅᏨᎢ	-10.7563
▁ᏚᏂᎸ	-10.7565
ᏏᏐᏗ	-10.7579
▁ᎤᏃᏢᏅ	-10.7581
▁ᎤᏓᏅᏙᎩ	-10.7582
ᏢᎾᏁᏗ	-10.7583
▁ᏕᏣᏙᎥᎢ	-10.7589
▁ᏃᎩ	-10.7594
▁ᎤᏍᏗᏉ	-10.7595
ᏲᏍᏗᏍᎬ	-10.7596
ᏖᎵ	-10.7596
▁ᎤᎧᎵᎸ	-10.7598
▁ᏃᏒ	-10.7598
ᏟᎶ	-10.7602
▁ᏘᏅ	-10.7603
ᎪᎳ	-10.7606
▁ᏧᏲ	-10.7606
▁ᎤᎵᏍᏆᏕ	-10.7611
ᏅᎦᎸᏛ	-10.7614
▁ᎢᏨᏲᏪᎳ	-10.762
ᎧᎾ	-10.7624
ᏅᏗᏍᎨᏍᏗ	-10.7639
ᏁᎢᏍᏓᏁᏗ	-10.7642
▁ᏥᏗ	-10.765
▁ᎠᏃᎵ	-10.7651
▁ᏂᎬᏁᎸ	-10.7655
▁ᎾᏥ	-10.7655
ᏲᎦ	-10.7659
▁ᎠᏅ	-10.766
ᏉᎯ	-10.7663
▁ᏪᏙ	-10.7669
ᏲᎯᎲ	-10.767
▁ᎤᏁᏅᏍᏗ	-10.7679
▁ᏗᏍᏆ	-10.7681
▁ᎣᏍ	-10.7689
▁ᎤᏓᏅᏒ	-10.7705
▁ᏄᏪᏎᎸᎢ	-10.7706
▁ᎢᏲ	-10.7713
ᏌᎳᏓᏁ	-10.7714
▁ᎤᏁᏅᏎᏃ	-10.7714
ᏂᎬᎦ	-10.7726
ᏍᎦᎢᎮᏍᏗ	-10.7727
▁ᏕᎠ	-10.773
▁ᎤᏙᎯᏳᎭ	-10.773
ᏥᏁᎸ	-10.7737
▁ᎠᏉᏢ	-10.7738
▁ᎠᏂᎸᏉᏗᏍᎨ	-10.7739
ᏂᏌᏂ	-10.7739
ᎦᏙᎥᏎ	-10.7744
ᏁᏍᎨ	-10.7749
▁ᎤᎧᎵ	-10.7754
▁ᏦᏏ	-10.776
▁ᏤᎳᏗ	-10.7763
▁ᏗᎬᏩᎾ	-10.7765
ᏰᎲ	-10.7769
ᎵᏍᏓᏴᏗ	-10.7771
ᎤᏍᏓᎦᏴᎯᏓ	-10.7773
▁ᏦᏒ	-10.7774
▁ᎤᏁᏤᎢ	-10.7783
▁ᎠᏰᎵᏒ	-10.7787
▁ᏧᏓᎴ	-10.7791
ᏟᏯ	-10.7796
▁ᎤᏁᏤᎴᎢ	-10.7806
▁ᎯᏃ	-10.782
▁ᎾᏂᎥᎩ	-10.7824
s	-10.7832
ᎫᏴ	-10.7833
▁ᎬᏩᏛᏛ	-10.7836
▁ᎤᏙᎯ	-10.7837
ᎪᎵᏂᏗ	-10.7845
▁ᎢᎤ	-10.7851
▁ᎭᏗᏔ	-10.7861
▁ᎨᏍ	-10.7867
ᏓᏂᎸᎩ	-10.7873
▁ᎤᎳ	-10.7874
ᏡᏗᏍᎩ	-10.7874
▁ᎠᏣ	-10.7881
▁ᏓᏔᎴᏒᎢ	-10.7886
ᏕᎭ	-10.7892
ᏓᏁᏗᏱ	-10.7896
▁ᎦᏲᎦ	-10.7898
ᏛᎪᏗ	-10.7905
ᎶᏓ	-10.7909
▁ᏚᏁᏤᎴᏃ	-10.7912
▁ᏫᏂ	-10.7924
ᏍᏓᏩᏕᎩ	-10.7928
▁ᎡᏍᏗ	-10.7934
▁ᎤᎿᎸ	-10.7949
▁ᏓᏥᏲ	-10.7951
▁ᎢᎬᏱᏱᏉ	-10.7953
ᏂᏍᏙᏗ	-10.7963
▁ᎢᏳᏂ	-10.7971
▁ᎢᏳᏍᎩᏂᏃ	-10.7986
ᏯᏙ	-10.7992
▁ᎠᎩᏍᎦᏅᏨ	-10.8002
ᎧᎸ	-10.8003
ᎴᏒ	-10.8012
ᏗᏔᏍᎬ	-10.8012
ᎦᏛᎦ	-10.8017
▁ᎾᏓ	-10.8028
ᏫᏛ	-10.8034
▁ᎠᎹᏂ	-10.8039
ᎪᏕᏍᏗ	-10.8042
ᏩᏛᎯ	-10.8049
▁ᎤᏂᏴᎸ	-10.8057
▁ᏯᏓᏅᏖ	-10.8058
ᏥᏧᏣ	-10.8068
▁ᎠᎩᎲ	-10.8079
▁ᎤᏍᏛ	-10.8085
▁ᎠᎾᏗᏍᎨ	-10.8089
▁ᎠᎫᏴᏗ	-10.809
ᎨᏳᎭ	-10.8092
▁ᏰᏣ	-10.8094
▁ᏚᏁ	-10.8095
ᎪᏅ	-10.8099
ᏍᏗᏍᎨᎢ	-10.8107
ᎷᏥ	-10.8108
▁ᎾᎯᏳᎢ	-10.8116
▁ᏥᏲ	-10.8117
▁ᎠᏓᏅ	-10.813
ᏂᏆᏘᎯ	-10.8131
▁ᎤᏂᏄᎪᏨ	-10.8132
ᎩᏌ	-10.8136
▁ᏰᎵᎦ	-10.8145
ᏍᏆᎵ	-10.8148
▁ᎦᎾᏄᎪ	-10.8155
ᏪᏎᎴᎢ	-10.8156
▁ᏪᏣ	-10.8165
▁ᏙᏣ	-10.8165
▁ᎤᏂᏏᏗ	-10.8172
▁ᏯᏛᏅ	-10.8187
ᏓᏅᎯᏓ	-10.8187
▁ᎤᏣᏅ	-10.819
▁ᎤᏪᏰ	-10.8196
▁ᎤᎵᏍᏆᎸᏗᏃ	-10.8205
ᎦᏎᏍᏕᏍᏗ	-10.8206
ᎸᎮ	-10.8208
▁ᏓᏍᎩ	-10.8216
ᏡᏗᏍᎬᎢ	-10.823
ᏰᏛ	-10.8233
ᏂᎩᏍᎬ	-10.8233
▁ᎤᏃᏴᎵ	-10.8236
▁ᎠᎩᏁ	-10.8236
▁ᏥᎦᏔ	-10.8237
▁ᎬᎾᏬ	-10.8245
ᎦᏍᎪ	-10.8251
▁ᎠᏍᎩ	-10.8253
▁ᏗᏣᏁᎶ	-10.8256
ᏔᎵ	-10.8261
ᏘᎾᏫᏛᎲᎩ	-10.8277
ᏌᏕ	-10.8278
▁ᏱᏣᏓᏅᏖ	-10.8281
ᎳᏗᏍᎬ	-10.8288
ᏢᏗᏱ	-10.8295
...”	-10.8305
ᎦᏁᎶᏗ	-10.8328
▁ᏚᏲᏎ	-10.833
▁ᏗᎦᎴᏅ	-10.8332
▁ᎠᏩᏛ	-10.8345
ᎾᏔ	-10.8349
▁ᎩᏯ	-10.8351
al	-10.8356
ᏍᏓᏩᏛᏒᎩ	-10.8367
▁ᎦᎬ	-10.8375
▁ᎦᎵᏦ	-10.8379
ᎵᏳ	-10.8384
ᏅᏁ	-10.8389
ᏥᏆ	-10.8396
ᏓᏁᎲ	-10.8401
ᏇᏓ	-10.8411
▁ᎤᎵᏏ	-10.8414
ᏘᏍᏗᏍᎩ	-10.8419
▁ᎠᏂᏁᎸ	-10.8425
▁ᏧᏁ	-10.8429
▁ᎥᏥ	-10.8435
▁ᏂᎩ	-10.8436
ᎳᏑᏢ	-10.8438
▁ᎠᎵᏰᎢᎵ	-10.8446
ᏅᏗᏱ	-10.8457
▁ᎠᏍᏆᏂᎪᏙᏗ	-10.8459
ᏥᎩ	-10.8465
▁ᏄᏍᏛᎩ	-10.8473
ᏁᎸᎭ	-10.8479
ᎦᏘᏴ	-10.8485
▁ᎯᏴ	-10.8489
ᏓᏎᎪᎩᏍ	-10.8493
ᏓᏑᏰᏍᏗ	-10.8495
ᎦᏓ	-10.8499
▁ᏙᏛᏂ	-10.8501
ᏎᎮ	-10.8504
ᏛᏃᎯ	-10.8506
ᏰᏗ	-10.8506
▁ᏓᏳᏂ	-10.8511
ᏴᏍᏗ	-10.8513
▁ᏕᎦᏅ	-10.8518
ᏍᎦᏨᎯ	-10.8529
▁ᎠᏥᎸᏳ	-10.8531
▁ᏂᎦᎥᎢ	-10.8533
▁ᏓᏌ	-10.8546
▁ᎠᏆᏓ	-10.8546
▁ᏔᏯ	-10.8546
ᏘᏃᎯᏍᏗᏱ	-10.8568
▁ᎤᏅᏁ	-10.8574
ᏍᏕᎸᏗᏱ	-10.8576
▁ᏅᏓᎬᏩ	-10.8577
▁ᏗᎩᏍᏗ	-10.8584
▁ᏧᎬᏩ	-10.8585
▁ᏣᏛ	-10.8603
ᏍᏓᏩᏗᏒ	-10.8607
▁ᏱᎨᏥ	-10.8614
ᏨᎾ	-10.8621
ᏅᏛ	-10.8622
ᏣᏛ	-10.8635
▁ᏂᏯ	-10.8646
▁ᏚᏳ	-10.8649
ᎧᎯᏯᏍᏗ	-10.8655
▁ᎤᏂᏍᏆᏂᎪᏎ	-10.8659
ᏲᏏ	-10.866
▁ᎬᏰᎸ	-10.8661
ᏥᏍᎦᏯ	-10.8676
▁ᎤᎾᏛᏁ	-10.8677
▁ᏂᏕᎦ	-10.8684
ᏂᎪᎲ	-10.8697
▁ᏳᏬᎯᏳ	-10.8699
ᏩᏕᎬ	-10.87
ᏍᎦᎳᏁᎸ	-10.8703
▁ᎤᏍᏆᎸᎯᏗ	-10.8706
▁ᎨᏍᏗᏗ	-10.8712
ᎴᏙᏗ	-10.8715
ᎿᎥᎢ	-10.8715
▁ᏍᎦ	-10.8717
ᏬᎢ	-10.8717
▁ᎢᏍᏛ	-10.8719
▁ᎤᏄᏪ	-10.8735
ᏓᏂᎸᏤᎢ	-10.8742
▁ᏄᏂᏪᏎ	-10.8743
ᎬᏁᎵ	-10.8743
ᏏᏂ	-10.8746
▁ᎠᏚᏓᎴᏍᏗ	-10.8746
ᏂᎴ	-10.8748
ᎳᏂ	-10.875
▁ᏧᏁᏨ	-10.8764
ᏢᏛ	-10.8765
▁ᏕᎦᏄᎪᏫᏍ	-10.8766
ᏪᎶᏗ	-10.8766
ᏙᎠ	-10.8771
▁ᎤᏂᏃ	-10.8775
ᏎᎮᏍᏗ	-10.8782
▁ᎤᏁᎷᎬ	-10.8784
ᎾᏛᎦ	-10.8785
▁ᏣᎦ	-10.8786
▁ᏙᏓᏥ	-10.8795
ᎪᎵᏰᎥᎯ	-10.8807
▁ᏄᏛᏁ	-10.8812
▁ᏫᎦᎶᎯ	-10.8813
▁ᎠᏍᎪ	-10.8814
ᎾᏗ	-10.8817
ᏂᏙᎲ	-10.8821
ᎵᏍᏓᏴ	-10.8822
▁ᎢᎩᏰᎸ	-10.8822
▁ᏱᎬᎩ	-10.8823
▁ᎠᏂᏍᎦ	-10.8827
▁ᏕᎦᏄᎪᎬ	-10.8827
▁ᎤᏍᏆᏂᎪᏎ	-10.8831
ᎬᏅ	-10.8834
ᏘᏄᎦ	-10.8835
▁ᎠᏓᏪᎵᎩᏍᎬ	-10.8837
▁ᎣᎦᏛᎦᏅ	-10.8839
▁ᎠᎩᏇᏓᎸ	-10.8841
▁ᎢᏣᏓᏙᎵᏍᏗᏍᎬ	-10.8844
▁ᏕᎦᏍᎩᎸ	-10.8844
ᏗᎦᏛᎯ	-10.8844
▁ᎤᎾᏂᎩᏎ	-10.8846
▁ᎤᎵᏰᏔᏁ	-10.8847
▁ᏙᏧᎾᏓᏅᏛ	-10.8848
ᏫᎵᎻ	-10.8849
ᏄᏓᎴ	-10.8849
▁ᎤᎶᎨᏒ	-10.8849
▁ᏱᏥᎦᏔᎮ	-10.8851
▁ᏂᎦᎵᏍᏗᏍᎪ	-10.8851
▁ᏄᏂᏪᏎᎴ	-10.8852
▁ᎢᏣᎵᎮᎵᎬ	-10.8853
▁ᎦᏁᏥ	-10.8859
▁ᏚᏓᏘᎾᎥ	-10.886
▁ᎤᏬᎯᏳᏒ	-10.8861
▁ᏱᏄᏍᏕ	-10.8868
▁ᏈᎬ	-10.887
▁ᎤᏄᏩᎥ	-10.8871
▁ᏗᎦᏁᎸ	-10.8874
▁ᎤᏮᏔᏅ	-10.8875
▁ᏱᎬᏆ	-10.8875
ᎾᏄᎪᏫᏎ	-10.8875
▁ᏕᎦᏬᏁᏗᏍᎬ	-10.8876
▁ᎠᏇᏅᏒ	-10.8878
▁ᎾᎩᏪᏎᎸ	-10.8881
▁ᏭᏯᏅᎲ	-10.8882
ᎪᎲᏍᏙᏗ	-10.8883
ᎯᏍᏔᏂ	-10.8885
ᏓᏙᎵᏍᏗᏍᎬ	-10.8885
▁ᎠᎩᏩᏛᎲ	-10.8885
▁ᏄᏅᏁᎸ	-10.8886
▁ᎥᎩᏙ	-10.8887
▁ᎬᏩᎾᏕ	-10.8888
▁ᏥᏰᎸ	-10.889
ᏰᎳᏍᏗ	-10.8893
ᎤᎷᏨ	-10.8896
▁ᏕᏗ	-10.8896
▁ᎤᎵᏦᏛ	-10.8898
ᏲᏍᏓ	-10.8898
▁ᎠᏂᎪᏩᏘᏍᎬ	-10.8899
ᏛᏁᎲᎢ	-10.8903
ᏬᏗᎨ	-10.8903
▁ᏇᏓᏁᎳᎻ	-10.8905
▁ᏧᏂᎧᎿᏩᏛᏍᏗ	-10.8906
▁ᏗᎫᏍᏙᏍᏗ	-10.8907
▁ᎠᏍᎫᏕᏍᏗ	-10.8907
▁ᏂᏕᎦᏪᏎᎲ	-10.8908
ᏲᎱᎯᏎᎸᎯ	-10.8909
ᎰᏩ	-10.891
▁ᎤᏬᎯᏳᏅ	-10.891
ᏍᏗᎭ	-10.8911
▁ᏗᎨᎫᎪᏓᏁᏗ	-10.8912
▁ᏭᎷᏤᎴ	-10.8913
ᎴᏏ	-10.8914
ᏏᏔᏗᏍᏗ	-10.8916
ᏗᎦᎵᏍᏙᏗ	-10.8917
▁ᏭᎶᎯᏍᏗ	-10.8917
▁ᎠᏥᏁᏗ	-10.8918
ᏙᎡᏍᏗ	-10.8919
▁ᏗᏣᎸᏫᏍᏓᏁᏗ	-10.8921
▁ᎠᏇᏓᏍᏗ	-10.8923
ᎣᏏ	-10.8927
▁ᎤᎾᏗᏔᏍᏗ	-10.8928
▁ᎠᎾᎳᏍᎦᎵᏍᎩ	-10.8931
▁ᎠᎾᏓᎭᏲᎯ	-10.8931
▁ᎠᏂᏥᏊᏏ	-10.8931
▁ᎠᏬᎭᎵ	-10.8931
▁ᎢᎨᎬᏁᎸᎯ	-10.8931
▁ᎢᎵᎡᏌ	-10.8931
▁ᎤᏍᏔᏲᏒ	-10.8931
▁ᎤᏖᎸᎳᏛ	-10.8931
▁ᎧᎾᏥᏍᏕᏥ	-10.8931
▁ᎫᏫᏍᎫᏫ	-10.8931
▁ᎬᏬᎯᏳᎲᏍᎩ	-10.8931
▁ᎬᏲᏎᎭ	-10.8931
▁ᎰᏢᏔᏅᎭ	-10.8931
▁ᎴᎣᏗᏏᏯ	-10.8931
▁ᎻᏚᏏᎳ	-10.8931
▁ᏂᏦᎵᎬᎾ	-10.8931
▁ᏇᏣᎵᎵ	-10.8931
▁ᏍᏕᏱᏓ	-10.8931
▁ᏓᏇᎪᏔᏅ	-10.8931
▁ᏗᎾᏙᎴᏆᏍᎩ	-10.8931
▁ᏗᏓᎴᏅᏗᏍᎩ	-10.8931
▁ᏣᎦᏑᎲᎢ	-10.8931
▁ᏧᏂᏦᏯᏍᏗ	-10.8931
▁ᎥᏆᎸᎢᏛ	-10.8931
▁ᎯᏌᎳᏛᎦ	-10.8931
▁ᏗᎬᏩᎩᏨᏗ	-10.8931
▁ᏥᏈᎣᏂ	-10.8931
▁ᎤᏂᎵᏅᏨᎯ	-10.8931
▁ᎢᏯᏛᏁᎵᏓᏍᏗ	-10.8931
▁ᎤᎵᏃᎯᏴᎯ	-10.8931
▁ᏓᏗᎶᏂ	-10.8931
▁ᏗᏥᎨᏫ	-10.8931
▁ᏥᏂᏨᏪᏎᎸᎩ	-10.8931
▁ᏧᎾᏗᎩᏓ	-10.8931
▁ᎢᏥᏇᏓᎸ	-10.8931
▁ᎢᏳᏩᎬᏗ	-10.8931
▁ᎠᎵᏏᎾᎯᏍᏙᏗ	-10.8931
▁ᎠᏂᎪᏗᏳ	-10.8931
▁ᎤᏪᏯᎸᏤᎢ	-10.8931
▁ᏚᏕᏲᏁ	-10.8931
▁ᎠᏆᏗᏔᏍᏗ	-10.8931
▁ᎠᎾᎵᏖᎸᎲᏍᎩ	-10.8931
▁ᏍᎪᏂᏗᏢ	-10.8931
▁ᏗᎨᏘᏂᏓᏍᏗ	-10.8931
▁ᎤᎵᏍᏛᏧᏁ	-10.8931
▁ᎹᎺᎵ	-10.8931
▁ᎠᏂᎶᏍᎩ	-10.8931
▁ᎤᏦᎠᏎᏗ	-10.8931
▁ᎪᎯᏳᎲᏍᎨᏍᏗ	-10.8931
▁ᎠᎪᎲᏍᏔᏅᎯ	-10.8931
▁ᎤᏢᏓᎸ	-10.8931
▁ᎠᏟᎶᎥ	-10.8931
▁ᎤᎦᏛᎾᏨᎯ	-10.8931
▁ᏧᏏᏩ	-10.8931
▁ᎦᎶᏣᏗ	-10.8931
ᎾᏌᎾᎩ	-10.8931
▁ᎠᏁᎸᏗᏍᎨᎢ	-10.8931
▁ᎢᎪᏂᏯ	-10.8931
▁ᎤᏙᎳᏅᏍᏗ	-10.8931
▁ᏕᏥᏂᏴᏎᏍᏗ	-10.8931
▁ᎢᏥᏁᎫ	-10.8931
▁ᏗᎩᏲᎱᏒᎯ	-10.8931
▁ᏅᏓᏳᎾᏓᎴᏅᎯ	-10.8931
▁ᎾᏂᏍᎦᏅᎾ	-10.8931
▁ᏓᏲᏣᏛᏁᎵ	-10.8931
▁ᏆᏏᎹ	-10.8931
▁ᎾᏃᎯᏳᎲᏍᎬᎾ	-10.8931
▁ᎠᏙᎴᎰᏒᎯ	-10.8931
▁ᎬᏩᏕᏱᏛ	-10.8931
▁ᏗᏂᏃᎨᏂ	-10.8931
▁ᏧᎬᏩᎳᏅᎯ	-10.8931
▁ᏧᏈᏯ	-10.8931
ᎩᏏᏕᎩ	-10.8931
▁ᏄᎾᏛᏁᎵᏙᎸ	-10.8931
▁ᎢᎬᏆᏛᏁᏗ	-10.8932
▁ᏖᎹ	-10.8932
▁ᏭᏕᎵᏤ	-10.8932
▁ᏗᏂᏐᎯ	-10.8932
▁ᏱᏥᎪᎵᏰᎣ	-10.8932
▁ᎤᏴᎵᎴ	-10.8932
ᏙᎴᏋ	-10.8932
ᏫᏂᏗᏢ	-10.8932
▁ᎢᏳᎾᏓᎳ	-10.8932
▁ᏓᏓᏛᏂ	-10.8932
▁ᎤᎦᏃᏮ	-10.8932
▁ᏁᏆᎸ	-10.8932
▁ᏓᎦᏥᏁᎵ	-10.8932
▁ᏗᎬᏩᏂᏰᎯ	-10.8932
▁ᏘᎦᏙᎵ	-10.8932
▁ᏚᏪᎧᏅᎩ	-10.8932
▁ᎤᏆᏛᎩ	-10.8932
▁ᏧᏬᏢᏅᎯ	-10.8932
▁ᏗᎦᎾᏌᎢ	-10.8932
▁ᏚᏭᏢᏔᏅᎩ	-10.8932
▁ᎶᏩᏂ	-10.8932
▁ᏧᎵᎬᏩᏟ	-10.8932
▁ᎠᏆᏟᏂᎬᏁᎸ	-10.8932
▁ᎠᏂᎱᏣ	-10.8933
▁ᏧᎾᎪᏅᏍᏓᎵ	-10.8933
▁ᏩᏥᎳ	-10.8933
▁ᎥᏃᏥ	-10.8933
ᏐᎭᏛ	-10.8933
▁ᏳᏲᎱᏒ	-10.8933
▁ᎢᏯᏓᏛᏁᎯ	-10.8933
▁ᏗᏕᏲᎲᏍᎩ	-10.8933
▁ᏫᏥᏲᎵᎦ	-10.8933
▁ᎠᏂᏃᎮᏍᎨ	-10.8933
▁ᏅᏁᎸᎭ	-10.8933
▁ᎢᏯᏆᎵᏍᏙᏗᏱ	-10.8933
▁ᎤᎾᏚᎵᏍᎩ	-10.8933
▁ᎦᏥᏯᏁᎳᏅᎯ	-10.8933
▁ᎪᎢᏳᎲᏍᎦ	-10.8933
▁ᎭᏛᏓᏍᏓ	-10.8934
▁ᏅᏓᏳᏅᏏᏛ	-10.8934
▁ᎠᏂᎩᎦᎨ	-10.8934
▁ᏗᎩᏴᏫ	-10.8934
▁ᏥᏍᎦᎢᎲ	-10.8934
▁ᎱᎷᏣ	-10.8934
▁ᎤᎾᏙᎴᎰᎯᏍᏙᏗ	-10.8934
▁ᎠᏂᎾᏰᏍᎩ	-10.8934
▁ᏫᏄᏪᏎᎢ	-10.8934
▁ᏕᏅᏙᎥ	-10.8935
▁ᎡᏥᏲᎵᎸᎭ	-10.8935
▁ᏕᎦᏰᏌᏛ	-10.8935
▁ᏂᏣᏓᏅᏛᎾ	-10.8935
▁ᎤᏃᎯᏳᎯ	-10.8935
▁ᎢᏥᎨᏴ	-10.8935
▁ᏚᏬᏁᏔᏅᎩ	-10.8935
▁ᏗᏍᎩᎧᏁ	-10.8935
▁ᎢᏗᏜ	-10.8935
▁ᎢᏤᎵᎭ	-10.8935
▁ᏄᏓᏑᏴᎾ	-10.8935
▁ᏱᏥᏏᎾ	-10.8935
▁ᎢᏣᎴᏂᏙᎲ	-10.8935
▁ᏗᏥᎸᏫᏍᏓᏁᎯ	-10.8936
▁ᏗᏂᎴᏂ	-10.8936
▁ᎠᏂᎡᎼᎵ	-10.8936
▁ᎤᏂᏆᏘᏍᏗ	-10.8936
▁ᎠᏆᏕᎶᎰᏒ	-10.8936
▁ᏅᏓᏍᏆ	-10.8936
▁ᎤᎸᏉᏔᏁ	-10.8936
▁ᏗᏣᎳᏏ	-10.8936
▁ᎠᎱᎵ	-10.8936
▁ᏫᏂᏪᏏ	-10.8937
▁ᏗᎭᎾᏬ	-10.8937
▁ᏁᎳᏚ	-10.8937
▁ᎤᎧᎵᏨ	-10.8937
▁ᏓᏓᏂᎸᎨᏍᏗ	-10.8937
▁ᎢᏧᏖ	-10.8937
▁ᏤᎵᎪ	-10.8937
▁ᎠᏯᏄᎵ	-10.8937
▁ᏚᏄᏌᏛ	-10.8938
▁ᏚᎿᏍᏕᏢ	-10.8938
▁ᏫᏥᎦᏘ	-10.8938
▁ᎢᎬᎾᏕᏅ	-10.8938
▁ᎤᏓᏑᏰᏛ	-10.8938
▁ᏗᏁᏍᎨᏍᎩ	-10.8938
ᏡᏔᏂ	-10.8938
▁ᎡᎿᎢ	-10.8938
▁ᏗᎦᎪᏙᏗ	-10.8938
▁ᏦᎨᏥ	-10.8938
▁ᎬᏔᏲᏎᎭ	-10.8939
ᏲᎵᏍᏗᏱ	-10.8939
▁ᏣᏓᏅᏛᎢ	-10.8939
▁ᏓᏂᏴᎬᎢ	-10.8939
▁ᎠᏄᏬᎩᎯ	-10.8939
▁ᎪᏒᏅ	-10.8939
▁ᎢᏨᏲᏪᎳᏁᎭ	-10.8939
▁ᏓᏂᏴᎨᏍᏗ	-10.8939
▁ᏣᏓᎸᎩ	-10.8939
ᎵᏖᎸᏂᏍᏗ	-10.8939
▁ᏭᎩᎶᏫᏎ	-10.8939
▁ᏓᏂᏄᏙᎬᎢ	-10.894
▁ᏚᏚᏓᏛᎢ	-10.894
▁ᏗᏣᎳᏏᏕᏂ	-10.894
▁ᏥᎦᏚᎭ	-10.894
▁ᎠᏈᎷ	-10.894
▁ᏭᎳᎩᏒ	-10.894
▁ᏧᏲᎯᏍᏗᏱ	-10.894
▁ᎡᏈᎳ	-10.894
▁ᎤᏓᏅᎦᎸᏓ	-10.894
▁ᏂᏥᏪᏍᎬ	-10.894
▁ᎧᏁᏍᎬ	-10.894
▁ᎢᏤᏅᏍᏗᏱ	-10.8941
▁ᏧᎸᏫᏍᏓᏁᎸᎯ	-10.8941
▁ᏓᏥᏁᎵ	-10.8941
▁ᎤᏬᏒᏅ	-10.8941
▁ᏓᎾᏠᏱᎲ	-10.8941
▁ᏅᏛᏛᏁᎵ	-10.8941
▁ᎦᏛᎩᎠ	-10.8941
▁ᎬᏯᎵᎡᎵᏤ	-10.8941
▁ᏧᏬᏪᎳᏅ	-10.8942
▁ᏒᎯᏰᏱ	-10.8942
▁ᏇᎵᏏ	-10.8942
▁ᎡᏚᏥ	-10.8942
▁ᏕᎯᎧᏅ	-10.8942
▁ᎤᏲᎱᏎᎮᏍᏗ	-10.8942
▁ᎤᏅᏪ	-10.8942
▁ᎠᏴᏓᏆᎶᏍᎩ	-10.8943
▁ᏚᏘᏃᎮᎴᎢ	-10.8943
▁ᏣᏔᎳᏬᎯᏍᏗ	-10.8943
▁ᏗᎦᏁᎲ	-10.8943
▁ᏧᎧᎭᏲ	-10.8943
▁ᎦᏓᎷᎪᏗ	-10.8943
▁ᏱᏂᎦᎵᏍᏗᎭ	-10.8944
▁ᎡᏍᎦᏂᏳ	-10.8945
▁ᎤᎵᏦᎯᏛ	-10.8946
▁ᎴᎻᎩ	-10.8946
▁ᎢᏣᎵᏍᏓᏴᏗᏱ	-10.8946
▁ᏗᏟᏍᏙᏗ	-10.8946
▁ᏧᎾᏁᎳᏅᎯ	-10.8947
▁ᏚᏏᏔᏛ	-10.8947
-“	-10.8947
▁ᎠᏴᎩ	-10.8947
▁ᎤᏬᏪᎳᏅᎩ	-10.8947
▁ᎠᏆᏛᏅᎢᏍᏗ	-10.8948
▁ᎢᏥᏁᏨ	-10.8948
▁ᎠᏆᏓᏅᏖᏛ	-10.8948
▁ᎠᏆᏛᏁᏗᏱ	-10.8948
▁ᎤᏢᎦ	-10.8949
▁ᎠᏫᏌᏅ	-10.8949
▁ᎠᏔ	-10.8949
▁ᎤᎷ	-10.8949
▁ᎤᏃᏪᎳᏅ	-10.8949
▁ᎠᏤᏍᏙᎩᎯ	-10.895
▁ᎠᏂᎦᏘᏯ	-10.895
▁ᏑᏓᎵᏧᏈ	-10.895
▁ᏗᏥᎧᎿᏩᏛᏍᏗᏱ	-10.895
▁ᎦᏰᎵᏍᏗ	-10.8951
▁ᎤᏲᎱᏎᏗ	-10.8951
▁ᎠᏣᎳᎩ	-10.8951
▁ᏩᏍᏘ	-10.8951
▁ᎠᏌᎳᏙᏗ	-10.8952
▁ᏚᏪᏴ	-10.8952
▁ᎤᎾᏄᎪᏥᎸ	-10.8953
▁ᎢᏗᏂ	-10.8953
▁ᎤᏁᏅᏒᎩ	-10.8953
▁ᎠᏃᏍᏓ	-10.8953
▁ᎠᏋᏔᏅᎯ	-10.8953
▁ᎦᎬᏩᏐᏢ	-10.8954
▁ᎤᎸᏌᏗ	-10.8954
▁ᎤᏩᏂᎦᎸᎢ	-10.8954
▁ᏗᎫᏍᏙᏍᏗᏱ	-10.8955
▁ᎦᏁᏥᏱ	-10.8955
▁ᎠᏂᏍᎦᏰᎬᏍᏓ	-10.8956
▁ᎤᏍᏆᏂᎪᏔᏁᎢ	-10.8956
▁ᎤᏂᎾᎥ	-10.8956
▁ᎦᏘ	-10.8956
▁ᎤᏂᏍᎦᎴᎢ	-10.8956
▁ᎤᏂᏃᎮᏗᏱ	-10.8957
▁ᎤᏪᏙᎴᎢ	-10.8957
ᏬᏁᏔᏁ	-10.8958
ᎵᏓᏍᏗᏱ	-10.8959
▁ᎤᏬᎳ	-10.8959
▁ᎭᏟᏂᎬᏁ	-10.8959
▁ᎾᏥᏪᏎᎴᎢ	-10.8959
▁ᎢᏣᏛᏁᏗ	-10.8959
▁ᎬᏩᏍᎦᎩ	-10.8959
▁ᎦᎪᎵᏍᏗ	-10.896
▁ᏧᎾᏛᎾ	-10.896
▁ᏂᏨᏁᎲ	-10.896
▁ᎤᏂᏁᏉᏤ	-10.896
▁ᏱᏂᎦᎩ	-10.8962
ᏁᏉᏣᏘ	-10.8962
▁ᎤᏕᏔᏅᎯ	-10.8962
▁ᎾᏥᎤᏍᏕᏎᎸᎾ	-10.8962
▁ᎠᏂᎩᎾ	-10.8962
▁ᏳᏪᎾ	-10.8962
▁ᎢᏨᏁᏗ	-10.8963
▁ᎤᏛᏅᏗᎦᎳᏫᎢᏍᏗᏱ	-10.8964
▁ᏣᏍᏆ	-10.8965
▁ᎢᏳᏪᏍᏗ	-10.8965
▁ᏤᏣᎧᏃᏗ	-10.8966
▁ᎤᎵᏍᎪᎸᏔᏅᎯ	-10.8966
ᏥᎤᏍᏕᏎᎸᎾ	-10.8967
▁ᎠᏍᏕᎵᏍᎩ	-10.8967
▁ᏥᏄᏍᏛ	-10.8967
▁ᎢᏨᏙᏗᏱ	-10.8968
▁ᏣᎾᏫᏱ	-10.8968
▁ᏚᏄᎪᏫᏒ	-10.8969
▁ᎠᎩᎷᏤᎸᎩ	-10.8969
▁ᎢᏥᏁᏗ	-10.897
▁ᏭᏓᏒᏍᏔᏁ	-10.897
▁ᎤᏂᏚᎲᎢ	-10.897
ᏩᏛᎲᏍᏗᏱ	-10.8971
▁ᎤᎾᏅᏗᏱ	-10.8971
▁ᎢᏣᏁᎳᏅᎯ	-10.8971
▁ᎤᏂᏰᎸᎯ	-10.8971
▁ᎱᏂᎷᏤ	-10.8972
▁ᏭᏓᎪᎾᏛᏛ	-10.8972
▁ᏍᎦᏰᎬᏍᏔ	-10.8974
▁ᏂᎨᏥᏪᏎᎸ	-10.8974
▁ᏳᏪᎭ	-10.8974
▁ᎤᏴᎸᎩ	-10.8974
▁ᎤᏓᏅᏍᏗ	-10.8975
ᎦᎶᎨᏒ	-10.8976
▁ᏚᏃᏁᎴ	-10.8978
▁ᎡᏥᏁᎸᎯ	-10.8978
▁ᎯᏄᎪᎢ	-10.8978
▁ᎤᎾᏓᏟᏌᏅ	-10.8979
▁ᎦᏃᎯᎵᏙ	-10.898
ᏕᎪ	-10.8981
▁ᎤᎦᏔᎲᏎ	-10.8985
▁ᏚᏓᏘᎿᎥᎢ	-10.8986
▁ᎤᎵᏰ	-10.8986
▁ᎤᎾᏄᎪᏫᏍᏗᏱ	-10.8987
▁ᎢᏓᏙᎴᎰᎯᏍᏗ	-10.8988
ᏘᏁᏒᎭ	-10.8988
▁ᏩᎦᏛᎢ	-10.8988
▁ᎠᏁᎵᏍᎪ	-10.8988
▁ᏒᏙᏂ	-10.8989
▁ᎤᏍᏕᎸᏗᏱ	-10.8989
ᏎᏃ	-10.899
▁ᎠᎩᎪᏩᏛᏗᏱ	-10.899
▁ᎤᏔᏪᏙᏁᎢ	-10.899
▁ᎠᎾᏗᏍᎬ	-10.8991
▁ᎤᎩᎵ	-10.8991
▁ᏌᎻ	-10.8993
ᎴᏁᎯ	-10.8995
▁ᎠᎳᏑᎶ	-10.8995
▁ᎤᏅᏙᏗ	-10.8995
▁ᏕᎦᎧᎲᎩ	-10.8996
ill	-10.8996
▁ᎤᏍᏚᏁ	-10.8997
▁ᏗᎦᏘ	-10.8998
▁ᏧᎾᏍᏗᎦ	-10.9
▁Ꮌ	-10.9001
ᏓᎵᏓᏍᏗ	-10.9003
▁ᎢᎨᏣᏛᏁᏗ	-10.9004
▁ᎤᏬᏢᏁᎢ	-10.9005
▁ᏧᏓᎴᏁᎢ	-10.9005
▁ᏧᏪᏥᏛᎯ	-10.9005
▁ᎤᏍᏓᏩᏗᏙᎯ	-10.9006
▁ᎹᎵ	-10.9006
▁ᎦᏁᎮᎢ	-10.9008
▁ᎦᎵᏆᏚ	-10.901
▁ᎠᎩᏃᎮᎸ	-10.901
▁ᏙᎳᏧᎦ	-10.9013
▁ᏙᏌ	-10.9015
▁ᎦᏆᎵ	-10.9015
▁ᎢᎾᏏ	-10.9015
▁ᎣᎨᏅᏒ	-10.9016
▁ᎤᏂᏴᏗ	-10.9016
▁ᏓᏥᏂ	-10.9016
▁ᎦᏁᏥᎢ	-10.9017
▁ᏥᏅᎵ	-10.9019
▁ᎤᎵᏰᏔᏁᎢ	-10.9019
▁ᏬᏤ	-10.9019
▁ᎤᎾᎴᏅᎲ	-10.9021
▁ᏂᎦᎵᏍᏗᏍᎪᎢ	-10.9021
▁ᎠᎦᏅᎩ	-10.9022
ᏰᎵᏎ	-10.9022
▁ᏓᏍᏛ	-10.9023
▁ᎤᏄᏬᏍᏗ	-10.9023
▁ᏕᎪᏪᎸᎩ	-10.9025
ᏍᏆᎳ	-10.9025
▁ᎢᏍᏕ	-10.9025
▁ᎠᎪᎲᏍᎬ	-10.9026
▁ᏭᏴᎸᎩ	-10.9027
▁ᏗᎦᎫᏍᏛᏗᏱ	-10.9028
▁ᏧᏃᎸ	-10.9029
▁ᏥᏯᎥᎢ	-10.903
ᏟᎶᏍᏔᏅ	-10.9033
▁ᎤᏬᎭ	-10.9033
▁ᎠᏫᏒᎯ	-10.9034
▁ᏂᏣᏛᏁᎲᎢ	-10.9036
▁ᎤᎶᎨᏒᎢ	-10.9041
ᎩᏴ	-10.9041
▁ᏥᏂᎨᎬᏁ	-10.9042
▁ᎦᎵᎷᎨᏍᏗ	-10.9042
▁ᏭᎷᏤᎴᎢ	-10.9043
ᏥᏁᎢᏍᏗᎭ	-10.9045
▁ᎤᏰᎬ	-10.9045
▁ᎠᏇᎵᏒᎩ	-10.9045
▁ᎠᎾᏓᏙᎵᏍᏗᏍᎨ	-10.9046
▁ᎧᏃᎮᏍᎬᎩ	-10.9047
▁ᏓᏟᎶᏍᏛᎢ	-10.9048
ᏢᏂ	-10.905
ᏚᏓᎴᏍᏗᏱ	-10.9055
ᏓᏎᎪᎩ	-10.9056
▁ᏓᎧᏁ	-10.9056
▁ᎤᏍᎦᏤ	-10.9057
ᎵᏍᎪᎸᏙᏗ	-10.9059
▁ᏂᏚᏅ	-10.9063
▁ᏱᏍᏛ	-10.9063
▁ᎤᏂᏴᎮᎢ	-10.9063
▁ᎤᏬᏎᎴᎢ	-10.9065
▁ᏗᎦᏙᏗ	-10.9065
ᏓᏅᎡᎮᏍᏗ	-10.9066
▁ᏂᏗᎨ	-10.9067
▁ᏣᎢᏒ	-10.907
▁ᎠᎦᏔᎯ	-10.9073
▁ᏎᎳᎩ	-10.9076
▁ᏚᏂᎪᎲ	-10.9076
▁ᎭᏕᏬ	-10.9077
▁ᎤᎾᏙᎴᎰᏒᎩ	-10.9077
▁ᏧᏩᎫᏔᏅᏒᎢ	-10.908
▁ᎤᏍᏓᎦᎸᎢ	-10.908
ᎵᏎᎲ	-10.9082
ᏍᏗᏰᏗᎭ	-10.9082
▁ᏱᏅᎦ	-10.9092
▁ᏩᎩᎦ	-10.9094
▁ᎤᏃᏢᏗ	-10.9095
▁ᏣᎧᏛᎢ	-10.9096
▁ᏥᏂᎦ	-10.9096
▁ᎾᏆᏛᏁᎸᎢ	-10.9097
ᏅᏗᏍᎪ	-10.9097
ᏂᏪᎠ	-10.9098
▁ᏏᏅ	-10.9099
ᎠᎩᏏᏙᎯ	-10.9099
▁Ꮇ	-10.91
ᏓᎩᏍᎨ	-10.91
▁ᎦᏅᎦ	-10.9101
▁ᎬᏩᎷᏤᎴᎢ	-10.9101
▁ᎬᎩᏍᏗ	-10.9107
▁ᏯᎩᏰᎸ	-10.9107
▁ᎡᏙᎲᎩ	-10.9108
ᏛᏛᎾ	-10.9108
▁ᎢᏆ	-10.9109
ᎵᏓᏍᏔᏅ	-10.9112
▁ᎠᏆᏛ	-10.9114
▁ᎠᏂᏁᎬᎢ	-10.9117
▁Ꮰ	-10.9117
▁ᏤᏏ	-10.9122
ᎵᏙᎯ	-10.9123
▁ᎦᏁᎯ	-10.9125
ᎵᏍᎪᎸᏔ	-10.9129
▁ᏧᎾᏗᏔᏍᏗ	-10.913
▁ᎨᏙᎲᎢ	-10.9131
▁ᏣᏍᎦᏅᏨ	-10.9131
▁ᎦᎵᏦᏙᏗ	-10.9131
▁ᎤᏃᏢ	-10.9132
▁ᏚᎷᎬ	-10.9133
▁ᏓᏯ	-10.9135
ᎩᎾᏝᎢ	-10.914
▁ᎢᏥᎲᎢ	-10.9142
ᏚᎯ	-10.9143
▁ᏓᏫᏒᎢ	-10.9144
▁ᏗᎬᎩ	-10.9147
ᏂᏬᏂᎯᏍᏗ	-10.9147
▁ᎠᎢᏎ	-10.9148
ᏍᏕᏓᎵᏴ	-10.9149
▁ᎣᎦᎾ	-10.9156
ᎳᏅᎩ	-10.9157
▁ᎬᏩᎦ	-10.9157
ᎩᏳᏍᏈᏛ	-10.9159
ᎵᏍᎪᎸᏓᏏ	-10.9162
▁ᎤᎾᎵᎪᏒ	-10.9163
▁ᎡᎳᏂᎬᎢ	-10.9164
ᎯᎲᎢ	-10.9171
▁ᎾᏛᎦ	-10.9172
▁ᏥᎩᎵᏲᎬ	-10.9172
▁ᎢᏢ	-10.9179
ᏌᏛᎥᏍᎩ	-10.918
▁ᎠᏏᎾ	-10.9181
ᎷᏤᎸᎩ	-10.9183
▁ᏚᏲ	-10.9187
▁ᏅᎩᏃ	-10.9187
▁ᏙᏓᎸᎢ	-10.9188
ha	-10.9191
▁ᎠᎦᎵᏍᎪᎸᏓᏁᎸ	-10.9194
ᏓᎾᏫᏛᎮ	-10.9197
▁ᎤᏂᎯ	-10.9197
▁ᎣᏤ	-10.9197
▁ᎣᏍᏗ	-10.9201
ᎸᏍᏗᏱ	-10.9202
▁ᏇᎳ	-10.9203
▁ᎠᏯᎠ	-10.9204
ᏆᎴ	-10.9205
▁ᎠᎾᎢᏒᎢ	-10.9207
ᏅᏂ	-10.921
▁ᏙᎤ	-10.9217
ᏁᏤᏗᏱ	-10.9218
▁ᏗᏛ	-10.9223
ᎦᏅᏍᎨᏂ	-10.9225
ᎵᏦᏩᏛ	-10.9226
▁ᎠᏍᏆ	-10.9228
ᏲᏍᎬ	-10.9228
▁ᎡᏏ	-10.9232
▁ᏗᏍᏚ	-10.9239
▁ᏓᏓᏁᎸᎢ	-10.9242
ᏍᏚᏟᏍᏗ	-10.9242
▁ᎤᎷᏨᎯ	-10.9247
▁ᏚᏩᏒ	-10.9248
▁ᎤᏂᎾ	-10.9249
▁ᎦᎳᎨᏴᎢ	-10.9255
▁ᏕᎦᏚᎲᎢ	-10.9255
▁ᏂᏣᏛᏁᎸᎢ	-10.9256
▁ᎦᎵᏣ	-10.9256
▁ᏗᎵ	-10.9257
▁ᎤᏕᏅᎢ	-10.9261
▁ᎤᏁᎳᏅ	-10.9264
ᏱᏆ	-10.9266
ᏂᎩᏓ	-10.9267
▁ᏂᏣᏍᏛ	-10.9268
ᏥᏁᎸᎯ	-10.927
▁ᏓᏆᏙᎥᎢ	-10.9272
ᎵᏙᎮ	-10.9276
▁ᏕᎨᏒ	-10.9277
▁ᎠᏲᎱ	-10.9281
▁ᎤᎶᏎ	-10.9283
ᎸᏛ	-10.9284
▁ᎤᏓᏅᏖᎢ	-10.9285
ᏲᎵᎴ	-10.9296
▁ᎫᏓ	-10.9303
▁ᎠᏂᎦ	-10.931
ᏳᎳ	-10.9311
▁ᎠᎾᏛᎩᏍᎨ	-10.9323
▁ᏕᎯᏁᎸ	-10.9337
ᏘᏃᎦ	-10.9342
▁ᎨᏆ	-10.9343
ᎦᏘᏓ	-10.9347
ᏌᎳᏓᏅ	-10.9347
ᎳᏍᏓ	-10.935
▁ᎠᏂᏬᏂᏍᎬᎢ	-10.9352
▁ᏏᏆᏏ	-10.9358
ᏓᎴᏒ	-10.9361
▁ᎤᏑᎸ	-10.9364
ᏳᎵ	-10.9365
ᏁᏤᎸ	-10.9366
▁ᎵᏍᏗ	-10.9367
ᎤᏣ	-10.9372
ᏛᏅᎢᏍᏓ	-10.9375
ᎵᏱᎶᎯᏍᏗ	-10.9379
ᏛᎯᏍᏙᏗ	-10.9384
▁ᎠᎵᏍᏓᏴᏗᏱ	-10.9385
▁ᏂᏚᏓᎴ	-10.9389
▁ᎢᎭ	-10.9393
ᏓᎴᎾᏍᏗ	-10.9399
▁ᎤᏛᎦᏁᎢ	-10.9403
ᎩᎵ	-10.9404
ᏰᎵᏉ	-10.9405
▁ᎪᏢ	-10.9417
▁ᏣᎬ	-10.9421
▁ᏫᏄ	-10.9426
▁ᎠᏍᏆᏂᎪᏗᏍᎨ	-10.9428
ᏏᏯ	-10.9429
ᎾᏄᎪᏫᏍᎨᏍᏗ	-10.9431
ᏯᎡᏍᏗ	-10.9433
ᎯᏗᏳ	-10.9436
▁ᏂᎬᏁᎮ	-10.944
▁ᏗᏍᏛ	-10.9445
▁ᎪᎯᎩ	-10.9452
▁ᎦᏳ	-10.9452
▁ᎤᏓᎴ	-10.9453
▁ᎦᎸᎳᏗᎨ	-10.9455
ᏓᏅᏖᏙᏗ	-10.9456
▁ᎦᎸᏍᏗ	-10.9462
ᎫᏓᎴ	-10.9462
ᏟᏂᎬᎬ	-10.9479
▁ᎢᏥᎷᏤᎸ	-10.9482
▁ᎯᏥ	-10.9484
▁ᏳᎪ	-10.9486
▁ᏨᏍᎩᏃᎢ	-10.9488
▁ᎤᏕᎵ	-10.949
▁ᎤᏢ	-10.9491
ᎶᏅ	-10.9492
▁ᏃᏉᏗ	-10.9494
▁ᏱᏂᏣᏛᏁ	-10.9494
ᎴᎲᎦ	-10.9497
ᏅᏤᎢ	-10.9501
▁ᏳᏰᎸ	-10.9513
ᏢᏈ	-10.9515
ᎵᏍᏗᏍᎩ	-10.9523
▁ᏄᏅᏁ	-10.9527
ᏅᏍᏓᏕᎸᎩ	-10.9527
▁ᏥᎦᏔᎲ	-10.9528
ᏏᏏ	-10.9532
ᏍᏗᏉ	-10.9535
▁ᎢᎡ	-10.9542
▁ᎦᏄᎪᎬ	-10.9543
ᎲᏍᎬᎢ	-10.9546
ᎪᎵᏰᎠ	-10.9559
ᎰᎸ	-10.9561
▁ᏧᏃᏢ	-10.9573
▁ᏕᎬᏩᏂ	-10.9574
ᎦᏍ	-10.9574
ᎲᏍᎨ	-10.9579
ᏅᏁᎮᏍᏗ	-10.9583
ᎵᏦᏛ	-10.9598
▁ᏍᎩᏳ	-10.9611
▁ᏚᏂᎭ	-10.9611
▁ᏯᏇ	-10.9611
ᏍᎪᎵ	-10.9623
▁ᎾᏛᏁᎰ	-10.9627
▁ᎤᏂᎬᏫᏳ	-10.9632
▁Ꮦ	-10.9637
ᏴᎦ	-10.9641
ᏍᏕᎸ	-10.9645
▁ᎩᏓ	-10.9656
ᏲᎯᏎᏗᏱ	-10.9659
ᏓᏂᏴ	-10.9683
ᎸᏅᎯ	-10.9685
▁ᏣᎵᏍᎪᎸᏙᏗ	-10.9692
ᎵᏍᎦᏍᏙᏗ	-10.9694
▁ᏧᎳ	-10.9697
▁ᎠᎾᏘ	-10.97
ᏂᏍᏆᏂᎪ	-10.9703
ᎸᏉᏗᏍᎩ	-10.9713
▁ᎤᎪᎲᎢ	-10.9714
▁ᏱᏍᏆ	-10.9723
▁ᎦᏥᏃᏍ	-10.9729
▁ᏃᎦ	-10.9731
ᏤᎯ	-10.9732
ᏓᏓ	-10.9741
▁ᏁᏣ	-10.9742
▁ᎠᏁᎲᎩ	-10.9747
▁ᏭᏍᏗ	-10.9749
ᏛᏃ	-10.9763
ᏲᎰ	-10.9781
▁ᏧᏲᎯᏎᏗ	-10.9783
ᎪᏩᏘᏍᎪ	-10.9788
ᏘᏅᏒᎩ	-10.9792
▁ᏍᎩᏰᎸᏗ	-10.9796
▁ᏧᏁᏤ	-10.9797
▁ᎦᎶᏗ	-10.9826
ᏂᎲ	-10.9833
ᏗᎦᏅᎯᏛ	-10.9833
ᏲᎵᎸ	-10.9838
▁ᎠᏫᏃ	-10.9839
ᎯᎲ	-10.9841
▁ᎤᏆ	-10.9863
▁ᎦᎾᏰ	-10.9864
ᏬᏁᏔᏅ	-10.9864
▁ᎠᎪᎢ	-10.9864
ᏓᏁᎸᎯ	-10.9869
▁ᎤᎿᏬ	-10.9872
ᎦᏕ	-10.9873
ᏥᎾᏄᎪᏫᏏ	-10.9875
▁ᎥᎩᎸᏉ	-10.9879
▁ᎢᏥᏍᏆᏂᎪ	-10.988
ᎯᎮᏍᏗ	-10.9881
ᏌᏁ	-10.9887
ᎪᏎᎭ	-10.9889
ᎳᎭ	-10.9903
ᏍᏓᏩᏗᏒᎩ	-10.9904
ᏙᎮ	-10.9913
ᎴᏅᎮ	-10.9917
ᏩᏗᏒᎢ	-10.9919
ᏥᎵ	-10.9928
▁ᎢᏥᎭ	-10.9932
▁ᏣᏕ	-10.9932
ᎲᏍᎨᎢ	-10.9934
ᏚᎵᏍᎪ	-10.9936
ᎨᏎ	-10.994
▁ᏣᏓᏰ	-10.9946
▁ᏗᏥᏁᏟᏴ	-10.9962
▁ᏫᏱ	-10.9969
▁ᎤᎵᎢ	-10.9976
▁ᎤᏂᏯ	-10.998
▁ᏱᏙᎩ	-10.9986
▁ᏗᏍᏓ	-10.9991
▁ᏣᎫ	-10.9993
ᏍᏓᏁᎸᎯ	-11.0003
ᏍᎩᎸ	-11.0008
ᏥᎦᏔᎲᎾ	-11.0009
▁ᎤᏪᏅ	-11.0011
▁ᎦᎶᏁᏛᏰᏃ	-11.0013
ᎩᏍᎨ	-11.0023
▁ᏣᏁᎩ	-11.0024
ᎩᏏ	-11.0026
ᎵᏍᏓ	-11.0037
ᏔᏪᏙ	-11.0073
ᏡᎬ	-11.0076
ᏤᎦᏈᏃ	-11.0078
▁ᎡᏙ	-11.0098
ᏤᎷᎯᏒ	-11.0102
ᎵᏍᎪᎸᏙᏗᏱ	-11.0103
ᏥᎦᏔᎭ	-11.011
ᎨᎯᏓᏍᏗ	-11.0119
▁ᏳᎳ	-11.0128
▁ᎧᏃ	-11.0135
▁ᎾᏯ	-11.0167
ᏛᏁ	-11.0171
▁ᎤᏄᎸ	-11.0175
ᏍᏓᏲ	-11.0187
ᏘᏅ	-11.019
▁ᎠᏂᏧᏏᏃ	-11.0196
ᏴᏔᏁᎢ	-11.0204
ᏞᎢ	-11.021
▁ᏱᎨᏣ	-11.021
ᏖᎢ	-11.0221
ᏴᏢ	-11.0228
▁ᏫᏙ	-11.0232
ᎪᎾᏛ	-11.0235
▁ᎠᏏᏴᏫᏉ	-11.0238
ᏅᎯᏓ	-11.0244
ᎸᏙᏗ	-11.0249
ᏚᏃᏴᎬ	-11.026
▁ᎠᎵᏥᏙ	-11.0261
▁ᏦᏍᎪ	-11.0263
▁ᎠᏂᏉ	-11.0264
ᏣᏛᏂᏏ	-11.0269
▁ᏄᏩᏁ	-11.0269
▁ᎠᏎᏍᎩᏂ	-11.0271
▁ᏱᎦᏓ	-11.0282
ᏕᏅᎯ	-11.0283
ᏄᏩ	-11.0292
ᏫᏍᎪ	-11.0294
ᏢᏍᎦ	-11.0295
▁ᏚᏂᏍᏚ	-11.0297
ᎢᎦᎸᏉᏗ	-11.0299
▁ᎤᏪᏯ	-11.03
▁ᏚᎵ	-11.0301
▁ᎠᎩᏲ	-11.0303
ᎪᎦ	-11.0315
ᏍᏆᏂᎩᏗ	-11.032
ᎩᎨᏳᎯᏳ	-11.0327
ᎮᎾ	-11.033
ᎬᏩᎶᏗ	-11.0331
ᏧᎬ	-11.0335
ᏓᏍᏗᏱ	-11.0336
ᏍᏛᏗ	-11.0354
ᏤᏗ	-11.0357
▁ᎤᏰᎸ	-11.0371
▁ᏂᎦᏪ	-11.0371
ᏟᏗ	-11.0371
ᎰᏅ	-11.0376
▁ᏱᏛ	-11.0379
ᎬᎭ	-11.0391
ᏎᏗᏱ	-11.0401
ᎥᏍᎦ	-11.0406
ᏰᎸᏍᎬ	-11.0411
▁ᎣᏂᎦ	-11.0414
ᏪᎵ	-11.0416
▁ᎤᏓᏁ	-11.0417
ᎪᏩᏘᏍᎬᎾ	-11.0418
ᎳᎩᏍᏗ	-11.0421
ᎻᏂ	-11.0425
ᏍᏕᎵᏍᎩ	-11.0427
▁ᏛᏆ	-11.0427
ᏒᏰᏃ	-11.0428
ᎧᎿ	-11.045
ᎵᎻ	-11.0452
▁ᎤᎾᏓᏅ	-11.0458
ᎾᏄᎪᏫᏍᏗᏱ	-11.0461
▁ᎤᏍᎩ	-11.0467
ᎵᏍᎪᎸᏓᏁ	-11.0473
ᏍᏕᎾ	-11.0478
ᏎᎸᎢ	-11.048
ᏒᏆᎶᏍᏗ	-11.0492
ᏕᏲ	-11.0492
ᎬᏓ	-11.0502
ᎪᏒ	-11.0521
ᎡᎰᎢ	-11.0523
▁ᎬᏗᏍᎪ	-11.053
ᏁᎳᎩ	-11.054
ᏐᏁ	-11.0547
ᏟᏐᏗᏱ	-11.0547
ᏰᏍᏗ	-11.0556
ᏍᏚᎢᏍᏗ	-11.0559
ᎧᏯ	-11.0566
▁ᏇᎵ	-11.0572
▁ᎢᏨᏁ	-11.0574
▁ᎠᎦᏓ	-11.0574
▁ᏱᏂᎪ	-11.0582
ᎦᏓᎭ	-11.0582
ᎦᏬᏂᎯᏍᏗ	-11.0591
▁ᎢᏥᏍᎦᎾ	-11.0591
ᎵᏒ	-11.0595
ᎵᎰ	-11.0597
ᎦᏄᎪᏫᏍᎦ	-11.0598
▁ᎤᏩᏗ	-11.0603
▁ᏂᎤ	-11.0606
▁ᎤᏅᏤ	-11.061
ᏲᎱᎯᏍᏗ	-11.0616
ᎧᎵᏎ	-11.062
▁ᏗᏍ	-11.062
ᏓᏂᎸᎢᏍᏗ	-11.0629
ᎧᎵᎢᏍᏗᏱ	-11.0629
ᎬᏩᎶᏓᏁ	-11.0631
▁ᎠᏂᏍᎦᎢᎮ	-11.0631
▁ᎠᏆᏕ	-11.0633
ᏇᏅᎯ	-11.064
ᎢᏣ	-11.0641
▁ᏯᎩᎪ	-11.0647
▁ᎤᏃᎸ	-11.0649
▁ᎠᏆᏚ	-11.0654
▁ᎤᏄ	-11.066
ᎦᏔᎮᏍᏗ	-11.0663
ᏫᏍᎬ	-11.0673
ᏍᏓᏱᏕ	-11.0675
▁ᎪᎵ	-11.0694
▁ᎠᏎᎵ	-11.0694
ᏆᏠ	-11.0702
ᏯᏅᏗ	-11.0702
ᏢᏅᎩ	-11.0709
ᎵᏍᏓᏏ	-11.071
▁ᎤᏂᏩ	-11.0719
▁ᏧᏂᎳᏫ	-11.0722
▁ᎤᎾᏦ	-11.0727
▁ᎠᏚᎢᏍ	-11.0728
ᏕᎰ	-11.0733
ᏴᎮ	-11.0734
ᏯᏪᎢᏍᏗ	-11.0735
▁ᏙᎩᏂ	-11.0737
ᎦᏔᏁᎢ	-11.0742
▁ᎤᏲᎢᏍᏗ	-11.0744
▁ᎤᏁᏙᎸ	-11.0749
ᏰᎸᎯ	-11.0751
▁ᏓᎦᏥᏯ	-11.0763
▁ᎯᏁᎩ	-11.0764
▁ᏓᏛ	-11.0774
ᏁᏤᎲ	-11.0774
▁ᎤᏮ	-11.0777
▁ᏤᏈᏛ	-11.0782
▁ᎤᎵᏍᏚ	-11.0783
▁ᏣᏤᏍᏙ	-11.0792
ᏍᏓᏁᎴ	-11.0794
ᏆᏕ	-11.0794
ᏅᎢᏍᏗᏱ	-11.0795
▁ᎦᏬᏂᏍᎨ	-11.0801
▁ᏚᏂᏁ	-11.0807
▁ᎹᏓ	-11.0808
ᏁᏅᏍᏗᏱ	-11.081
▁ᏙᏓᎧ	-11.0811
▁ᎤᏂᏰᎸᏎ	-11.0811
▁ᎢᏗᏣ	-11.0813
▁ᏦᎩᏂ	-11.082
▁ᎾᎩᏪᏒ	-11.0821
ᏔᏲᏎᎭ	-11.0823
▁ᏅᎦ	-11.0825
▁ᎤᏢᎬ	-11.0827
▁ᏫᏚᎧᎾᏁ	-11.0828
▁ᎦᏍᎩᏓᏍᎬ	-11.0828
▁ᏕᏍ	-11.0828
▁ᎠᏥᏃᏁᎴ	-11.0828
▁ᏙᎩᎸᏫᏍᏓᏁᎲ	-11.0829
▁ᎤᏁᎫ	-11.083
▁ᎢᏛᏗᏍᎬ	-11.0832
▁ᎠᎾᏛᎩᏍᎬ	-11.0833
▁ᎦᏴ	-11.0834
▁ᎠᎾᎵᎮᎵᎬ	-11.0835
ᎾᏰᎯᏍᏗ	-11.0838
▁ᎤᏃᎯᏳᏒ	-11.0839
▁ᏕᎤᎷᎬ	-11.0841
ᏎᎪᎩᏍᏗ	-11.0841
▁ᏂᏓᏕᏘᏴᎯᏒ	-11.0841
▁ᎠᏂᎩᎵᏲᎬ	-11.0842
▁ᏕᏣᎸᏫᏍᏓᏁᎲ	-11.0844
▁ᏗᎾᏓᎪᎾᏗᏍᎬ	-11.0846
ᏃᎮᎮᎸ	-11.0846
▁ᏩᎾᎢ	-11.0847
▁ᏨᏌ	-11.0847
▁ᎠᎩᏍᏛᏗᏍᎬ	-11.085
▁ᎠᏂᎧᎸ	-11.085
▁ᎤᏁᎷᏁ	-11.085
▁ᎠᏗᏍᎨ	-11.085
ᎡᏝᏪᎯ	-11.0851
▁ᎤᏪᎵ	-11.0851
ᎢᏏᎵ	-11.0852
▁ᎠᎾᏕᎲᏍᎬ	-11.0852
▁ᎢᏳᎵᏍᏔᏅ	-11.0852
▁ᎯᏁᎬ	-11.0853
▁ᎤᏒᏂᎴ	-11.0854
ᎠᏍᎦᏯ	-11.0854
▁ᎠᎬᏗᏍᎬ	-11.0854
▁ᎠᏟᏍᏛ	-11.0855
▁ᎤᏍᏗᏰᏔᏁ	-11.0856
▁ᎤᏃᎯᏳᏅ	-11.0857
▁ᎠᏓᎾᏅ	-11.0857
ᎠᎳᏂ	-11.0858
▁ᎤᏓᏙᎵᏍᏔᏅ	-11.0861
▁ᎠᎧᎵ	-11.0861
▁ᎤᎾᏓᏙᎵᏍᏔᏅ	-11.0866
ᏯᏗ	-11.0866
ᏴᏔᏂᎸ	-11.0866
ᏛᏗᏍᎩ	-11.0867
▁ᎦᏓᏙᎵᏍᏗᏍᎬ	-11.0868
▁ᎾᏆᎵᏍᏔᏅ	-11.0868
ᎷᎩᏍᎩ	-11.0868
▁ᎪᏙ	-11.0873
▁ᏥᏃᎮᏍᎬ	-11.0877
▁ᏧᎶᏒ	-11.0877
ᏍᏇᏚᎩ	-11.0878
▁ᎠᎾᏓᎪᎾᏗᏍᎬ	-11.0879
▁ᏭᏂᎶᏒ	-11.088
▁ᏅᏓᎦᎵᏍᏙᏗᏍᎬ	-11.0881
▁ᏅᏗᎦᎵᏍᏙ	-11.0881
▁ᎤᏂᏰᎸᏅ	-11.0882
▁ᎯᏌ	-11.0882
ᎩᏓᏟ	-11.0886
▁ᎤᏯᏅᎮ	-11.0886
▁ᎠᏉᏪᎳᏅ	-11.0888
▁ᏧᏓᎴᏁ	-11.0888
ᎳᏕ	-11.0889
▁ᎤᏦᎯ	-11.089
ᎵᏍᏓᏴᏙᏗ	-11.0895
▁ᏭᏓᎪᎾᏛ	-11.0896
▁ᎢᏯᏅᏁ	-11.0897
▁ᎠᏂᎯ	-11.0899
ᏴᏤᏂ	-11.0899
▁ᏥᏨ	-11.09
ᏂᏃᏁᎴ	-11.0901
▁ᏕᏣᏓᏂᎸᏨ	-11.0902
▁ᏧᎾᏛᏐᏅ	-11.0902
▁ᏗᎩᎾᏫ	-11.0902
▁ᏗᏂᏅ	-11.0903
▁ᏱᏄ	-11.0903
▁ᏗᎪᏪᎳᏅ	-11.0904
ᏥᎾᏝᎥᎾ	-11.0905
ᏴᏍᏗᏱ	-11.0905
▁ᎢᏳᎵᏍᏔᏂᏓᏍᏗ	-11.0905
ᏈᎳ	-11.0906
▁ᎠᎪᏎ	-11.0906
ᏄᏕᏘᏴᎲ	-11.0907
ᎠᏁᎯ	-11.0907
▁ᎨᏥᏛᏙᏗ	-11.0907
ᏕᎸ	-11.0908
▁ᏭᏂᎶᎯᏍᏗ	-11.0909
ᏛᎩᏍᎬ	-11.091
▁ᏗᏥᎧᎿᏩᏛᏍᏗ	-11.0911
ᏁᎵᏍᎬᎾ	-11.0911
▁ᏗᎩᏲ	-11.0912
▁ᏗᏍᏆᏂᎪᏙᏗ	-11.0912
▁ᎦᏅᏆᎶ	-11.0913
ᏟᏏᏍᎪ	-11.0913
▁ᏧᏂᏒᏍᏗ	-11.0913
▁ᏣᏍᏆᏂᎪᏙᏗ	-11.0915
▁ᎦᎷᏨ	-11.0915
▁ᎢᏓᎵᎮᎵ	-11.0915
▁ᏗᎦᎵᏦ	-11.0916
▁ᎤᏂᏃᎮᏗ	-11.0917
ᏨᏁᏗ	-11.0917
ᏙᎥᎯᏍᏗ	-11.0918
▁ᏱᏓᏓ	-11.092
▁ᏍᏋ	-11.0921
▁ᎤᎵᏂᎩᏗ	-11.0921
▁ᎠᎺ	-11.0923
ᏠᎾᏍᏛᎾ	-11.0925
ᏚᎧᎾᏅ	-11.0926
ᎰᏢᏅᎭ	-11.0927
es	-11.0927
▁ᎤᏙᎯᏳᏁ	-11.0927
ᏦᎢ	-11.0928
▁ᎨᏨ	-11.0929
▁ᏅᏓᏳᏓᎴ	-11.0929
ᏍᏓᏩᏛᏍᏗᏱ	-11.093
dinot	-11.0931
▁ᎠᎰᎵᏆᎹ	-11.0931
▁ᎠᏁᏯᏔᎯ	-11.0931
▁ᎢᏯᏆᏕᏘᏴᏓ	-11.0931
▁ᎤᎧᏖᏃᎴ	-11.0931
▁ᎤᎬᏩᎳ	-11.0931
▁ᎤᏔᎴᎦᏒ	-11.0931
▁ᎱᏁᏅᏎ	-11.0931
▁ᎾᎵᏍᏓᏴᎲᏍᎬᎾ	-11.0931
▁ᏂᏣᏛᎿᏕᎨᏍᏗ	-11.0931
▁ᏂᏥᎪᎸᎾ	-11.0931
▁ᏕᏏᎶᏂᎦ	-11.0931
▁ᏗᎦᏃᏣᏝᏍᎩ	-11.0931
▁ᏗᎦᏌᏆᎸ	-11.0931
▁ᏧᏂᎳᎾᎢ	-11.0931
▁ᏧᏩᏗᏔᏯ	-11.0931
▁ᏬᎩᎶᏒᎩ	-11.0931
▁ᏭᎩᏨᏅ	-11.0931
▁ᏱᏅᏎᎦᎩ	-11.0931
▁ᎤᎾᎵᏍᏔᏴᏗ	-11.0931
▁ᎤᎾᏗᎦᎴᏲᏨᎯ	-11.0931
▁ᎤᏔᎳᏬᏎᎢ	-11.0931
▁ᏂᏥᏪᎠ	-11.0931
▁ᏧᎾᏍᏕᏥ	-11.0931
▁ᎠᎩᏍᏓᏩᏕᎨᏍᏗ	-11.0931
▁ᎠᏳᎾᎦ	-11.0931
▁ᎤᏓᏩᏗᏍᏙᏛ	-11.0931
▁ᎤᏕᏯᏔᏁᎴ	-11.0931
▁ᏄᎾᏓᏅᏛᎾ	-11.0931
▁ᏅᏧᎵᏍᏙᏔᏁ	-11.0931
▁ᎾᏅᏛᏁᎰ	-11.0931
▁ᏍᎩᏁᎲᏏ	-11.0931
▁ᏓᏤᎵᏍᏛ	-11.0931
▁ᎠᎵᏰᎢᎶᎸᎭ	-11.0931
▁ᎨᎢᎾᏂ	-11.0931
▁ᏕᏥᏙᎨᏍᏗ	-11.0931
▁ᏗᎦᏩᏒᎩ	-11.0931
▁ᏗᏔᎳᏗᏍᏗᏱ	-11.0931
▁ᎢᏣᏛᏅᎢᏍᏙᎢ	-11.0931
▁ᎤᏁᎳᏫᏎᎸ	-11.0931
▁ᎠᏙᏂᏍᎩ	-11.0931
▁ᎣᏍᏓᏓᏤᎵ	-11.0931
▁ᎠᏓᏪᎵᎩᏍᎩ	-11.0931
▁ᏥᏂᏥᏪᎭ	-11.0931
ᏁᏉᏣᏖᏍᏗ	-11.0931
▁ᎤᏓᏥᎾᏍ	-11.0931
▁ᏂᏚᏩᏅ	-11.0931
▁ᏗᏠᏍᎩ	-11.0931
▁ᏛᏥᎷᏥ	-11.0931
▁ᏗᎦᏟᏓ	-11.0931
▁ᏅᏓᏣᏓᎴᏅᎯ	-11.0931
▁ᏙᏓᎫᎪᏓᏁᎵ	-11.0931
▁ᏂᎪᎯᏳᎲᏍᎬᎾ	-11.0931
▁ᏗᎫᎪᏓᏁᎯ	-11.0931
▁ᎤᎬᏩᎴ	-11.0931
▁ᎤᏍᏔᏩᏛ	-11.0931
▁ᏧᎾᎴᏐᏛ	-11.0931
▁ᏫᏂᏨᎦ	-11.0931
▁ᎤᎵᏘᎾᎥ	-11.0931
▁ᎥᎨᏒᎩ	-11.0931
▁ᎠᏂᎶᎻ	-11.0931
▁ᎢᎬᏩᎾᏛᏁᏗ	-11.0931
▁ᎠᏍᏙᏍᎩ	-11.0931
▁ᎢᎦᏪᏍᎩ	-11.0931
▁ᏥᏕᏣᎪᎲᎩ	-11.0931
▁ᏱᏂᎦᏛᏁᎭ	-11.0931
▁ᎧᎹᎹ	-11.0931
▁ᏅᏓᏥᏴᏁᎵ	-11.0931
▁ᏧᏯᏍᎦ	-11.0931
▁ᏱᏄᏪᏒ	-11.0931
▁ᏴᎦᏥᏛᏓ	-11.0931
▁ᏂᎬᏠᏍᎬᎾ	-11.0931
▁ᏣᏃᎮᎸᎩ	-11.0931
▁ᏍᎨᏫ	-11.0931
▁ᏗᎪᏏᏏᏍᎩ	-11.0931
▁ᎢᏥᎦᏔᎲ	-11.0931
▁ᎤᏂᎾᏰᏎᎢ	-11.0931
▁ᏂᏪᏍᎬᎢ	-11.0931
▁ᏗᏂᎧᎿᏩᏕᎩ	-11.0931
▁ᏗᏓᏂᏱᏍᎩ	-11.0931
▁ᎠᎵᏛᏓ	-11.0931
▁ᏥᏨᏰᎳᏗᏙᎲᎩ	-11.0931
▁ᏤᎿᎠ	-11.0931
▁ᎥᏓᎷᎶᏗ	-11.0931
▁ᏗᎾᏓᎾᏌᎲᏍᎩ	-11.0931
▁ᏕᎭᏓᏅᎡᎮᏍᏗ	-11.0931
▁ᎤᏩᏃᏪ	-11.0931
▁ᏥᏚᎸᏫᏍᏓᏁᎭ	-11.0931
▁ᏱᏕᏍᎬᏏ	-11.0931
▁ᏍᎩᏲᎮᏍᏗ	-11.0931
▁ᎣᎾᏂ	-11.0932
▁ᎭᏓᏅᏓᏓ	-11.0932
▁ᏄᏍᎦᏅᏨᎾ	-11.0932
▁ᏂᏕᎤᏍᏕᏍᏗ	-11.0932
▁ᏔᏘᏂᏙᎯ	-11.0932
▁ᏅᏓᎬᏯᏛᏁᎵ	-11.0932
▁ᏂᎩᏴᏁᎸ	-11.0932
▁ᏂᎨᎵᏍᎬ	-11.0932
▁ᏕᎪᏢᏎᏍᏗ	-11.0932
▁ᏧᎵᎩᏏ	-11.0932
▁ᏗᎾᏂᏏᎲᏍᎩ	-11.0932
ans	-11.0932
▁ᏕᎯᏁᏤᎮᏍᏗ	-11.0932
▁ᏂᏑᏪᏎᎴᎢ	-11.0932
ᎵᏍᎪᎸᏗᏍᎨᏍᏗ	-11.0932
▁ᏗᏂᏲᎤᎵ	-11.0932
▁ᏣᎢᏎᏍᏗ	-11.0932
▁ᏅᏓᏨᏁᎵ	-11.0932
▁ᎤᏄᏬᏍᏕᏍᏗ	-11.0932
▁ᎰᏌᎾ	-11.0932
▁ᏗᏥᏲᎱᏒᎯ	-11.0932
▁ᏭᏪᏙᎸ	-11.0932
▁ᏗᏣᏓᎵᎢ	-11.0932
▁ᎢᏣᎦᏌᏯᏍᏓ	-11.0932
▁ᏄᎾᏛᎾᏕᎬ	-11.0932
▁ᏧᏔᎾᎶ	-11.0932
▁ᎤᏓᎾᏏᏅ	-11.0932
ᏤᏬᎩ	-11.0932
▁ᏂᏥᏍᎦᎢᎲᎾ	-11.0933
▁ᎠᎩᏍᎦᏅᏥᏙᎸᎢ	-11.0933
▁ᎠᎾᏁᎸᏗᏍᎬ	-11.0933
▁ᏗᏣᏘᏂᏙᎯ	-11.0933
▁ᎤᏓᏍᏛᏗᏍᏗ	-11.0933
▁ᏚᏌᎯᎸ	-11.0933
▁ᏧᎾᏘᏂᏙᎯ	-11.0933
▁ᏧᏁᏅᏒ	-11.0933
ᎸᏂᏗᏍᎩ	-11.0933
▁ᎤᏩᏯᎨᎢ	-11.0933
ay	-11.0933
▁ᏚᏓᏂᎸᏨ	-11.0933
▁ᎨᎦᎫᏴᏓᏁᏗ	-11.0933
▁ᎬᏩᎾᎦᏌᏯᏍᏗᏕᎩ	-11.0933
▁ᎤᏁᎾᎢ	-11.0933
▁ᏲᏥᎦᏔᎭ	-11.0933
ᏙᎴᏇ	-11.0933
▁ᎤᏃᏢᏔᏅᎩ	-11.0933
▁ᎢᏨᏰᎳᏗᏙᎭ	-11.0933
▁ᎤᏩᎾᏕ	-11.0933
▁ᎨᎵᏌᏕ	-11.0933
▁ᏙᏛᏛᏔᏂ	-11.0933
▁ᏧᎳᏏᏕᏅ	-11.0934
▁ᎤᏂᏁᎢᏍᏔᏅ	-11.0934
▁ᎨᏥᏍᎦᎩ	-11.0934
▁ᎠᎵᏍᎦᏁᏛ	-11.0934
▁ᏂᏤᎲᎾ	-11.0934
▁ᎤᏗᏌᏓᏛ	-11.0934
▁ᎢᏣᏓᏅᏟ	-11.0934
▁ᎠᎩᏬᏂᎯᏍᏗᏱ	-11.0934
▁ᏂᎦᏚᏏᏁ	-11.0934
▁ᎠᎾᏟᎲ	-11.0934
▁ᏂᎦᏪᏍᎪᎢ	-11.0934
▁ᎢᏥᎪᏩᏘᏍᎨᏍᏗ	-11.0934
ᏘᏱ	-11.0934
▁ᎠᏛᏂᏗᏍᏙᏗ	-11.0934
▁ᎾᏅᏁᎲ	-11.0935
▁ᏂᏣᏛᏁᎭ	-11.0935
▁ᎨᎦᎵᏍᎪᎸᏓᏁᎸᎯ	-11.0935
▁ᎦᏙᎴᎣᏍ	-11.0935
▁ᏭᏓᏐᎴ	-11.0935
▁ᏩᎵᏰᎢᎶᎯᎭ	-11.0935
▁ᎡᎭᎦᏔ	-11.0935
▁ᏤᏌᏂ	-11.0935
▁ᏂᎦᎾᏰᏍᎬᎾ	-11.0935
▁ᎢᏰᏨᏁᎸᎯ	-11.0935
▁ᎢᏳᏩᎦᏘ	-11.0935
▁ᎢᏣᏤᎵᎪᎯ	-11.0935
▁ᎠᎾᏛᏁᎵᏍᎩ	-11.0935
▁ᎤᏂᏃᏁᏗᏱ	-11.0935
ᎲᏍᏗᏱ	-11.0935
▁ᎬᎩᏁᏉᏤᏗᏱ	-11.0935
▁ᎤᏓᏴᏛ	-11.0936
▁ᏕᎤᏙᏍᏛ	-11.0936
▁ᏓᎩᎸᏫᏍᏓᏁᎸ	-11.0936
▁ᎤᎾᎵᏏᎾᎯᏍᏗ	-11.0936
▁ᏗᏕᎶᏆᏍᎩ	-11.0936
▁ᎡᏣᏅᏏᏓᏍᏗ	-11.0936
▁ᏓᏥᏍᏓᏱᏕᎵ	-11.0936
▁ᏂᏍᎦᏅᎾ	-11.0936
▁ᏚᏕᏘᏴᏌᏗᏒ	-11.0936
ᎵᏛᏓᏁ	-11.0936
ᏓᏬᏅᏛ	-11.0936
▁ᎠᎩᏍᏕᎵᏍᎩ	-11.0936
▁ᏣᏃᏍᎩᏒᎩ	-11.0936
▁ᎤᏬᏯᏁᏒ	-11.0936
▁ᏗᎧᎿᏩᏕᎩ	-11.0937
▁ᏯᏆᏚᎵᏍᎨ	-11.0937
▁ᎤᏯᏖᎾ	-11.0937
▁ᎤᏔᏂᏗᎨ	-11.0937
▁ᎤᏛᏒ	-11.0937
▁ᏗᎩᏲᎯᏍᏗᏱ	-11.0937
▁ᏣᏂᎧᎳ	-11.0937
▁ᎤᎬᏩᎸ	-11.0937
▁ᏭᏂᎷᏣ	-11.0937
ᏲᎱᏏ	-11.0938
▁ᏧᏂᏲᏏᏍᎩ	-11.0938
▁ᏧᏂᏴᏍᏕᏍᎩ	-11.0938
▁ᎬᏩᏃᎮᏍᎩ	-11.0938
▁ᎢᏥᏩᏛᏗᏱ	-11.0938
▁ᏓᎾᏤᎸ	-11.0938
▁ᎡᏥᎾᏰᏍᎨᏍᏗ	-11.0938
▁ᏗᏎᎯᏍᏗ	-11.0938
▁ᎧᏁᎩ	-11.0938
▁ᎠᏂᏬᏂᏍᎩ	-11.0938
▁ᏛᏓᎴᎲᏍᎬᎩ	-11.0938
▁ᏧᏚᎪᏔᏅ	-11.0938
▁ᎣᏩᏒ	-11.0938
▁ᎤᎵᏖᎸᏅᎩ	-11.0938
▁ᎤᏂᎬᎥᏍᎬ	-11.0939
▁ᎡᏤᎾ	-11.0939
▁ᏗᏣᎦᏴᎵᎨ	-11.0939
▁ᏚᏆᏛ	-11.0939
▁ᎤᎾᏕᏘᏱᏍᎬ	-11.0939
▁ᎧᏃᎨᏂ	-11.0939
▁ᏚᏅᏍᏓᏕᎴ	-11.0939
▁ᎠᎾᏓᏙᎵᏍᏗᏍᎬ	-11.0939
▁ᎠᎩᏃᎮᏍᎩ	-11.0939
▁ᏳᏓᏬᎠ	-11.094
▁ᏱᏙᎨᏥ	-11.094
▁ᎠᎾᏛᎬᎦ	-11.094
▁ᏣᏓᏴᎳᏔᏍ	-11.094
▁ᏍᎩᎥᏏ	-11.094
▁ᏍᎩᏅᏏᏓᏍᏗ	-11.0941
▁ᏗᏆᎵᎢ	-11.0941
▁ᏲᏨᏗᏍᎨ	-11.0941
▁ᏗᏑᏱ	-11.0941
▁ᎪᏢᏍᎩ	-11.0941
▁ᏙᏓᏰ	-11.0941
▁ᎠᏥᎸᎨᎳᏍᏗ	-11.0941
▁ᎡᏥᏍᏕᎸᏗᏱ	-11.0941
▁ᎢᏥᎬᏫᏳᎯ	-11.0942
▁ᏥᏄᎵᏍᏔᏅ	-11.0942
▁ᎤᏮᏙᏗᏱ	-11.0942
▁ᎠᎵᏥᏙᎲᏍᎬ	-11.0942
▁ᎢᏨᏃᏁᎭ	-11.0942
▁ᏣᏃᏎᎰᎢ	-11.0942
▁ᏗᎧᏃᎨᏂ	-11.0942
▁ᎤᏂᏂᏴᏗᏱ	-11.0942
▁ᎪᏱᏅᏍᏗ	-11.0943
▁ᎬᏁᏤᎭ	-11.0943
▁ᏓᎪᏄᎸ	-11.0943
▁ᏂᏨᏴᏁᎭ	-11.0943
▁ᏗᏨᏲᎯᏎᏗᏱ	-11.0943
▁ᎤᎾᏙᎴᎰᎯᏍᏗᏱ	-11.0943
▁ᎬᎥᏏ	-11.0943
▁ᎤᏍᏗᎩᏳ	-11.0943
▁ᏭᏴᎮ	-11.0943
▁ᎠᎩᏰᎸᎰ	-11.0943
▁ᎠᏂᎦᏲᎵᏳ	-11.0943
▁ᎪᎵᎬ	-11.0944
▁ᏂᎦᎡᏍᏗ	-11.0944
▁ᎢᏥᎦᏴᎵᎨ	-11.0944
▁ᎦᎶᎪᏗ	-11.0944
▁ᎾᏉᎯᏳ	-11.0944
▁ᏏᏐᎢ	-11.0944
▁ᏚᎵᏍᏚᎢᏎᎢ	-11.0945
▁ᎢᏏᎦ	-11.0945
▁ᏭᏅᏥᎴ	-11.0945
▁ᏓᏦᎯᏍᏛ	-11.0945
▁ᎦᏟᎲ	-11.0945
▁ᏖᏏ	-11.0945
▁ᏧᏬᎳ	-11.0946
▁ᎠᏴᏓᏆᎶᏍᎬ	-11.0946
▁ᎬᏩᏔᏲᏎᎸᎩ	-11.0946
▁ᏣᎾᎥᎢ	-11.0947
▁ᏚᎸᏫᏍᏓᏁᎮᏍᏗ	-11.0947
▁ᏧᏕᏲᏅᎯ	-11.0948
▁ᏗᏙᎴᏆᏍᏗ	-11.0948
▁ᎡᏣᎫᏴᎡᏗ	-11.0948
▁ᏧᏂᏲᎱᎯᏍᏗᏱ	-11.0948
▁ᏍᎩᎷᏥᏏ	-11.0948
▁ᏭᏓ	-11.0948
▁ᏄᎾᏓᎴ	-11.0948
▁ᎠᎴᏂᏍᎬ	-11.0948
▁ᎠᏇᏲᏅ	-11.0949
ᏃᎯᏎᎲ	-11.0949
▁ᏭᏃᏁᎸᎩ	-11.0949
▁ᎦᎶᏐᏅᎭ	-11.0949
▁ᎢᏥᎪᏩᏘᎭ	-11.0949
▁ᏂᎦᏥᏴᏁᎸᎭ	-11.0949
▁ᏓᎬᎩᎵ	-11.0949
▁ᎢᏥᎷᎩ	-11.095
ᎦᏂᏌᎲ	-11.095
▁ᎤᏛᏓᏍᏓᏁᎴ	-11.095
▁ᎣᏓᎵ	-11.0951
▁ᏗᎦᏘᎴᎩ	-11.0951
▁ᏗᎦᎳᏫᎩ	-11.0951
▁ᏫᎨᏥᏯᏅᏛ	-11.0951
▁ᎤᏄᎸᏅ	-11.0951
▁ᎾᏂᏪᏍᎨᏍᏗ	-11.0951
▁ᏗᏂᏢᏗᏱ	-11.0951
▁ᎯᎰᎵ	-11.0952
▁ᏥᏂᎦᎵᏍᏗᎭ	-11.0952
▁ᎠᏓᏬᎯᎳ	-11.0952
▁ᎤᎾᎵᏃᎮᎴ	-11.0952
▁ᏗᏣᏄᏬ	-11.0952
▁ᎠᏂᏍᏓᏩᏕᎩ	-11.0952
▁ᏗᎵᏒᏍᏗ	-11.0954
▁ᎦᎸᏉᏗᏍᎨ	-11.0954
▁ᏂᎨᏳᏎᏍᏗ	-11.0954
▁ᏅᎩᏦᏁ	-11.0954
▁ᏕᎦᏅᏌᏛ	-11.0954
▁ᎠᎦᎾᎦᏘ	-11.0955
▁ᏧᏂᎸᏫᏍᏓᏁ	-11.0955
▁ᎠᏛᎩᏍᎨᏍᏗ	-11.0955
▁ᎤᎵᏃᎮᏔᏅᎢ	-11.0955
▁ᎦᏅᏆᎶᏍᏗ	-11.0955
▁ᏚᏘᏅᏒᎩ	-11.0955
▁ᏄᎵᏂᎬᎬ	-11.0956
▁ᏓᏰᏏ	-11.0956
▁ᏧᎪᎸ	-11.0956
▁ᎠᏓᏙᎵᏍᏓᏁᎯ	-11.0957
▁ᎤᏂᎨᏳᎯ	-11.0957
▁ᎨᏥᏯᏅᏛ	-11.0957
▁ᏗᏆᏓᏅᏛ	-11.0958
▁ᏘᏯ	-11.0958
▁ᎤᎾᏓᏓᏍᎩ	-11.0959
▁ᎤᎾᏚᎵᎭ	-11.096
▁ᏥᏤᎭ	-11.096
▁ᏗᏲᏍᏙᏗ	-11.096
▁ᎾᏅᏁᎭ	-11.096
▁ᎢᎨᏎᎢ	-11.096
▁ᎠᏩᎾᎦᎳᎯᏳ	-11.0961
▁ᎦᏂᎳ	-11.0962
▁ᏴᎨᏨ	-11.0962
▁ᎠᎪᏩᏘᏍᎬ	-11.0962
▁ᎢᎨᏨᏁᏗ	-11.0963
▁ᎢᏥᎷᏤᏗᏱ	-11.0963
▁ᏄᏩᏂᏌᏅ	-11.0963
ᏚᎸᏅᏗ	-11.0963
▁ᏰᎵᎦᏯ	-11.0964
▁ᎤᎾᏓᏅᏒᎩ	-11.0964
▁ᏕᎾᏓᎪᎲᏳ	-11.0964
ᏚᎸᏅᎥᏍᎬ	-11.0965
▁ᏭᏂᏴᎸᎩ	-11.0966
ᏒᎾᏔᏅ	-11.0966
▁ᏫᏚᏂᏯᏅᎲ	-11.0967
▁ᎢᏯᏅᏁᎯ	-11.0967
▁ᎡᏦᎢᏳᏒ	-11.0968
▁ᏣᏓᏅᏖᏍᏗ	-11.0968
▁ᎤᏍᏓᏲᏒ	-11.0968
▁ᎯᎪᏩᏘᎭ	-11.0968
▁ᎡᏈ	-11.0968
▁ᏚᏂᎧᏁᎢ	-11.0968
▁ᏚᏑᏰᏒ	-11.0969
▁ᎤᏕᎰᎯᏍᏗᏳ	-11.0969
▁ᎿᏛᏁᎲ	-11.0969
▁ᏏᏊ	-11.0969
▁ᏚᎸᏫᏍᏓᏁᎰᎢ	-11.0969
▁ᎯᎷᎦ	-11.0969
▁ᏥᏍᎦᏅᏤᎸ	-11.0969
▁ᎠᎨᏲᏅ	-11.097
▁ᏯᏃᏉ	-11.097
▁ᎤᏁᏙᎸᎯ	-11.097
▁ᎯᏍᎩᏍᎪᎯ	-11.0972
▁ᎤᏍᏉᎵᏱ	-11.0972
▁ᎪᎵᏍᏗᏱ	-11.0972
ᎣᏏᏉ	-11.0974
▁ᏚᎾᎴᏅᎩ	-11.0974
▁ᎤᏛᎪᏗ	-11.0974
▁ᏚᏪᎧᎲ	-11.0975
▁ᎬᏩᎪᎮᎢ	-11.0975
ᏢᏔᏂ	-11.0975
▁ᎦᏓᎥ	-11.0976
▁ᎠᎦᏛᏅᎯ	-11.0976
▁ᎣᏤᎯ	-11.0976
▁ᎠᎾᏗᎭ	-11.0976
▁ᎤᏓᏅᏍᏗᏱ	-11.0978
▁ᎤᎯᏐᏓᏁ	-11.0978
ᏙᎰᎢ	-11.0978
▁ᎦᏬᏂᎭ	-11.0979
ᏲᎯᏎᎸ	-11.0979
▁ᏣᏰᎯ	-11.0979
▁ᎠᎩᏠᏫᏍ	-11.0979
ᏍᏉᎸ	-11.0979
▁ᏧᏑᏰᏛ	-11.0979
▁ᏓᎩᏏᎳᏛᎢ	-11.098
▁ᏚᏬᏢᏁᎢ	-11.098
▁ᎤᎾᎵᏎᎢ	-11.0981
▁ᏓᏰᏂ	-11.0983
▁ᏗᎬᏔᏅᎯ	-11.0983
▁ᎤᏓᏔᏅ	-11.0984
▁ᏧᏁᎶᏗ	-11.0985
▁ᎠᏯᏫᏍᎩ	-11.0986
▁ᎤᎾᏣᎢ	-11.0986
▁ᏦᏍᏛ	-11.0986
▁ᎢᎦᎵᏍᏕᎸᏙᏗ	-11.0987
▁ᎤᏰᎸᏒ	-11.0987
▁ᏗᎦᏚᎲᏍᎩ	-11.0987
▁ᎠᏂᏍᏆᏂᎪᏗᏍᎩ	-11.0988
▁ᏦᎴᏍᏗ	-11.0988
▁ᎢᏥᏔᏲ	-11.0989
▁ᎠᏇᎷᏅ	-11.0989
▁ᎦᏰᏥᏐᏢ	-11.099
▁ᎤᏂᏰᎸᎭ	-11.0992
▁ᎤᏂᎩᏌ	-11.0992
▁ᏂᏚᏂᏪᏎᎴᎢ	-11.0992
▁ᎤᎸᏁᎢ	-11.0992
▁ᎾᏆᏍᏗ	-11.0993
▁ᎾᎦᎸᎳᏗ	-11.0993
▁ᎤᎵᏍᏙᏔᏅ	-11.0993
ᎯᏍᏔᏅ	-11.0995
▁ᎤᏁᏓᏍᏗᏱ	-11.0995
ᏓᎳᎩ	-11.0995
▁ᏭᎪᎮ	-11.0996
▁ᎠᏰᎸᏒᎩ	-11.0996
▁ᎤᎫᏴᎡᏗ	-11.0997
▁ᎨᎳᏍᏙᏗ	-11.0997
▁ᎦᎵᏙᏗ	-11.0998
▁ᏕᎦᏬᏁᏗᏍᎬᎩ	-11.0999
ᏓᎾ	-11.0999
▁ᏕᎤᎸᏫᏍᏓᏁᎲᎢ	-11.0999
▁ᎤᏁᎷᎬᎩ	-11.0999
▁ᏄᎵᏍᏓᏁᎸᎢ	-11.1
▁ᏓᎾᎵᏍᏓᏴᎲᏍᎬᎢ	-11.1
▁ᎠᏓᏁᏣᏍᏚᎶᎩ	-11.1
▁ᏓᏘᏁᎲᎢ	-11.1
▁ᎤᎪᎵᏰᏗ	-11.1
▁ᎠᏇᏅᏒᎩ	-11.1
▁ᏪᎯ	-11.1001
▁ᎠᏂᎷᎩ	-11.1001
▁ᎠᏓᎴᏒᎢ	-11.1001
▁ᎤᏓᏅᎡᎴᎢ	-11.1002
▁ᎲᏅᎢ	-11.1003
▁ᎤᏬᎯᏳᏅᎩ	-11.1003
▁ᎧᏃᎮᎭ	-11.1004
▁ᎤᎾᏤ	-11.1004
ᎾᏛᏁᎭ	-11.1005
▁ᎾᏋ	-11.1006
ᏅᏓᏛᎩ	-11.1007
▁ᏣᏚᎵᏍᎪ	-11.1011
▁ᏚᎾᏄᎪᏫᏎᎸ	-11.1013
▁ᏚᏂᏍᏘᏰᎬ	-11.1013
▁ᎠᎧᏘ	-11.1014
▁ᏥᏍᎦ	-11.1016
ᎵᏰᏑᏍᏙ	-11.1017
▁ᏕᏣᎸᏫᏍᏓᏁᎲᎢ	-11.1019
▁ᎤᎵᎮᎵᏨᎯ	-11.1019
ᏃᏅᎯ	-11.102
▁ᎠᏂᏍᎦᎢᎮᎢ	-11.102
ᏰᏲᎲᏍᎩ	-11.1021
▁ᎤᏂᎦᎸ	-11.1022
ᏛᏗᏍᎪᎢ	-11.1022
▁ᏑᏟᎶᏛᏉ	-11.1023
▁ᎡᎶᏗᏏ	-11.1023
▁ᏓᎻ	-11.1025
▁ᏂᏓᏛᏁᎲ	-11.1026
ᏣᏉᎯ	-11.1027
▁ᏚᏂᏏᏂᏙᎸ	-11.1027
▁ᏪᏙᎮ	-11.1028
▁ᏂᏕᏨᏁᎸ	-11.1029
▁ᏗᏍᏓᏱ	-11.103
▁ᎨᏍᏓ	-11.1031
ᏏᏱ	-11.1032
▁ᏧᎴᎯᏐᏗ	-11.1034
▁ᎤᏢᏨ	-11.1034
ᎳᏍ	-11.1034
▁ᎨᏥᏚᎢᏍᏓᏁᎸ	-11.1036
▁ᎤᏂᏂᏴᎮ	-11.1037
▁ᏁᏨᏁᎸ	-11.1037
▁ᏄᏕᏘᏴᎲ	-11.1038
▁ᏦᏨ	-11.1038
▁ᎢᏣᏕᎶᏆ	-11.1038
▁ᎤᏒᏂᎴᎢ	-11.1039
▁ᎤᎾᏄᎪᏫᏏ	-11.1039
▁ᏧᏂᏲ	-11.1042
ᎨᏳᏅᎾ	-11.1043
▁ᎠᎾᏗᏍᎬᎢ	-11.1043
▁ᎤᏃᏛ	-11.1046
▁ᎦᏓᏍᎬ	-11.1046
ᎾᏄᎪᏫᏍᎦ	-11.1048
▁ᎵᏳ	-11.1051
▁ᎤᏰᎸᏅᎩ	-11.1051
ᎴᏂᏓᏍᏗ	-11.1052
▁ᏥᎪᎥᎩ	-11.1052
ᏓᏙᎵᏍᏔᏂ	-11.1053
▁ᏌᎾ	-11.1057
ᏓᏂᎧᎿᏩᏕ	-11.1058
▁ᎬᏩᎷᏤᎮ	-11.1059
▁ᎤᏂᏅᏅ	-11.106
▁ᎠᏁᎵᏍᎬᎩ	-11.1061
▁ᎤᎩᎳ	-11.1062
ᎵᏲ	-11.1063
ᏅᏓᏗᏍᎨᏍᏗ	-11.1063
▁ᎤᎾᏄᎪᏫᏎᎴᎢ	-11.1065
▁ᎢᏣᏓᏙᎵᏍᏗ	-11.1069
ᏙᏢᎾ	-11.1073
▁ᏂᎨᏎᎢ	-11.1074
▁ᎤᎩᏎ	-11.1074
▁ᏭᏂᏴᎮ	-11.1074
ᏳᏓᎴᏏ	-11.1075
ᎦᏌᎴ	-11.1077
▁ᏓᏂᎧᏅᎢ	-11.1077
▁ᎠᏂᏙᎾᎡᎢ	-11.1077
▁ᏓᏂᎳᏫᎥᎢ	-11.1078
▁ᎤᏂᏴᎲ	-11.1078
▁ᏔᎵᏍᎪᎯ	-11.1078
▁ᏂᏚᏪᏎᎸᎢ	-11.1078
▁ᎦᎢᏒᎢ	-11.1079
ᏰᏟ	-11.1079
▁ᎦᎶᏍᎬ	-11.108
▁ᏄᏛᏁᎸᎾ	-11.1081
ᎳᏅᏛ	-11.1082
▁ᎤᏂᎸ	-11.1082
▁ᎡᎳᏪᏉ	-11.1083
▁ᏦᎢᏉ	-11.1083
▁ᎤᏅᏂ	-11.1083
ᎨᎾ	-11.1083
ᏂᏙᎲᎢ	-11.1086
▁ᏚᏲᎯᏎᎴ	-11.1087
ᏙᏱ	-11.1092
▁ᎤᏪᎧᏅ	-11.1092
▁ᎡᎵᏍᎬᎢ	-11.1094
ᏪᏢᏗ	-11.1095
▁ᏄᏂᏪᏎᎸ	-11.1097
▁ᏣᏁᎵ	-11.11
▁ᏚᏜᏅᏛ	-11.1101
▁ᏧᏬᎸᎢ	-11.1102
ᏀᎢ	-11.1102
▁ᎢᏍᎩ	-11.1103
▁ᎠᎼᎯ	-11.1103
ᏛᏅᎢᏍᏕ	-11.1106
ᏂᎬᎬ	-11.1107
▁ᎤᏢᏗ	-11.1108
▁ᏄᎵᏍᏔᏁᎴ	-11.111
▁ᏐᎯ	-11.1111
▁ᏕᏨᏅ	-11.1112
▁ᎦᏄᎸᏒᎢ	-11.1114
▁ᎠᎾᎵᏥᏙᎲᏍ	-11.1116
▁ᎤᏂᏏ	-11.1116
ᏲᎦᏛᏅ	-11.1116
▁ᎠᏚᎢᏍᏛᎢ	-11.1118
ᏪᏣ	-11.1118
ᏅᏓᏗᏍᎬ	-11.1121
ᏍᏕᎵ	-11.1122
▁ᎤᏛᎦ	-11.1123
▁ᎤᏩᎨᏫᏎ	-11.1126
▁ᏅᏔ	-11.1129
▁ᎠᏂᏙᎾᎥᎩ	-11.1129
▁ᏗᎦᏘᏯ	-11.1131
ᏘᏍᎩ	-11.1133
▁ᎢᏧᏓᎴ	-11.1133
▁ᏥᏕᎭ	-11.1135
▁ᏥᎦᎶ	-11.1136
▁ᏣᎩᏍᏗ	-11.1138
▁ᏩᏚ	-11.1139
▁ᎤᎾᏓᏅᏖ	-11.1141
▁ᏣᏉᎩ	-11.1141
ᏔᎳᏬᎯᏍᏗ	-11.1141
▁ᎤᏔᏲᎸ	-11.1143
▁ᎦᏁᎲᎩ	-11.1145
▁ᏚᏂᎸᏫᏍᏓᏁᎮ	-11.1146
ᏙᎩᏯᏍᏗ	-11.1149
▁ᏚᏅᏎᎢ	-11.1151
ᎩᏍᎪᎢ	-11.1154
▁ᏄᎾᏛᏁᎸᎢ	-11.1159
▁ᏂᎨᏒ	-11.116
▁ᎤᏪᎯᏍᏓᏁ	-11.1162
▁ᎤᏂᏄᎪᏨᏃ	-11.1163
▁ᎤᏜᏅᏛᎢ	-11.1163
ᏅᎡᎵ	-11.1163
▁ᎯᏍᏚ	-11.1165
▁ᎤᏂᏲᎭ	-11.1166
▁ᎠᎩᏍᎨᏍᏗ	-11.1167
▁ᎧᏃᎮᏍᎬᎢ	-11.1168
ᎦᏍᎦᏂᏗᏢ	-11.1169
▁ᎠᏂᎵ	-11.1169
▁ᎣᎦᎵᎪ	-11.1173
ᏚᎪᏓᏁᏗ	-11.1177
▁ᏱᏙᎨ	-11.1177
▁ᎨᏛᎢ	-11.1178
▁ᎤᏕᏗ	-11.1178
ᏄᏬᏍᏗ	-11.1179
▁ᎢᏥᏍᎦᏅᏨ	-11.1182
▁ᎤᏪᎷᎬ	-11.1184
▁ᎦᏅᎬᎢ	-11.1184
▁ᏱᏗᏗ	-11.1187
▁ᏣᎪᏩᏘᏍᎪ	-11.1189
▁ᎤᏅᏏᏛ	-11.1189
ᏴᎯᎮᏍᏗ	-11.1192
▁ᏕᎨᎦᎸ	-11.1201
ᏠᏱᎭ	-11.1201
ᎵᏑᏫᏓ	-11.1203
▁ᎢᏍᏆ	-11.1206
▁ᎤᏂᏣᏖᏰᏃ	-11.1206
▁ᎤᎨᏳ	-11.1207
▁ᏱᏗᏓ	-11.1209
▁ᏩᎾᎢᏒ	-11.1209
ᎷᎬ	-11.1212
ᏓᏬᎠ	-11.1212
ᏴᏛ	-11.1217
ᏣᏘᏃᎵ	-11.1218
▁ᏓᎪ	-11.122
ᏂᏴᎲ	-11.1223
ᏥᎶᏍᏔᏅ	-11.1223
▁ᎢᏥᏍᏆ	-11.1225
ᎦᎵᏍᎪ	-11.1225
▁ᎤᏪᎯ	-11.1229
ᏥᏄᎪᏫᏍᏗ	-11.123
ᎯᏏ	-11.123
▁ᎠᏍᏆᎸ	-11.1231
ᎵᏍᎩ	-11.1231
▁ᏱᏓᎾ	-11.1233
▁ᎤᏬᎯᏳᏁ	-11.1233
▁ᎤᎶᏗ	-11.1235
▁ᎠᏆᎧᏛᎢ	-11.1236
ᏣᎸᏉᏗᏍ	-11.1236
▁ᎠᏂᏙᎾᎥᎢ	-11.1237
▁ᎠᏌᏃ	-11.1237
ᏆᏂ	-11.124
▁ᏗᏦᎸ	-11.1241
▁ᎤᏰᏤᎢ	-11.1243
ᎦᏅᏓᏗᏍᏙᏗ	-11.1243
ᎩᎪᏩᏛᏗᏱ	-11.1244
▁ᎨᎬ	-11.1245
ᎦᏘᎴᏅ	-11.1255
▁ᎠᏰᏙᎳᏛᎢ	-11.1258
▁ᏚᎴᏅᎩ	-11.126
ᎯᏉ	-11.1261
▁ᎤᏁᏅᏎᎢ	-11.1262
▁ᎠᏍᏚᎢᏍ	-11.1275
▁ᎦᏁᎲᎢ	-11.1275
▁ᎢᏨᏴ	-11.1276
ᏕᎸᎩ	-11.1277
▁ᏟᏗ	-11.1278
▁ᏫᏯ	-11.1278
▁ᏳᏂᏰᎸ	-11.1279
▁ᎤᎯᏍᏗᏱ	-11.1279
ᎵᏂᎩᏛ	-11.1279
▁ᎩᏂ	-11.1286
ᎦᏍᏙᏗ	-11.1286
ᎵᏂᎩᏗᏳ	-11.1288
▁ᎤᏍᎪᏍᏗ	-11.1288
▁ᎤᏁᎵᏍᏗ	-11.1291
ᏑᏫᏓ	-11.1291
▁ᎤᏁᏤᎸᎯ	-11.1292
▁ᎤᏴᏍᏗᏱ	-11.1302
▁ᎢᏳᎾᎵᏍᏔᏅ	-11.1302
ᏰᎬ	-11.1304
▁ᎤᏂᏣᏘᏰᏃ	-11.1313
▁ᏮᏓᏲ	-11.1314
ᏬᏣ	-11.1316
▁ᎠᏂᎩ	-11.1319
▁ᎥᎴ	-11.1321
▁ᏓᏕᏲᎲᏍᎨ	-11.1322
ᏠᏯ	-11.1324
▁ᎢᎦᏛᏍᎩᏂ	-11.1325
▁ᎦᏬᏂᏍᎬᎩ	-11.1328
▁ᎤᏂᎲᎢ	-11.1328
▁ᏚᎧᎿᏅᏃ	-11.1328
▁ᎤᎵᏘᏒ	-11.1336
▁ᏫᏓᎦ	-11.1337
▁ᎨᏥᏁᏤᎸ	-11.1338
▁ᏕᎦᏁᎲ	-11.1349
ᏍᎦᎳᏁ	-11.1349
▁ᎢᎩᏴᏁᏗ	-11.135
▁ᏕᎨᎦᏛ	-11.1357
▁ᎠᏁᎵᏗ	-11.1357
▁ᎤᏃᏴᎬᎢ	-11.1359
▁ᎠᎦᏛᏅ	-11.1369
▁ᎢᏨᏯᎵᏥᏙᏁᎸ	-11.137
▁ᏗᏓᎴᏂᏍᎬᎢ	-11.1376
▁ᏚᏭᏢ	-11.1377
▁ᎠᎢᏒᏃ	-11.138
ᎮᎵ	-11.1384
▁ᏪᏥ	-11.1392
ᏛᏂᏏ	-11.1395
▁ᎦᎪᎨ	-11.1401
ᏌᎲ	-11.1414
▁ᏚᏂᎩᏒ	-11.1414
ᏴᏙᏗᏱ	-11.1415
▁ᏏᎻᏯᏂᏃ	-11.1417
ᏥᏯᏅᏛ	-11.1422
ᏛᏗᏱ	-11.1422
▁ᏔᎳ	-11.1423
ᏂᏏᏅᎯ	-11.1424
ᎨᏓ	-11.1425
▁ᎤᏂᏁᏨᏃ	-11.1425
ᏲᎯᏎᎸᎯ	-11.1425
▁ᎤᎾᏓᏅᏛ	-11.1426
ᏨᏛ	-11.1428
▁ᎤᎷᏤᎸ	-11.1428
ᏴᎳ	-11.1429
▁ᎮᎵᏍᎬ	-11.1431
▁ᏕᎤᏙᎥᎢ	-11.1437
ᏙᎾ	-11.1441
ᎲᏒ	-11.1441
ᎦᏛᏁ	-11.1443
▁ᎤᎾᏓᏃᏴᎵᏍ	-11.1445
▁ᎤᏓᎴᏅ	-11.145
▁ᎨᎥ	-11.1452
▁ᎤᏕᏘᏴᏌᏗᏒᎢ	-11.1457
▁ᎠᏩ	-11.1457
ᏙᎦ	-11.1462
ᏍᏓᏁᎭ	-11.1468
ᎵᏙᎸ	-11.1474
ᎾᏗᏅᏗ	-11.1476
ᏩᏍᎬ	-11.1477
▁ᏗᎦᎦ	-11.1478
▁ᎠᏆᏓᏅᏖᎸ	-11.148
ᏩᏛᏗᏱ	-11.148
ᏓᏛᏁᎮᏍᏗ	-11.1482
ᏍᏔᏅᎾ	-11.1482
ᏴᎢ	-11.1482
ᏌᎥ	-11.1484
ᏎᎦ	-11.1489
▁ᎥᏆ	-11.1489
▁ᏗᎦᎸᏫᏍᏓᏁᏗᏱ	-11.1506
ᏁᏟᏴᏛ	-11.1508
▁ᏚᏂᎬ	-11.1517
ᏚᎵᏍᎬ	-11.1517
▁ᏧᏂᏰᎸ	-11.1522
ᏥᎦᏔ	-11.1524
ᏫᏒᎯ	-11.1535
ᏍᏓᏯ	-11.1536
ᏍᏚᎲᎦ	-11.1547
▁ᎤᏲᎱᏒᎩ	-11.1548
ᏥᏯᏅᏗ	-11.1549
ᏓᎢᏅᏒᎩ	-11.155
ᎦᏖᏃᎲ	-11.1551
ᎸᏎ	-11.156
ᎪᎲᎩ	-11.156
▁ᏱᏚᎾ	-11.1562
▁ᎤᏲᎯ	-11.1563
▁ᏕᎯᏴ	-11.1563
ᏁᎦ	-11.157
▁ᏳᎸ	-11.157
▁ᏨᏔᏅ	-11.1579
▁ᎦᎶᎯᏍᏗᏳ	-11.1584
ᎠᏤ	-11.159
ᏲᎢᏳ	-11.1604
ᏛᎦᏁᎰᎢ	-11.1607
▁ᏓᎨ	-11.1614
▁ᎠᏆᏙ	-11.1616
ᏍᎦᎾᎯᏳ	-11.1623
▁ᏣᎵᏍᎦᏍᏙᏗ	-11.1627
▁ᎤᏂᏅᏁ	-11.1643
▁ᎦᏅᎢ	-11.1643
▁ᏓᏥᏩᏛᎯ	-11.1645
▁ᎤᏪᎷ	-11.165
▁ᎢᎩᏛ	-11.1654
ᏓᏁᏟᏴᏍᏗ	-11.1655
ᏥᏍᎦᏨᎯ	-11.1658
ᏣᏓᏙᎵᏍᏗ	-11.1663
ᏢᎾ	-11.1663
▁ᎠᏂᏫᎾᎨ	-11.1674
ᏔᏂᏓᏍᏗ	-11.1683
ᏂᏪᏏ	-11.1683
▁ᎤᏃᎮᏗ	-11.1684
▁ᎠᏥᏅ	-11.1687
▁ᏎᏗ	-11.1692
ᏓᎴᏅᎯ	-11.1694
▁ᎤᎾᏓᏅᏖᏗ	-11.1695
▁ᏧᎾᏓᎴᏅ	-11.1696
▁ᎤᏁᏗ	-11.1701
ᏣᎾᏄᎪᏫᏎᎸ	-11.1703
ᎴᏛ	-11.1704
ᏗᏍ	-11.1705
▁ᎤᎵᏏᎬᎢ	-11.1706
▁ᎢᏥᏴ	-11.171
ᏂᏟ	-11.171
ᎵᏎ	-11.1715
▁ᎠᏁᏟ	-11.1719
▁ᎠᏐ	-11.1721
ᏢᏈᏍᏗᏱ	-11.1732
ᎾᏗᏅᏎ	-11.1733
▁ᏱᏘ	-11.1734
ᎩᎸᏙᏗ	-11.1745
ᏴᎲ	-11.1753
▁ᎬᏩᎵ	-11.1757
ᏍᎦᎢᏍᏗ	-11.176
▁ᏫᏓᏥ	-11.1764
ᏆᏟ	-11.1777
▁ᎬᏓ	-11.1786
ᎦᏘᎴᎩ	-11.1786
ᏰᎸᏍᎦ	-11.1788
▁ᎣᏍᏕ	-11.179
▁ᎤᏍᏕᎸᎲ	-11.18
ᎳᏕᏗ	-11.1808
▁ᎤᏂᎷᏤᎴ	-11.181
ᎾᏰᏍᎨᏍᏗ	-11.1813
ᏲᎮᎢ	-11.1813
ᏍᏚᏟ	-11.1825
▁ᏕᏣᏂᏴ	-11.1828
▁ᎠᏞ	-11.183
ᏕᎪᎢ	-11.1841
▁ᏗᏥᏲᎯᏍᏗ	-11.1851
ᏂᏓᏍᏗ	-11.1851
▁ᎤᎷᏨᎢ	-11.1852
▁ᎬᏔᏅ	-11.1857
ᎯᏍᏓᏁᎸ	-11.1873
ᎵᎸ	-11.1875
ᏐᎸ	-11.188
ᎪᏍᎬ	-11.1886
ᎾᏕᏘᏴᏛ	-11.1888
ᎾᎵᏍᏓᏴᏗ	-11.1889
▁ᎣᎩᎾᎵ	-11.1901
ᏗᏔ	-11.1904
ᏁᏪᏎᎢ	-11.1907
ᎩᏎᎢ	-11.1922
▁ᎤᎦᏙᏍᏕ	-11.1924
▁ᎣᏥᏁ	-11.1928
ᏃᎯᏍᏗ	-11.1931
ᎪᏔᏅ	-11.1931
▁ᏱᏚᏳᎪ	-11.1932
ᎵᏍᏓᏴᎲᏍᎦ	-11.1939
ᎦᎶ	-11.1943
▁ᎦᏃᏍᎩ	-11.1945
ᏍᏙᏰ	-11.1959
▁ᏕᏤ	-11.1962
ᏚᎩ	-11.1968
▁ᏂᎦᏪᏎ	-11.1992
▁ᎨᎾ	-11.1994
ᎩᏍᏆᏂᎪᏔᏅ	-11.1998
▁ᎡᏉ	-11.1999
▁ᏍᎩᏉ	-11.2004
▁ᏚᏲᎯᏎᎸ	-11.2005
ᏌᎡ	-11.2007
ᏓᏁᎴ	-11.2008
▁ᎨᎪᏎ	-11.201
ᎵᏘᏎᎢ	-11.2012
ᏁᏤᎸᎭ	-11.2013
ᏤᎴ	-11.2024
▁ᎤᎾᏚᎵᏍᎨ	-11.2031
▁ᏗᎦᏚ	-11.2034
▁ᏧᏂᏅ	-11.2037
▁ᏥᏩᎾᎦ	-11.204
ᏰᎸᎾ	-11.204
ᏓᏅᏛ	-11.2047
▁ᏦᎠ	-11.2049
ᏓᎾᏅ	-11.205
▁ᎦᏙᎨᏃ	-11.2052
▁ᎢᏣᏓᏅᏛ	-11.206
ᏥᎶᏍᏗ	-11.2061
▁ᏂᎪᎯ	-11.2063
ᎯᏍᏗᏍᎬ	-11.2072
ᏓᎨᏳᏗ	-11.2082
ᏂᏏᏍᎨᏍᏗ	-11.2086
ᏓᎿᏫ	-11.2091
▁ᏱᏙᏥ	-11.2093
ᏏᎸ	-11.2095
▁ᏥᏩ	-11.2096
▁ᏍᎩᏍᏓᏩᏕ	-11.2097
ᏆᎶ	-11.2098
▁ᎤᎪᏅ	-11.2099
▁ᏘᏂ	-11.2102
ᏣᎦᏌᏯᏍᏗᏕᎩ	-11.2102
ᎵᏙᎲᎢ	-11.211
▁ᏓᏅ	-11.2111
ᏗᏗᏱ	-11.2113
▁ᎠᏍᏓᏱᏛ	-11.2121
▁ᏧᎾᏙ	-11.2127
▁ᎭᎵᏍ	-11.213
▁ᎠᏑᏴ	-11.2134
▁ᎢᏦᎵᏍ	-11.2147
▁ᎠᏂᎪᏩᏘᏍᎨ	-11.215
▁ᏫᏍᏗ	-11.2151
▁ᎥᏝᏍᎩᏂ	-11.2156
ᏓᏴᏎ	-11.2156
ᏓᏅᏛᎵ	-11.2161
▁ᎠᏆᏓᏅ	-11.2168
▁ᎤᎾᎵᎪᏎ	-11.2168
ᏄᎪᏨᎩ	-11.2172
▁ᎤᎮᏍᏗ	-11.2175
▁ᏱᎦᎷ	-11.2176
ᏥᎪᏩᏔ	-11.218
ᏕᎨ	-11.2184
▁ᏓᏘ	-11.2185
ᏍᏗᏍᎬᎢ	-11.2189
▁ᏅᏩᎾᏓᎴᎢ	-11.2191
▁ᎤᏯᏅ	-11.2193
ᏲᎢ	-11.2197
ᏠᏏ	-11.2198
ᏛᏅᎩ	-11.22
▁ᏂᎦᏛᏉ	-11.2204
▁ᏱᏂᎬᏂ	-11.2206
ᏍᏓᏁᎮ	-11.2206
ᎵᎮ	-11.2215
ᏎᎴᎢ	-11.2217
ᏙᎲ	-11.2217
ᏅᏒᎾ	-11.2231
ᏬᏁᏙᏗ	-11.2232
▁ᎤᏂᏍᏚ	-11.2235
ᏍᏆᎵᏍᎬ	-11.2236
▁ᏳᎵᏍᏓᏴ	-11.224
▁ᏨᏆ	-11.2247
ᏙᎴᎰᏒ	-11.2249
▁ᏩᏆ	-11.2251
▁ᎢᏥᏁ	-11.2252
ᎵᏍᏕᎸ	-11.2252
ᏂᏱᏍᎬ	-11.2258
ᏨᎭ	-11.226
▁ᏙᎯᏱᏉ	-11.2262
ᏅᏁᏗᏱ	-11.2265
ᎨᏥᏁᏗᏱ	-11.2265
ᎪᏍᏓᏯ	-11.2267
ᏓᏲ	-11.2271
ᎩᏍ	-11.2279
▁ᎪᎱ	-11.2281
▁ᎠᏆᏓᏅᏖ	-11.2282
ᏥᏓ	-11.229
ᏓᏥ	-11.2293
ᎦᏘᏅ	-11.2296
ᏆᎳ	-11.2299
ᎲᏍᎪ	-11.2299
▁ᎤᎸᎢ	-11.2302
▁ᎤᏂᎧᎵ	-11.2306
▁ᏗᎦᎴ	-11.2307
▁ᏗᎦᎨ	-11.2316
ᏎᎵᏙᏗ	-11.2316
▁ᏴᎦᏥ	-11.2326
ᏁᎶᏕᏍᏗ	-11.2328
▁ᏳᏓᏑ	-11.233
ᏥᏍᏔᏅ	-11.2334
ᏪᏏ	-11.2336
▁ᏱᏅᏩᏍᏗ	-11.2337
▁ᎦᏲ	-11.2337
ᏔᎴᏒ	-11.2342
ᏁᎸᏗᏍᎬ	-11.2348
▁ᎡᏥᏁ	-11.235
ᎦᏘᏲ	-11.2354
ᎶᏃ	-11.2354
ᎦᏁᎳᏅᎯ	-11.2357
ᏨᏓ	-11.2367
▁ᎠᏂᎪᎵᏰᏍᎨ	-11.2376
▁ᎢᏗᎦ	-11.2377
ᏍᏕᎸᎯᏙᎯ	-11.2378
ᏓᏛᏁᏗ	-11.2383
ᏦᎯ	-11.2387
▁ᎤᎵᎪ	-11.2396
▁ᏳᏲ	-11.2399
▁ᎤᏓᎨᏳ	-11.2399
ᏣᏓᏅᏔ	-11.2414
▁ᏭᎶ	-11.242
ᏲᏙᏗ	-11.243
ᎶᏂ	-11.2444
ᎧᏂᏍᎬ	-11.2446
ᎵᏍᏕᎵᏍᎬ	-11.2447
ᏁᏌ	-11.2451
▁ᎠᏍᏚ	-11.246
▁ᏥᏍᎦᎾ	-11.2463
▁ᏕᎤᏲ	-11.2468
ᏚᎲ	-11.247
ᎳᏁᎸᎯ	-11.2472
ᏂᎦᏔᎲᎾ	-11.2472
ᏂᏪᏎ	-11.2473
ᎴᏗᏱ	-11.2476
ᏍᏕᎢ	-11.2482
ᏍᏗᏍᎪᎢ	-11.2491
ᏤᎮ	-11.2498
ᏄᏪ	-11.2502
▁ᎠᏰᎵᏉ	-11.2509
ᏍᏓᏩᏕᏏ	-11.2511
ᏲᏒ	-11.2517
ᏗᏅᏗ	-11.2522
▁ᎠᏥᎸᏃ	-11.2532
ᏲᏍᏔᏅ	-11.2536
▁ᎤᏄᎪᏫᏎ	-11.2538
ᏯᏅᎮ	-11.2549
ᏍᏆᏂᎪᏓᏁᏗ	-11.2552
▁ᎠᎾᎵᎮᎵ	-11.2555
▁ᏩᏂᎷ	-11.2558
▁ᏕᎦᏥ	-11.2562
ᏓᏑᏴ	-11.2573
ᏤᏅ	-11.2587
ᏝᏁ	-11.2598
ᎥᏍᎨᎢ	-11.2599
ᏁᎢᏍᏗᏍᎬ	-11.2605
▁ᏗᏑᏫ	-11.2606
▁ᎢᏥᏍᎦᏅ	-11.2617
ᏍᏙᎢ	-11.2618
▁ᎤᏂᏩᏛ	-11.2621
ᎫᏴᏗᏱ	-11.2624
▁ᏧᎴᏗ	-11.2632
▁ᎬᏛᎪ	-11.2648
ᏙᎵᎪ	-11.2655
▁ᏗᎦᎸ	-11.2664
ᏝᎥ	-11.2664
▁ᏯᏆᏓ	-11.2667
ᎵᏍᎦᎸ	-11.2668
ᏂᎵ	-11.2672
ᏓᏛᏁᎵ	-11.2677
ᎨᎯᏙᎸ	-11.2679
▁ᎬᏩᎵᎪᏁ	-11.2685
ᏣᎷᏤᏗᏱ	-11.2694
▁ᏧᎿᏬ	-11.2694
ᎵᏍᏆᏙᎾ	-11.2696
▁ᎤᏩᏎ	-11.2697
ᏒᎦᎸ	-11.2701
ᏓᏙᎵᏍᏓᏏ	-11.271
ᏓᏗᏍᏗ	-11.2711
ᎵᏏᏂ	-11.272
ᏄᏪᏎ	-11.2736
▁ᏯᏛ	-11.2745
▁ᎤᎾᎵᏍᏓᏴ	-11.2749
ᏂᏢᏗᏱ	-11.2753
ᎸᏫᏍᏓᏁᎰᎢ	-11.2755
▁ᎠᎩᎨᏳᎯ	-11.2757
▁ᎦᎷᎶ	-11.2758
ᏓᏯᏂᏍᎪ	-11.2766
ᏁᎵᏍᎬ	-11.2777
ᎵᎭ	-11.2778
ᎹᏂ	-11.2781
ᎣᏁ	-11.2783
▁ᏕᎨᏣ	-11.2784
ᎯᏍᏗᏍᎪ	-11.2784
ᏏᏙ	-11.279
▁ᏈᏂ	-11.2809
ᏌᏛᎢ	-11.2811
▁ᏗᎦᎾ	-11.2812
▁ᏕᎦᏘ	-11.2813
▁ᎤᏩᏙ	-11.2813
ᏅᏩᏍᏗᏉ	-11.2816
▁ᏄᎵᏍ	-11.2821
ᏌᏅ	-11.2824
ᏍᏛᎩ	-11.2826
▁ᎠᏂᎴ	-11.2833
ᏂᎦᏛ	-11.2833
▁ᏘᏁ	-11.2835
ᏓᏬᏍᏗ	-11.284
▁ᏚᎾᎵᎪ	-11.284
ᏃᎮᏗ	-11.2869
ᏠᎠᎯ	-11.2878
ᏦᏒ	-11.2889
ᏲᎮᏗ	-11.289
ᏚᎵᏍᎨ	-11.2891
▁ᎠᏂᏯᏫᏍᎩᏃ	-11.2897
▁ᎠᏤᎸᏍ	-11.2898
ᎪᎨ	-11.2902
ᏥᎾᏄᎪᏫᏎᎸ	-11.2903
ᎳᏏᏕᏂ	-11.2906
ᏍᏆᏂᎪᏓ	-11.2909
ᎪᎵᏰᏍᎬᎢ	-11.2913
ᎪᏩᏘᏍᎬ	-11.2917
ᏓᏘᏂᏙᎯ	-11.2922
ᏛᎩᎠ	-11.2925
▁ᏓᎵ	-11.2931
ᏁᏟᏴᏍᏗ	-11.2931
as	-11.2933
ᏛᏁᎰ	-11.2935
ᏲᎱᎯ	-11.2937
ᎷᎨᏍᏗ	-11.2938
▁ᎤᏐᏅᎢ	-11.2941
▁ᏗᎪᏪᎶ	-11.2941
ᎵᏬ	-11.2946
▁ᏗᎩᎦᎨ	-11.2948
▁ᏂᏥᏪᏎ	-11.2948
ᏂᏍᎨᏍᏗ	-11.2948
ᎧᏔᎭ	-11.2951
ᏁᎩ	-11.2951
▁ᏥᎠ	-11.2957
ᎦᏛᎩ	-11.2966
ᏍᎦᏯ	-11.2969
▁ᏫᏯᏅ	-11.2973
ᎸᏍᏙᏗᏱ	-11.2974
ᏴᏙᏗ	-11.2976
▁ᎠᏗᏔᏍ	-11.298
ᎫᎩ	-11.2981
ᎡᎲᎢ	-11.2982
▁ᎤᎷᏨᏃ	-11.2982
▁ᏆᏏ	-11.2983
▁ᏕᏥᏯ	-11.2991
ᏲᎲᏍᎩ	-11.2991
▁ᎠᏂᏲ	-11.2992
▁ᏧᎵᏰ	-11.2998
▁ᎡᏣᏑᏰ	-11.3
ᏐᏢ	-11.3005
ᏍᎦᏅᏨᎢ	-11.3006
▁ᏧᏅᏏ	-11.3006
▁ᎠᏴᏉ	-11.3022
ᏛᏛᎲᏍᎦ	-11.3029
ᎪᎵᏰᏍᎨᎢ	-11.3041
▁ᏳᏃᏴ	-11.3043
ᏫᏗ	-11.3055
▁ᏱᏚᏓ	-11.3056
ᏒᏉ	-11.3066
▁ᎤᏝ	-11.3069
ᎾᏗᏍᎪᎢ	-11.3071
ᏣᎴᏛ	-11.3073
ᏂᏍᏔᏅ	-11.3078
▁ᎠᏕᎸᏃ	-11.3079
▁ᎠᏂᏯᎥ	-11.308
ᎦᎵᏍᏓ	-11.3086
ᏨᏍᏗᏱ	-11.3089
▁ᎦᏄ	-11.3097
▁ᏧᏂᏲᎰ	-11.3097
▁ᎠᎩᏁᎸ	-11.3099
ᏘᏃᎯᏍᏗ	-11.3099
▁ᏂᏣᎵᏍᏓᏁ	-11.3101
ᏫᏎᎢ	-11.3103
ᏍᏚᎩᏒ	-11.3107
ᏅᏏ	-11.3108
ᏍᎬᎾᏉ	-11.3113
ᏏᏅᏍᏗ	-11.3118
ᏢᎭ	-11.3121
ᏕᏣᏙ	-11.3121
ᏤᏪ	-11.3123
ᎦᎵᎰ	-11.3129
▁ᏂᎦᏥᏴᏁ	-11.313
ᎵᏍᎪᎢ	-11.3131
ᏛᏛᏅ	-11.3132
▁ᎾᏥᎸᏉ	-11.3134
ᏎᎰᎢ	-11.3136
ᏍᎦᏅᎾ	-11.3149
▁ᏯᏥ	-11.315
▁ᎠᏆᏓᏅᏔ	-11.3152
ᎯᏰ	-11.3153
ᏍᏗᏍᎪ	-11.3155
ᏄᎪᏫᏒᎯ	-11.3163
▁ᏅᎵᏌᎵ	-11.3164
ᏲᎯᏏ	-11.3165
ᏁᎩᏎᎢ	-11.3168
ᏝᏅ	-11.317
ᏆᏓ	-11.3172
▁ᏩᏂ	-11.3178
ᎸᏉᏓ	-11.3182
ᏛᏁᎢ	-11.3183
▁ᏝᏍ	-11.3184
▁ᏯᎦᏓ	-11.3184
▁ᎤᏑ	-11.3185
▁ᎠᏂᎡ	-11.3187
ᏅᏙ	-11.319
ᏥᏲᏍᏙᏓᏁ	-11.3193
ᏚᏓᏲᏎ	-11.3197
ᏴᏔᏅᎩ	-11.3198
▁ᎠᏓᏍᏕᎵ	-11.3199
ᏛᏅᎯ	-11.3204
Ꮐ	-11.3206
▁ᎤᏂᎩ	-11.3211
▁ᎯᏰ	-11.3213
ᎠᎩᎷᏨ	-11.3214
▁ᎩᎳᎢ	-11.3214
ᏢᏁᎢ	-11.3217
▁ᏓᎭ	-11.3218
ᏳᏩᏅ	-11.3231
▁ᎤᏂᏧᏈᏍ	-11.3231
ᎴᎬ	-11.3232
▁ᏁᏩᏔᎵ	-11.3233
ᎾᏄᎪᏫᏒ	-11.3235
ᏲᏍᏗ	-11.3236
▁ᏩᏌ	-11.3248
ᏝᏁᎢ	-11.3251
▁ᏓᏟᎶᏍᏗ	-11.3254
▁ᏧᏓᎴᏅ	-11.3256
▁ᏭᏭᏍ	-11.3256
▁ᎤᎵᏦ	-11.3259
▁ᏚᏩᏛᎲ	-11.3262
▁ᎠᎾᎵᏍᏓᏴᎲᏍᎬ	-11.3262
▁ᏚᎾᏓᏅ	-11.3262
ᏲᏂ	-11.3263
ᎪᏩᏗᏍᎬ	-11.3265
ᏑᏯᎩ	-11.3267
ᎪᎰ	-11.3268
ᏓᎴᎲᎦ	-11.3268
ᎩᏍᏓ	-11.3268
▁ᎬᏩᏃᎯᏳ	-11.327
ᎿᏩ	-11.3271
ᎦᏌᏯᏍᏙᏗ	-11.3276
▁ᏕᎪᏢᏒ	-11.3277
ᏗᏢᏍᏙᏗ	-11.3278
ᏓᏅᏖᏍᎨ	-11.3281
▁ᎤᏲᏍᏔᏅ	-11.3284
ᎸᏉᏙ	-11.3291
▁ᎤᏂᎭ	-11.3291
▁ᏅᏩ	-11.3293
ᏧᏔᏅ	-11.3294
Ꮊ	-11.3295
ᎵᎨᏂ	-11.3296
ᏗᏍᏗᏍᎩ	-11.3303
▁ᎤᏂᏩᏒ	-11.3304
ᏩᏗᏍᎬ	-11.331
ᏙᎴᎰᏎ	-11.3313
ᎠᏂ	-11.3318
▁ᎠᏛᏅᎢᏍᏗ	-11.332
▁ᏕᎧᏅ	-11.3323
ᏪᏎᎸᎩ	-11.3326
ᏍᏓᏁᏗ	-11.3327
▁ᏂᏓᏙᏓᏈᏒ	-11.3328
▁ᎾᎬᏁᎴ	-11.3328
ᏚᏲᏎ	-11.3329
▁ᎤᎵᏍᏙ	-11.333
▁ᏚᏄᏩᎥ	-11.333
▁ᏂᏚᏍᏕ	-11.3333
ᎡᏃ	-11.3335
▁ᎤᏙᏢᏒ	-11.3336
▁ᎠᎵᏥ	-11.3337
▁ᏓᏂᏍᏓᏲᎯᎲ	-11.3337
▁ᎦᎵᎡᎵᎬ	-11.3338
▁ᏕᏣᎸᏫᏍᏓᏁᎸ	-11.3338
▁ᎤᏃᎯᏳᏁ	-11.3339
ᏍᎪᏒ	-11.334
ᎤᏨᏉᏗ	-11.3341
▁ᎤᎾᏅᏁ	-11.3341
▁ᏧᎶᏎ	-11.3342
ᎢᏗᎦᏘ	-11.3343
ᎤᏂᎷᏤᎢ	-11.3343
ᏒᎮᏱᏣ	-11.3344
▁ᏕᎤᎸᏫᏍᏓᏁᎲ	-11.3344
▁ᏄᎵᏍᏓᏁᎸ	-11.3344
▁ᏂᏣᏓᎨᏳᏒ	-11.3345
▁ᏚᏓᏘᎿᎥ	-11.3345
▁ᎤᏔᏪᏙᏁ	-11.3346
ᎧᏃᎮᏛ	-11.3346
ᎢᏥᏈᏱ	-11.3346
ᎦᎵᎡᎵ	-11.3346
ᎠᎬᏱ	-11.3347
▁ᎤᏓᏙᎵᏍᏔᏁ	-11.3347
▁ᎤᎵᏖᎸᏁ	-11.3347
▁ᏚᏍᎫᏓᏛ	-11.3348
▁ᎠᏥᏰᎸᎾᏁ	-11.3349
▁ᎤᏪᏍᎩᎸ	-11.3349
▁ᏚᏄᎪᏔᏅ	-11.3349
▁ᏓᎾᎵᏍᏓᏴᎲᏍᎬ	-11.3352
▁ᎤᎴᏂᏙᎴ	-11.3352
▁ᏚᏂᏢᎬ	-11.3352
ᏥᏃᎯᏎᎸ	-11.3353
▁ᎾᏂᏪᏍᎨ	-11.3354
ᏍᏆᏂᎪᏔᏅ	-11.3354
▁ᎢᏣᏚᎵᏍᎬ	-11.3354
▁ᏂᏚᏩᏁᎴ	-11.3354
▁ᎤᏓᏅᎡᎴ	-11.3355
ᏇᎵᏥ	-11.3356
▁ᏫᏥᎦᏛ	-11.3356
▁ᏱᏄᎵᏍᏔᏁ	-11.3356
▁ᏚᏭᎪᏔᏅ	-11.3357
▁ᎢᏥᏁᎬ	-11.3357
ᏍᏓᏴᎲᏍᎩ	-11.3357
ᏂᎯ	-11.3358
▁ᎤᏍᎩᏓᏒ	-11.3359
▁ᏑᏟᎶᏛ	-11.336
▁ᎾᏂᎡ	-11.336
▁ᎠᏥᏃᎮᏍᎬ	-11.3361
ᏍᏓᏩᏛᏎ	-11.3363
▁ᎢᏨᏰᎳᏗᏙᎲ	-11.3366
ᏠᎯᏍᏓ	-11.3366
ᏘᏅᏍᏔᏁᎢ	-11.3366
▁ᎤᏍᏓᏱᏛ	-11.3366
▁ᎡᏌ	-11.3367
ᏫᏍᎪᎢ	-11.3369
ᏉᎡᏗ	-11.3369
ᏚᏓᏕᏫᏒ	-11.337
▁ᎠᏄᎯᏍᏗᏍᎬ	-11.337
▁ᎦᏅᎪᎢ	-11.3372
▁ᏓᏂᏙᎬ	-11.3373
ᎵᏍᎪᎸᏗᏍᎬ	-11.3373
▁ᎤᏑᎵᎪᏨ	-11.3374
▁ᏥᏬᏂᏍᎬ	-11.3375
▁ᏚᏂᏲᎱᏒ	-11.3375
ᏍᏉᎵᏱ	-11.3376
▁ᏂᎦᎵᏍᏗ	-11.3378
▁ᎤᏓᏅᏁ	-11.3378
▁ᏱᏂᎨ	-11.338
ᎦᏘᏗᏍᏗᏱ	-11.338
ᏍᎩᏓᏎᎢ	-11.3382
ᎫᎫ	-11.3385
ᎵᎷᎬ	-11.3385
▁ᎲᏅ	-11.3385
▁ᏚᎾᎴᏅ	-11.3387
▁ᏣᏁᏨ	-11.3387
▁ᎠᏆᎴᏅ	-11.3388
▁ᎣᎦᏣᏅ	-11.3391
▁ᏓᏅᏗᏍᎬ	-11.3391
▁ᏗᏓᎾᏅ	-11.3392
▁ᎤᏍᏓᏩᏛᏎ	-11.3393
ᎯᏢᎾ	-11.3394
ᎩᏍᏓᏩᏕ	-11.3396
▁ᏱᏥᎪᏩᏘ	-11.3396
ᏖᏍᎬᎢ	-11.3397
▁ᏗᏘᏂᏙ	-11.3397
ᎸᏉᏔᏂ	-11.3398
ᎾᎾᏛᏁᎰ	-11.3399
▁ᏱᏣᏚᎵ	-11.3399
ᏖᎸᏂ	-11.34
▁ᏓᏰᏣ	-11.3401
▁ᎢᏨᏲᏎ	-11.3401
▁ᎦᏁᎮ	-11.3402
ᏍᏕᎸᎲᎩ	-11.3403
▁ᏦᎩᎾᏫ	-11.3405
▁ᎤᎩᎵᏲᎢᏍᏗ	-11.3406
▁ᏓᏍᏓ	-11.3407
▁ᎡᎩᏍᏕᎸᏗ	-11.3408
▁ᏗᎬᏩᎸᏌ	-11.3408
ᏒᎲᏍᎦ	-11.3409
▁ᎢᏳᏩᏂᏐᏗ	-11.3409
ᏁᎵᏎᎢ	-11.3409
ᏓᏂᎵᎨ	-11.341
ᏏᏌᏅ	-11.341
▁ᎢᏣᏓᏅᎦᎸ	-11.341
▁ᏱᏙᎬ	-11.3411
ᏛᏍᎦ	-11.3414
▁ᎤᏁᏍᏓ	-11.3417
ᎨᏳᎯ	-11.3417
▁ᏕᎤᎴ	-11.3418
▁ᏗᎧᏃᎨ	-11.3418
▁ᏣᏁᎮ	-11.3418
ᏍᏆᏂᎪᏗᏳ	-11.3419
ᏌᎳᏛ	-11.3419
▁ᎠᏉᎯᏳ	-11.3419
ᏓᏓᏍᎬ	-11.3422
▁ᎤᏪᎧᎲ	-11.3422
▁ᏗᎦᏤᎵ	-11.3423
▁ᎡᏥᎦᏙᎥ	-11.3423
▁ᎢᏣᎵᏍᏓᏴᏗ	-11.3423
▁ᎤᏍᎦᎴ	-11.3424
▁ᏥᎪᏩᏛ	-11.3425
▁ᏂᎦᎵᏍᏔᏂ	-11.3425
▁ᎠᏛᎩᏍᎨ	-11.3425
ᏄᏬᎡᎢ	-11.3427
ᎦᎸᎲᎩ	-11.3427
▁ᏂᏚᎵᏍᏔᏅ	-11.3427
ᏃᎵᏤ	-11.3428
▁ᎤᏬᏢᏁ	-11.3428
ᏙᎴᏆᏍᏗ	-11.3428
▁ᏓᏰᏙᎳᏛ	-11.3429
ᏔᏍᎩᏍᎩ	-11.3429
ᏩᏙᎯᏯᏛ	-11.3429
ᏦᏎᎭ	-11.3429
ᎵᏍᏘᏂᎸ	-11.3429
ᏓᏅᏓᏗᏍᏗᏍᎩ	-11.3429
▁ᏂᏓᎾᏓ	-11.343
▁ᏂᏦᎯᏳ	-11.3431
▁ᏓᏂᎶᏄᎮᏍ	-11.3431
▁ᏱᎡᏦᎢᏳ	-11.3431
ᏓᎾᏕᏒᎲᏍᎪᎢ	-11.3431
▁ᎠᏂᎢᏏᎺᎵ	-11.3431
▁ᎠᏍᏕᏱᏛ	-11.3431
▁ᎢᏍᎪᏂᏗᏢ	-11.3431
▁ᎤᎾᏓᎪᎾᏙᏗ	-11.3431
▁ᎤᎾᏗᏍᎦᏢ	-11.3431
▁ᎤᏩᎬᏘᎶᏓ	-11.3431
▁ᎤᏩᎾᏓᎴ	-11.3431
▁ᎥᏖᎣᎩ	-11.3431
▁ᎺᎮᎴᎵ	-11.3431
▁ᏁᏥᏪᏎᎸᎭ	-11.3431
▁ᏂᏓᏁᏢᏛᎾ	-11.3431
▁ᏂᏗᎬᏩᏓᎴ	-11.3431
▁ᏂᏧᏪᏎ	-11.3431
▁ᏄᏃᎯᏳᏅᎾ	-11.3431
▁ᏒᏗᏩᏟ	-11.3431
▁ᏓᎱᏃᎲ	-11.3431
▁ᏓᎾᏦᎭᏱᎲ	-11.3431
▁ᏓᏂᎳᏍᏓᎳᏩᏗᏒᎢ	-11.3431
▁ᏓᏊᎪᏔᏅ	-11.3431
▁ᏓᏓᏂᏌᎲ	-11.3431
▁ᏗᎧᏃᎩᏛ	-11.3431
▁ᏗᎾᎵᏦᎯᏛ	-11.3431
▁ᏗᏓᏅᏫᏍᎩ	-11.3431
▁ᏗᏙᎳᏅᏍᏗ	-11.3431
▁ᏙᏛᎾᏓᏡᏔᏂ	-11.3431
▁ᏥᏂᏥᏪᎠ	-11.3431
▁ᏥᏓᎩᎸᏫᏍᏓᏁᎭ	-11.3431
▁ᏥᏕᎭᏘᏁᎭ	-11.3431
▁ᏧᎵᎦᎸᏓ	-11.3431
▁ᏮᏘᎶᏏ	-11.3431
▁ᏮᏘᏯᏅᎯ	-11.3431
▁ᏯᏙᎴᎰᏍᎦ	-11.3431
▁ᏱᏂᏓᎦᎵᏍᏔᏂ	-11.3431
▁ᏱᏓᎴᏂᏙᎭ	-11.3431
▁ᏱᏣᏁᎢᏍᏔᏁᏍᏗ	-11.3431
▁ᏱᏫᏣᏴᎸ	-11.3431
ᏧᎪᏓᏏ	-11.3431
▁ᎤᎩᏠᏫᏎ	-11.3431
▁ᎤᎾᎵᏃᎯᏴᎯ	-11.3431
▁ᎤᎾᏙᏓᏉᏅ	-11.3431
▁ᎨᏥᎦᏘᏗᏍᏗ	-11.3431
▁ᏂᎦᏗᎹᏏ	-11.3431
▁ᏆᎻᏈᎵᏱ	-11.3431
▁ᏌᎷᏱ	-11.3431
▁ᏍᎩᏍᏕᎳ	-11.3431
▁ᏓᏍᏗᏰᏗᏍᎬ	-11.3431
▁ᏗᏝᏗᏍᏗᏱ	-11.3431
▁ᏘᏰᎸᏂ	-11.3431
▁ᏧᏓᏅᏓᏗᏍᏙᏗᏱ	-11.3431
▁ᎠᏓᏅᏖᎸ	-11.3431
▁ᎤᏪᏟᏌᏁ	-11.3431
▁ᎹᎻᎵ	-11.3431
▁ᏂᏚᎾᏁᎶᏛᎾ	-11.3431
▁ᏄᏛᎿᏕᎬ	-11.3431
▁ᏓᎦᎫᏴᎯ	-11.3431
▁ᏓᏟᏰᎵᏙ	-11.3431
▁ᏕᎦᎧᎮᏍᏗ	-11.3431
▁ᏙᏗᎾᎵᏍᏓᏴᎲᏍᎬ	-11.3431
▁ᏚᏂᏐᏨ	-11.3431
▁ᏛᎾᏛᎦᏂ	-11.3431
▁ᏥᎪᎵᏰᏍᎬ	-11.3431
▁ᏧᎾᏂᏏᏗᏱ	-11.3431
▁ᏨᏓᏯᎢ	-11.3431
ᎵᏍᎨᏗᏴ	-11.3431
▁ᎡᎻᎳ	-11.3431
▁ᎢᎦᏗᏍᎦᎶᏗᏱ	-11.3431
▁ᏁᏓᏈ	-11.3431
▁ᏂᏨᏴᏁᎸ	-11.3431
▁ᏚᏂᎧᎮᏍᏗ	-11.3431
▁ᏧᎾᏓᏂᎸᎢᏍᏗᏱ	-11.3431
ᎩᏪᏎᎲᎩ	-11.3431
▁ᎤᏂᏃᎮᏛ	-11.3431
▁ᎤᏩᏨᏴ	-11.3431
▁ᎩᏅᎪᎢ	-11.3431
▁ᏁᎨᏒᎾ	-11.3431
▁ᏬᎩᏅᏍᏔᏅᎩ	-11.3431
▁ᏯᎵᏖᎸᎮᏍᎬᎾ	-11.3431
▁ᏄᏍᏆᏂᎩᏛ	-11.3431
▁ᏣᏔᎳᏬᏍᎬ	-11.3431
▁ᏯᏓᏅᏍᎬᎾ	-11.3431
▁ᎠᏓᏴᎳᏛᏍᎩ	-11.3431
▁ᎠᏥᏅᏩᏅᎢ	-11.3431
▁ᎢᏖᎳ	-11.3431
▁ᏂᏪᏎᎸᎭ	-11.3431
▁ᏕᎷᎨ	-11.3431
▁ᏯᏎᎦᎩ	-11.3431
▁ᎢᎬᏩᏛᏛᏁ	-11.3431
▁ᏚᏟᏂᏆᏅᏁ	-11.3431
▁ᏓᏑᏫᏍᎬ	-11.3431
ᎦᎭᎾᏅ	-11.3431
▁ᎪᎶᏁᏛ	-11.3431
▁ᏥᏄᏩᏁᎸ	-11.3431
▁ᏥᏕᏣᎸᏫᏍᏓᏁᎭ	-11.3431
▁ᏫᎬᏲᏪᎳᏏ	-11.3431
▁ᎠᎦᏔᏛᏍᎩ	-11.3431
▁ᎠᏲᏓᏝᎲᎢ	-11.3431
▁ᎬᏩᏴᎸᎯ	-11.3431
▁ᏁᏍᏗᏪᏎᎸᎭ	-11.3431
▁ᏳᎵᏃᎯᏰ	-11.3431
▁ᏱᏓᎨᏏ	-11.3431
▁ᎡᏗᏂᏱ	-11.3431
▁ᎤᏪᏯᎸᏅᎩ	-11.3431
▁ᎠᏍᎫᏕᏒ	-11.3431
▁ᏛᏂᎾᏄᎪᏥ	-11.3431
▁ᎤᏂᏔᎳᏬᏍᎬᎢ	-11.3431
▁ᏩᏇᏙᎸ	-11.3431
▁ᎢᏦᎵᎩ	-11.3431
▁ᎫᏰᏉ	-11.3431
▁ᏱᏗᏣᏰᎸᏁᎢ	-11.3431
▁ᎢᏳᎾᏛᎾᏕᎩ	-11.3431
▁ᎤᎵᏌᎵᏓᏁ	-11.3431
▁ᏧᏄᏩᎢ	-11.3431
ᏬᏁᏗᏍᎪ	-11.3431
▁ᎥᏇᎵᏎᎸ	-11.3431
▁ᏌᎶᎻ	-11.3431
▁ᏓᎶᎨ	-11.3431
▁ᎤᏕᏒᏂᎸᎯ	-11.3431
▁ᎣᎨᏙᎸ	-11.3431
▁ᎤᏩᏂᎦᏢ	-11.3431
▁ᏓᏥᏯᏓᏙᎵᏍᏓᏁᎵ	-11.3431
▁ᏗᎨᎦᏛᏅᎯ	-11.3431
▁ᏙᏛᎾᎴᏂ	-11.3431
▁ᎠᎾᎵᏍᎩᏍᎬ	-11.3431
▁ᏙᏓᏥᏲᎱᏏ	-11.3431
▁ᏯᏂᎷᎬᎾ	-11.3431
▁ᏂᏕᎦᎵᏍᏗᏍᎨ	-11.3431
▁ᏂᏗᎨᏥᎾᏝᎥᎾ	-11.3431
▁ᏂᏦᎯᏳᎲᏍᎬᎾ	-11.3431
▁ᎠᏂᎷᏨᎭ	-11.3431
▁ᎦᏄᎾᏓᎴᎩ	-11.3431
▁ᏙᎩᎾᏦᏒ	-11.3431
▁ᏗᏐᏂ	-11.3431
▁ᎦᎵᏒᏍᏗᏍᎬ	-11.3431
ᎾᏓᏡᎩ	-11.3431
▁ᏚᎵᏃᎮᏔᏁᎢ	-11.3431
▁ᎢᏣᏓᏟᏌ	-11.3431
▁ᎠᎩᏬᏂ	-11.3431
▁ᎠᏓᎴᏒ	-11.3431
▁ᎢᎬᏂᎮᏍᏗ	-11.3431
▁ᏱᏨᏰᎵᏎᎭ	-11.3431
▁ᎤᏓᎷᎸ	-11.3431
▁ᎤᎬᏍᏕᎵ	-11.3431
▁ᏅᏓᏳᎵᏍᎪᎸᏔᏅᎯ	-11.3431
▁ᏗᎾᏓᏙᎵᏍᏓᏁᎯ	-11.3431
▁ᏂᏕᏣᏛᏁᎮᏍᏗ	-11.3431
▁ᎪᏢᏅᎥᏍᎩ	-11.3431
▁ᏙᏓᏳᏲᏏ	-11.3431
▁ᎢᏣᏄᏬᏍᏕᏍᏗ	-11.3431
▁ᏍᎩᏯᏛᎦᏁᎸᎯ	-11.3431
▁ᎩᎵᏯᏗ	-11.3431
▁ᏄᎾᏓᏛᎩ	-11.3431
▁ᎩᏂᏙᏓ	-11.3431
ᎨᏅᏴ	-11.3431
▁ᎡᏗᎸᏉᏓ	-11.3431
▁ᎤᎾᎵᏍᏓᏴᏁᏃ	-11.3431
▁ᏍᎩᏯᏅᏓᏗᏍᎨᏍᏗ	-11.3431
▁ᎤᏓᏁᏟᏴᏍᏓᏁᎴ	-11.3431
▁ᏕᎫᏓᏛ	-11.3431
▁ᏚᎾᎭᏄᏮ	-11.3431
▁ᏗᎾᏓᏲᏁᎯ	-11.3431
▁ᏗᏂᎬᏓᎨᏂ	-11.3432
ᎯᏣᏛᎦᏍᏓ	-11.3432
▁ᎠᏲᎤᏟ	-11.3432
▁ᎤᏁᎢᎸᏗ	-11.3432
▁ᎠᎩᎵᏬᎢᏍᏗ	-11.3432
▁ᏴᎨᏥᎪᏩᏛ	-11.3432
▁ᎤᎿᎷᏎ	-11.3432
▁ᏓᏆᏓᏂᎸᎨᏍᏗ	-11.3432
ᏠᏯᏍᏗᏍᎨᏍᏗ	-11.3432
▁ᎤᏂᏬᏂᏒ	-11.3432
▁ᏅᏛᏂᏪᏏ	-11.3432
▁ᎠᏥᏅᏩᏅᎯ	-11.3432
▁ᏗᎩᏂᏴᏗᏱ	-11.3432
▁ᎠᏛᎩᏍᎩ	-11.3432
▁ᏫᏓᎨᏙᎵ	-11.3432
ran	-11.3432
▁ᏫᏄᎾᎵᏍᏓᏏ	-11.3432
▁ᎠᏂᏍᏆᏂᎪᏗᏍ	-11.3432
▁ᎾᏆᏛᏁᎵᏙᎸ	-11.3432
▁ᏗᎦᏃᏙᏗᏱ	-11.3432
ᎬᏲᎵᎭ	-11.3432
▁ᏯᏂᎷᎩ	-11.3432
▁ᎠᏂᏁᏉᎨ	-11.3432
▁ᎬᏍᎦᏅᏤᎸ	-11.3432
▁ᏓᎬᏅᏏ	-11.3432
▁ᎤᏬᏪᎶᏗ	-11.3432
▁ᏧᎾᏓᏅᏬᏗᏱ	-11.3432
▁ᏗᎪᏏᏐᏗ	-11.3432
▁ᎤᎦᏌᏛᎢ	-11.3432
▁ᏃᎦᏛᏅ	-11.3432
▁ᏓᏂᏂᏓᏛ	-11.3432
▁ᎬᏩᏂᏅᏫᏍᏔᏂᏙᎯ	-11.3432
▁ᏓᎩᏲᎯᏎᎸ	-11.3432
▁ᏣᎩᏯᎠ	-11.3432
▁ᏕᎬᏩᏠᏎᎢ	-11.3432
ᎬᏩᏳᎪᏗ	-11.3432
▁ᏧᏭᏓᎴᏍᏗᏱ	-11.3432
▁ᎠᎩᎩᎬ	-11.3432
▁ᎢᏣᏛᏁᎸᎯ	-11.3432
▁ᎢᏁᎾ	-11.3432
▁ᏂᏨᏁᎮᏍᏗ	-11.3433
▁ᏗᎫᏓᏙᏗ	-11.3433
▁ᏚᎩᏒᎩ	-11.3433
▁ᏓᏍᏆᏚᎸ	-11.3433
▁ᎡᎶᏂᎵ	-11.3433
▁ᏣᏁᎫ	-11.3433
▁ᎠᎾᏟᏃᎮᏍᎬ	-11.3433
▁ᎤᏂᎦᎾᏍᏓ	-11.3433
▁ᎪᏢᏛᎩ	-11.3433
▁ᏫᏲᏪᎳᏏ	-11.3433
▁ᎠᏍᎦᏲᎯ	-11.3433
▁ᎠᏟᎢᎵ	-11.3433
▁ᏚᏁᏅᏒ	-11.3433
ᏂᏴᏗᏱ	-11.3433
▁ᏗᎩᏣᏗ	-11.3433
▁ᏗᏂᎦᏘᎴᎩ	-11.3433
▁ᏭᏓᏓᎩᏅᏎ	-11.3433
▁ᏦᎨᏅᏒ	-11.3433
▁ᏛᏂᎪᎯ	-11.3433
▁ᎠᏆᎵᏥᏙᏗᏱ	-11.3433
▁ᏑᏕᏘᏴ	-11.3433
▁ᏗᏗᏰᎸ	-11.3433
▁ᎢᏍᏗᏙᏓ	-11.3433
▁ᏘᎹᏂ	-11.3433
▁ᏚᏙᏓᏈᏒ	-11.3433
▁ᏫᎦᎢᏒ	-11.3433
▁ᏕᏣᏓᎨᏳᏎᏍᏗ	-11.3433
▁ᏚᎵᎬᏩᏢ	-11.3433
ᏍᏓᏱᏗᏍᏗᏱ	-11.3433
ᏲᎦᏛᏁᏗ	-11.3433
ᏓᏒᏍᏓ	-11.3433
▁ᏭᏕᏁᎢ	-11.3434
ers	-11.3434
▁ᎣᏣᎵᎡᎵᏤ	-11.3434
▁ᎤᎸᏫᏒ	-11.3434
▁ᎠᏂᏍᏆᏂᎪᏍᎨ	-11.3434
▁ᏕᏣᎧᎿᏩᏗᏙᎮᏍᏗ	-11.3434
▁ᎤᏂᏲᎴ	-11.3434
▁ᎢᎬᏩᏍᏗᎭ	-11.3434
▁ᎠᏓᎦᎵᏍᏓᏗᏍᎩ	-11.3434
▁ᏓᏅᏩ	-11.3434
▁ᏣᎵᏍᏓᏴᏗ	-11.3434
▁ᎢᏥᎩᎵᏲᎬᎢ	-11.3434
▁ᏙᏓᎬᏁᎵ	-11.3434
▁ᎤᏍᏔᎦ	-11.3434
▁ᏚᎪᏄᎶᏎ	-11.3434
▁ᏗᎤᏁᏤ	-11.3434
▁ᎬᏩᏂᏍᏓᏩᏗᏙᎯ	-11.3434
▁ᏌᎪᏗ	-11.3434
▁ᎱᎷᏨ	-11.3434
▁ᏚᏃᎩᏎ	-11.3434
ᏏᏀᎥ	-11.3434
▁ᏗᏓᏙᏕᏍᏗᏍᎩ	-11.3434
▁ᏧᏪᎷᏁ	-11.3434
ᏈᎪᎵ	-11.3434
▁ᏧᏅᎨᏫ	-11.3434
▁ᏱᏓᏲᎩ	-11.3434
▁ᏕᎦᎵᏦᏛ	-11.3435
▁ᎤᏂᎧᎲ	-11.3435
▁ᏗᏂᏙᎬ	-11.3435
▁ᏥᏍᎦᏅᎩ	-11.3435
▁ᎤᏅᏂᏍᏗᏱ	-11.3435
▁ᎠᎩᏲᎱᎯᏍᏗᏱ	-11.3435
ᎾᏞᎬ	-11.3435
▁ᎤᎾᏓᏛᏅᎯ	-11.3435
▁ᎢᏥᎧᎵᏣ	-11.3435
▁ᏄᏂᎪᎸᎾ	-11.3435
▁ᎤᏁᎵᏨ	-11.3435
▁ᎢᏣᎵᏍᏓᏴᏗᏍᎨᏍᏗ	-11.3435
▁ᏓᎦᎾᏄᎪᏫᏏ	-11.3435
▁ᎬᏬᎳᏕᏍᎬ	-11.3435
▁ᎤᏓᏅᏘᏌᏅ	-11.3435
▁ᎢᏥᎦᏛᏂᏙᎯᏉ	-11.3435
▁ᎭᏠᎠᎯ	-11.3435
▁ᏗᏂᏁᎵᏛ	-11.3435
▁ᏗᎬᏯᏠ	-11.3436
▁ᏗᎩᏙᏓ	-11.3436
▁ᏓᎬᎷᏤᎵ	-11.3436
▁ᏂᏓᎾᏤ	-11.3436
▁ᎣᎩᎵᏦᏩᏛ	-11.3436
▁ᏅᏯᏗᎦᎪᏗᏱ	-11.3436
▁ᎤᎾᏨᏓᎵ	-11.3436
▁ᏂᏗᏣᏓ	-11.3436
▁ᏗᏍᎩᏲᎯᏏ	-11.3436
▁ᏳᏲᎱᏎᎸ	-11.3436
▁ᎤᏣᏪᏐᎸᏍᏕ	-11.3436
▁ᏅᏓᏳᎶᎯᏍᏗᏱ	-11.3436
▁ᏦᏚᎯ	-11.3436
▁ᏗᎨᏥᏲᎯᏎᎸᎯ	-11.3436
▁ᎠᎵᏍᏆᏓ	-11.3436
▁ᏧᏬᏪᎳᏁ	-11.3437
▁ᏁᏓᏂᎵ	-11.3437
▁ᎢᏣᏕᏗᏱ	-11.3437
▁ᎡᏣᏙᎵᎩ	-11.3437
▁ᎠᎾᏔᏍᎩᏍᎩ	-11.3437
▁ᎨᏥᎩᎵᏲᎢᏍᏙᏗᏱ	-11.3437
▁ᏗᏂᏃᎩᏍᎩ	-11.3437
▁ᎨᏯᏔᎯ	-11.3437
▁ᎠᏥᏂᏌᏁ	-11.3437
▁ᏂᎨᏨᏁ	-11.3437
▁ᎤᏗᏩᏒᎯ	-11.3437
▁ᏗᏥᏅᏏᏓᏍᏗ	-11.3438
▁ᎾᎩᎲᎾ	-11.3438
▁ᏗᏜᏍᏔᏅᎯ	-11.3438
▁ᎢᏓᎻ	-11.3438
▁ᏱᏥᏯᎠ	-11.3438
▁ᏧᎦᏌᏬᎸ	-11.3438
▁ᎧᏃᏍᎦ	-11.3438
▁ᎠᎵᏣᏙᎲᏍᎩ	-11.3438
▁ᎠᎦᏙᎥᎯᏍᏙᏗ	-11.3438
ᎦᎫᏍᏓᎥ	-11.3438
ᏂᏅᎪᎠ	-11.3438
ᎾᎵᏍᏓᏁᏗ	-11.3438
▁ᎯᏌᏙᏯ	-11.3438
▁ᏕᎰᏢᏅᎭ	-11.3438
▁ᎢᏳᏩᎪᏗ	-11.3438
▁ᏌᏆᏯ	-11.3438
▁ᏧᏬᏪᎶᏗ	-11.3438
▁ᏍᎩᏲᏍᏓ	-11.3438
▁ᏥᏃᏍᎦ	-11.3438
▁ᏥᏥᎪᏩᏘᎭ	-11.3438
▁ᎪᎭᏗ	-11.3439
▁ᏓᏕᏏ	-11.3439
▁ᎠᏂᏏᎾᏌᏅ	-11.3439
▁ᏧᏙᏍᏙᏗ	-11.3439
▁ᎢᏗᎬᏁᎸᎯ	-11.3439
▁ᎤᎾᏓᏅᏓᏕᎢ	-11.3439
▁ᎤᎾᎵᏍᏓᏴᏁᎢ	-11.3439
▁ᏧᎾᏨᏍᏗᏱ	-11.3439
▁ᎤᏯᏪᏐᎴ	-11.3439
▁ᎤᎩᏢ	-11.3439
▁ᎤᏄᎩᏣᏁ	-11.3439
▁ᏳᏃᎵᏤ	-11.3439
▁ᎠᏗᏔᏍᎨᏍᏗ	-11.3439
▁ᎰᎯᏳᎲᏍᎦ	-11.3439
▁ᎣᎩᎷᏤᎸ	-11.3439
▁ᎠᏥᎶᎥ	-11.344
ᏚᎧᎾᎾ	-11.344
▁ᏕᎬᏆ	-11.344
ᏎᎯ	-11.344
▁ᎠᎳᏍᎦᎵᏍᎩ	-11.344
▁ᎠᏓᏴᏍᏔᎩᏍᎩ	-11.344
▁ᎤᏁᏐᎠᏒᎩ	-11.344
▁ᎴᎹᎩ	-11.344
▁ᎣᎩᏅᏏᏓᏍᏗ	-11.344
▁ᏂᏚᏂᏪᏎᎸᎩ	-11.344
▁ᏣᏍᎦᎸᎩ	-11.344
ᏂᎸᎬᎾ	-11.344
▁ᏍᏊᏓᎳᎩ	-11.344
▁ᏂᎦᏖᏍᏗ	-11.344
ᏓᏂᎸᎨᏍᏗ	-11.344
▁ᎤᎾᏛᏅᎢᏍᏗ	-11.344
▁ᎬᏩᏂᏴᏗᏱ	-11.344
▁ᎠᏓᏛᏗᏍᎩ	-11.344
▁ᏚᏭᏓᏔᏅᎩ	-11.344
▁ᎬᏩᎾᏰᏍᎩ	-11.344
▁ᏗᏂᎾᏕᎩ	-11.344
▁ᎭᎴᎲᎦ	-11.344
▁ᎠᏖᎵᏙᎩᎯ	-11.3441
▁ᏯᏕᎶᎰᏍ	-11.3441
▁ᎢᏣᎵᏏᎾᎯᏍᏗ	-11.3441
▁ᎬᏍᎦᎵ	-11.3441
▁ᏗᎦᎫᏍ	-11.3441
▁ᏯᏆᏛᏁᎸ	-11.3441
▁ᏫᏥᎶᎯ	-11.3441
▁ᏧᏄᎪᏔᏅ	-11.3441
▁ᏧᏂᏄᎪᏫᏍᏗᏱ	-11.3441
▁ᎠᏍᏆᏂᎪᎯᏍᏗ	-11.3442
▁ᎢᏥᏴᏍᏗᏱ	-11.3442
▁ᎤᎵᏨᏓᏆᏛ	-11.3442
▁ᎭᎦᏌᏯᏍᏓ	-11.3442
▁ᎻᏗᏂᏱ	-11.3442
▁ᏚᏂᏚᎲ	-11.3442
▁ᏗᏣᎵᏂᎩᏗᏳ	-11.3442
▁ᏚᎭᏁᎦᎸ	-11.3442
▁ᎡᏥᎨᏳᎢ	-11.3442
▁ᎬᏩᏄᎯ	-11.3442
▁ᎢᏯᏋᏁᏗᏱ	-11.3442
▁ᎦᏌᎴᏅ	-11.3442
▁ᏥᏥᏯᎠ	-11.3442
▁ᏣᏰᎸᏅ	-11.3442
▁ᎤᎾᏛᏅᎢᏍᏔᏁ	-11.3442
▁ᎬᎩᏁᏤᎸᎯ	-11.3443
ᏔᏍᏗ	-11.3443
▁ᎤᏔᏲᎴ	-11.3443
▁ᏣᏛᎦᏅᎢ	-11.3443
▁ᎤᏁᏍᏔᎳ	-11.3443
ᏓᏅᏛᎳ	-11.3444
▁ᎠᏥᏂᏌᏅ	-11.3444
▁ᏄᏟᏂᎬᎬ	-11.3444
▁ᎤᏓᎪᎵᏰᏗ	-11.3444
▁ᏱᎰᏣ	-11.3444
▁ᏱᎦᏬᏂᎭ	-11.3444
▁ᎣᏥᏃᎮᏍᎩ	-11.3444
▁ᎤᏂᏍᏆᏂᎪᏔᏅ	-11.3445
▁ᎣᎪᎯᏳ	-11.3445
▁ᎤᏙᏯᏅᎯᏛ	-11.3445
▁ᎤᎾᎵᏓᎩᏛ	-11.3445
▁ᎤᏓᏅᏓᏕᎢ	-11.3445
ᎫᏓᎴᏍᎩ	-11.3445
▁ᏅᏧᏪᏎᎢ	-11.3445
▁ᎠᏓᏬᏍᏗ	-11.3445
▁ᏗᎦᏃᎸᏗᏍᎬ	-11.3445
▁ᎤᏓᏱᎴᎢ	-11.3445
▁ᏳᎷᏨ	-11.3446
▁ᎠᎩᏅᏏᏓᏍᏗ	-11.3446
▁ᏥᏐᎯ	-11.3446
▁ᎤᏓᏅᎡᎸᎩ	-11.3446
▁ᎤᏂᎾᏰᎯᏍᏗ	-11.3446
ᏕᏲᏅᎯ	-11.3446
▁ᏒᎦᎾᏲᎪ	-11.3446
▁ᎥᎦᏥᎪᎥᎩ	-11.3446
▁ᏭᏩᏅᏓᏕ	-11.3446
▁ᏕᎩᎸᏫᏍᏓᏁᎲ	-11.3446
▁ᏅᏋᏁᎸ	-11.3446
▁ᏧᎾᎵᏍᏓᏴᏗᏱ	-11.3446
▁ᎦᎬᏩᏐᏢᏕᎢ	-11.3447
▁ᏫᎤᎶᏎᎢ	-11.3447
▁ᎣᎦᏚᎵᏍᎬ	-11.3447
ᏓᏘᎾᎥ	-11.3447
▁ᏕᎦᏃᏣᎸ	-11.3447
▁ᏧᏏᎳᏛᏙᏗ	-11.3447
▁ᎬᏃᏓ	-11.3447
▁ᏁᏪᏎᎴᎢ	-11.3447
▁ᎠᏁᎷᎲᏍᎨ	-11.3448
▁ᎤᏍᏆᏂᎩ	-11.3448
▁ᎢᏥᏯᎥᎢ	-11.3448
▁ᎢᏥᎦᏔᎰ	-11.3448
▁ᏂᎦᏪᎠ	-11.3448
ᏅᏓᏥᏪᏎᎵ	-11.3448
▁ᏥᏯᎥ	-11.3449
▁ᎤᎧᎭᏲᏛ	-11.3449
ᏍᏔᏁᎰ	-11.3449
▁ᏧᏄᎪᏙᏗᏱ	-11.3449
▁ᎢᏳᏂᏪᏍᏗᏱ	-11.3449
▁ᎢᏣᏛᎪᏗᏱ	-11.3449
▁ᎤᏩᏇᏅᏔᏁ	-11.3449
▁ᏓᏍᎩᏁᎵ	-11.3449
▁ᏂᎬᏩᏂᏪᏎ	-11.3449
▁ᏗᎵᏍᎪᎸᏔᏅᎯ	-11.3449
▁ᎯᏥᏧᏣ	-11.3449
▁ᎦᎸᏍᏙᏗ	-11.3449
▁ᎤᏠᎩ	-11.3449
▁ᏳᎨᏳᎭ	-11.345
ᏌᎩᏒ	-11.345
▁ᎭᏙᎴᎰᎯ	-11.345
▁ᏗᎵᏍᏚᎶ	-11.345
▁ᏥᏄᎾᏍᏗ	-11.345
▁ᎶᏔᏂ	-11.345
▁ᎢᏥᎷᏨᎭ	-11.345
▁ᎫᎭᏟ	-11.345
▁ᎤᎾᏓᏍᏔᏴ	-11.345
▁ᏱᏂᏣᏛᏁᎸ	-11.345
▁ᏧᏂᎷᏫᏍᏔᏁᏗ	-11.345
▁ᎠᎵᎮᎵᏤᏗ	-11.3451
▁ᎤᎾᎵᏍᏓᏴᏅᎯ	-11.3451
▁ᎠᏆᏡᏗᏍᎩ	-11.3451
▁ᎣᎦᎵᎪᏅ	-11.3451
▁ᎠᎦᎫᏴᎡᏗ	-11.3451
▁ᎦᏃᏥ	-11.3451
▁ᎾᎾᏛᏁᎮᏍᏗ	-11.3451
▁ᎤᏚᏥ	-11.3451
▁ᎠᏔᏲᎯᎮᏍᏗ	-11.3451
▁ᏧᎵᏏᎬ	-11.3451
▁ᎠᏛᎯᏍᏗᏍᎩ	-11.3451
▁ᎤᏤᏥᏍᏗ	-11.3451
▁ᎠᏗᏍᎦᎶᏗ	-11.3451
ᏪᏎᎸᎯ	-11.3452
ᏗᎦᎴᏲᏤ	-11.3452
▁ᎤᏂᏰᏨ	-11.3452
▁ᏧᏏᎳᏛᏗ	-11.3452
▁ᎤᏇᏓᏢ	-11.3452
ᏘᏓ	-11.3452
▁ᏭᏘᏅᏍᏔᏁᎢ	-11.3452
▁ᏥᏲᎵᎩ	-11.3453
▁ᎤᎧᏲᏓ	-11.3453
▁ᎤᏓᏴᎳᏔᏅ	-11.3453
▁ᏭᏴᏍᏗᏱ	-11.3453
▁ᏚᏲᎵᎸ	-11.3453
▁ᎤᏂᏁᎢᏍᏗᏱ	-11.3453
▁ᎤᏪᏙᎵᏤᎢ	-11.3453
▁ᏕᏛᏅ	-11.3453
▁ᏚᏪᏐᏤ	-11.3453
▁ᎦᎷᎩ	-11.3453
▁ᎤᏁᎳᏗᏍᏗᏱ	-11.3453
▁ᎤᏘᏅᏎ	-11.3454
▁ᎠᏲᎱᏍᎨᏍᏗ	-11.3454
▁ᏱᏄᏩᏁᎰ	-11.3454
▁ᏫᏗᏥ	-11.3454
ᎤᏁᏨ	-11.3454
▁ᏓᏞᏍᏗ	-11.3454
▁ᎦᎾᏄᎪᏥᎸᎭ	-11.3455
▁ᎡᎦᏔ	-11.3455
▁ᎨᏥᏰᎸᎯ	-11.3455
▁ᏱᏣᏞ	-11.3455
▁ᎡᏥᎦᏔᎭ	-11.3455
▁ᏕᎦᎶᏛ	-11.3455
▁ᎠᏂᏐᏢᎢᏍᏗᏍᎩ	-11.3455
▁ᏫᏓᏆᎧᎾᏅᎩ	-11.3455
▁ᏚᏅᏩᏅᎩ	-11.3456
▁ᎣᏏᏊ	-11.3456
▁ᎤᎩᎵᏲᎢᏍᏗᏱ	-11.3456
▁ᏤᏏᏂ	-11.3456
▁ᎬᎭᏃ	-11.3456
▁ᎤᏩᎾᏬᏒ	-11.3456
▁ᏚᏌᎳᏓᏅ	-11.3456
▁ᎤᎵᏌᎳᏓᏁ	-11.3457
▁ᎾᏅᏁᎰ	-11.3457
▁ᎤᎾᏓᏅᏍᏗᏱ	-11.3457
▁ᏗᎧᎿ	-11.3457
▁ᏂᏕᎲᏁ	-11.3457
▁ᎡᏥᏁᎸ	-11.3457
▁ᎤᏎᎦᏨᎯ	-11.3457
▁ᎠᏨᏏᏰᏗ	-11.3458
▁ᎠᏤᎷᎯᏍᏗ	-11.3458
▁ᏗᎪᏍᏓᏯ	-11.3458
▁ᎠᏂᎦᏘᏴ	-11.3458
ᏒᏁᎰ	-11.3459
▁ᎮᎮᏍᏗ	-11.3459
▁ᏱᎾᏛᎦ	-11.3459
▁ᏚᏂᏲᏎ	-11.3459
▁ᎢᏣᏙᎴᎰᎯ	-11.3459
▁ᎪᏍᏔᏴ	-11.346
▁ᏥᎧᏍᎨᏂ	-11.346
ᏩᏘᏍᎩ	-11.346
▁ᎤᎾᏠᎾᏍᏛ	-11.346
▁ᏗᎦᏰᏍᏗ	-11.346
▁ᏗᏍᏕᎵᏍᎩ	-11.346
▁ᎤᏁᏟᏔᏅ	-11.346
▁ᏗᎦᏰ	-11.3461
▁ᎤᏍᏚᏅ	-11.3461
▁ᎬᏩᏂᏴᎲᎩ	-11.3461
▁ᎠᏥᎤᏍᏕᏎ	-11.3461
▁ᎠᎫᏤᎵ	-11.3462
▁ᎠᏲᏍᎩ	-11.3462
▁ᏧᏍᎪᎸ	-11.3462
ᏐᏍᏙᏗ	-11.3463
▁ᎠᏗᏅᏓ	-11.3463
▁ᏚᎵᏰ	-11.3463
ᏌᎳᏙᏗᏱ	-11.3463
▁ᎯᏍᎩᏍᏆ	-11.3463
▁ᏱᏓᏚ	-11.3463
▁ᎠᏍᏓᏱᏗᏍᎩ	-11.3464
▁ᎫᎭᎳ	-11.3464
ᎸᏍᎦ	-11.3464
ᏍᎩᏰᎵᏎᎮᏍᏗ	-11.3465
▁ᎠᎩᏁᏤᎸᎩ	-11.3465
▁ᎣᎦᏓᏅᏔᏩᏕ	-11.3465
▁ᏗᏒᏆᎶᏍᏗ	-11.3465
▁ᎠᏗᏔᏍᎦ	-11.3465
▁ᏧᏍᏕᎸᏗᏱ	-11.3466
▁ᎠᏂᏣᏗ	-11.3466
▁ᏣᎾᏗᎭ	-11.3466
▁ᎤᎬᏍᎪᎸᏁ	-11.3466
▁ᏗᎬᏩᏁᎶᏗ	-11.3466
▁ᎤᏪᎷᏅ	-11.3467
ᏒᏓ	-11.3467
▁ᎠᏆᏕᏗᏱ	-11.3467
▁ᎠᏑᏫᏍ	-11.3468
▁ᎠᏕᎸᏓᎶᏂᎨ	-11.3468
▁ᎠᎵᎮᎵᎪ	-11.3468
▁ᏣᎦᏙᎥᎯᏍᏗᏱ	-11.3468
▁ᎤᎬᎭᎷᏴ	-11.3468
ᏦᎦᏓᎵ	-11.3468
▁ᏦᏍᏓ	-11.3469
ᎾᏝᎥᎾ	-11.3469
▁ᏣᏍᎦᎩ	-11.3469
ᏓᏙᎵᏍᏓᏁᎭ	-11.3469
▁ᏍᎩᎨᏳᎯᏳ	-11.3469
▁ᎢᏣᏂᎩ	-11.3469
▁ᏚᎾᏓᏂᎸᏨ	-11.3469
▁ᎠᎾᏓᏩᏛᎯᏙᎢ	-11.347
▁ᎤᏅᏓᏗᏗᏒᎢ	-11.347
▁ᏓᏓᏁᎳᏗᏒᎢ	-11.347
▁ᏗᏆᏓᎴᏅᎢ	-11.347
▁ᏚᏚᎪᏔᏅᎢ	-11.347
▁ᏚᏠᏒᏎᎢ	-11.347
▁ᎠᏩᏘᏍᎪᎢ	-11.347
▁ᎧᏁᎨᎢ	-11.347
▁ᎤᏓᏏᏁᎢ	-11.347
▁ᎤᏂᏌᏛᏗ	-11.347
▁ᏧᎾᏄᎪᏫᏎᎴᎢ	-11.347
▁ᏕᏣᏓᏘᎾᎥᎢ	-11.347
▁ᏚᎾᏄᎪᏫᏎᎢ	-11.3471
▁ᎤᏛᎦᏍᏔᏁᎢ	-11.3471
▁ᏗᎦᎵᏦᏛᎢ	-11.3472
▁ᏔᏔ	-11.3472
▁ᏂᎨᏐᎢ	-11.3472
▁ᎤᎵᏏᎾᎯᏍᏗ	-11.3472
▁ᎠᏍᎦᎢᎮᏰᏃ	-11.3473
▁ᏳᏫᎦ	-11.3473
▁ᎠᏍᏆᏂᎪᏛ	-11.3473
▁ᎠᏂᎦᏔᎮᏍᏗ	-11.3473
▁ᎠᏥᏯᏅᎲ	-11.3474
▁ᏄᏁᎩᏴ	-11.3474
▁ᎣᏤᎲᎢ	-11.3474
▁ᏥᏚᏁᏤᎴ	-11.3474
▁ᎤᎾᏗᏔᏍᏗᏱ	-11.3474
▁ᎤᏂᏲᎸᎩ	-11.3475
▁ᎾᏆᎵᏍᏓᏁᎸᎩ	-11.3475
▁ᏬᏥ	-11.3475
▁ᏥᏃᎪᎢ	-11.3476
▁ᎢᎬᏴ	-11.3476
▁ᏧᏛᏒ	-11.3476
▁ᎠᏥᏍᏛᏗᏍᏙᏗ	-11.3476
ᏛᏂᏗᏍᏕᏍᏗ	-11.3476
▁ᏗᎦᏘᏍᏗ	-11.3476
▁ᎤᎾᏄᎪᎢᏍᏗᏱ	-11.3477
▁ᎮᏙᎭ	-11.3477
▁ᎦᎶᏂ	-11.3477
▁ᏂᎤᏍᏗ	-11.3477
▁ᏓᏛᎯᏍᏗᏍᎪ	-11.3478
▁ᎢᎬᏩᏅᏁ	-11.3478
▁ᏧᏅᎪᏤ	-11.3478
ᏯᏛᏁᎮᏍᏗ	-11.3478
ᏂᎳᏕ	-11.3478
▁ᎠᎩᏰᎯ	-11.3479
▁ᏕᏥᎳᏫᎩ	-11.3479
▁ᎤᏁᏉᎢᏍᏗᏱ	-11.3479
▁ᎠᏂᎵᎾ	-11.3479
ᏚᏓᎴᏍ	-11.3479
ᎧᎲᏍᏗᏱ	-11.3479
ᎬᎭᎷᏰᎢ	-11.3479
▁ᏓᏥᎷᏥ	-11.348
▁ᏚᎾᏔᏅᎩ	-11.348
▁ᎠᏓᏅᏙᎩᎯ	-11.348
▁ᎤᏂᎶᏐᏅ	-11.3481
▁ᏮᏓᏥ	-11.3481
▁ᎤᏁᏙᎴᎢ	-11.3482
▁ᏙᏣᏓ	-11.3483
▁ᏗᎻᎾ	-11.3483
▁ᎦᏆᏛ	-11.3483
▁ᎪᎹᎵᏱ	-11.3484
▁ᎨᏥᏍᏕᎸᏗᏱ	-11.3484
▁ᏧᏍᎩᏃ	-11.3485
ᏙᏔᏅᎩ	-11.3485
ᏅᏍᏔᏅᎯ	-11.3485
▁ᎠᏂᎦᏔᎯᏳ	-11.3486
▁ᏗᏁᎶᏗ	-11.3486
▁ᏳᏛᎦ	-11.3486
▁ᏯᎩᏰᎸᎭ	-11.3487
▁ᎤᎾᏁᎶᏔᏅ	-11.3487
▁ᏂᏚᏛᏁᎸ	-11.3487
ᏴᏈᏛᏅ	-11.3488
▁ᏚᏂᏲᎱᏒᎩ	-11.3488
▁ᎠᏓᏁᎳ	-11.3488
▁ᏚᏙᎠ	-11.3488
▁ᎤᎾᏣ	-11.3489
ᎷᏨᎾ	-11.3489
▁ᎣᎦᏛᎦᏅᎯ	-11.349
▁ᎣᎦᏣᏅᎩ	-11.349
▁ᏄᏪᎡᎢ	-11.3491
▁ᎠᎩᎸᏙᏗ	-11.3491
▁ᎬᎨᏳ	-11.3491
▁ᎤᏪᏓᏍᏗᏱ	-11.3492
▁ᎡᏣᏙ	-11.3493
▁ᎤᏁᎸᏙᏗ	-11.3493
ᎪᎥ	-11.3493
▁ᎣᏥᏬᏂᏍᎬ	-11.3493
▁ᎤᎾᎵᎪᎲ	-11.3493
▁ᏚᏲᏍᏔᏅ	-11.3494
ᎵᏔᏗ	-11.3494
▁ᎤᎾᎴᏅ	-11.3494
▁ᎤᎾᏛᎦ	-11.3494
ᏗᏩᏛᎯ	-11.3495
▁ᎾᏆᏛᏅᎢ	-11.3495
▁ᎤᏔᎳᏬᏍᎬᎢ	-11.3495
▁ᎤᏍᎩᏓᏎᎢ	-11.3495
▁ᎤᏪᏁ	-11.3496
▁ᏚᏪᏲᏁᎢ	-11.3496
▁ᎤᏛᏛᏅᎩ	-11.3496
▁ᎣᎦᏤᎵᎦ	-11.3496
ᏛᏛᎲᏍᎨᏍᏗ	-11.3496
▁ᎤᎾᏛᏓᏍᏛ	-11.3497
▁ᎤᏁᎳᏛᎢ	-11.3497
▁ᎠᏫᎾᎨᏍᏗ	-11.3497
▁ᎤᏞ	-11.3497
▁ᎤᎧᎵᎢᏍᏗᏱ	-11.3498
▁ᎮᏙᎲᎢ	-11.3499
ᏥᏂᎨᏂ	-11.3499
▁ᏕᏥᎧᏅ	-11.3499
▁ᏥᏧᏏ	-11.3499
▁ᎤᏂᏰᎸᏗ	-11.3499
▁ᏥᏤᎾ	-11.3499
▁ᎩᏥ	-11.35
ᎨᎮᎩ	-11.35
▁ᎡᏓᏍᏗᏱ	-11.3501
▁ᏕᏓᏓᎪᎲᏳ	-11.3501
▁ᏧᏂᏍᏓ	-11.3501
▁ᎢᏥᏍᏆᏂᎪᏙᏗᏱ	-11.3503
▁ᎢᎳᎻ	-11.3504
▁ᏤᏙᎭ	-11.3504
▁ᎢᏓᎵᎮᎵᎩ	-11.3504
▁ᎤᏓᏙᎵᏍᏔᏅᎩ	-11.3504
▁ᎦᏐ	-11.3504
▁ᎤᏃᎮᎸᎯ	-11.3505
▁ᎤᎵᏓᏍᏔᏅ	-11.3505
▁ᏗᏤᏅᏒ	-11.3506
▁ᏧᏄᏬᏍᏗ	-11.3506
▁ᏭᎶᏒᏍᏛ	-11.3506
▁ᎠᏁᎨ	-11.3506
ᏓᏁᎸᎭ	-11.3506
▁ᎤᏢᎬᎩ	-11.3507
▁ᎤᏩᎫ	-11.3507
▁ᏗᏣᎵᎢ	-11.3508
▁ᏣᏠᎾᏍᏗ	-11.3508
▁ᎦᎵᎡᎵ	-11.3508
▁ᏚᏭᎪᏔᏁᎢ	-11.3509
▁ᏓᏘᏁᎲ	-11.3509
▁ᏱᎦᏔᎭ	-11.3509
ᎯᏐᏗ	-11.351
▁ᎩᎦᎨᏍᏛᏱ	-11.3511
ᏲᏁᎦ	-11.3512
ᎩᎦᏘᏛ	-11.3512
▁ᎪᎵᎩ	-11.3512
ᎷᏤᎴᎢ	-11.3512
▁ᎤᏂᏍᏆᏂᎪᏙᏗᏱ	-11.3512
▁ᎯᎲᎦ	-11.3513
▁ᏅᏓᏍᎩ	-11.3514
▁ᏚᏪᏟᏌᏅ	-11.3514
▁ᎤᏂᏄᎪᏤᏃ	-11.3515
ᎦᎿᏩ	-11.3515
▁ᏗᏂᏁᎯ	-11.3515
▁ᎠᎩᏲᏏᏍᎬ	-11.3515
ᏥᏐᏅᏅ	-11.3516
▁ᎠᏲᏍᏙᏗ	-11.3516
ᏬᎥᎯ	-11.3517
ᏃᎯᏎᏗ	-11.3518
ᎿᎷᏒ	-11.3518
▁ᏕᏦᏕᏍᏗ	-11.3519
▁ᎣᎦᏗᏔᏍᏗ	-11.3519
▁ᏧᏌᎨ	-11.352
▁ᎠᎩᎾᏫᏱ	-11.352
▁ᏳᏁᎭ	-11.352
▁ᎠᏯᏫᏍ	-11.3521
▁ᏧᎶᏎᎢ	-11.3521
▁ᏓᏰᏙᎳᏛᎢ	-11.3521
▁ᎤᏍᏓᏩᏛᏎᎢ	-11.3521
▁ᎠᏥᏍᏕᎸᏗᏱ	-11.3522
▁ᏣᏁᏨᎢ	-11.3522
▁ᎤᎵᏖᎸᏁᎢ	-11.3523
ᏅᏬᏒ	-11.3524
▁ᎤᏰᎸᏒᎩ	-11.3524
ᏲᏓᎬ	-11.3524
▁ᎢᎨᎦ	-11.3524
▁ᎢᏨᏁᏗᏱ	-11.3524
▁ᎪᏢᏗᏱ	-11.3525
ᏁᏔᏁ	-11.3525
▁ᏧᏓᎴᏅᎢ	-11.3526
▁ᏳᏛᎾ	-11.3526
▁ᏕᎨᏥᏲ	-11.3527
▁ᎡᏓᏓᏙᎵᏍᏓᏁ	-11.3527
▁ᎠᏔᎴ	-11.3528
▁ᏥᏕᏥ	-11.3528
▁ᎢᏳᏅᏂ	-11.353
▁ᎤᎾᏛᏓᏍ	-11.3532
ᎧᏁᏗ	-11.3534
▁ᎤᏲᏍᏔᏅᎯ	-11.3536
▁ᎤᏍᎦᎴᎢ	-11.3537
▁ᏧᏪᎳ	-11.3537
▁ᏱᏕᎬ	-11.3537
▁ᏗᎦᎴᏴ	-11.3538
▁ᎤᎵᏏᏅ	-11.3538
▁ᎬᏩᏍᏛᏗᏍ	-11.3538
ᏣᏓᏅᏛᎾ	-11.3538
▁ᎢᏥᏰᎸᎭ	-11.3538
▁ᎦᎶᏛ	-11.3539
ᏛᏙᏗᏱ	-11.3539
▁ᎤᏬᏢᏗᏱ	-11.3539
ᎦᏔᎿᎢ	-11.3539
ᎵᏍᎪᎸᏓᏁᎰ	-11.354
▁ᎤᎾᏓᏅᏖᎸᎩ	-11.3541
▁ᎠᏂᎦᏔᎭ	-11.3541
▁ᎤᏂᏴᎲᎩ	-11.3541
ᎦᏔᎲᏍᎬ	-11.3542
▁ᏇᎯ	-11.3543
ᏱᎵᏙᎸ	-11.3544
▁ᏧᏓᎵ	-11.3544
▁ᎤᏩᏂᎸᎩ	-11.3545
ᎤᏙᎯᏳᎭ	-11.3545
▁ᏑᏓᎨ	-11.3546
▁ᏂᏓᏕᏘᏴᎯᏒᎢ	-11.3547
▁ᏚᏂᎲᎢ	-11.3547
ᎬᏂᏛ	-11.3548
▁ᎤᏗᎴᎲᏍᎬ	-11.3548
▁ᎤᎾᏍᎪᏎ	-11.3549
▁ᏓᎩᎸᏫᏍᏓᏁᎰ	-11.3549
▁ᏧᎧ	-11.355
▁ᏗᏆᏄᏬ	-11.3551
ᎶᎦ	-11.3551
▁ᎤᏢᎬᎢ	-11.3551
▁ᏚᏬᏏᏌᏁ	-11.3552
▁ᎢᏧᏍᏗ	-11.3552
▁ᎦᎵᏦᏅ	-11.3552
▁ᏦᏕ	-11.3553
▁ᎢᏯᏋᏁ	-11.3553
ᎪᏢᏔᏅᎯ	-11.3553
▁ᎦᎾᏄᎪᏫᏍᎪ	-11.3553
▁ᎣᏏᏉᏍᎪ	-11.3554
▁ᎤᎾᎳᏍᎦ	-11.3554
▁ᎤᎾᎵᏥᏙᏅ	-11.3554
▁ᎤᏑᎶ	-11.3557
ᏎᎵᏔᏁ	-11.3557
▁ᏥᎸᏉᏗ	-11.3557
▁ᏴᎬᎾ	-11.3558
▁ᏃᎦᏍ	-11.3558
ᏁᏤᎮᏍᏗ	-11.3558
▁ᎤᏂᏅᏅᎢ	-11.3559
▁ᎱᏂᎷ	-11.356
▁ᎤᏂᏁᏨᎯ	-11.3561
▁ᏰᎮᏍᏗ	-11.3563
ᏜᏗᏍᏗ	-11.3564
▁ᎧᎾᏍ	-11.3565
▁ᏧᏍᎦ	-11.3565
▁ᎬᏩᏕ	-11.3565
▁ᎠᎾᏓᏅ	-11.3565
▁ᎦᎶᏍᎨ	-11.3566
▁ᎤᏛᏗᏱ	-11.3566
▁ᏫᏚᎷᏤᎴ	-11.3567
▁ᎾᎾᏛᏁᎲᎾ	-11.3567
▁ᎠᏓᎶᏂᎨ	-11.3568
ᎵᎮᎵᏍᏙᏗ	-11.3568
▁ᎤᏬᎯᏨᏃ	-11.3569
▁ᎬᏩᏛᏛᏅᎩ	-11.3569
ᎤᏅᏗ	-11.357
▁ᎢᏨᏰᎵᏎ	-11.357
▁ᏌᏉᎯᏳ	-11.357
ᏌᎻ	-11.3571
ᏑᎶᏗ	-11.3571
▁ᎠᏎᎪᎩᏍ	-11.3571
▁ᎤᎩᎸᏗ	-11.3572
▁ᎠᎩᏇᏓᎸᎢ	-11.3572
ᎯᏰᎢ	-11.3572
▁ᏕᎦᏍᎩᎸᎢ	-11.3572
▁ᏗᎪᎦ	-11.3573
▁ᎠᏇᎵᏍᏗ	-11.3573
▁ᎤᏁᏙᎸᎢ	-11.3574
▁ᏚᎷᎬᎢ	-11.3574
▁ᏑᎾᎴᎢᏳ	-11.3576
▁ᎢᏳᏲ	-11.3577
▁ᎢᏣᎵᎮᎵᎬᎢ	-11.3578
▁ᎤᏕᎶᎰᎯᏍᏗ	-11.3578
▁ᎤᎶᏏ	-11.3578
▁ᏚᏯᏍᏗ	-11.3579
▁ᏚᏇ	-11.3579
▁ᎤᏬᎯᏳᏒᎢ	-11.358
▁ᏄᏂᏪᏎᎴᎢ	-11.358
ree	-11.358
▁ᏗᎦᏁᎸᎢ	-11.3583
ᏥᎳᏫᏎᎲ	-11.3583
ᏓᏫᏍᎦᎨ	-11.3583
▁ᎯᎩᏍᎪ	-11.3584
▁ᏕᎦᎸᎢ	-11.3584
▁ᎤᏯᏅᎮᎢ	-11.3585
▁ᎤᏚᏓᎳ	-11.3586
▁ᏣᎦᎴ	-11.3587
▁ᎠᎩᏍᎦᏅᏨᎢ	-11.3587
▁ᎤᏔᎷᎩᏍᎬ	-11.3588
▁ᎤᏬᏂᏒᎩ	-11.3588
▁ᎠᎵᏍᏇᏚ	-11.3588
▁ᏥᏂᎩ	-11.3589
▁ᏥᏂᏣᏛᏁᎸ	-11.359
ᏛᏅᎢᏍᏗᏍᎨ	-11.3591
▁ᎤᎩᎸᎩ	-11.3592
▁ᎧᏄ	-11.3593
▁ᏆᎷ	-11.3594
ᏥᎸᏉᏔᏅᎯ	-11.3594
ᏰᎸᏗᏱ	-11.3595
ᏩᏛᎮᎢ	-11.3596
▁ᎤᏦᏍᏔᏁ	-11.3597
ᏂᏁᏨ	-11.3597
▁ᎠᏆᎴᏂᏙᎸ	-11.3598
ᏏᎳᏗ	-11.3598
▁ᏄᎾᎵᏍᏔᏁᎢ	-11.3599
▁ᏓᎩᎸᏫᏍᏓᏁᎲᎢ	-11.3599
▁ᎠᎦᏑᏰ	-11.36
▁ᎠᏆᏛᎦᏅᎯ	-11.36
▁ᎯᎦᏔᎲᎢ	-11.36
▁ᎠᏁᎬ	-11.3601
▁ᎢᏣᎦᏔᏅᏎ	-11.3601
ᎷᎸᏁ	-11.3601
ᏴᏅᎮ	-11.3601
ᎯᎰᎢ	-11.3602
▁ᎤᏂᏃᎮᎸᎩ	-11.3603
▁ᎦᏯᎸᎢ	-11.3603
▁ᎾᏆᏛᏁᎸᎩ	-11.3604
▁ᏧᏄᏬᎢ	-11.3606
▁ᏗᎹ	-11.3606
▁ᏪᏙᎲ	-11.3607
▁ᏧᎦᎴᏅ	-11.3608
ᏰᏨ	-11.361
ᏒᏙᏂ	-11.3611
▁ᎠᏈ	-11.3612
ᎦᎨᏗᏳ	-11.3614
ᎥᏍᎪᎢ	-11.3615
ᏕᏍᎩ	-11.3617
ᏄᎪᏫᏒᎭ	-11.3618
▁ᎤᏍᏚᎢᏒᎩ	-11.3618
▁ᏣᏓᏁᏗ	-11.3618
ᏌᏁᎢ	-11.3618
▁ᏤᎦ	-11.3619
▁ᎤᎾᏚᎵᏍᎬᎩ	-11.3619
▁ᎤᏭᏓᎸᏤ	-11.3619
▁ᎤᎵᏍᏆᎵ	-11.3619
▁ᏥᏂᏥ	-11.3619
▁ᎤᏁᎳᎩᏉ	-11.3622
ᏂᏓᏅᏁᎰ	-11.3624
▁ᎠᎪᎵᏰᏍᎩ	-11.3624
ᏍᏆᏂᎪᏛ	-11.3624
▁ᎣᎳ	-11.3624
▁ᏚᎴᎯᏌᏅᎢ	-11.3624
▁ᏗᏥᎦᏴᎵᎨᎢ	-11.3625
▁ᎠᏂᎦᏴᎵᎨᎢ	-11.3625
▁ᏧᎦᏴᎵᎨᎢ	-11.3625
▁ᎤᏂᎷᏨᎯ	-11.3625
ᏂᏬᏂ	-11.3626
▁ᎤᏯᎠ	-11.3626
▁ᎤᏰᎸᏎᎢ	-11.3627
▁ᎤᎦᏔᎲᏒᎩ	-11.3627
▁ᎤᎵᏍᏆᏗᏍᏗᏱ	-11.3628
ᏫᏏ	-11.3628
▁ᏧᏂᏥ	-11.3629
▁ᎣᏁᎯ	-11.3629
ᏕᏯᏙᏗ	-11.3629
▁ᎢᏕᎲᎢ	-11.363
▁ᏗᎯᏍᏗᏱ	-11.3633
▁ᏫᏗᎩ	-11.3636
▁ᎤᎵᏦᎯ	-11.3637
ᏓᏢᎩ	-11.364
▁ᎤᏓᏰ	-11.364
ᏪᏒᎩ	-11.3641
▁ᏈᎵᎩᏱ	-11.3641
▁ᏧᏂᏁ	-11.3641
▁ᎯᎩ	-11.3642
ᏗᎣᏈ	-11.3644
▁ᎤᏬᎴᎢ	-11.3645
▁ᏚᏂᏅᏨ	-11.3646
▁ᎤᏚᎢᏍᏔᏅᎢ	-11.3646
▁ᏂᏓᏅ	-11.3646
▁ᏓᎾᏗᏔᏍᎨ	-11.3646
ᎵᏂᎪᎯᏍᏗᏍᎩ	-11.3648
▁ᏗᏧᎬ	-11.3649
ᏓᏎᎪᎩᏍᏗᏱ	-11.3651
ᏢᏫᏍᏙᏗ	-11.3652
ᏍᏓᏁᎵ	-11.3655
▁ᏕᏣᎴ	-11.3655
ᎥᏍᎪ	-11.3655
▁ᎢᏯᏛᏁᏗᏱ	-11.3656
ᏯᏂᏍᎬᎢ	-11.3657
▁ᏚᎸᏫᏍᏓᏁ	-11.3659
▁ᎦᏗᎭ	-11.3659
▁ᎨᎦᎵᏥᏙᏁ	-11.366
▁ᎤᏂᏁᎯ	-11.3661
▁ᎤᎵᏍᏓᏴᏗᏱ	-11.3663
▁ᏣᏍᏓ	-11.3664
ᏂᏍᏓᏩᏚᎦ	-11.3665
ᎩᎳᎾᎳᏗᏍ	-11.3666
▁ᎠᏓᎴᏂᏍᎪ	-11.3667
▁ᎠᏂᏍᎦᎩ	-11.3669
▁ᎤᏪᎵᏒ	-11.3669
ᏛᏓᏍᏓᏁᎵ	-11.367
ᎵᏰᏗᎭ	-11.367
▁ᎠᏝ	-11.3672
▁ᎢᏳᎾᎵᏍᏓᏁᏗᏱ	-11.3674
▁ᏕᎦᏚᏩᏗᏒᎢ	-11.3677
▁ᏓᎬᏩᎵ	-11.3678
▁ᎤᏰᎸᏅᎢ	-11.3678
▁ᎢᎶ	-11.3678
ᏯᏛᏂᏏ	-11.3682
▁ᎡᎪᎢ	-11.3683
▁ᎤᏩᏓ	-11.3683
▁ᏭᏴ	-11.3684
▁ᏗᎨᏛ	-11.3685
▁ᎥᏝᏍᏗ	-11.3686
or	-11.3687
ᏑᏰᏎ	-11.3687
▁ᏣᏅ	-11.3688
▁ᎬᏩᏓ	-11.3689
▁ᏧᏁᏗ	-11.3692
▁ᎠᎦᎸ	-11.3693
▁ᏕᎮ	-11.3694
▁ᏃᎴᏍᏉ	-11.3695
▁ᏥᏚᎾ	-11.3696
▁ᏧᏭᏓ	-11.3696
ᏨᏒᎩ	-11.3696
▁ᎠᏍᏆᏂᎪᏍᎨ	-11.3697
▁ᏥᏂᎦᏪᏍᎪ	-11.3698
ᏩᏯ	-11.37
▁ᎤᎾᏓᏅᎦᎸ	-11.3701
▁ᎪᏛᎢ	-11.3701
ᏟᏌ	-11.3703
ᏕᏗᏴ	-11.3703
▁ᎠᏂᎦᎵ	-11.3705
ᏂᎨᏒᎾ	-11.3705
▁ᎤᏪᎾ	-11.3713
▁ᏥᏁᎸᎢ	-11.3713
ᏅᎯᏒ	-11.3715
ᎬᏁᏗ	-11.3717
ᎯᎠᎾ	-11.3719
ᎤᎬᏫᏳ	-11.372
▁ᏯᎵ	-11.3723
▁ᏕᎬᏕ	-11.3724
▁ᎨᏣᎵᎮᎵ	-11.3724
ᏥᏉᎳ	-11.3727
▁ᎠᏟᏍᏕ	-11.3728
▁ᎥᎩᏂᏐᏗ	-11.3728
▁ᏗᏎᏍᏗ	-11.373
▁ᏚᏂᏯᏪ	-11.3731
▁ᎤᏭᏢᏅ	-11.3732
▁ᎠᏲᏟᎨ	-11.3732
▁ᎤᏣᏗ	-11.3734
▁ᎤᏂᏍᏆᏂᎪᏎᏃ	-11.3737
ᏐᎾ	-11.3737
▁ᎢᏳᏂᏨ	-11.3738
ᎾᎾᏛᏁᎭ	-11.3741
▁ᏆᎩ	-11.3743
▁ᎠᏍᎦᏅᏨᎢ	-11.3744
▁ᏭᏏᎳᏛᏁ	-11.3745
▁ᏳᏰᎸᏁ	-11.3748
▁ᏅᏩᏍᏗ	-11.3752
ᏁᏛ	-11.3752
ᏁᏉᎢᏍᏗᏱ	-11.3755
▁ᏗᏄᏬᏍᏗ	-11.3755
ᎶᏙᏗ	-11.3757
ᏙᏙᏱ	-11.3761
ᎨᏫᏍᏗ	-11.3761
▁ᎦᏥᏯᎵᏥᏙᏁ	-11.3761
▁ᏳᎾᎵᎪ	-11.3762
ᎧᏁᎸᎾ	-11.3763
▁ᎠᏯᎥᎢ	-11.377
ᎵᏂᏆᏅᏁ	-11.3772
ᏲᎯᏎᏗ	-11.3772
ᎩᎷᏫ	-11.3773
▁ᎠᏔᎸ	-11.3773
▁ᎤᎵᏍᏙᏗ	-11.3777
▁ᏧᎾᏄᏬᎢ	-11.3782
▁ᏣᏓᏡᏗᏍᎪ	-11.3784
▁ᎠᎩᎷᏤᎸ	-11.3784
▁ᎠᏂᏛ	-11.3784
▁ᏧᏂᏗᏱ	-11.3788
▁ᏱᏁ	-11.3788
▁ᎧᏃᎲᏍ	-11.3789
▁ᏣᏯ	-11.3789
ᎳᏫ	-11.379
▁ᏚᏄᏮ	-11.379
ᏂᏴᎮ	-11.3792
▁ᏭᏩᏌᏙ	-11.3794
ᎴᎲ	-11.3802
ᎯᏛ	-11.3802
ᏚᏚ	-11.3804
ᏕᎭᏲ	-11.3804
▁ᏏᏉ	-11.3805
ᏓᎢᏅᏎᎢ	-11.3806
ᏂᎢᏛ	-11.3806
▁ᎠᏌᏅ	-11.3807
▁ᎢᏨᏯᏅᏓᏗᏍ	-11.3811
ᏲᏍᏙᏓᏁᏗ	-11.3812
▁ᎤᏇᏓᎸᎢ	-11.3814
ᏓᏂᏐᏗᏱ	-11.3816
ᏍᎪᎯᏧᏈ	-11.3817
ᎪᏯᏛ	-11.382
▁ᎤᏍᏘ	-11.3821
▁ᏓᏍᏆᎵᏍ	-11.3821
▁ᏴᎾ	-11.3822
ᏩᏗᏙᎯ	-11.3823
▁ᏂᏥᏍᎦᏅ	-11.3823
ᏠᎠᏒ	-11.3823
ᏓᏛᏁᎸ	-11.3824
▁ᏓᏰᎵ	-11.3825
ᏍᏆᎶ	-11.3825
▁ᎦᎾᎸ	-11.3825
▁ᎨᏙ	-11.3826
ᏓᏂᏙᎦ	-11.3827
▁ᏓᏄ	-11.3833
▁ᎣᏤᎵ	-11.3833
ᏨᏯ	-11.3835
▁ᎤᎾᎥ	-11.3835
ᏲᎤᎵ	-11.3836
▁ᏍᎩᎵ	-11.3836
ᏚᏅᏏᏴ	-11.3841
▁ᏧᏩᏔᏁ	-11.3843
▁ᎠᎩᎪᎵᏰ	-11.3843
ᏲᏎᎮᏍᏗ	-11.385
▁ᎣᏣᎵᏍᎦᏍᏙ	-11.3851
▁ᏓᏳᏓᎴᏅᎩ	-11.3851
▁ᎣᏣᎵᏥᏙᎲᏍ	-11.3852
ᎶᏔᏅ	-11.3853
▁ᏕᎦᏛᎢ	-11.3854
ᏥᏍᏛᏗᏍᏙᏗ	-11.3854
ᏥᏛᎯ	-11.3854
▁ᏰᎮ	-11.3856
▁ᏧᏂᎦᏐᎠ	-11.3857
▁ᎤᎵᏁᏨᎢ	-11.3861
ᏥᎸᏉᏔᏅ	-11.3862
ᎾᎡ	-11.3863
ᎦᏉ	-11.3864
▁ᏂᏕᎦᏪᏎ	-11.3866
ᏛᎦᏁᎴ	-11.3867
▁ᎦᏙᎩ	-11.3872
ᎾᏄᎪᏫᏎᎸᎯ	-11.3872
▁ᎦᎸᎢ	-11.3873
▁ᏓᏃᏢ	-11.3876
ᏂᏅᏏᏓᏍᏗ	-11.3876
ᏩᏍᎦ	-11.3876
▁ᎠᏄᏬᏍᏗ	-11.3878
ᎪᏩᏗᎭ	-11.3879
ᏁᏉᏤᏗᏱ	-11.388
▁ᎠᏍᎦᏂᏍᎩᏂ	-11.3881
ᏌᏙᏴ	-11.3884
ᏓᏯ	-11.3886
ᎷᏏ	-11.3887
▁ᎤᏪᏍᏓᏁ	-11.3889
▁ᏭᏯᏅᎮᎢ	-11.3893
ᏆᎧᎿᏅᎩ	-11.3895
ᎸᏉᏙᎢ	-11.3896
ᏍᏚᎩᏎ	-11.3899
ᏂᏆᏘᎮᏍᏗ	-11.3901
▁ᏉᏏ	-11.3908
▁ᏍᏊ	-11.3908
ᏅᏔᏅᎢ	-11.3909
ᎪᎵᎬᎾ	-11.3913
▁ᎤᎨᏓᎵᏴᎢ	-11.3914
▁ᎤᏅᏏᏴᎢ	-11.3914
▁ᎧᎳᏩᏗᏒᎢ	-11.3914
▁ᏬᎩᏂ	-11.3915
ᎵᏙ	-11.3916
ᎦᏙᎥᏒᎯ	-11.3917
ᏁᎦᎸ	-11.3917
▁ᎤᏓᏣ	-11.3918
ᎶᏌ	-11.3919
▁ᎢᏏ	-11.392
▁ᏱᎦᎨᏎ	-11.3921
▁ᏚᏂᎨ	-11.3925
ᏇᎵᏎ	-11.3926
▁ᎢᏗᏓᏛᏁ	-11.3926
ᏍᏗᏰᎬ	-11.3928
▁ᏚᎾᏓᎸ	-11.3928
▁ᎤᏎᎵ	-11.393
ᏓᏅᏬᏗ	-11.3939
ᎵᎪᎯ	-11.394
ᎷᏥᎸ	-11.3941
▁ᏅᏓᎩ	-11.3941
ᏓᏁᎲᎩ	-11.3942
▁ᎤᏛᏛ	-11.3943
▁ᎨᎦᏎᎸ	-11.3944
▁ᎢᏴᏓ	-11.3946
▁ᎤᏲᎴᏃ	-11.3948
ᏖᏃᎯ	-11.3951
▁ᏓᏍᏆᏂᎪᏗ	-11.3957
ᏂᎾᏫ	-11.3964
▁ᎭᏫ	-11.3967
ᏃᎮᏍᎨᏍᏗ	-11.397
ᏢᏔ	-11.3972
▁ᎢᏥᏔᏲᎯ	-11.3973
ᎪᏩᏔ	-11.3974
▁ᎬᏗᏍᎬᎩ	-11.3976
▁ᎤᎯᏍᏗ	-11.3979
▁ᎠᏂᏃᎮᏍᎬᎢ	-11.3984
ᏍᎩᏯᏅᎡᎸ	-11.3986
▁ᏫᎬᏩᏴ	-11.3989
▁ᏧᎾᎦ	-11.3991
ᎾᏚᎦ	-11.3994
▁ᏓᏓᎿᏩᏍᏛᎢ	-11.3995
ᎴᏫᏍᏔᎾ	-11.3995
▁ᎢᎦᎦᏛᎢ	-11.3995
ᎪᎲᏍᏔᏁ	-11.4003
▁ᎤᏁᎴᎢ	-11.4009
▁ᏩᏴᏍᏗ	-11.4013
ᎧᏁᏍᏗ	-11.4017
▁ᎢᏥᎪᎵᏰ	-11.4017
▁ᎤᏛᎯᏍᏗ	-11.4021
▁ᏚᏪᎧᎮ	-11.4024
ᏍᏚᎲᏍᎪᎢ	-11.4025
ᎩᏚᎢᏍᏓᏁᎸ	-11.4025
ᏲᎯᏎᎴ	-11.4027
ᏚᎵᏍᎬᎢ	-11.4027
ᎶᏄᎮᏍᎩ	-11.4028
ᏃᏎᎭ	-11.4029
▁ᎤᏬᏒ	-11.4034
▁ᎢᏣᏓᏄᏴ	-11.4037
ᏪᏛ	-11.4039
ᎦᏙᎥᎯᏍᏗ	-11.405
ᏗᏍᎬᎩ	-11.4058
ᏄᏛᏗ	-11.4061
▁ᏕᎦᎸ	-11.4061
▁ᎣᏓ	-11.4068
ᎨᏴ	-11.4068
ᏓᎬᏩᏍᏓᏩᏛᏛ	-11.4076
ᎯᏰᏃ	-11.4077
ᎾᎷᏒ	-11.4079
ᏗᏉ	-11.4082
▁ᏧᏐ	-11.4083
▁ᎡᎬ	-11.4089
ᎵᎢᏍᏗ	-11.4097
▁ᎠᎦᏔᎲᎩ	-11.4098
▁ᎤᎾᏨᏎ	-11.4101
ᏓᏤᎵᏛ	-11.4101
▁ᎠᏂᎷ	-11.4103
ᏓᏌᎳᏗᏍᎨᏍᏗ	-11.411
ᏛᏂᏗᏍᏗ	-11.4113
▁ᎤᏂᏰᎸ	-11.4114
▁ᏫᎵ	-11.4115
ᎬᏍᎪᎸ	-11.4115
ᏍᎩᏃ	-11.4117
ᏍᏗᏂ	-11.4117
▁ᎤᏔ	-11.4121
▁ᏗᏯᏖ	-11.4121
▁ᎣᎬᏙᏗ	-11.4121
ᏯᎩᏍᏗ	-11.4124
▁ᎬᏩᏃᎵᏍ	-11.4126
ᏪᏎᎮᏍᏗ	-11.4128
ᏰᎵᎯᏍᏗ	-11.4129
ᎦᏔᎯᏳ	-11.4134
▁ᎤᏙᎴᎰᏒᎩ	-11.414
ᎬᏁᎲ	-11.4143
ᎷᏤᎸᎭ	-11.4143
▁ᎤᏤᎵᎦᏯ	-11.4152
▁ᏕᎨᎦᏬᏍ	-11.4154
▁ᎦᎵᏍᏓ	-11.4154
▁ᏕᏥᎾ	-11.4155
ᏍᏆᏂᎪᏗᏍᎩ	-11.4157
ᏍᎦᏅᏨᎯ	-11.4162
ᎦᎸᎢᏛ	-11.4163
ᏗᏍᏗᏱ	-11.4168
▁ᎤᏣᏙ	-11.4175
▁ᎤᏩᏯ	-11.4175
▁ᏍᏆᏂ	-11.4177
ᏤᎸᎩ	-11.4179
ᎦᏚᎩᏱ	-11.418
▁ᏭᏅ	-11.4182
▁ᎤᏓᏣᎦᎸ	-11.4182
ᏓᏅᏖᏍᏗ	-11.4184
▁ᏚᏒ	-11.4187
▁ᏚᎧᎵ	-11.4189
▁ᎤᏂᎪᎲᎢ	-11.4192
▁ᏣᏍᎦᏅᎪ	-11.4193
▁ᎠᏗᏍᎩ	-11.4195
▁ᎤᏤᎵᎪ	-11.4196
ᎥᏍᎬᎢ	-11.4198
▁ᎤᏂᎦ	-11.4199
▁ᎠᏂᎦᏔᎲᎩ	-11.4201
ᏉᏂ	-11.4202
▁ᏭᏚ	-11.4209
ᏩᏂᎦᎸ	-11.421
ᏝᎡ	-11.4214
ᏏᎳᏛᏗ	-11.4215
▁ᏴᎦᎬ	-11.4217
ᏴᏁᏗᏱ	-11.4221
ᏲᎮᎸ	-11.4221
ᏄᎪᎨᏍᏗ	-11.4222
ᏍᏛᏅᎯ	-11.4229
▁ᎠᎡ	-11.423
ᎦᏔᏙᎥ	-11.4235
▁ᎤᏂᏲᎮ	-11.4239
▁ᎡᏍᎩ	-11.424
▁ᎠᏅᏗᏍᎪ	-11.4241
▁ᏴᏗ	-11.4243
ᏳᎶᏗ	-11.4247
▁ᏱᏥᏍᏆᏂᎪ	-11.4249
ᏫᏒᏗ	-11.425
ri	-11.4254
▁ᏧᏩᏒ	-11.4257
▁ᏗᎧᎾ	-11.4262
▁ᏥᏨᏲᏎ	-11.4262
ᏚᏓᎳᎡ	-11.4268
ᏈᏴᎡ	-11.427
▁ᏱᏥᏩᏛ	-11.4282
▁ᎠᎾᏓᏅᏖ	-11.4285
▁ᎠᏊ	-11.4292
ᏛᏁᎯ	-11.4293
ᎶᏘ	-11.4307
ᎾᎥᎢ	-11.4312
ᎵᏏᎾᎯᏍᏗ	-11.4312
▁ᎬᏆᏓᏅ	-11.4313
▁ᏕᎦᏅᎦᎵ	-11.4318
▁ᏚᎴᏁᏃ	-11.4319
▁ᏧᎾᎵ	-11.4329
ᏄᎪᏫᏍᏗᏱ	-11.4331
▁ᎤᏍᏆᏂᎪ	-11.4336
ᎮᏗ	-11.4336
ᏁᏟᏴᏒ	-11.4336
ᏥᎷᎩ	-11.4341
ᏛᏅᎢᏍᏔᏅᎯ	-11.4346
▁ᎢᎩᎧ	-11.4349
▁ᎡᎳᏪᏱᏉ	-11.4352
▁ᏴᏫᏯ	-11.4353
▁ᎠᏑᏰ	-11.4358
▁ᏕᏣᎵ	-11.4361
▁ᎢᏳᏓ	-11.4362
▁ᎠᏓᏅᏍᎨ	-11.4364
▁ᏘᎩ	-11.4365
▁ᎢᏤᏙᎯ	-11.437
ᎮᎸ	-11.4371
ᏗᏍᏙᏗ	-11.4372
▁ᎦᏂᏴᏗ	-11.4372
ᎵᏲᎩ	-11.4373
ᏣᏅᏔ	-11.4375
▁ᎣᎩᎭ	-11.4375
▁ᎦᏥᏲ	-11.4376
ᎵᏍᏚᎶ	-11.4377
ᏍᏉᏟ	-11.4378
ᏄᏍᏛ	-11.4382
ᏂᏯᏪᏨ	-11.4384
▁ᎠᏎᏛ	-11.4394
▁ᎤᏨ	-11.4403
▁ᎥᎬᏩ	-11.441
▁ᎬᏪ	-11.4415
▁ᎠᏛᏁᎵᏍ	-11.442
ᏃᎮᏗᏱ	-11.4421
▁ᏱᏂᎦ	-11.4434
ᏍᏗᏰᏔᏅᎩ	-11.4436
▁ᏄᎾᏍᏛᎢ	-11.4437
▁ᎢᏦᎯᏳᎲᏍ	-11.4442
▁ᎦᎶᎯᏍᏗᎢ	-11.4444
▁ᏓᎧᎿᏩᏗ	-11.4445
ᎦᏔᎰᎢ	-11.4448
ᎤᏙ	-11.445
ᏨᏍᏛ	-11.4456
▁ᎤᏩᎧ	-11.4463
▁ᎤᏚᎵᏍᎬᎢ	-11.4468
ᏣᏛᏅᎢᏍᏓᏁ	-11.4471
ᏄᎵ	-11.4472
ᏟᏍᏙᏗ	-11.4474
▁ᎤᎵᏦᏔᏅ	-11.4477
ᎨᏳᏒ	-11.4482
ᏥᏯᏂᏍᎨᏍᏗ	-11.4482
ᎵᏙᎲ	-11.4483
ᏢᎬ	-11.4485
ᏏᎾᏏ	-11.4488
ᏩᏂᎳ	-11.4496
▁ᎤᎾᏑ	-11.4499
▁ᏥᎦᏃ	-11.4504
▁ᎢᏨᏰ	-11.4504
▁ᎠᎩᏍᏆᏂᎪ	-11.4505
ᎫᎢᏍ	-11.4506
ᎾᏗᏅᏓ	-11.4508
▁ᎤᏲᏏᏍᎨ	-11.4511
ᏩᏛᎯᏙ	-11.4513
▁ᏓᏆᎴ	-11.4514
ᎳᏗᏍᏛ	-11.4514
▁ᎠᏯᏦ	-11.4516
▁ᎢᏣᏠᏯᏍᏙᏗ	-11.4518
ᏲᎮᎸᎩ	-11.4519
▁ᎢᏝ	-11.4521
ᎾᏡᏗᏍᎬ	-11.4523
▁ᏂᏚᎵᏍᏔ	-11.4527
▁ᏴᏛ	-11.4533
ᎸᏏ	-11.4534
ᏣᎵᎮᎵᎦ	-11.4535
▁ᎠᎨᏳ	-11.4536
ᏂᎷᏥ	-11.4537
ᏅᏅᎢ	-11.454
▁ᎤᏴᎸ	-11.4541
ᎪᎸ	-11.4542
▁ᎤᎾᏄᎪᏨ	-11.4543
ᎥᎭ	-11.4549
▁ᎬᏩᏁ	-11.4549
▁ᎤᏍᏓ	-11.4553
ᎦᎴᏔᏂ	-11.4554
ᎬᏩᏂᎪᏩᏛ	-11.456
▁ᏗᏂᏁ	-11.4562
▁ᏗᎦᏍᎩᎶ	-11.4564
▁ᏗᎧᎿᏩ	-11.4564
ᏚᎸᏌᏛ	-11.4571
ᏃᎮᏍᎬ	-11.4575
▁ᏂᎬᎩ	-11.4575
▁ᎠᏓᎾᏏᏂ	-11.4575
ᎶᏍᎬ	-11.4578
ᎴᏫᏍᏔᏅ	-11.4579
▁ᎤᏂᏐ	-11.4581
▁ᏓᎴᎲᏍᎬ	-11.4583
ᎵᎪᏁᎸᎯ	-11.4588
ᏲᎱᏍᎦ	-11.4589
▁ᎤᎸᏕ	-11.459
▁ᎠᎪᎵᏰᏍᎬ	-11.459
▁ᎬᏩᏍᏓ	-11.4593
ᎯᎮ	-11.4596
ᏰᎮᏍᏗ	-11.4604
ᏩᎯᏍᏔᏅᎯ	-11.4605
ᏂᎦᎥ	-11.4608
▁ᎤᏰᎶᎢᏍᏔ	-11.4613
ᏍᎦᏍᏓᏁᏗᏱ	-11.4613
ᎾᎫᏴᏗ	-11.4617
▁ᏯᏂᎦᏔ	-11.4619
▁ᏕᏧᎪ	-11.4623
ᏓᏑᏲ	-11.4635
▁--	-11.4636
ᏥᏅᏍᏗ	-11.4637
ᏗᎤᏨᏎ	-11.4639
ᎪᎲᏍᎬ	-11.4639
ᏫᏎᎸᎯ	-11.4643
ᎩᏳ	-11.466
ᏃᏴᎵᏍᏗ	-11.4665
▁ᏱᏭᏂ	-11.4674
ᏥᏪᏏ	-11.4678
▁ᏭᏗᏅ	-11.4683
ᎷᏅ	-11.4689
ᏏᎳᏛ	-11.4692
ᏙᏔᏁᎢ	-11.4697
▁ᏚᎾᏠᎯᏍ	-11.4705
▁ᏱᏤ	-11.4709
ᏎᎪᎩᏒ	-11.4715
ᏲᏎᎢ	-11.4719
▁ᏱᏨᏯ	-11.472
▁ᎮᏙ	-11.472
ᏥᏴᏔᏂ	-11.4722
▁ᏁᎵ	-11.4726
▁ᏂᎬᏪᏎ	-11.4734
▁ᎠᎩᎾᎥ	-11.4734
ᏂᎥ	-11.4736
▁ᎤᎾᏚᎸ	-11.4739
ᎡᎾ	-11.4741
ᎾᏰᏍᎦ	-11.4741
▁ᎤᎾᎴᏅᏗ	-11.4743
▁ᎤᏢᎨ	-11.4743
ᏥᏌᎳᏙᏗ	-11.4745
ᏟᎶᏍᏗ	-11.4748
ᎦᎷᎦ	-11.4756
ᏪᏎᎵ	-11.4761
ᏓᏁᎸᎩ	-11.4763
ᎨᏓᎵ	-11.4768
ᎦᏌᏯᏍᏗᏍ	-11.4769
▁ᏂᏚᏪ	-11.4769
▁ᎥᏍᎩᏃ	-11.4772
▁ᎨᏥᏁᎸ	-11.4778
▁ᎤᏂᏍᏆᏛ	-11.4781
ᏃᎮᏍᎩ	-11.4781
ᎵᏥᏙᏁᎸ	-11.4787
ᏞᏒ	-11.4789
▁ᏱᏩ	-11.4791
▁ᎤᏢᏁ	-11.4798
▁ᎠᏓᏲᏁ	-11.4804
▁ᏚᏫ	-11.4804
▁ᎠᏚ	-11.4807
▁ᎬᏟ	-11.4808
▁ᏣᏢ	-11.4818
▁ᎤᏂᏁᏤ	-11.483
ᏥᏁᎰᎢ	-11.4861
ᏣᎦᏎᏍᏕᏍᏗ	-11.4862
▁ᏗᏯ	-11.4869
▁ᏧᏪᎧᏁ	-11.4876
ᏣᏲᎭ	-11.4883
ᏅᏙᏗ	-11.4884
▁ᏗᏣᏓᎨᏳ	-11.4892
ᏫᏍᏗ	-11.4898
▁ᏚᏙᏪ	-11.4901
▁ᏧᏪᏲ	-11.4902
▁ᏦᎯᏍ	-11.4904
▁ᎠᏍᏗᎩ	-11.4906
▁ᏫᎦᎾᏄᎪ	-11.4906
▁ᎠᎾᏗ	-11.4914
ᎵᏍᏔᏅᎯ	-11.4915
ᏄᎶᏔᏅ	-11.4922
ᏂᎩᏍᏔᏁ	-11.4931
ᏙᎭᏴ	-11.4939
ᏥᏲᎢᏎ	-11.4941
ᏑᎶ	-11.4945
ᎦᎶᎯᏍᏗᏱ	-11.4946
ᎵᏍᏗᏍᎬ	-11.4954
ᏘᎭ	-11.4955
ᏄᎪᏤ	-11.4957
ᎯᎵᏓᏍᏗ	-11.4959
ᏍᎩᎲᏏ	-11.4964
ᎧᏃᏗ	-11.4971
▁ᎠᏓᎴ	-11.4978
▁ᎯᎬ	-11.4979
▁ᏘᏲ	-11.4979
ᏂᏍᎦᎩ	-11.4984
ᏂᏓᎿᏫ	-11.5001
▁ᏱᎦᏰ	-11.5003
ᏔᏲᎯᎰ	-11.5003
ᏘᏍᎬ	-11.5008
ᏓᏥᎶ	-11.5012
▁ᎠᏓᏰ	-11.5017
▁ᎠᏂᏩᏛ	-11.5021
▁ᎦᏙᏉ	-11.5029
ᏲᎲᏍᎬ	-11.5031
▁ᏗᏂᎳ	-11.5032
▁ᎤᎾᏂᏢ	-11.5037
▁ᎢᏥᏁᎸ	-11.5041
▁ᏧᏓᏅᎦᎸ	-11.5041
ᏯᎡ	-11.5053
▁ᏛᎯ	-11.5058
▁ᎤᏛᏓᏍ	-11.506
ᎸᏅᎩ	-11.5061
ᏲᎰᏎᏗ	-11.5062
ᎮᏙᎸ	-11.5066
▁ᏂᏚᎾ	-11.5071
▁ᎠᏌᎹᏗ	-11.5071
▁ᏫᏘ	-11.5075
▁ᎢᎦᏛᏉ	-11.508
ᏘᏂᏒ	-11.5081
ᏂᏆᏘᎭ	-11.5083
▁ᏯᎭ	-11.5085
▁ᎭᎢ	-11.509
ᏃᎿ	-11.51
▁ᏂᏚᏂ	-11.5102
ᏩᎾᎦᎳᎯᏳ	-11.5105
ᏁᎲᎾ	-11.5109
ᎬᏗᎭ	-11.5109
ᏚᎶ	-11.5121
▁ᎠᎩᏍᎩ	-11.5121
▁ᏕᎬᎩ	-11.5122
▁ᎤᏂᎧᎵᏨ	-11.5126
▁ᏰᏙᎮ	-11.5129
▁ᎤᎾᏣᏅ	-11.5135
ᏁᏙᎮ	-11.5139
▁ᎨᏥᏅ	-11.514
ᏰᎵᏏ	-11.5144
ᏳᎵᏍᏙᏗ	-11.5148
ᏘᎷᎦ	-11.5153
ᏙᎯᏉ	-11.5155
ᏨᎦ	-11.5157
ᏓᏅᏙ	-11.5159
ᏂᏪᏍᎨ	-11.5159
▁ᎢᎯᏯ	-11.5168
ᎶᏒᎯ	-11.517
ᎻᎦ	-11.5172
da	-11.5172
▁ᎠᎦᎵᏍ	-11.5176
ᎦᏘᎴᎦ	-11.5196
▁ᏭᎷᏤᎸ	-11.5196
▁ᏯᏉ	-11.5198
ᏤᎳ	-11.5203
ᎦᏲᎵᏳ	-11.521
ᎤᎾᏣᏁ	-11.5222
ᎦᎷᎬ	-11.5229
ᎪᏗᏱ	-11.5232
ᏌᏬᎸ	-11.5235
ᏗᎹ	-11.5235
ᎵᏍᎪᎸᏓᏁᎸ	-11.5237
ᏐᏢᎢᏍᏙᏗᏱ	-11.5238
ᎪᎯᏳ	-11.524
▁ᎤᎴᎾ	-11.5248
▁ᎠᎱ	-11.5254
▁ᏕᏧᎪᏗ	-11.5255
ᎶᎯᏎᎸ	-11.5256
ᏲᎯᎮ	-11.5258
ᏓᏅᏘ	-11.5263
ᎩᏐᏅ	-11.5266
▁ᎤᎫᏴ	-11.5273
ᏩᏛᎲᎾ	-11.5275
ᎳᏑᎶ	-11.5276
▁ᎦᏛᏅ	-11.5286
ᎪᏩᏘᏍᎪᎢ	-11.5286
ᏍᎪᎸᏨ	-11.5288
ᏂᏙᎴ	-11.529
▁ᎤᏑᏰ	-11.5296
▁ᏥᎶ	-11.531
▁ᏕᎦᏕ	-11.5316
ᏨᏁᏍᏗ	-11.5317
ᎦᎵᏍᏙᏗᎭ	-11.5318
ᏂᏓ	-11.532
ᎵᏍᏓᏴᏙᏗᏱ	-11.5322
▁ᏭᏢ	-11.5327
ᏙᏛ	-11.534
ᏃᏴᎬ	-11.5345
▁ᎭᎿ	-11.5355
ᏥᏩᎯᏍᏔᏅᎯ	-11.5358
▁ᎡᏥᎾᏰ	-11.5365
ᏙᎥᎢ	-11.5366
▁ᎤᏍᏓᏩᏗᏒ	-11.5367
ᏅᏗᏍᎬ	-11.5367
ᏰᎸᏎ	-11.5367
▁ᏕᏥᎧ	-11.5369
ᏲᎮᎴᎢ	-11.5379
ᎨᎯᏒ	-11.5386
ᏗᎦᎴᏲ	-11.5392
ᏟᎭ	-11.5398
ᏪᎳᏅ	-11.5404
▁ᎦᎵᏗ	-11.5406
ᏂᏲᎱ	-11.5407
▁ᏫᏕ	-11.5412
ᎵᏖᎸᎲᏍᎦ	-11.5414
▁ᏧᎾᏚᎪᏓᏁᏗ	-11.5425
▁ᎠᏂᎸ	-11.5433
▁ᏂᏥᏴ	-11.5435
ᏏᏔᏕᎢ	-11.5437
▁ᎠᏐᏢᎢᏍᏙᏗ	-11.5441
▁ᎣᎩᏃᎮ	-11.5442
ᎵᏂ	-11.5442
ᎦᎴᏍᏗ	-11.5447
ᎩᎡᏗ	-11.5452
▁ᎦᏛᎩ	-11.5455
ᏓᏁᎲᎢ	-11.5463
ᎷᏤᏗ	-11.5463
▁ᎡᏥᎸ	-11.5465
▁ᎠᏆᏗ	-11.5471
ᏅᎡᎯ	-11.5472
ᏓᏟᏴ	-11.5475
ᏌᎾ	-11.5479
ᎡᎪᎢ	-11.548
▁ᎤᏁᎢ	-11.548
ᏍᏗᏰᏔᏁ	-11.5484
▁ᏅᏓᏣ	-11.5489
▁ᎤᏙᏯᏅᎯᏕ	-11.5493
▁ᎢᎾᎨᏉ	-11.5512
▁ᏗᏠᎯᏍ	-11.5513
ᏩᏓ	-11.5515
▁ᎤᏛᏛᏁᎢ	-11.5525
ᏛᏎ	-11.5526
ᎴᏔᏂ	-11.5531
▁ᎤᏬᎯᏳᎯ	-11.5536
ᏈᎵ	-11.5536
ᎦᏙᏍᏔᏁᎢ	-11.5538
▁ᎢᏥᎨᏳ	-11.5539
▁ᏧᏂᎯᏍᏗ	-11.5541
▁ᏧᏓᏴᎳ	-11.5541
ᏴᏓᏆᎶᎥᎩ	-11.5542
ᏎᎵᏛ	-11.5548
▁ᎾᏁ	-11.555
▁ᎤᏰᎢ	-11.5554
ᏳᎢ	-11.5556
ᏄᏣ	-11.5561
ᏂᎦᎸ	-11.5565
ᎡᎰ	-11.5574
ᎯᎠᏃ	-11.558
ᎤᏨᏎ	-11.5581
▁ᎦᎴ	-11.5582
▁ᏔᎴ	-11.5591
ᎾᏛᎩᏍᎪ	-11.5594
ᏇᏗ	-11.5596
▁ᎤᎾᎵᏍ	-11.5604
▁ᎤᎾᎪᎸ	-11.5612
▁ᎢᏥᏰ	-11.5613
▁ᎤᏂᎷᏤᏃ	-11.5616
ᏓᏓᏱ	-11.5619
ᎴᏅᏓ	-11.562
ᏐᏅᎢᏍᏔᏅᎯ	-11.5624
ᏰᏅ	-11.5625
ᏍᏕᏓᎵᏴᏍ	-11.5626
ᏓᏁᎲᎾ	-11.5626
ᏏᎳᏛᏙᏗ	-11.5639
ᎾᎻ	-11.5648
▁ᏍᎩᏲᏎ	-11.565
▁ᏱᏚᏁ	-11.5651
▁Ꮆ	-11.5655
ᎷᏯᏍ	-11.5656
▁ᏖᎾ	-11.5661
ᏓᏅᏓᏗᏍᏔᏅ	-11.5672
ᏓᏅᏔ	-11.5678
ᏂᎨᏥᏪᏎᎴ	-11.5684
ᏲᎲ	-11.5685
ᏯᏅᎯ	-11.5688
ᏱᏢᏗ	-11.5691
▁ᏫᏔ	-11.5694
ᏣᎵᏍᏗᎭ	-11.57
ᎩᏍᏕᎸᏗᏱ	-11.5701
▁ᏭᏂᏴ	-11.5703
▁ᎦᏥᏁᏗ	-11.5708
ᎪᏩᏘᏍᎨᏍᏗ	-11.571
▁ᏥᏯᏓᏙᎵᏍᏓᏁ	-11.5711
▁ᏕᎦᏓ	-11.5711
ᏴᎳᏒ	-11.5713
ᏌᎳᏙᏗ	-11.5716
▁ᏯᏆᏓᏅᏔ	-11.5718
ᎵᏙᎸᎢ	-11.5721
ᏁᎢᏍᏓ	-11.5721
ᏯᏫᏍᎨᏍᏗ	-11.5725
▁ᏥᎯ	-11.5726
ia	-11.573
▁Ꮚ	-11.5731
▁ᏕᎯᏯ	-11.5733
▁ᏣᏗ	-11.5735
▁ᏭᏕ	-11.5748
ᎳᏅᏓᏕ	-11.5752
ᏅᏍᏔᏁᎢ	-11.5754
▁ᎢᏨᏁᎸ	-11.5754
▁ᏗᏥᏴ	-11.5755
le	-11.5755
ᏂᎰ	-11.5761
▁ᏗᎦᏓᎨᏳᎯ	-11.5763
▁ᎠᎩᏍᎦ	-11.5765
ᏚᏩᏂᎦᎸ	-11.5769
ᎵᏍᎪᎸᏔᏅᎯ	-11.5773
▁ᎤᎪᎳ	-11.5775
▁ᎬᏍᎦᎳ	-11.5777
▁ᎢᏍᎪ	-11.5779
▁ᎪᎶ	-11.5784
▁ᎢᏓᏓ	-11.5784
ᏒᏁ	-11.5786
ᎴᏗ	-11.5791
▁ᎠᎩᏃᎮ	-11.5792
▁ᏥᏭ	-11.5804
ᏗᏔᏍᎪᎢ	-11.5804
▁ᏓᏲᏣ	-11.5806
▁ᎤᏔᏲ	-11.5819
▁ᏓᎩᏯ	-11.582
ᏗᏎᎢ	-11.5823
▁ᏥᎪᏩᏘ	-11.5826
▁ᎭᏏ	-11.5826
▁ᏫᎨᏙ	-11.5832
▁ᏗᏣᎶ	-11.5835
▁ᏫᎷᏥ	-11.5836
ᏯᎩᏍᎬ	-11.5837
▁ᎨᏥᏯᏅᏗ	-11.5839
ᎯᏍᏔᏁ	-11.5839
▁ᎨᏥᏯᏅ	-11.5841
▁ᏓᎩᎧ	-11.5844
ᏤᎴᏍᏗ	-11.5845
▁ᏕᎪᏢ	-11.5845
ᏎᏅ	-11.5848
ᎪᎥᎯ	-11.585
ᎧᎭᏲᏔ	-11.5854
ᏣᏯ	-11.5855
▁ᎦᎳᏅᏛ	-11.5855
ᎿᎢᏳ	-11.5855
▁ᎣᎩᏴ	-11.5857
▁ᏔᎫᏴ	-11.5865
ᏥᎪ	-11.5865
ᏣᎦᎸ	-11.5869
ᎯᏍᏙᏗᏱ	-11.5895
▁ᎤᏣᏘᏂᏉ	-11.5896
▁ᏆᏂ	-11.5897
ᎪᏢᏙᏗ	-11.5901
ᏩᏘᏍᎨᏍᏗ	-11.5917
ᎬᏩᏟ	-11.5927
ᏣᎪᏩᏛᏗᏱ	-11.5928
ᎪᎲᎯ	-11.5928
▁ᎤᏤᏪ	-11.5932
ᏓᏛᏁᎭ	-11.5935
ᏒᏂᎸ	-11.5943
ᏛᏅᎢᏍᏔᏅᎩ	-11.5955
▁ᏧᏭᎪ	-11.5959
▁ᎤᏪᎧᏁ	-11.5976
ᏍᏔᏴ	-11.5977
ᎵᎮᎵᏍᏗᏱ	-11.5979
▁ᎤᏣᏁ	-11.5983
ᏄᏮᎢ	-11.5986
ᏂᏴᎭ	-11.5987
ᏯᎪ	-11.5989
ᎧᎲᎦ	-11.5994
ᎵᏍᏔᏁᎢ	-11.5999
ᏓᏅᏛᎢ	-11.6006
▁ᎤᎴᏗ	-11.601
▁ᎣᏂᎩ	-11.601
ᎲᏍᏗ	-11.6013
ᏔᏲᎯᎲ	-11.6014
ᏪᏥ	-11.6015
ᏍᎦᏅᏤᎮᏍᏗ	-11.6017
ᎦᏔᎲᏍᏗᏱ	-11.6018
ᎠᏙ	-11.6018
ᏓᏕᏲᎲᏍᎨᏍᏗ	-11.6023
ᎵᎥᏂᎸ	-11.6027
▁ᎤᏅᎢᏍᏗ	-11.6036
▁ᏙᎬ	-11.6042
▁ᎠᏨ	-11.6043
▁ᎤᏔᎶ	-11.6045
ᏗᏒᏍᏗᏱ	-11.6048
▁ᏛᏣ	-11.6049
ᎿᎥᎾ	-11.6054
ᏅᏛᎾ	-11.6056
ᎪᏩ	-11.6064
▁ᏫᎬᎩ	-11.607
▁ᎤᏁᏉᏤ	-11.6074
ᏃᎯᎮ	-11.6077
ᏆᏤᎵ	-11.608
▁ᏗᎦᎵ	-11.608
▁ᏗᏍᎩᏯ	-11.608
ᎾᏛᏁᎰᎢ	-11.6082
▁ᎧᏬ	-11.6082
ᏑᎸᏓ	-11.6083
ᏅᏬᏗ	-11.6091
▁ᎤᎦᎾᏬ	-11.6094
ᏆᎸ	-11.6096
▁ᏱᏣᏁ	-11.6102
▁ᏧᏂᏯ	-11.611
▁ᎠᎦᏞ	-11.6126
ᎡᎮᏍᏗ	-11.6126
ᎦᎸᏉᏗᏳ	-11.6128
▁ᎢᏳᎵᏍᏓᏁ	-11.6139
ᏓᏓᎴᏓ	-11.6142
ᏐᎯ	-11.6143
▁ᏫᏓᏗ	-11.6149
ᏣᏁᎳ	-11.6152
ᏍᏓᏩᏕᏅ	-11.6153
▁ᏚᏂᎾ	-11.6153
▁ᎢᏳᎯ	-11.6153
ᎨᏥᎾᏌᎢ	-11.6155
ᎠᏉᎯᏳᎭ	-11.6156
ᏂᏣᏔ	-11.6161
▁ᎤᏂᏥᎸ	-11.6163
ᎦᏔᎲᎩ	-11.6165
ᏏᏔᏗ	-11.6166
ᏓᏑᏴᎢ	-11.6169
▁ᎠᏥᎪ	-11.6175
ᎾᏛᏅ	-11.6177
ᏥᎪᏩᏗᎭ	-11.6177
▁ᎢᎠᏓ	-11.6179
▁ᎢᏯᎾᏛᏁ	-11.618
ᎵᏍᎨᏍᏗ	-11.6186
ᏅᏩᏅ	-11.6186
ᏟᏍᏔ	-11.6186
▁ᎢᎤᏁᏅ	-11.6192
▁ᏨᏙᏗ	-11.6197
▁ᎠᏓᏂ	-11.6198
ᏥᏁᎴ	-11.6199
▁ᏚᏂᎸᏫᏍᏓᏁ	-11.6201
ᏍᏘᏰ	-11.6202
ᏓᏅᏘᏐ	-11.6205
ᏍᏓᏁᎸ	-11.6209
ᏍᏓᏱᏗ	-11.621
▁ᏤᎵ	-11.6211
▁ᎦᏂᎵ	-11.6217
▁ᏯᎦ	-11.6223
ᏲᎱ	-11.6223
▁ᏧᏭ	-11.6226
ᏲᎲᎢ	-11.6227
▁ᎤᏲᎱᏎ	-11.623
ᎤᏙᏓ	-11.6236
▁ᎦᏇᏅ	-11.6237
▁ᏚᎾᏁᎶ	-11.6239
▁ᏯᏰ	-11.6244
ᏲᏢᎾᏁ	-11.6245
ᏙᏥᏩᏛᎲᎩ	-11.6245
ᏪᎢ	-11.6246
▁ᏅᏩᏓᎴᎢ	-11.6247
ᏃᏴᎵᏍ	-11.6248
ᏏᏁᎩ	-11.6249
ᏍᏘᏰᎬᎢ	-11.625
▁ᏴᎦᏰ	-11.6251
ᎬᎭᎷᏴ	-11.6254
▁ᏩᎪᏩᏛ	-11.6257
ᏅᎲᎭ	-11.626
▁ᎤᏂᎾᏗᏅ	-11.6262
▁ᏓᎾᏓᏅ	-11.6263
ᏩᏛᏔᏅ	-11.6265
▁ᎢᏥᎨᏳᎯ	-11.6267
▁ᎤᏲᎰᏎ	-11.627
ᎵᎥᏂᎴ	-11.6271
ᏳᎸᏉᏗ	-11.6272
ᎪᏩᏘ	-11.6285
▁ᎠᏁᎵ	-11.6289
ᏍᏈᏗ	-11.6294
ᏩᏛᎯᎵ	-11.6296
▁ᏓᎴᏅ	-11.6297
ᏥᏁᏤᎸ	-11.6299
▁ᎫᏢ	-11.6303
▁ᏬᎩ	-11.6307
ᏳᎲᏍᎩ	-11.6309
ᏯᏅᎲᎭ	-11.631
ᏗᎵᏍᎪᎸᏙᏗ	-11.6316
ᎳᏗᏓᏍᏗᏱ	-11.6316
▁ᎨᎯ	-11.6321
ᎦᎵᏍᏙᏗᏍᎨᏍᏗ	-11.6328
▁ᎤᏂᏍᎦ	-11.6328
ᎣᎵ	-11.6335
ᏏᎳᏕ	-11.6338
▁ᏥᎾᏆ	-11.6339
▁ᎢᏣᏛ	-11.6342
ᏐᏴᎢ	-11.6343
▁ᎤᏚᏒ	-11.6344
ᏴᏗᏱ	-11.6345
ᏣᏛᎦᏁ	-11.6346
ᏃᎯᏰ	-11.6349
▁ᏂᎦᎵᏍᏙ	-11.6349
ᎦᏍᎩᎶᎩ	-11.6355
ᎩᎳᏩ	-11.6355
▁ᏪᎮ	-11.6358
ᎮᎸᎩ	-11.6358
ᎯᏴᎩ	-11.6362
▁ᏛᎬ	-11.6364
ᏪᎭ	-11.6367
ᏩᏁᎦ	-11.6368
ᎶᎨᏒᎢ	-11.6368
▁ᏩᏓ	-11.6371
ᏜᏏᏛᎡ	-11.6375
ᏙᎴᎢ	-11.6375
ᏲᏞᎯ	-11.6376
ᎦᏙᏍᏙᏗ	-11.6381
▁ᎠᎾᏁᎷᎩ	-11.6381
ᎨᏎᏍᏗ	-11.6382
ᏍᏓᏩᏛᏛ	-11.6382
ᏢᏍᎪᎢ	-11.6385
ᏓᏍᏕᎸᏗ	-11.64
▁ᎯᎦᏘ	-11.6401
▁ᏥᏅᏗᎦᎵᏍᏙᏗ	-11.6403
ᏅᏓᏗᏍᏗᏱ	-11.6405
ᏤᎰ	-11.6406
ᏔᏕᎩ	-11.6408
ᏂᏂᏌᏁᎢ	-11.6412
▁ᎦᎸᏉᏗᏳᏰᏃ	-11.6414
ᏓᏨᏯᏍᏗ	-11.6414
ᎩᎷᎯᏍᏗᏱ	-11.6415
ᎲᎯ	-11.6417
ᏩᏘᏍᎬ	-11.6417
ᎠᏍ	-11.6427
ᎡᏒ	-11.6428
ᏟᏍᏗᏍᎪᎢ	-11.6431
▁ᏤᎳ	-11.6435
ᎾᏣᎥ	-11.6435
ᏘᏁᎪ	-11.6438
▁ᏕᏨᏯ	-11.6441
▁ᏙᏓᏓ	-11.645
ᏏᏍᎨ	-11.6451
▁ᏓᏳᎾ	-11.6455
▁ᎠᏏᎾᏌᏅ	-11.6455
ᏓᎴᏍᎨᏍᏗ	-11.646
ᏯᎴ	-11.646
ᏒᏂᏍᏗᏱ	-11.6462
▁ᏧᏢᏫ	-11.647
ᎦᏌᏯᏍᏗᏕᎩ	-11.647
ᏁᏣ	-11.6481
▁ᎠᏩᏔ	-11.6485
▁ᏩᎩᏴ	-11.6487
ᏂᏱᏍᎨ	-11.6489
ᏓᏴᎳᏔ	-11.6489
ᏲᎢᏎᎴ	-11.6493
ᏪᏎ	-11.6493
▁ᏂᏗᎬ	-11.6495
▁ᎡᏦ	-11.6498
ᎬᏫᏳ	-11.65
ᏍᏔᏁᎴ	-11.6505
ᎾᏣᎡᎢ	-11.6508
▁ᎢᏥᎧᎵᎢ	-11.6511
ᎷᏤᎵ	-11.6513
ᏅᏛᎢ	-11.6516
▁ᏙᏓᎦᏥ	-11.6524
▁ᎣᏣᏓ	-11.6526
▁ᎦᏅᏬ	-11.6529
ᏍᏕᎵᏍᎪ	-11.6538
ᏘᏌ	-11.6542
▁ᎠᎾᏗᏒᎯ	-11.6543
▁ᎤᏂᏁᏗ	-11.6543
ᎵᏰᎢᎶ	-11.6544
▁ᎤᎾᏓᏟᏌ	-11.6544
ᏖᎸᎮᏍᎬ	-11.6545
▁ᎣᎩᏙ	-11.6545
▁ᏕᏣᏓᏠ	-11.6545
▁ᎬᏣ	-11.6548
▁ᏂᏨᏪᏎ	-11.6549
▁ᎯᏍᏆ	-11.6549
▁ᎠᎧ	-11.656
ᏑᏩ	-11.6562
▁ᎯᎦᏔᎭᏍ	-11.6563
ᎨᎮ	-11.6565
▁ᏗᎻ	-11.6567
▁ᎤᏃᎱ	-11.6567
▁ᎣᏨᏗ	-11.657
▁ᎲᏗᏍ	-11.6571
ᎩᏰᏃ	-11.6571
ᏓᏡᏗᏍᎪᎢ	-11.6572
ᏛᏓᏍᏔᏂ	-11.6575
▁ᏱᏓᏥ	-11.6579
▁ᏱᏓᏆ	-11.6579
▁ᏥᏂᎦᎵᏍᏗ	-11.6583
▁ᎠᏥᎸᏉᏙᏗ	-11.6583
▁ᏳᏂᎬ	-11.6585
ᎾᏓᏗᏍᎪ	-11.6585
▁ᎤᏔᎷᎩᏍ	-11.6592
▁ᏗᏓᎯ	-11.6593
ᎸᎥᏍᎬ	-11.6596
▁ᏳᏙ	-11.6596
▁ᏅᏩᏍᏕ	-11.6596
ᏥᎨᏳ	-11.6599
▁ᎢᏯᎦ	-11.6599
ᎩᏩᏛᏗᏱ	-11.66
▁ᎠᏫᏒ	-11.6602
▁ᎤᏬᎯᏨ	-11.6605
ᎵᏙᎰ	-11.6605
ᎦᎸᎢ	-11.6608
ᎴᏂᏓᏍᏗᏱ	-11.6614
▁ᎾᏆᎵᏍᏓᏁᎸ	-11.6617
▁ᎠᎩᏰ	-11.6618
ᎰᏂ	-11.662
ᏁᎩᏏ	-11.662
ᎨᎳᏍᏙᏗ	-11.6621
ᏎᎲ	-11.6623
ᎺᎵ	-11.6625
ᏰᎢᎵᏙᎲᎢ	-11.6626
ᎦᏧ	-11.6628
ᎦᏅᎦᎵᎭ	-11.6629
ᎾᏛᏁᎲ	-11.663
ᏓᏁᎴᎢ	-11.6633
ᏡᎬᎢ	-11.6635
ᏯᏅᎡᎵ	-11.6638
ᏲᎲᏍᎨᏍᏗ	-11.6639
▁ᏚᎾᎵ	-11.6641
ᎪᎵᏰᏍᎨᏍᏗ	-11.6641
▁ᎢᏓᏙᎴᎰᎯ	-11.6645
ᏌᏙᎭ	-11.6646
▁ᎤᏍᏆᏃᏴ	-11.6647
ᎶᏍᎪ	-11.6647
ᎵᏍᏓᏴᏁ	-11.6649
ᏓᎦᎶᏐᏂ	-11.665
ᏍᎩᏰᏲᎲ	-11.665
ᏗᎨᎴ	-11.6652
ᎮᎵᎠᏍᎪ	-11.6657
ᏫᏂᏴ	-11.6658
ᏍᎦᏰᎬᏍᏔ	-11.6658
ᎵᏬᏤ	-11.6658
▁ᎤᏗᏍᎦᏢ	-11.6662
▁ᎤᎵᏍᎪᎸᏔᏁ	-11.6662
▁ᎠᎩᎪᏁᎸ	-11.6662
▁ᎤᏂᎶᏎ	-11.6662
▁ᏚᏂᎧᎲ	-11.6662
▁ᎤᏓᏙᏎᎴ	-11.6662
▁ᏓᎾᏓᏅᏖᏍᎬ	-11.6662
▁ᏳᏂᎪᎮ	-11.6662
ᎦᏓᏅᏓᏗ	-11.6662
▁ᎣᏍᏗᏁ	-11.6663
▁ᎤᏅᏍᎦᎴ	-11.6663
ᏁᏤᎴᎢ	-11.6663
ᏙᏓᏈᏕᎾ	-11.6663
▁ᏚᏂᏣ	-11.6664
▁ᎠᏂᎦᏔᎮ	-11.6665
▁ᎢᏨᏬᏁᏔᏅ	-11.6666
ᏒᏗᏱ	-11.6666
▁ᏫᏚᏳᎪᏛ	-11.6666
ᏕᏓᏓᎪᎲᏳ	-11.6667
ᎩᎦᎨᏍᏛᏱ	-11.6667
▁ᏗᎦᎸᏫᏍ	-11.6668
▁ᏗᏤᏍᏙ	-11.6668
▁ᏩᏂᎦᏛ	-11.6668
ᏅᏨᎩ	-11.6669
ᏗᎦᎪᏗᏱ	-11.667
▁ᎢᏣᏓᏁᏟᏴᏏᏒ	-11.6671
▁ᏥᎦᎷᎪ	-11.6671
ᏓᏇ	-11.6672
▁ᎠᎾᎢᏎ	-11.6672
ᎶᎥ	-11.6672
▁ᎠᏐᏢᎢᏍᏗᏍᎬ	-11.6674
ᏄᎵᏍᏓᏁᎴ	-11.6674
ᎵᏱᎶᎸ	-11.6674
ᏓᎩᎸᏫᏍᏓᏁᎲ	-11.6675
▁ᎤᏔᎳᏬᏍᎬ	-11.6675
▁ᎤᏂᏂᎬᏎᎲ	-11.6675
ᎠᏡᏗᏍᎩ	-11.6676
▁ᎠᏋᏔᏅ	-11.6676
▁ᏚᏪᎧᏁᎴ	-11.6676
▁ᏂᏚᏂᏪᏎᎴ	-11.6678
ᎤᏬᏚᏨ	-11.6678
▁ᏚᏂᏂᏴᎮ	-11.6678
▁ᏂᎨᎬᏁᎸ	-11.6678
ᎦᎾᏄᎪᏫᏍᎪ	-11.6679
ᏣᏄᏏ	-11.6679
ᎤᏓᏅᏒ	-11.6679
ᏧᏂᎸᏫᏍᏓᏁᎯ	-11.6679
ᎬᏂᏳᏉ	-11.6679
▁ᏥᏧ	-11.6679
▁ᏓᎩᏏᎳᏛ	-11.6679
ᏁᎶᏙ	-11.668
▁ᏥᏄᎵᏍᏔᏁ	-11.668
▁ᎠᎩᏩᏒ	-11.6681
▁ᎤᏄᏮ	-11.6681
▁ᎤᎾᎦᏙᏍᏕ	-11.6682
ᏧᏪᏥ	-11.6682
▁ᎤᏂᏇᏓᎸ	-11.6682
▁ᏚᏠᏱᎴ	-11.6683
ᎠᎳᏑᎶ	-11.6683
▁ᎢᎬᏬ	-11.6684
▁ᎤᏁᎸᏔᏁ	-11.6684
ᎡᎳᏂ	-11.6684
▁ᏄᏕᏘᏴᎮ	-11.6684
ᏗᏂᎦᏘᏯ	-11.6685
▁ᏚᏫᏞᏫᏒ	-11.6685
ᏗᎦᏚᎲ	-11.6686
ᎣᏏᏉᏍᎪ	-11.6686
ᎤᏔᎷᎩᏍᎩ	-11.6687
▁ᎢᏥᎪᎲ	-11.6687
▁ᏂᎬᏩᏪᏎᎴ	-11.6688
▁ᎾᎾᏛ	-11.6688
ᎪᏪᎴ	-11.6689
▁ᏭᏂᏃᏁ	-11.669
▁ᎣᎨᏅ	-11.6693
ᏧᏙᎢᏛ	-11.6693
ᏐᏈᎵ	-11.6693
▁ᎠᎵᏍᏓᏴᎲᏍᎬ	-11.6693
ᎠᎨᏴ	-11.6695
ᎵᏍᏙᏔᏅ	-11.6695
ᎯᏙᎲ	-11.6695
▁ᎤᏂᏚᎲ	-11.6698
▁ᎾᏆᏛᏅ	-11.6698
ᎪᏪᎸᎢ	-11.6698
▁ᎦᏃᎪ	-11.67
▁ᎤᎵᏍᏇᏚ	-11.67
ᎣᎯᏍᏙᏗ	-11.67
ᎵᏂᎪᎯᏍᏗ	-11.6701
▁ᏚᏬᏢᏁ	-11.6701
▁ᎤᏁᏙ	-11.6701
▁ᎠᏒᏛ	-11.6701
▁ᎤᏪᏙ	-11.6702
ᏬᎯᏳᏁ	-11.6702
ᎦᎵᏉᎩ	-11.6702
ᏯᏫᏍᏗ	-11.6702
▁ᏥᏍᏚᏂᎩᏍᏗ	-11.6702
▁ᏕᏥᎳᏫ	-11.6703
▁ᏚᏪᏲᏁ	-11.6703
▁ᏥᏂᏣᏛᏁ	-11.6703
ᎤᏛᏁᎢ	-11.6704
ᎾᏗᏔᏍᏗ	-11.6706
ᎦᏪᏍᎬᎩ	-11.6706
▁ᏥᏄᏪᏒ	-11.6706
▁ᏩᎩᎶᏒ	-11.6708
ᏥᏅᏬᏗ	-11.6708
▁ᏚᏂᎳᏫᏨ	-11.6708
▁ᏓᎩᎪᎲ	-11.6709
ᏆᎧᎿᏅ	-11.6709
▁ᎤᏬᏘ	-11.6709
▁ᎠᏛᏍᎨ	-11.6711
▁ᎤᏁᎢᏍᏔᏁ	-11.6711
▁ᏓᎾᎵ	-11.6712
▁ᏧᎾᏓᏡ	-11.6713
▁ᎤᎵᏖᎸ	-11.6714
▁ᏕᏦ	-11.6715
ᏅᎪᏨ	-11.6715
ᎤᏟ	-11.6716
ᏗᎧᎿᏩᏛᏍᏗ	-11.6716
▁ᎤᏃᎯᏳᏗ	-11.6717
ᏰᏫᏒ	-11.6717
ᏄᎪᎢ	-11.6717
ᎪᏫᏎ	-11.6718
ᎬᏂᎨᏒ	-11.6718
▁ᎤᎾᏠᏤ	-11.6718
▁ᏓᎪᎲᏍ	-11.672
ᏖᏆᎶ	-11.6721
ᎵᏍᎪᎸᏓᏁᏗ	-11.6721
▁ᏗᏂᎳᏫ	-11.6721
▁ᎠᎩᏍᎪ	-11.6722
ᏂᎪᎵᏰᎥ	-11.6722
ᏁᎢᏍᏔᏁ	-11.6722
▁ᏂᏣᎵᏍᏔᏅ	-11.6723
▁ᏄᏅᏁᎴ	-11.6723
ᏂᏐᏢᎢᏍᏙᏗ	-11.6723
ᏓᏙᎵᏍᏗᎭ	-11.6723
ᎶᏄᎮᏗᏱ	-11.6723
ᎵᏍᏙᏰᏗ	-11.6724
ᎨᎳᏗ	-11.6724
▁ᏭᏂᏴᎸ	-11.6725
▁ᏫᎬᏆ	-11.6728
ᏲᎱᏒᎯ	-11.6729
▁ᎭᏕᎶᎰ	-11.6729
▁ᎠᏉᎸ	-11.6731
▁ᏗᎬᏩᏁᎶ	-11.6731
▁ᎤᏘᏴ	-11.6731
ᎦᏓᎡᎢ	-11.6731
▁ᎦᎾᏄᎪᏥᎸ	-11.6731
ᏂᏪᏍᎬ	-11.6733
▁ᎾᏎᎵ	-11.6734
ᏲᎰᏒ	-11.6734
ᎦᏍᎦᏂ	-11.6734
▁ᏂᏚᏩᏁ	-11.6734
▁ᏧᏳᎪ	-11.6735
▁ᎡᎩᏁᎸ	-11.6735
▁ᏱᏚᎾᏓ	-11.6735
▁ᏗᎵᏰ	-11.6735
▁ᎤᎾᏘᏅᏍᏗ	-11.6736
▁ᎤᏁᎵᏒ	-11.6736
▁ᏗᎧᏃᎮ	-11.6737
ᎧᏍᎨᏂ	-11.6737
▁ᏥᏄᎵᏍᏔ	-11.6737
▁ᎢᏣᏓᏤᎵ	-11.6738
▁ᎢᏯᎩᏪᏍᏗ	-11.6738
▁ᎢᎦᏓᏃ	-11.6739
ᏁᎨ	-11.6739
ᏄᏩᎢᏴ	-11.6739
▁ᏭᏂᎷᎯᏍᏗ	-11.6739
▁ᎢᏳᏂᏪᏍᏗ	-11.6739
▁ᏧᏄᎪᏙᏗ	-11.6739
▁ᎢᏳᏪᏅᏍ	-11.674
▁ᎠᏆᎵᎮᎵᏍᏗ	-11.674
▁ᎦᏅᎪ	-11.674
ᏴᏍᏕᏍ	-11.6741
ᏲᎱᏎ	-11.6741
▁ᏇᏗᏂ	-11.6741
▁ᏫᏨᎷᏤᏗ	-11.6741
▁ᎣᎦᎵᏍᏓᏴᏗ	-11.6742
▁ᏗᎨᏥᎢᏍᏗ	-11.6742
▁ᎤᎾᏄᎪᏫᏍᏗ	-11.6743
▁ᏗᎦᎳᏫᎢᏍᏗ	-11.6743
▁ᎠᏰᏙᎳ	-11.6743
ᏕᏠᏆᏍᎩ	-11.6743
▁ᏧᏍᏆᏅ	-11.6744
▁ᏗᎩᎸᏫᏍᏓᏁᏗ	-11.6744
▁ᎾᏕᏘ	-11.6745
ᏯᎦᏔᏂ	-11.6745
▁ᎤᎾᏓᏡ	-11.6745
▁ᏧᎬᏩᏟ	-11.6745
▁ᎠᏥᏙᎵᏍᏗ	-11.6746
ᏍᏔᏯ	-11.6746
ᏍᏚᎢᏎ	-11.6746
▁ᎢᏳᎾᎵᏍᏙᏗ	-11.6747
▁ᏕᎫᎪᏓᏁ	-11.6748
▁ᎠᏍᏆᎸᎲ	-11.6748
▁ᎠᎵᏍᏕᎵᏍᎬ	-11.6748
ᏪᎳᏅᎯ	-11.6749
▁ᏕᎾᏓᎪ	-11.6749
▁ᏚᎸᏫᏍᏓᏁᎮ	-11.6749
▁ᎠᏍᎦᎢᎮ	-11.6749
ᎿᏍᏕᏢ	-11.675
ᏣᎳᏁ	-11.675
ᏃᎮᎮᎴ	-11.675
ᏯᏘᏃᎮᎸ	-11.675
▁ᎠᏫᎾᎨ	-11.675
ᎿᎷ	-11.675
▁ᏣᎾᏗ	-11.6752
ᎨᏅᏕ	-11.6752
ᎵᏍᏔᏁᏍᏗ	-11.6752
ᎦᏏ	-11.6752
ᏁᏓᏥᏛ	-11.6753
▁ᏓᏕᏲ	-11.6753
▁ᎾᏆᎵᏍᏔᏁ	-11.6754
ᎵᏍᏓᏴᎾᏁᏗ	-11.6754
ᎡᏆ	-11.6754
ᎧᎿᏩᏗᏓ	-11.6755
▁ᏕᎨᏥᏰ	-11.6756
▁ᏒᎯᏰ	-11.6756
ᏅᏍᏓᏕᎴ	-11.6757
▁ᎤᏓᏴᏎ	-11.6757
ᏜᏏᏛᎡᎲᎾ	-11.6758
i	-11.6758
ᎦᏛᏂᏙᎯᏉ	-11.6758
▁ᎤᎭᎸᏂ	-11.6758
ᏝᏪᎯ	-11.6758
ᎨᏢᏔᏅᎭ	-11.6759
▁ᎢᏣᏛᎦᏅ	-11.6759
ᏕᏯᏔᏁᎮ	-11.676
ᏣᎵᎡᎵᏤᏗ	-11.676
ᏗᏌᏓᏕ	-11.676
▁ᏕᎬᎦᎿᏩᏗᏙ	-11.6761
in	-11.6761
ᎪᏅᏍᏓᎵ	-11.6762
ᏛᏛᎲᎦ	-11.6762
ᎤᏍᏕᏎᎸᎯ	-11.6762
ᎠᏎᏗ	-11.6762
ᏢᏈᏍᏙᏗ	-11.6763
ᎴᏔᏅᎢ	-11.6763
ᎵᏍᏔᏴᎲᏍᎬ	-11.6763
ᎵᏏᎾᎯᏍᏛᎾ	-11.6763
ᏓᎦᎵᏍᏙᏓ	-11.6763
ᏳᎪᏛᎾ	-11.6763
▁ᏩᎾᎦᎳ	-11.6764
li	-11.6764
hi	-11.6764
ᏑᎶᏨᎯ	-11.6764
ᎣᏍᏛ	-11.6764
ᏍᏚᎢᎡᎸ	-11.6764
aire	-11.6764
ichael	-11.6764
reland	-11.6764
ᎦᏨᏩᏍᏙᏗᏱ	-11.6764
ᎶᏄᎲᎵ	-11.6764
ᎿᎸᏍᏗᏍᎨᏍᏗ	-11.6764
ᏂᏍᏋᎦ	-11.6764
ᏍᏕᎵᏌᏕᏒᎭ	-11.6764
ᏓᏓᎾᏁᎶᏂᎨ	-11.6764
ᏔᏕᎶᎰᏏ	-11.6764
ᏚᎸᎡᎸᎩ	-11.6764
ᏩᏛᎱᎦ	-11.6764
ᏯᏓᏂᎸᏥ	-11.6764
▁Co	-11.6764
▁ᎠᎵᏔᏬᏍ	-11.6764
▁ᎠᎵᏱᎵᏒᎢ	-11.6764
▁ᎠᎾᎵᏍᏓᏴᏂᏙᎮ	-11.6764
▁ᎢᎡᏍᏕᎵᏌᏕ	-11.6764
▁ᎢᏍᏙᏎᎸᎭ	-11.6764
▁ᎢᏨᏰᎳᏗᏙᎸ	-11.6764
▁ᎢᏰᎬᏁᎸᎯ	-11.6764
▁ᎣᎦᏛᏅᎢᏍᏗ	-11.6764
▁ᎤᎧᏲᏐᏅ	-11.6764
▁ᎤᎳᏍᏚᏒ	-11.6764
▁ᎤᎾᏓᏄᏴᏗ	-11.6764
▁ᎤᏁᏄᎳᏍᏔᏁᎢ	-11.6764
▁ᎤᏂᏔᎳᏬᏒᎩ	-11.6764
▁ᎤᏄᏖᏎ	-11.6764
▁ᎤᏍᎫᏓᏁᎦᎸ	-11.6764
▁ᎤᏓᎵᏁᎯᏕ	-11.6764
▁ᎤᏗᏍᎦᏝ	-11.6764
▁ᎦᏖᏌᏗ	-11.6764
▁ᎨᏤᎳᏗᏙᎮᏍᏗ	-11.6764
▁ᎬᏩᏓᏡᏫᏍᏔᏅᎩ	-11.6764
▁ᎬᏬᏍᏔᏅᎯ	-11.6764
▁ᎭᏓᎦᏖᏙᎢᏍᎨᏍᏗ	-11.6764
▁ᎮᏏᎦᏯ	-11.6764
▁ᎻᏗᏯᏂ	-11.6764
▁ᏂᎠᏂᏪᎭ	-11.6764
▁ᏂᎦᎸᏉᏗᏍᎬᎾ	-11.6764
▁ᏂᎧᏪᏍᎬᎩ	-11.6764
▁ᏂᏓᏓᏂᎸᎬᎾ	-11.6764
▁ᏂᏗᎦᎵᏍᏔᏂ	-11.6764
▁ᏂᏥᏪᏍᎪᎢ	-11.6764
▁ᏄᏂᎦᏙᎥᏒᎾ	-11.6764
▁ᏅᏓᎨᏥᏅᏏᏛ	-11.6764
▁ᏅᏓᏍᏛᏴᏁᎵ	-11.6764
▁ᏅᏩᏍᏗᏗᏎᏍᏗᏉ	-11.6764
▁ᏈᏯᏏᏱᏆ	-11.6764
▁ᏍᏆᏎᎵᏓᏁᎸᎢ	-11.6764
▁ᏍᏆᏎᎵᏓᏏ	-11.6764
▁ᏐᎣᏁᎵᏁ	-11.6764
▁ᏓᎦᏥᏁᏉᎢ	-11.6764
▁ᏓᎪᏄᎶᏏᏙᎮᏍᏗ	-11.6764
▁ᏓᎵᏖᎸᏂᏙᎮᏍᏗ	-11.6764
▁ᏓᎾᏦᏍᎬ	-11.6764
▁ᏓᏂᏍᏔᏲᎯᎲ	-11.6764
▁ᏓᏂᏏᎳᏛᎥᏍᎨ	-11.6764
▁ᏓᏆᏚᏫᏍᏔᏅᎩ	-11.6764
▁ᏓᏓᏬᏍᏗᏍᎬᎩ	-11.6764
▁ᏓᏛᎯᏍᏓᏁᎮᏍᏗ	-11.6764
▁ᏔᏓᏅᏗᏍᏓ	-11.6764
▁ᏕᎦᎶᎴᎬᎢ	-11.6764
▁ᏕᏥᏅᎪᎥᏗᏍᎨᏍᏗ	-11.6764
▁ᏕᏥᏅᏫᏍᎨᏍᏗ	-11.6764
▁ᏗᎧᏃᏩᏛᏍᏗ	-11.6764
▁ᏗᎩᎸᏫᏍᏓᏁᎯ	-11.6764
▁ᏗᎩᏄᎪᏨ	-11.6764
▁ᏙᏓᎨᏥᏲᎯᏎᎵ	-11.6764
▁ᏙᏗᏂᏁᎸᎢ	-11.6764
▁ᏙᏛᎩᎸᏫᏍᏓᏁᎵ	-11.6764
▁ᏚᎧᏙᏍᏕ	-11.6764
▁ᏚᎾᏁᏢᏔᏅᏒᎢ	-11.6764
▁ᏚᏂᎦᏘᎸᏎ	-11.6764
▁ᏚᏂᏖᎸᏁ	-11.6764
▁ᏚᏢᏫᏎᎴ	-11.6764
▁ᏠᏆᎹ	-11.6764
▁ᏣᏗᏫᏍᏓ	-11.6764
▁ᏥᏅᏓᎦᎵᏍᏔᏂ	-11.6764
▁ᏧᎦᏎᏍᏗᏕᎩ	-11.6764
▁ᏧᎾᏕᏠᏆᏍᏗ	-11.6764
▁ᏧᏃᏕᏍᏗᏍᎩ	-11.6764
▁ᏮᏓᎦᎶᏏ	-11.6764
▁ᏯᏓᏬᏍᎨᏍᏗ	-11.6764
▁ᏱᏄᎵᏍᏔᏃ	-11.6764
▁ᏱᏙᎬᏩᎸᏫᏍᏓᏏ	-11.6764
▁ᏱᏚᏓᏌᏝᎮᏍᏗ	-11.6764
▁ᏱᏚᏪᏘᎸ	-11.6764
▁ᏱᏨᏲᏪᎳᏁᎭ	-11.6764
▁ᏳᎾᏛᏅᎢᏍᏗ	-11.6764
▁ᏳᏍᎦᏅᏨ	-11.6764
▁ᏴᎬᏂᎷᎩ	-11.6764
ᎵᏰᏑᏍᏚᏬ	-11.6764
▁ᎠᏂᏫᏄᏣ	-11.6764
▁ᎠᏍᏈᏅ	-11.6764
▁ᎠᏥᏂᏌᎲ	-11.6764
▁ᎤᎾᏓᏙᎵᏍᏓᏁᎴ	-11.6764
▁ᎦᏌᏁᎾᏛ	-11.6764
▁ᎬᏩᏛᎡᎴᏍᏗ	-11.6764
▁ᎵᏆᏗᎻ	-11.6764
▁ᏂᏓᎷᎸᎥᏍᎬᎾ	-11.6764
▁ᏂᏚᎿᏍᏕᏢᎾ	-11.6764
▁ᏗᏓᏙᏪᏙᎥ	-11.6764
▁ᏙᎦᏠᏒᎩ	-11.6764
▁ᏙᏧᏁᏅᏒ	-11.6764
▁ᏚᎾᏠᏱᎴᎢ	-11.6764
▁ᏚᏃᏣᎶᏤ	-11.6764
▁ᏩᏂᎦᏖᎢ	-11.6764
▁ᏫᏙᏓᏨᏯ	-11.6764
▁ᏱᏚᏛᏓᏍᏓᏁᎴᎢ	-11.6764
ᏥᏍᎩᏅᏛᎯ	-11.6764
▁ᎠᎦᏘᏗᏍᏙᏗ	-11.6764
▁ᎠᎩᏔᏕᎩᎠ	-11.6764
▁ᎠᎾᎵᏙᎩᏯᏍᎩ	-11.6764
▁ᎠᎾᏓᏌᎩᏙᎲ	-11.6764
▁ᎠᏂᎫᏌᏩᎩ	-11.6764
▁ᎢᏍᏉᏎᎭ	-11.6764
▁ᎤᎦᏑᎲᎢ	-11.6764
▁ᎤᎦᏛᎴᎯᏍᏗᏱ	-11.6764
▁ᎤᏓᏏᏂᏕᏅ	-11.6764
▁ᎤᏖᎸᏁ	-11.6764
▁ᎤᏦᏔᎮ	-11.6764
▁ᎬᏩᎵᏃᎮᏔᏁ	-11.6764
▁ᎬᏩᏄᎸᏗ	-11.6764
▁ᏂᏥᏲᎯᏍᏗᏍᎬᎾ	-11.6764
▁ᏇᏣᏱᏗ	-11.6764
▁ᏍᎩᏯᏅᏓᏗᏍᎬᎢ	-11.6764
▁ᏍᎩᏲᎢᏳᎲᎦ	-11.6764
▁ᏑᎧᏔ	-11.6764
▁ᏕᏦᏢᎯᏏ	-11.6764
▁ᏗᎩᎧᏁᎸᎯ	-11.6764
▁ᏗᎾᏓᏬᏍᎩ	-11.6764
▁ᏣᏍᏕᏅᏨ	-11.6764
▁ᏥᏂᏴᏁᎭ	-11.6764
▁ᏥᏓᎾᏕᏲᎲᏍ	-11.6764
▁ᏦᎧᏔᏂ	-11.6764
▁ᏧᎾᏓᏟᏴᏗ	-11.6764
▁ᏨᏓᎬᏯᏎᎮᎵ	-11.6764
ᏍᏇᎵᏰᏗ	-11.6764
▁ᎠᎩᏲᎱᏏᏗ	-11.6764
▁ᎠᎻᏗᏏ	-11.6764
▁ᎠᎾᏓᎩᎡᎯ	-11.6764
▁ᎠᏇᏙᏅ	-11.6764
▁ᎠᏓᏅᏖᏍᎩ	-11.6764
▁ᎢᏨᏂᏌᏛ	-11.6764
▁ᎢᏯᏂᏪᏍᎩ	-11.6764
▁ᎤᏉᏔᏗ	-11.6764
▁ᎤᏙᎴᎱ	-11.6764
▁ᎯᏯᏛᎥᎦ	-11.6764
▁ᏂᏚᎾᏑᎴᎲᎾ	-11.6764
▁ᏄᎵᏁᏨ	-11.6764
▁ᏄᎸᏉᏔᏅᎾ	-11.6764
▁ᏍᎩᎨᏳᎭᏧ	-11.6764
▁ᏓᎦᏓᏅᏏ	-11.6764
▁ᏓᎬᏯᎫᏴᎡᎵ	-11.6764
▁ᏓᏍᏆᎸᎮᎬᎢ	-11.6764
▁ᏕᏓᎧᏂᏍᎬ	-11.6764
▁ᏗᎧᏃᎩᏓ	-11.6764
▁ᏗᎾᎵᏍᏓᏴᏂ	-11.6764
▁ᏣᏂᎦᏴᎵ	-11.6764
▁ᏥᏂᎦᏛᏁᎭ	-11.6764
▁ᏦᎩᎦᏴᎵᎨᎢ	-11.6764
▁ᏩᏐᏝ	-11.6764
ᏍᏇᏲᎲᎦ	-11.6764
ᏤᏲᎲᏍᎦ	-11.6764
▁ᎠᎩᏔᎳᏬᏍᎬ	-11.6764
▁ᎠᏓᏍᏕᎸᏓ	-11.6764
▁ᎢᏲᎦᏛᏁᏗᏱ	-11.6764
▁ᎤᎵᏍᎦᏎ	-11.6764
▁ᎤᏂᏍᏛᏛᎯ	-11.6764
▁ᎤᏲᏏᏌᏁᎢ	-11.6764
▁ᎾᏂᏴᎬᎾ	-11.6764
▁ᏅᏓᏲᏣᏛᏁᎵ	-11.6764
▁ᏍᏇᎵᏎᏗᏱ	-11.6764
▁ᏗᎦᎸᏉᏔᏅᎯ	-11.6764
▁ᏗᏂᎭᏲᎯ	-11.6764
▁ᏗᏂᏏᎲᏍᎩ	-11.6764
▁ᏗᏲᎳᏅᎯ	-11.6764
▁ᏚᏟᎶᏍᏓᏁᎸᎩ	-11.6764
▁ᏥᏫᏗᎨᎦᏘᏅᏍᏔᏁ	-11.6764
▁ᏱᏄᏓᎠ	-11.6764
▁ᎢᏨᏁᏤᎸᎢ	-11.6764
▁ᎤᏁᎳᎥᎯ	-11.6764
▁ᎤᏃᎱᎦᏅ	-11.6764
▁ᎤᏓᏁᏟᏴᏍᏔᏁᎴ	-11.6764
▁ᎤᏩᎢᏎᎸᎯ	-11.6764
▁ᎪᎸᏌᏛᏗ	-11.6764
▁ᏕᎱᎪ	-11.6764
▁ᏙᏛᏂᏲᎯᏎᎵ	-11.6764
▁ᏧᏕᏲᏗᏱ	-11.6764
▁ᎠᎩᎳᏫᏍᏗᏱ	-11.6764
▁ᎡᎵᏍᏓᎦ	-11.6764
▁ᏕᎬᏗᏰ	-11.6764
▁ᏚᏍᏕᎸᎯᎸ	-11.6764
▁ᏫᎷᏨᎭ	-11.6764
ᏗᎨᏥᏰᎪᎢ	-11.6764
▁ᎡᏣᏁᎳᏁᎸ	-11.6764
▁ᎤᏕᏯᏔᏁᎸ	-11.6764
▁ᏄᎵᏍᏚᎸᎾ	-11.6764
▁ᏚᏰᎵᎯᏍᏔᏁ	-11.6764
▁ᏴᎨᏦᎯᏳᎲᎦ	-11.6764
ᏓᏅᏖᏔᏂ	-11.6764
▁ᎠᏂᏇᎵᏏ	-11.6764
▁ᎠᏆᏙᎴᎰᎯᏍᏗᏱ	-11.6764
▁ᎤᏍᏆᎷᎪ	-11.6764
▁ᎻᎴᎳ	-11.6764
▁ᏄᎪᎸᎾ	-11.6764
▁ᏈᏥᏱ	-11.6764
▁ᏍᎩᎦᏘᏰᏍᏗ	-11.6764
▁ᏕᎱᏓ	-11.6764
▁ᏚᏂᎵᏬᏨᎩ	-11.6764
▁ᏚᏬᏑᎴ	-11.6764
▁ᏩᏓᏁᏟᏴᏍᏓ	-11.6764
▁ᏫᏴᎨᏥᎷᎩ	-11.6764
▁ᏬᎩᏃᎸᎩ	-11.6764
▁ᏓᎾᏗᏔᏍᏗᏍᎨ	-11.6764
▁ᏭᏪᏙᎴᎢ	-11.6764
per	-11.6764
ᎯᎬᏍᎪᎸᎥᏍᎨᏍᏗ	-11.6764
ᏪᏎᎢ	-11.6764
▁ᎢᏓᎢᏎᏍᏗ	-11.6764
▁ᎤᎾᏕᏯᏔᏁᎴᎢ	-11.6764
▁ᎤᎾᏗᏒᎸ	-11.6764
▁ᎤᏚᏣᎳᏅᎩ	-11.6764
▁ᏂᏚᎾᎵᏂᎬᎬ	-11.6764
▁ᏄᎵᏍᏔᏂᏙᎴ	-11.6764
▁ᏙᏓᏰᏣᏬᏍᏔᏂ	-11.6764
▁ᏚᎵᏘᎾᎥ	-11.6764
▁ᏦᏓᎻ	-11.6764
▁ᏮᏓᎦᏙᎴᎣᏏ	-11.6764
▁ᎠᎫᏴᎡᏗᏱ	-11.6764
▁ᎤᎾᎵᏛᏔᏅ	-11.6764
ᎩᏲᎱᏎᎲᎩ	-11.6764
▁ᎡᏦᎯᏳᎲᏍ	-11.6764
▁ᎣᏌᏯ	-11.6764
▁ᎤᏂᏖᎸᏅ	-11.6764
▁ᎤᏙᏣᎸᎢ	-11.6764
▁ᎯᎶᏁᎥᎭ	-11.6764
▁ᏂᏙᏓᎦᏪᏎᎵ	-11.6764
▁ᏍᏓᎵᎢ	-11.6764
▁ᏗᏋᏅ	-11.6764
▁ᏚᏰᎵᏒ	-11.6764
▁ᏥᏚᏃᎱᎦᏁ	-11.6764
▁ᏧᎳᏏᏗᏱ	-11.6764
▁ᏩᎦᏘᏅᏍᏙᏗᏱ	-11.6764
▁ᎤᎾᏣᏪᏐᎸᏍᏙᏗᏱ	-11.6764
▁ᎤᏬᎦᏒ	-11.6764
▁ᎯᏅᎦᎸ	-11.6764
▁ᎾᏂᎦᏔᎾᎥᎾ	-11.6764
▁ᏣᎷᎯᏍᏗᏱ	-11.6764
▁ᏗᏂᏍᏔᏲᎯ	-11.6764
▁ᏥᎨᏳᎠ	-11.6764
▁ᎠᏂᏃᏟᏙ	-11.6764
▁ᎦᏨᏩᏍᏔᏅᎯ	-11.6764
▁ᏓᏱᏓᎵ	-11.6764
▁ᏗᎬᏩᎾᏛᎪᏙᏗ	-11.6764
▁ᏙᎩᎾᏗᏔᎲ	-11.6764
▁ᏦᎯᏳᎭ	-11.6764
▁ᎠᏕᏘᏱᏍᎬ	-11.6764
▁ᎢᎩᏇᏓᎸ	-11.6764
▁ᎢᏥᎪᎵᏰᎥᎭ	-11.6764
▁ᎤᎾᏕᎶᏆᏍᏗᏱ	-11.6764
▁ᏂᏙᏓᎬᏁᎵ	-11.6764
▁ᏄᏂᏍᎦᏅᏨᎾ	-11.6764
▁ᎬᏩᎪᎵᏰᏍᎬ	-11.6764
▁ᎠᎶᎻ	-11.6764
▁ᏓᏍᏕᎵᏍᎬᎩ	-11.6764
▁ᏓᏤᏅᎡᎵ	-11.6764
▁ᏕᎯᏯᏁᎶᏕᏍᏗ	-11.6764
▁ᎤᏎᎵᏓᏁᎴᏃ	-11.6764
▁ᏳᏂᏬᏂᏌ	-11.6764
ᏬᏁᏓ	-11.6764
▁ᏕᎧᏃᎮᏍᎬ	-11.6764
▁ᏧᏄᎪᏤᎢ	-11.6764
▁ᎠᎵᏃᎮᏗᏍᎬᎢ	-11.6764
▁ᏂᏨᎾᏛ	-11.6764
▁ᏚᎳᏫᏛ	-11.6764
▁ᏛᏓᎸᎢ	-11.6764
ᏓᎴᏴᏗᏍᎩ	-11.6764
ᏨᏉᏛᎾ	-11.6764
▁ᎠᏂᎾᎷᏍ	-11.6764
ᎩᎵᏲᏥᏙᎸᎢ	-11.6764
ᎱᏢᏔᏅᎭ	-11.6764
ᏲᎱᎯᏎᎴᎢ	-11.6764
▁ᎾᎾᏓᏛᏍᎬᎾ	-11.6764
▁ᏗᎾᏓᏙᏕᏍᏗᏍᎩ	-11.6764
▁ᏗᏧᎪᏗᏍᎩ	-11.6764
▁ᏧᏃᏑᎴᏗ	-11.6764
ᏙᏥᎵᏦᏛᎦ	-11.6764
▁ᎤᏅᏘᏛ	-11.6764
▁ᎤᏓᏦᎯᏯ	-11.6764
▁ᎧᏁᏉᏥᏎ	-11.6764
▁ᏱᏅᏓᎦᎵᏍᏙᏓ	-11.6764
▁ᎤᎾᏘᏍᏙᏗᏱ	-11.6764
▁ᏅᏓᏨᏴᏁᎵ	-11.6764
ᏓᏓᎴᏔᏂ	-11.6764
▁ᎠᏰᎴᎩ	-11.6764
▁ᎣᏥᏯᎥ	-11.6764
▁ᎤᎾᏓᏓᏍᎩᏌᎲ	-11.6764
▁ᎦᎨᏥᏐᏢ	-11.6764
▁ᏄᎾᏙᏓᏈᏒ	-11.6764
▁ᏚᎾᎵᏯᏍᏚ	-11.6764
▁ᎠᏐᏢᎢᏍᏗᏍᎨᏍᏗ	-11.6764
▁ᎤᏗᏛᎲᎩ	-11.6764
▁ᏕᎨᎦᏨᏍᏔ	-11.6764
▁ᏛᎵᏛᏔᏂ	-11.6764
▁ᏯᏥᏯᏝ	-11.6764
▁ᎠᏂᏂᎩᎸ	-11.6764
▁ᏄᎵᏌ	-11.6764
▁ᏧᎾᏛᏒᎯ	-11.6764
▁ᎠᎬᏔᏅᏛ	-11.6764
▁ᎠᏃᏢᏅᎥᏍᎩ	-11.6764
▁ᎠᏍᏚᎢᏛ	-11.6764
▁ᏄᏂᏧᏈᏍᏕᏍᏗ	-11.6764
ᏨᏯᏛᏛᏂ	-11.6764
▁ᏅᏗᎦᏪ	-11.6764
▁ᏛᎬᏯᏘᏃ	-11.6764
▁ᏧᎧᏃᏗᏱ	-11.6764
ᏍᏚᎢᏏ	-11.6764
▁ᎢᏣᏛᎩᏍᎬᎢ	-11.6764
▁ᏅᏗᏛᏁᎵᏒ	-11.6764
▁ᏗᎬᏩᏂᏯᎢ	-11.6764
▁ᏃᎩᏪᏒᎩ	-11.6765
▁ᎠᎩᏁᏉᏤ	-11.6765
▁ᎠᏂᏁᎢᏍᏗᏍᎩ	-11.6765
▁ᎤᏟᏃᎮᏔᏁᎢ	-11.6765
▁ᏂᎨᏣᏛᏁᎮᏍᏗ	-11.6765
▁ᏓᏳᏂᏄᎪᏨᎩ	-11.6765
▁ᏥᏄᎾᏍᏛᎢ	-11.6765
▁ᏧᎵᏠᏯᏍ	-11.6765
▁ᎤᏍᏘᏰᎩ	-11.6765
▁ᎦᏢᏍᎩ	-11.6765
▁ᎦᏴᏓᏗ	-11.6765
▁ᏒᎦᏙᎯ	-11.6765
ᏕᏯᏔᏁᎭ	-11.6765
▁ᎢᏣᏛᎿᏕᎩ	-11.6765
▁ᎤᏆᎶᎦ	-11.6765
▁ᏂᎦᎷᎶᎬᎾ	-11.6765
▁ᏕᎦᏕᏲᎲᏍᎬ	-11.6765
▁ᏣᎦᏥᎶᏍᏔᏅ	-11.6765
▁ᏣᎪᏎᎰᎢ	-11.6765
▁ᎠᎵᏱᎶᎸᎭ	-11.6765
▁ᎦᏅᏃᏫ	-11.6765
▁ᎾᏆᎵᏍᏓᏁᎵᏕᎬ	-11.6765
▁ᏅᏓᏥᏯᏛᏁᎵ	-11.6765
▁ᏚᎵᏥᏙᏁᎴᎢ	-11.6765
ᏣᏓᏅᎡᎸ	-11.6765
▁ᎧᏂᎨᏂ	-11.6765
▁ᏗᎩᎪᎶᎯ	-11.6765
▁ᏙᎩᏃᏢ	-11.6765
▁ᎤᏄᏬᎥᎯ	-11.6765
▁ᏰᏦᏎᎮᏍᏗ	-11.6765
▁ᏗᎫᎪᏗᏱ	-11.6765
▁ᎢᏨᏁᏤᎭ	-11.6765
▁ᎡᏣᏁᏍᎨᎲᎯ	-11.6765
▁ᎤᎾᎵᏍᏓᏴᏃᏅ	-11.6765
▁ᎠᏆᎵᏂᎬᎬᎢ	-11.6765
▁ᎡᏣᎵᎡᎵᏤᎮᏍᏗ	-11.6765
ᏍᏚᎢᎡᎴ	-11.6765
▁ᎢᏨᏯᏅᏓᏗᏍᏗᏍᎬᎢ	-11.6765
▁ᏙᏘᏲᎢ	-11.6765
▁ᏧᏁᎩᏳ	-11.6765
▁ᎠᎩᏔᏕᎩᏍᎬ	-11.6765
▁ᏗᏥᏅᏍᎨᏂ	-11.6765
▁ᎠᎵᏍᏆᏛᎭ	-11.6765
▁ᎢᏣᎵᏂᎬᏁ	-11.6765
▁ᏂᎦᎵᏍᏔᏂᏙᎮᏍᏗ	-11.6765
ᏧᎾᏚᎩᏎ	-11.6765
▁ᏄᏓᏅᏛᎾ	-11.6765
▁ᎨᎩᏍᎦᎩ	-11.6765
▁ᏧᏓᏅᎵᏰᏓ	-11.6765
▁ᎢᏥᎾᏫ	-11.6765
▁ᎹᏈᎳ	-11.6765
ᏓᏂᏲᎰᏍᎪ	-11.6765
▁ᎾᏓᏛᏁᎲᎢ	-11.6765
▁ᏂᏕᎦᏅᎯᏒᎩ	-11.6765
▁ᎤᏂᎾᏰᏒᎩ	-11.6765
▁ᏓᎳᎳ	-11.6765
▁ᎠᏆᏍᎦᏱ	-11.6765
▁ᏄᎾᏓᏁᏟᏴᏎᎢ	-11.6765
▁ᏄᏲᎱᏒᎩ	-11.6765
ᎳᏫᏎᎮᏍᏗ	-11.6765
▁ᎢᏣᏛᎩᏍᎨᏍᏗ	-11.6765
▁ᏗᏓᎪᏗᏍᎩ	-11.6765
▁ᎤᏓᏅᏓᏛᎢ	-11.6765
ᎳᏫᏎᏗ	-11.6765
ᎾᎪᏄᎸ	-11.6765
▁ᏥᏓᏓᏂᎸᎪᎢ	-11.6765
▁ᏫᏨᏲᎵ	-11.6765
▁ᎾᏂᎦᏔᎿᎥᎾ	-11.6765
▁ᏗᏠᏗ	-11.6765
▁ᎾᏐᏂ	-11.6765
▁ᏘᏍᏓᏩᏚᎦ	-11.6765
▁ᎢᏏᎳᎻ	-11.6765
▁ᎢᏳᎾᎵᏍᏔᏁᏗ	-11.6765
▁ᏫᏚᎾᏘᏃᎮᎸᎩ	-11.6765
ᎬᏲᏎᏗ	-11.6765
▁ᎦᏃᎯᎸᏍ	-11.6765
▁ᏕᎤᎸᏫᏍᏓᏁᎸ	-11.6765
▁ᏙᏂᏍᎩ	-11.6765
▁ᏛᎩᏲᎵ	-11.6765
▁ᎤᎧᎵᏦᏅ	-11.6765
▁ᏁᏙᎲᎾ	-11.6765
▁ᎠᏂᏲᎵᎮ	-11.6765
▁ᎠᏍᎪᎩᏍᎬ	-11.6765
▁ᎤᎾᏦᏍᏔᏁ	-11.6765
▁ᏅᏓᏳᏪᏒᎩ	-11.6765
▁ᏫᏚᏂᏴᏍᏗᏱ	-11.6765
▁ᏧᎾᎳᏏᏕᏄᎶᏗ	-11.6765
▁ᏬᏥᎦᏛ	-11.6765
ᏢᏥᏰᏍ	-11.6765
▁ᏚᏬᏢᏔ	-11.6765
▁ᏥᎾᏂᎥ	-11.6765
ᎳᏍᏕᎵᏴᏌ	-11.6765
▁ᏱᏩᏍᏔ	-11.6765
▁ᎠᏆᏁᎳᏫᏎ	-11.6765
▁ᎤᏪᏣᏄ	-11.6765
ᎫᎪᏓᏁᏗ	-11.6765
▁ᏧᎾᎳᏏᏕᏅ	-11.6765
▁ᎤᏅᏫᏍᏗᏍᎩ	-11.6765
▁ᏅᏧᏪᏎᎴᎢ	-11.6765
ᏗᎩᏴᎩ	-11.6765
▁ᎠᎪᏩᏘᏍᎩ	-11.6765
▁ᏳᏍᏆᎸ	-11.6765
▁ᎤᏁᏢᏔᏅᏒᎢ	-11.6765
▁ᎠᎨᎾᏂ	-11.6765
▁ᏍᎩᏯᏛᏓᏍᏓᏏ	-11.6765
▁ᏧᎵᏍᏆᎵ	-11.6765
ᎵᎯᎮᎢ	-11.6765
▁ᎤᏗᎴᎲᏍᎨᎢ	-11.6765
▁ᎠᎾᏓᎸᏉᏗᏍᎩ	-11.6765
▁ᎤᎵᏒᏍᏔᏁᎢ	-11.6765
▁ᏍᏗᎩᏓ	-11.6765
▁ᏕᎦᎦᏙᏍᏛ	-11.6765
▁ᏱᏥᏩᏘᏍᎪᎢ	-11.6765
▁ᎤᏃᏴᎳᏒ	-11.6765
▁ᎠᏁᏦ	-11.6765
▁ᏚᏂᏎᎪᎩᏎ	-11.6765
▁ᎠᏍᏆᎾᎸ	-11.6766
▁ᎠᎢᏗᏢ	-11.6766
ᎩᏍᏚᎲᎩ	-11.6766
▁ᎤᎾᏁᎳᏛ	-11.6766
▁ᎬᏩᏍᏆᏗᏍ	-11.6766
▁ᏏᏗᎻ	-11.6766
▁ᏥᎦᏙᎦ	-11.6766
▁ᏧᏲᏍᏔᏅᎯ	-11.6766
▁ᎢᎪᎯᏳᏒ	-11.6766
▁ᏓᏳᏠᎠᏒᎩ	-11.6766
▁ᎢᎨᏓᏍᏗᏱ	-11.6766
▁ᎢᏥᎪᏙᏍᎨᏍᏗ	-11.6766
ᎭᏄᏫ	-11.6766
▁ᎢᏨᏲᎵᎦ	-11.6766
ᎩᎵᏲᎨᏍᏗ	-11.6766
▁ᎤᏍᎦᎢᏓ	-11.6766
▁ᏚᏂᏲᏏᏍᎬ	-11.6766
▁ᎠᏉᎵᏨ	-11.6766
▁ᏂᏗᏨᎦ	-11.6766
▁ᎣᏣᏓᏅᏟ	-11.6766
▁ᏗᏓᏟᎶᏍᏔᏅ	-11.6766
▁ᎤᎯᏌᏛ	-11.6766
ᏍᎦᎳᏤ	-11.6766
ᏓᏲᎵᏍᏗ	-11.6766
▁ᏚᏥᎸᏒ	-11.6766
▁ᎠᏓᏅᏬᎯᏍᏗᏍᎩ	-11.6766
▁ᏕᎤᏲᎯᏎᎴᎢ	-11.6766
▁ᏓᏥᎾᏄᎪᏫᏎᎵ	-11.6766
▁ᏭᏗᏢᏍᏔᏅ	-11.6766
▁ᎢᏣᏓᏅᏓᏓ	-11.6766
ᏃᏣᏝ	-11.6766
▁ᎢᏥᏲᎮᏍᏗ	-11.6766
▁ᏚᏩᎢᏢ	-11.6766
▁ᎢᏥᏁᎢᏍᏗᏱ	-11.6766
▁ᎥᎩᏂᎵ	-11.6766
▁ᏕᎭᏘᏁ	-11.6766
▁ᎠᎩᏁᎫ	-11.6766
▁ᎠᏎᎵᏛᏍᎬ	-11.6766
▁ᎾᎾᎵᏍᏗᎭ	-11.6766
▁ᎤᏓᏅᎵᏰᏓ	-11.6766
▁ᏕᎦᏆᏛ	-11.6766
▁ᏱᎯᎦᏔᎮ	-11.6766
▁ᎡᏥᎸᏉᏗᏍᎨᏍᏗ	-11.6766
▁ᎤᏂᏲᎢᏎᎸᎯ	-11.6766
▁ᎠᏯᏂᎭ	-11.6766
▁ᎠᏉᎯᏳᎲᏍᎨᏍᏗ	-11.6766
▁ᎥᏆᏬᏍᏙᏗ	-11.6766
▁ᎤᏂᏄᎪᎢᏍᏗ	-11.6766
▁ᏚᏂᎳᏫᏦᎴ	-11.6766
▁ᎤᎾᎵᏍᏔᏴᏅ	-11.6766
▁ᎤᏰᎸᏐᎢ	-11.6766
▁ᎠᎩᏁᎢᏍᏔᏅ	-11.6766
▁ᏳᏂᏃᎮᎸ	-11.6766
ᎬᏑᎶᏙᏗ	-11.6766
▁ᎠᎾᎵᏍᏓᏴᎲᏍᎩ	-11.6766
▁ᏫᏍᎩᏩᎯᏏ	-11.6766
▁ᎠᏓᏓᏱᎮᏍᏗ	-11.6766
▁ᎣᎦᏂᎩᏒᎩ	-11.6766
▁ᏫᏚᎵᏍᏘᏂᎸ	-11.6766
ᏟᎶᏍᏔᏂ	-11.6766
▁ᎫᏘᏍᎬ	-11.6766
▁ᏫᎬᎷᏤᏗᏱ	-11.6766
▁ᏅᏓᏳᎾᏄᎪᎢᏍᏗ	-11.6766
▁ᏦᏥᏰᎸ	-11.6766
▁ᏚᎾᏂᏏᏁᎢ	-11.6766
▁ᏱᎦᏂᏆᏘᎭ	-11.6766
▁ᎠᎾᎵᏍᏔᏴᎲᏍᎬ	-11.6766
▁ᏓᏰᏥᎪᎢ	-11.6766
▁ᏕᏣᏏᎳᏛ	-11.6766
ost	-11.6766
▁ᎢᏍᎩᎪᏩᏘᏍᎨᏍᏗ	-11.6766
▁ᎤᎾᏁᎶᏔᏁ	-11.6766
▁ᏫᏓᏂᎷᎦ	-11.6766
▁ᏌᎳᏓᏱᎵ	-11.6766
▁ᏓᏉᏙᎥ	-11.6767
ᏕᎰᏍᎬᎾ	-11.6767
▁ᎦᎾᏜᎢ	-11.6767
▁ᏓᏆᎭᏄᏮ	-11.6767
▁ᎤᏛᎯᏍᏔᏅ	-11.6767
er	-11.6767
▁ᏄᏯᎩ	-11.6767
ᏰᎦᏟ	-11.6767
ᏦᎣᏍᏙᏗ	-11.6767
▁ᎢᏨᏍᏓᏩᏕᏅ	-11.6767
ᏲᎱᏒᎾ	-11.6767
▁ᏌᏗᏏ	-11.6767
▁ᏗᎾᏓᎯᎯ	-11.6767
▁ᏅᏛᎴᏅᏛ	-11.6767
▁ᏧᎾᎭᎾᏬ	-11.6767
▁ᎠᏆᏛᏐᏅᎯ	-11.6767
ᎶᏄᎮᎸᎩ	-11.6767
▁ᎤᏛᎸᎮ	-11.6767
▁ᏓᏘᎭᏁᎲ	-11.6767
▁ᏓᏳᏗᏩᏏ	-11.6767
▁ᎤᏁᏍᎨᎴ	-11.6767
▁ᏗᏓᏠᏍᏗ	-11.6767
ᎵᏍᏓᏁᎵᏕᎬ	-11.6767
▁ᎦᎸᎳ	-11.6767
▁ᎣᎦᏁᎳᎩ	-11.6767
▁ᏐᏆᎵ	-11.6767
▁ᎤᏓᏬᎡ	-11.6767
ᎹᎵ	-11.6767
▁ᏫᏗᏍᎩᏯᏅᏏ	-11.6767
ᏣᎦᏎᏍᏓ	-11.6767
▁ᎢᎨᎳᏗᏙᎭ	-11.6767
▁ᏙᏓᏲᏣ	-11.6767
▁ᎢᏣᏓᏄᎸᏗ	-11.6767
▁ᎢᎫᏓᎴᏍᏗᏱ	-11.6767
▁ᎨᏣᎵ	-11.6767
▁ᎠᏍᏙᏓ	-11.6767
▁ᎢᎤᏂᎷᏨ	-11.6767
▁ᏱᏍᎩᎪᏩᏘᏍᎨᏍᏗ	-11.6767
▁ᏳᏓᏅᏒ	-11.6767
▁ᏕᎦᏯᎸ	-11.6767
▁ᎣᏦᎯᏳᎲᏍᎦ	-11.6767
▁ᎢᏰᏨᏁᏗᏱ	-11.6767
▁ᏳᏥᏍᎪᎸ	-11.6767
▁ᎭᎵᏍᏓᏴᎲᎦ	-11.6767
▁ᎠᏉᎯᏳᎲᏍᎩ	-11.6767
▁ᏘᎦᎵᏍᏙ	-11.6767
▁ᎢᏣᏗᏔᏍᎨᏍᏗ	-11.6767
▁ᏥᏂᎬᏁᎭ	-11.6767
▁ᏙᏥᏲᎦ	-11.6767
▁ᏱᏂᎬᏩᏍᏗᏉ	-11.6767
▁ᏗᏂᏂᎨ	-11.6767
▁ᎢᎪᎯᏳᏅ	-11.6768
▁ᎡᎳᏆᏘ	-11.6768
▁ᎠᏆᏎᎵᏙᏔᏅ	-11.6768
▁ᏚᎾᏠᏱᎸᎩ	-11.6768
▁ᎤᏩᏴᏒ	-11.6768
▁ᎢᏳᎾᏓᎵ	-11.6768
▁ᏗᎬᏩᏂᎾᏝᎢ	-11.6768
▁ᏱᏦᎵᎦ	-11.6768
▁ᏴᎨᏤ	-11.6768
▁ᏂᏥᎾᏰᏍᎬᎾ	-11.6768
▁ᎤᏪᎧ	-11.6768
▁ᏚᏰᎵᏏᏙᎴᎢ	-11.6768
▁ᏕᏥᏁᏤᎮᏍᏗ	-11.6768
▁ᎠᎦᏘᏅᏍᏗᏱ	-11.6768
▁ᏥᏥᏃᎮᎭ	-11.6768
▁ᎤᎵᏏᏂᏕᎾ	-11.6768
▁ᎤᎾᏓᏅᎡᎸᎩ	-11.6768
▁ᏥᎩᎵᎵ	-11.6768
ᏍᏓᏩᏕᎦ	-11.6768
▁ᎠᏆᏣᏅᏓᏕ	-11.6768
▁ᏴᏗᏓᎴᎲᏍᎦ	-11.6768
▁ᏚᏍᏚᏤ	-11.6768
▁ᎦᎶᏁ	-11.6768
▁ᏍᏆᏕᏁᎸ	-11.6768
ᎨᎲᏒᎩ	-11.6768
▁ᎡᏣᏓᏅᏛᎵ	-11.6768
▁ᏚᏂᏃᎸᎩ	-11.6768
▁ᏧᏟᏴ	-11.6768
▁ᏯᎩᎸᏉᏗ	-11.6768
▁ᏕᏣᏓᏅᏖᏍᏗ	-11.6768
▁ᎢᎬᏴᏁᏗᏱ	-11.6768
▁ᏓᎾᎴᎯᏌᏅ	-11.6768
ᎥᏍᎩᏱᎩ	-11.6768
▁ᏕᏣᏓᎨᏳᏒ	-11.6768
▁ᎤᏗᎦᎵᏍᏙᏗᏍᎨ	-11.6768
▁ᏕᏣᎸᏫᏍᏓᏁᎮᏍᏗ	-11.6768
▁ᏗᎦᏅᏆᎶ	-11.6768
▁ᎠᎦᏘᏱ	-11.6768
▁ᏥᏗᎧᎸᎪ	-11.6768
ᎾᏣᏪᏐᎸᏍᏙᏗ	-11.6768
▁ᎢᏥᏫᏅ	-11.6768
▁ᎤᏙᎵᏍᏙ	-11.6768
▁ᏭᎦᏔᎲᏍᏔᏅ	-11.6769
▁ᎤᎩᎴᏍᏗ	-11.6769
▁ᎦᏓᏙᎵᏍᏗᏍᎨᏍᏗ	-11.6769
▁ᎠᎾᏙᎴᎰᏍᎨᏍᏗ	-11.6769
▁ᏯᏬᏅ	-11.6769
▁ᎠᏱᏍᎨᏍᏗ	-11.6769
▁ᎢᏗᎬᏓ	-11.6769
▁ᏥᎨᎳᏗᏙᎮ	-11.6769
▁ᏭᎵᏰᎢᎶᎸ	-11.6769
▁ᏍᎩᏯᏓᏅᏏ	-11.6769
▁ᎠᏕᏄ	-11.6769
ᏗᏫᏎᏗ	-11.6769
▁ᎢᏥᏂᎬᏎᎲᎢ	-11.6769
▁ᏓᏳᏍᏕᎸᎯ	-11.6769
▁ᏭᏂᎧᏁ	-11.6769
▁ᎢᎬᎾᏕ	-11.6769
▁ᎤᏩᏃᏫᏍ	-11.6769
▁ᎹᏚ	-11.6769
▁ᎤᏃᏒᏅ	-11.6769
ᏓᏚᎪᏓᏁᎭ	-11.6769
▁ᏌᎵᎹ	-11.6769
▁ᎠᏕᎰᎯᏍᏗ	-11.6769
▁ᏗᏣᏠᏱᎸᎩ	-11.6769
▁ᎦᎶᏐᏅ	-11.6769
▁ᎨᏣᎵᏍᏕᎸᏙᏗ	-11.6769
▁ᏗᎬᏣᏝᏅ	-11.6769
▁ᎤᎾᏂᎩᏍᏗ	-11.6769
▁ᎦᏁᏐᎠᏍᎬ	-11.6769
▁ᏧᏪᏲᏅᎯ	-11.6769
▁ᏫᏨᏲᏪᎳᏁᏗᏱ	-11.6769
▁ᏗᎦᎾᎯᏍᏙᏗ	-11.677
ᏓᏄᏴᏛᎾ	-11.677
▁ᏚᏅᏫᏍᏔᏅ	-11.677
▁ᏗᏤᎵᏏ	-11.677
▁ᏚᏂᏐᏈ	-11.677
▁ᎠᏥᏌᎳᏓᏅ	-11.677
▁ᏩᏎᎯ	-11.677
▁ᏥᎾᏬ	-11.677
ᎩᎩᎡᎵ	-11.677
▁ᎢᏣᏣᏪᏐᎸᏍᏓ	-11.677
▁ᏅᏩᏛᏁᏍᏗ	-11.677
▁ᏤᏥᎤᏍᏕᏎᏗᏱ	-11.677
▁ᏗᏂᏂᏙᎯ	-11.677
▁ᎣᎩᎾᏟᏃᎮᎸ	-11.677
ᏗᏔᏍᏔᏁ	-11.677
▁ᎢᏨᏲᎢᏳ	-11.677
▁ᏧᎾᏁᎳᏗᏍᏗᏱ	-11.677
▁ᎢᏳᏥᎶᏓ	-11.677
▁ᎤᏴᏍᏕᏍᎩ	-11.677
▁ᏋᏗᏱ	-11.677
▁ᎠᎬᏂᏗᏳ	-11.677
▁ᏥᏄᏪᏎᎴᎢ	-11.677
▁ᎯᏁᏒᎭ	-11.677
ᏃᏪᎳᏁ	-11.6771
ᏥᏲᎤᎯ	-11.6771
▁ᎢᏣᏓᏯᏫᏍᎨᏍᏗ	-11.6771
▁ᎢᏨᏯᏛᏁᏗᏱ	-11.6771
▁ᏧᏓᎴᏅᏔᏅᎯ	-11.6771
ᎪᏪᎵ	-11.6771
▁ᎠᎦᏬᎥ	-11.6771
▁ᎦᏁᎵᏛ	-11.6771
▁ᏄᎾᏍᏕᏍᏗ	-11.6771
▁ᎤᏍᏆᏄ	-11.6771
▁ᏫᏄᏩᏁᎴ	-11.6771
▁ᏚᎾᎵᏂᎬᎬ	-11.6771
▁ᏂᎦᏁᎲᎾ	-11.6771
▁ᏧᏬᏢᏙᏗ	-11.6771
▁ᏛᎨᏥ	-11.6771
ᏢᏈᏍᎦ	-11.6771
▁ᏗᏣᏚᏙ	-11.6771
▁ᎤᏍᏆᎸᎯᏗᏒᎩ	-11.6771
▁ᏳᏲᏤᎢ	-11.6771
▁ᎢᏣᏛᏓᏍᏗᏍ	-11.6771
▁ᏕᏨᏰ	-11.6771
ᏍᎦᏞᎢ	-11.6771
ᏙᎰᏎ	-11.6771
▁ᏄᏓᎨᏒ	-11.6771
▁ᏥᏚᏙᎠ	-11.6771
▁ᎤᏂᏏᏁᎢ	-11.6771
▁ᎤᏂᏑᎵᎪᏤ	-11.6771
▁ᎤᏓᏅᏓᏛᎩ	-11.6771
▁ᎡᏙᏙᏱ	-11.6771
▁ᎠᏅᏍᎬᎢ	-11.6772
▁ᎢᏨᏅᎵ	-11.6772
▁ᏅᏓᏳᏄᎪᏨᎯ	-11.6772
▁ᎢᏣᏛᎪᏗ	-11.6772
▁ᎮᎲ	-11.6772
▁ᎯᏫᏅ	-11.6772
▁ᏍᎩᏂᏌᏅᎭ	-11.6772
ᎶᏅᎮᎸ	-11.6772
▁ᎠᏂᎵᏫ	-11.6772
ᏎᏒᎮ	-11.6772
▁ᎢᏤᎳᏗᏙᎭ	-11.6772
▁ᏍᎩᏯᏘᏃᎮᎸᎭ	-11.6772
▁ᏣᎾᏓᎾᏏᏂᏙᎭ	-11.6772
▁ᏥᏯᎵᎪᏁᎯ	-11.6772
ᏅᎪᏣ	-11.6772
▁ᏥᎦᎷᎯᏍᏗᎭ	-11.6772
st	-11.6772
▁ᎢᏳᏪᏍᏘ	-11.6772
▁ᏂᏥᏪᏒᎭ	-11.6772
▁ᎬᎩᎷᏤᏗᏱ	-11.6772
▁ᎾᎾᏓᏁᏟᏴᏏᏒ	-11.6772
▁ᏓᏂᎾᏌᏛ	-11.6772
▁ᎣᏣᏓᏙᎵᏍᏓᏁ	-11.6772
▁ᏱᏄᏩᏁᎸ	-11.6772
▁ᏕᏨᏁᏍᏗ	-11.6772
▁ᎢᏦᎯᏳᏅ	-11.6772
▁ᏦᏥᎦᏔᎭ	-11.6772
▁ᏱᏙᎦᏰ	-11.6772
▁ᎡᏦᎢᏳᏗᏱ	-11.6772
ᏴᎳᏎᎢ	-11.6772
▁ᎨᏥᏁᎢᏍᏗᏍᎬ	-11.6772
▁ᎾᏥᏪᏎᎸ	-11.6772
▁ᎡᏥᏯᎡᏍᏗ	-11.6772
▁ᎤᎵᏍᏚᎸᎩ	-11.6773
▁ᎧᏁᎦ	-11.6773
▁ᎤᏂᏴᏔᏂᎯᏍᏗᏱ	-11.6773
▁ᎤᎾᏜᏏᏛᎡ	-11.6773
▁ᎠᎩᏁᎢᏍᏗᏱ	-11.6773
▁ᎢᏨᎪᏩᏛᏗᏱ	-11.6773
▁ᎠᏆᏛᏛᏅ	-11.6773
▁ᏦᏞᏍᏗ	-11.6773
ᎾᏓᏙᎵᏍᏗᏍᎪᎢ	-11.6773
▁ᏚᏃᎸᏎᎢ	-11.6773
▁ᏛᎾᏓ	-11.6773
▁ᏱᏣᏰᎸᏅ	-11.6773
▁ᏫᎯᎶᎯ	-11.6773
▁ᎨᎪᏢᏅᎯ	-11.6773
ᏍᏕᏓᎵᏴᏌ	-11.6773
ᏟᏫᏛᏗ	-11.6773
▁ᏱᎾᏥᎸᏉᏙ	-11.6773
▁ᎤᏰᏥᏍᎩ	-11.6773
▁ᏧᏂᎵᎡᎾ	-11.6773
▁ᏯᏆᏛᎦ	-11.6773
▁ᎰᎯᏳᎲᎦ	-11.6773
▁ᏂᎪᎵᎬᎾ	-11.6774
▁ᎬᏩᏂᏴᎮᎢ	-11.6774
▁ᎢᏥᎷᎨᏍᏗ	-11.6774
▁ᎥᎩᏍᏕᎸᏗᏱ	-11.6774
▁ᏥᏰᎸᎥ	-11.6774
▁ᏯᏲᎱᎯ	-11.6774
▁ᏧᏂᏲᎱᎯᏍᏗ	-11.6774
▁ᎯᏲᏎᎸ	-11.6774
▁ᎢᏨᎷᏤᏗᏱ	-11.6774
▁ᎤᎵᏍᏆᏙᏅ	-11.6774
▁ᎠᎦᎸᏥ	-11.6774
▁ᏂᏯᏛᏂᏏ	-11.6774
▁ᏱᎦᏕᎣᏍᎦ	-11.6774
ᏓᏐᎴ	-11.6774
▁ᏗᎦᏅᏍᏙᏗ	-11.6774
ᏅᏮᎦ	-11.6774
▁ᎠᏧ	-11.6774
▁ᎯᏲᏍᏗᏍᎩ	-11.6774
ᏐᏈ	-11.6774
▁ᏕᏨᏗᏍᎨᏍᏗ	-11.6774
▁ᎠᏯᏖᏂ	-11.6774
▁ᏱᎾᏛᏁᎮ	-11.6774
▁ᏕᏥᎸᏉᏕᏍᏗ	-11.6774
▁ᎠᏆᏙᎴᎰᏒ	-11.6774
ᎩᏠᏫᏍ	-11.6774
▁ᎤᏬᎯᏳᎯᏍᏛ	-11.6774
▁ᏚᏃᎯᏳ	-11.6774
▁ᎤᏂᏯᏙᎴ	-11.6774
▁ᏗᎨᎪᏍ	-11.6774
ᏠᏱᎸᎩ	-11.6774
▁ᎢᏯᏆᎵᏍᏓᏁᏗ	-11.6774
▁ᏣᏍᏉᏂᎪᏗ	-11.6774
▁ᏥᎦᏁᎭ	-11.6774
▁ᎠᎩᎾᏄᎪᏫᏎᎸᎩ	-11.6774
ᏯᏓᏅᏏ	-11.6775
▁ᎠᎩᎸᏗᏍᎩ	-11.6775
▁ᏕᎦᎶᏍᎬ	-11.6775
ᏥᏍᏓᏱᏕᎸ	-11.6775
▁ᎠᎾᏓᏁᏟᏴᏏᏒ	-11.6775
▁ᎦᏓᏆᏟ	-11.6775
▁ᎪᏢᏍᎦ	-11.6775
▁ᏕᎨᏥᎵᎥᏂ	-11.6775
▁ᎭᏓᏙᎵᏍᏗᏍᎬ	-11.6775
▁ᎤᎾᏓᏅᏔᏩᏕ	-11.6775
▁ᏣᏓᏅᏖᏗᏱ	-11.6775
▁ᎠᎵᎮᎵᏤᎰᎢ	-11.6775
▁ᎢᏨᎥᏏ	-11.6775
▁ᏫᏄᏒ	-11.6775
ᏠᎯᏍᏗᏱ	-11.6775
▁ᏧᏂᎦᏯᎷᏗ	-11.6775
▁ᎤᎾᏓᏙᎵᏍᏙᏗᏱ	-11.6775
▁ᏖᏒ	-11.6775
▁ᏚᏂᎵᏦᏛ	-11.6775
▁ᎠᎩᏟᏲ	-11.6775
▁ᏧᎵᏏᏅᏓ	-11.6775
▁ᏄᏛᏁᎵᏙᎸ	-11.6775
▁ᏧᏓᏂᎸᎢᏍᏗᏳ	-11.6775
▁ᏕᎯᎦᏔᎭ	-11.6775
▁ᏳᏣᏅ	-11.6775
▁ᎤᎶᎩᎳ	-11.6775
▁ᏳᎴᏫᏍᏔᎾ	-11.6775
ᎶᎩᎯ	-11.6776
▁ᎤᏓᏴᏒᎩ	-11.6776
▁ᎠᏆᏎᎵᏔᏅ	-11.6776
▁ᎢᏣᏗᏔᏍᏗᏱ	-11.6776
▁ᎦᏃᏙᏗ	-11.6776
▁ᎤᎾᏓᏕᏒᏓ	-11.6776
▁ᎤᏂᏲᏍᏙᏗᏱ	-11.6776
ᎦᏎᏍᏔᏅ	-11.6776
▁ᎠᏑᎲᏍᎦ	-11.6776
▁ᎢᏣᏓᏅᏓᏗᏍᏗᏱ	-11.6776
▁ᏥᎦᏘᏏᏗᏢ	-11.6776
▁ᎤᎱᏍᏕᏎᎴ	-11.6776
▁ᎤᎵᏍᎫᏮ	-11.6776
▁ᎤᎵᏍᏛᏧᏅ	-11.6776
▁ᎤᏯᏍᏚᏎᎢ	-11.6776
▁ᎤᎵᏬᎢᏍᏗ	-11.6776
▁ᎤᏁᏍᎨᎲᎢ	-11.6776
▁ᎤᏅᎦᎳᎲ	-11.6776
▁ᎤᏰᏣ	-11.6776
▁ᎠᏔᏍᎩᏍ	-11.6776
▁ᎣᏣᎢᏒ	-11.6776
ᎪᎲᏍᏔᏂ	-11.6776
ᏓᎾᏌᎲᏍᎩ	-11.6776
▁ᏚᏓᏬᎥ	-11.6776
▁ᎢᏣᎴᏂᏓᏍᏗᏱ	-11.6776
▁ᎤᏟᎶᎥᎩ	-11.6777
ᎱᏩ	-11.6777
▁ᏥᏁᏣᏛᏁ	-11.6777
ᏃᎲᎳ	-11.6777
▁ᎢᎬᏩᏂᎩᏍᏔᏁ	-11.6777
▁ᏥᎦᏡᎦ	-11.6777
ᏧᎧᎸᏨ	-11.6777
▁ᏥᎦᏘᏯ	-11.6777
▁ᎯᏃᎮᏍᎩ	-11.6777
▁ᏗᏑᏫᏍᎩ	-11.6777
ᏬᎯᎵᏴᏍᏓᏁ	-11.6777
▁ᏤᏣᏛᏅᎩ	-11.6777
▁ᎾᏆᎵᏍᏔᏁᎸ	-11.6777
▁ᏫᏂᏣ	-11.6777
▁ᎣᎦᏅᏅᎩ	-11.6777
▁ᏂᎬᏩᏍᏛ	-11.6778
▁ᎢᏥᎷᏤᏗ	-11.6778
▁ᏧᏂᏍᏚᏗ	-11.6778
ᎨᏳᏣ	-11.6778
▁ᎨᏥᏛᎦ	-11.6778
▁ᏙᏛᎠᎴ	-11.6778
▁ᏳᏩᏛᎮᎢ	-11.6778
▁ᏗᎦᏁᎶ	-11.6778
▁ᏭᏗᏅᏎ	-11.6778
▁ᎤᏩᎦᏘ	-11.6778
▁ᏱᏥᏩᏘᎭ	-11.6778
▁ᎠᏯᎣᎢ	-11.6778
▁ᎤᏂᏁᎢᏍᏗ	-11.6778
▁ᎤᎾᏓᏄᎸᏗ	-11.6778
ᎫᏈ	-11.6778
ᏋᏕᏨ	-11.6778
▁ᏚᏄᎪᏫᏎ	-11.6778
▁ᏗᏓᏘᏍᏗ	-11.6778
ᏓᎦᎵᏍᏙᏔᏂ	-11.6778
▁ᎢᏳᎾᏕᏘᏴᏛ	-11.6778
▁ᏅᏛᏁᎵ	-11.6779
▁ᏫᏚᎧᎾᏅ	-11.6779
▁ᎤᏁᏌᏴ	-11.6779
ᏤᏙᎭ	-11.6779
▁ᎤᎭᏄᏮ	-11.6779
▁ᎤᎬᎭᏓ	-11.6779
▁ᎤᏴᏍᏕᏓ	-11.6779
▁ᏧᎭᎾᏬ	-11.6779
▁ᎠᎾᎵᎲᎢ	-11.6779
▁ᏓᎪᏩᏘᏍᎬ	-11.6779
▁ᎡᏤᎵᏎ	-11.6779
▁ᎤᏗᏩᏒᎩ	-11.6779
ᏩᏍᏗᎭ	-11.6779
▁ᎢᏥᎦᏔᎯᏳ	-11.6779
▁ᎠᏥᎸᎨᎳᏍᏙᏗ	-11.678
▁ᏧᏪᏲᎲᏍᎩ	-11.678
▁ᎡᎩᏩ	-11.678
ᎦᏑ	-11.678
▁ᎠᏆᏢᏈᏍᏗᏱ	-11.678
▁ᎠᏂᏯᏙᎯᎯ	-11.678
▁ᎣᎾᏫᏱ	-11.678
▁ᎹᏌ	-11.678
▁ᏣᏱᎵᏙᎯ	-11.678
▁ᎤᏂᎪᎵᏰᏗᏱ	-11.678
▁ᏁᏨᏁ	-11.678
▁ᎬᏩᏂᏍᎦᎩ	-11.678
▁ᏱᏦᎯᏳᎲᎦ	-11.678
ᏓᎾᏫᏛᏗ	-11.678
▁ᏂᏍᎩᏴᏁᎸ	-11.678
▁ᏄᏛᏁᎳ	-11.678
▁ᏚᏯᏅᎮᎢ	-11.678
▁ᏧᏪᏙᎵᏍᏗᏱ	-11.678
▁ᎦᏃᎱᎩᏍᎨ	-11.678
▁ᏚᏍᏚᎢᏎ	-11.678
▁ᎥᏘᏍᎩ	-11.6781
ᏯᏠᎢᏍᏓᏁᎵ	-11.6781
▁ᏍᎩᏩᎯ	-11.6781
ᏚᏁᎢ	-11.6781
▁ᎬᏩᏍᏚᎢᏍᏗ	-11.6781
▁ᏫᏂᎬᎦ	-11.6781
▁ᏥᏚᎦᏒᏍᏙ	-11.6781
▁ᎠᎫᏣ	-11.6781
▁ᎭᏅᏓᏓ	-11.6781
▁ᏓᏆᎴᎸ	-11.6781
ᎾᏟᏃᎮᎸ	-11.6781
▁ᎠᎵᏍᎩᏍᏗ	-11.6781
▁ᏧᎾᏔᎾ	-11.6781
▁ᏫᏥᏤᎢ	-11.6781
▁ᎠᏂᎪᏩᏘᏍᎩ	-11.6782
▁ᎦᏓᏫᏔᏅ	-11.6782
▁ᏗᏣᏏᎳᏛᏗ	-11.6782
▁ᏧᏩᎿ	-11.6782
ᏥᏰᎸᏂ	-11.6782
ᏕᎶᏆᎡ	-11.6782
▁ᎤᏰᎾᎥ	-11.6782
▁ᎢᏣᏙᎴᎰᎯᏍᏗᏱ	-11.6782
▁ᎢᏣᏓᏅᏙ	-11.6782
▁ᎠᏓᎦᏘᏕᎯ	-11.6782
▁ᏱᎨᏩ	-11.6782
▁ᏧᏂᎶᏒ	-11.6782
▁ᏒᏍᎦ	-11.6783
▁ᏫᎾᏛᎦ	-11.6783
▁ᎢᎩᏍᏕᎵᎭ	-11.6783
▁ᎯᎦᏔᎮᏍᏗ	-11.6783
▁ᎠᏂᏍᎦᏰᎬᏍᏔ	-11.6783
▁ᎦᏃᏟ	-11.6783
▁ᏗᎦᏚᏗᏱ	-11.6783
▁ᎤᎾᏓᏙᎵᏍᏗ	-11.6783
ᏓᏨᎾᏄᎪᏫᏎᎵ	-11.6784
▁ᏑᏥᎶ	-11.6784
▁ᏧᏴᎴ	-11.6784
▁ᏤᏙᎸᎢ	-11.6784
▁ᎤᏍᏆᎸᎮ	-11.6784
ᎧᎲᏍᎩ	-11.6784
▁ᏙᎨᏥ	-11.6784
ᏣᏘᏃᎸᎭ	-11.6784
▁ᎠᎩᏃᎮᏍᎬᎢ	-11.6784
ᏏᏏᏍᎩ	-11.6784
▁ᎤᏂᎷᎯᏍᏗ	-11.6784
▁ᏥᏕᏙᎭ	-11.6784
▁ᏯᏃᎯᏳᎲ	-11.6785
ᏇᏓᏍᏗ	-11.6785
▁ᎠᏆᏅᏛ	-11.6785
▁ᎢᏥᎪᏩᏛ	-11.6785
▁ᎾᏑᎵᎪᎬᎾ	-11.6785
▁ᎢᏕᎮᏍᏗ	-11.6785
▁ᎡᏤᏲᏅᎢ	-11.6785
ᎴᎳᏛᏅ	-11.6785
▁ᎬᏁᏤᎲᎢ	-11.6785
▁ᏚᏃᏪᎸᎢ	-11.6785
▁ᎢᏨᏁᎢᏍᏗᏍᎬᎢ	-11.6785
▁ᎤᎾᏓᏁᏟᏴᏒᏒᎢ	-11.6785
▁ᏄᏍᏗᏕᎬᎢ	-11.6785
▁ᏓᎪᏄᎴᎢ	-11.6785
▁ᏚᏪᏣᎦᎸᎮᎢ	-11.6785
▁ᏧᏁᏢᏔᏅᏒᎢ	-11.6785
▁ᏧᎾᏄᎪᏤᎢ	-11.6785
▁ᎤᏓᏅᏔᏕᎢ	-11.6785
▁ᎨᏣᏓᏑᏴ	-11.6785
▁ᏗᏣᎵᏂᎪᎯᏍᏙᏗᏱ	-11.6785
▁ᎠᎦᏬᎡᎢ	-11.6785
▁ᏅᏓᎬᏩᏓᎴ	-11.6785
▁ᏩᏲᎯ	-11.6785
▁ᏭᎷᎯᏍᏗ	-11.6785
▁ᎬᏩᎨᏳᎯ	-11.6785
▁ᎤᎾᏁᏢᏔᏅᏒᎢ	-11.6786
▁ᎦᏐᏂ	-11.6786
▁ᎻᏌ	-11.6786
ᏕᏠᏆᎥ	-11.6786
▁ᎤᎸᏖᎴ	-11.6786
ᏥᏍᎦᎢᎭ	-11.6786
▁ᎣᏥᏬᏂ	-11.6786
ᏍᏓᏩᏕᎪᎢ	-11.6786
▁ᎢᏤᏙᎮᏍᏗ	-11.6786
▁ᏕᎬᏩᏘᏃᎮᎴᎢ	-11.6786
▁ᏭᏅᎪᏤ	-11.6786
▁ᎤᏚᎢᏍᏓᏁᎸ	-11.6786
▁ᏭᎳᏛ	-11.6787
▁ᏕᎭᏕᏲᎲᏍᎬᎢ	-11.6787
ᏝᎲᎦ	-11.6787
▁ᏓᎾᎵᏍᏓᏴᎲᏍᎨᎢ	-11.6787
▁ᏥᏓᎩᏂᏴ	-11.6787
▁ᎢᎦᎵᏍᏓᏁᏗ	-11.6787
▁ᎦᎳᎨᏰ	-11.6787
▁ᏫᎤᏂᎶᏎᎢ	-11.6787
▁ᏅᏛᎾᎵᏍᏔᏂ	-11.6787
▁ᏙᏓᏳᎸᏫᏍᏓᏁᎵ	-11.6787
▁ᏭᏙᎯᏳᎲ	-11.6787
▁ᎤᎾᏁᎳᏗᏍᏗᏱ	-11.6787
▁ᏅᏓᎦᏛᏁᎵ	-11.6787
▁ᏓᎪᏪᎳᏂ	-11.6787
▁ᏨᏗᎦᏚᎭ	-11.6787
▁ᎠᎻᎳᎻ	-11.6787
▁ᎧᏃᎨ	-11.6787
▁ᏚᏄᏬᎡᎢ	-11.6787
▁ᏓᏂᎧᎿᏩᏗ	-11.6787
▁ᏃᎦᏛᏁᎸ	-11.6787
▁ᎤᏂᏛᏗᏍᎩ	-11.6788
▁ᏓᏰᏥᏁᎵ	-11.6788
▁ᎰᎵᏈ	-11.6788
ᎵᏯᎻ	-11.6788
▁ᏧᎾᏓᎵ	-11.6788
▁ᏍᎩᏁᏥ	-11.6788
ᏦᎵ	-11.6788
▁ᏧᎦᏙᏍᏙᏗ	-11.6788
▁ᏫᎷᎩ	-11.6788
ᏂᏆᏘᎸ	-11.6788
▁ᏚᏂᎵᏬᏤᎢ	-11.6788
▁ᏫᏗᎦᏘ	-11.6788
▁ᏧᏂᏣᏔ	-11.6788
▁ᏚᏖ	-11.6788
▁ᎪᎵᎦᏓ	-11.6789
ᏴᎯᏓ	-11.6789
▁ᏂᏚᏂᎨᏳᏒ	-11.6789
▁ᏣᏫᏎᎢ	-11.6789
▁ᏚᏅᏩᏁᎢ	-11.6789
ᏂᎦᏛᏁᎰᎢ	-11.6789
▁ᎤᎸᏁ	-11.6789
▁ᏧᏂᎷᏤᎸ	-11.6789
▁ᏗᏩᎾᎨ	-11.6789
ᎪᏪᎸᎾ	-11.6789
▁ᎤᏓᏙᎵᏣᏘ	-11.6789
▁ᎤᎦᏔᏔᏁᎢ	-11.679
▁ᎠᏆᏓᏅᏖᏙᏗ	-11.679
▁ᎢᏍᏛᏯ	-11.679
▁ᎤᎬᎥᏍᎬ	-11.679
▁ᏳᎵᏬᏨ	-11.679
ᏮᏕᏨ	-11.679
▁ᎹᎳ	-11.679
▁ᏱᏄᎾᏍᏗ	-11.679
▁ᏚᎦᏔᏍᏔ	-11.679
▁ᎤᏴᏨ	-11.679
▁ᏅᎩᏗᏂᏅᏌᏗ	-11.679
▁ᏱᎾᏰᏍᎨᏍᏗ	-11.679
▁ᎢᏯᎩᏪᏍᏗᏱ	-11.679
▁ᎣᎦᎵᏍᏓᏴᏗᏱ	-11.679
▁ᏯᏖᎾ	-11.679
▁ᎠᏓᏍᏕᎵᏍᎩ	-11.679
▁ᎤᏌᎨ	-11.679
▁ᎢᏳᏅᏁᎯ	-11.679
▁ᏗᎨᏥᏰᎯ	-11.679
▁ᎨᏥᏃᎮᏍᎬᎢ	-11.6791
▁ᎢᏳᏩᏁᏗ	-11.6791
▁ᎠᏲᏍᏗᏍᎪ	-11.6791
▁ᎭᎵᏘ	-11.6791
▁ᎠᏂᎪᏩᏗᏍᎬ	-11.6791
▁ᎬᎫᏍ	-11.6791
▁ᎠᏓᏏᏎ	-11.6791
▁ᎭᏓᏅᏖᎭ	-11.6791
▁ᏚᏯᏙᎮᎴ	-11.6791
▁ᏓᏎᎯ	-11.6791
▁ᎤᏗᎦᎵᏍᏙᏗᏍᎨᏍᏗ	-11.6791
▁ᎤᏂᎿᎥᎢ	-11.6791
▁ᎠᏂᏃᎲᏍᎨ	-11.6791
▁ᎤᏴᎴᎢ	-11.6791
▁ᎬᏩᏕᎰᎯᏍ	-11.6791
▁ᎤᎵᏍᏓᏴᏅ	-11.6792
▁ᏗᎾᏟ	-11.6792
▁ᎤᎧᎭᏲ	-11.6792
▁ᏩᏥᎳᎨ	-11.6792
▁ᎤᎾᎳᏍᏓᎡᏗ	-11.6792
▁ᏚᏅᏴ	-11.6792
ᎦᏂᏍᎬ	-11.6792
▁ᎠᎭᎾᏬ	-11.6792
▁ᏄᎾᎵᏍᏔᏁᎲ	-11.6792
▁ᎤᏗᎴᎬ	-11.6792
▁ᏕᎯᏬᏁᏗᏍᎬ	-11.6792
▁ᎯᎷᏨ	-11.6793
▁ᎠᎵᏰᎢᎶᎦ	-11.6793
▁ᎦᎵᏦᏩᏛ	-11.6793
▁ᎨᏥᏙᎵᏍᏗ	-11.6793
ᏛᏅᎢᏍᏓᏁᏗᏱ	-11.6793
▁ᏱᏅᏗᎦᎵᏍᏙᏗᏍᎨᏍᏗ	-11.6793
▁ᎢᏳᏏᏗ	-11.6793
▁ᎠᏆᏤᎵᎪᎯ	-11.6793
▁ᎤᎾᏓᏅᏍᏗ	-11.6793
▁ᎤᏂᎧᎭᏲ	-11.6793
▁ᎦᎬᏙᏗ	-11.6793
ᎩᏩᏛᎲᎩ	-11.6793
ᏂᏆᏘᎲ	-11.6794
▁ᏗᎦᏁᎯ	-11.6794
▁ᎤᏍᏗᎩᎨ	-11.6794
▁ᏱᏅᏗᎦᎵᏍᏙᏗᏍᎨ	-11.6794
▁ᎡᎵᎻ	-11.6794
▁ᏗᎦᏥᏯ	-11.6794
ᎵᏍᏆᏗ	-11.6794
▁ᏳᏪᎵᏎ	-11.6794
▁ᏚᏑᎦᏢ	-11.6794
▁ᎠᎵᏍᏓᏴᎲᏍᎩ	-11.6795
▁ᎣᎩᎪᎲᎯ	-11.6795
▁ᎦᎭᏛ	-11.6795
▁ᎠᏃᏎᎮ	-11.6795
ᏕᎰᏏ	-11.6795
▁ᎠᏯᏛᎥ	-11.6795
▁ᏱᏂᏙ	-11.6795
▁ᎦᎷᎨᏍᏗ	-11.6795
ᏗᎦᏔᏫᎢᏍᏗᏱ	-11.6795
▁ᎤᏬᎯᏤ	-11.6796
▁ᏣᏂᏃᎮᎭ	-11.6796
▁ᎨᎪᏣᎴᏛ	-11.6796
▁ᏱᏄᏅᏁ	-11.6796
▁ᎤᏲᎱᏏᏕᎾ	-11.6796
▁ᎤᏬᏍᎩᎵ	-11.6796
▁ᏗᏣᏘᏄᎦ	-11.6796
ᏄᏬᎥᎭ	-11.6796
▁ᎠᏆᎵᎮᎵᏍᏗᏱ	-11.6796
▁ᎤᎵᏏᎲᏎ	-11.6796
ᏂᏍᏚᎩ	-11.6796
ᏓᎵᏅᏟ	-11.6797
▁ᏗᎦᏆᏘ	-11.6797
▁ᎠᏆᎵᎮᎵᏨᎩ	-11.6797
▁ᏄᏪᎵᏍ	-11.6797
▁ᏱᏥᎪ	-11.6797
▁ᏧᏓᏂᎸᎢᏍᏗ	-11.6797
ᎦᎧᎲᏍᎨᏍᏗ	-11.6797
▁ᏓᏐᏴᎢ	-11.6797
▁ᏫᏚᏩ	-11.6797
ᎮᏗᏱ	-11.6797
▁ᎤᎵᏛᏔᏁᎢ	-11.6797
▁ᎯᎷᎩ	-11.6797
▁ᏚᏬᎥᎩ	-11.6797
▁ᎤᏗᏍᎦᎶᏗ	-11.6797
▁ᏫᏥᎶᎢ	-11.6797
▁ᎤᏩᏓᎴ	-11.6797
▁ᎢᎳᏍᏓ	-11.6798
▁ᎤᏣᎢᏒ	-11.6798
▁ᎠᎾᎵᏥᏙᎲᏍᎦ	-11.6798
▁ᏚᎪᏓᏁᎯ	-11.6798
▁ᏗᏍᏆᏂᎪᏗᏍᎩ	-11.6798
▁ᎡᏥᏲᎭ	-11.6798
ᏓᎤᎦ	-11.6798
▁ᏓᎫᏩ	-11.6798
▁ᏗᎦᏅᎬ	-11.6798
▁ᏓᏃᏎᎰ	-11.6799
▁ᎣᏥᏃᎮᎭ	-11.6799
▁ᎤᎾᎦᏙᏍᏛ	-11.6799
▁ᎦᎧᎮ	-11.6799
▁ᎠᏒᏛᏓ	-11.6799
▁ᎠᏍᏆᎸᎲᎭ	-11.6799
ᏍᏆᏃᏴᎪ	-11.6799
▁ᎠᎦᏐ	-11.6799
▁ᎢᏗᎹ	-11.6799
▁ᏗᎨᎦᎦᏅᏗ	-11.6799
▁ᎤᎵᏦᏔᏁᎢ	-11.6799
▁ᏙᏛᏁᎵ	-11.6799
▁ᎠᏕᏲᎲ	-11.68
▁ᏳᏗᏔ	-11.68
▁ᏙᏓᏨ	-11.68
ᏕᏁᎵ	-11.68
▁ᎤᎸᏓᎸᎥᏍᎩ	-11.68
▁ᏦᎩᎾᏫᏱ	-11.68
▁ᎭᏑ	-11.68
▁ᎠᏓᏬᏍᏗᏱ	-11.68
▁ᎤᎿᏬᎡ	-11.68
▁ᎠᏟᏃᎮᏙᏗ	-11.6801
▁ᏚᏂᏴᎲ	-11.6801
ᏟᏂᎬᏁᎰ	-11.6801
▁ᏱᏥᏁᎦ	-11.6801
▁ᏗᎬᏩᏂᏐᏢ	-11.6801
▁ᎤᏒᎦᎸᎩ	-11.6801
▁ᎤᎾᏤᎸᎯ	-11.6801
ᎦᏓᎴᏅᎯ	-11.6801
▁ᏳᏲᎰ	-11.6801
▁ᏖᏒᎭ	-11.6801
▁ᎠᏂᏔᏲᎯᎮᏍᏗ	-11.6801
ᎶᏇ	-11.6801
▁ᏳᏇᏗ	-11.6801
▁ᎠᏃᏢᏍᎬ	-11.6801
▁ᏚᏙᎡᏍᏗ	-11.6802
▁ᏍᎩᏁᎮᏍᏗ	-11.6802
▁ᎡᎳᎻ	-11.6802
▁ᏆᏙ	-11.6802
ᎵᏂᎪᎯᏍᏙᏗᏱ	-11.6802
▁ᏘᏅᎵ	-11.6802
▁ᎤᎾᎦᏎᏍ	-11.6802
▁ᏱᎦᏗᎭ	-11.6802
▁ᎠᏯᏨᏗ	-11.6802
▁ᏄᏦ	-11.6803
▁ᏓᏨᏍᏛ	-11.6803
▁ᏗᎦᏐᎯ	-11.6803
ᏖᎳᏛ	-11.6803
ᏱᎵᏕᎲᎢ	-11.6803
▁ᏣᏣᏪᏐᎸᏍᏙᏗ	-11.6803
ᏴᎳᏏ	-11.6803
▁ᏝᏬ	-11.6804
ᏅᏓᎨᏨᏁᎵ	-11.6804
▁ᎠᏥᏍᏚᏗ	-11.6804
▁ᎤᎾᎵᏍᏓᏴᏅᎩ	-11.6804
ᏓᏁᏏ	-11.6804
▁ᏳᏰᎸᏅ	-11.6804
▁ᎢᎶᏂ	-11.6805
▁ᏣᏁᏤᏗᏱ	-11.6805
▁ᎢᏣᏓᏁᎮᏍᏗ	-11.6805
▁ᎠᏂᎶᏍᎬ	-11.6805
ᎧᎿᏩᏛᎡ	-11.6805
▁ᎤᎵᎥᏂᎸ	-11.6805
▁ᏥᏍᎩᏯ	-11.6806
▁ᎢᏨᏃᏁᎸᎯ	-11.6806
▁ᎤᎵᏍᎪᎸᏓᏁᎸᎩ	-11.6806
▁ᎤᏍᏚᏞ	-11.6806
▁ᎦᏰᏣ	-11.6806
ᏛᏂᎸᏉᏔᏂ	-11.6806
▁ᎻᎵ	-11.6806
▁ᎠᎺᏉ	-11.6806
▁ᎬᏁᏤᎸᎢ	-11.6806
▁ᏙᏨᏗᏍ	-11.6807
▁ᎾᎾᎵᏍᏗᏍᎪ	-11.6807
▁ᏓᎾᏣ	-11.6807
ᎤᏰᎸᏗ	-11.6807
ᏩᎵ	-11.6807
▁ᎬᏩᏡᏗᏍᎬᎢ	-11.6807
ᏐᏲ	-11.6807
▁ᎠᏂᎩᎵᏲ	-11.6808
▁ᎡᎩᏍᏕᎸᏗᏱ	-11.6808
▁ᎤᏁᎷᏅ	-11.6808
ᏓᏕᎵᏎ	-11.6808
▁ᎤᏯᎷᎦ	-11.6808
▁ᏣᎷᏨ	-11.6809
▁ᏫᎦᎶᏍᎬ	-11.6809
ᏆᎴᎳ	-11.6809
▁ᏓᎩᎧᎭ	-11.6809
▁ᏄᏓᏛᏁᎴ	-11.6809
ᏐᎯᏍᏗ	-11.6809
ᏅᎬᏛ	-11.6809
ᎵᏔᏕ	-11.681
▁ᎡᏥᏯᏅᎲ	-11.681
▁ᏄᏃᎯ	-11.681
▁ᏩᏴᎭ	-11.681
ᏗᎨᎳᏍᏙᏗ	-11.681
▁ᎤᏩᏂᎴᎢ	-11.681
▁ᏱᏓᎩᏯ	-11.681
▁ᎢᏳᏂᏁᎫᏥ	-11.6811
▁ᎠᏛᏁᎮᏍᏗ	-11.6811
▁ᎤᎾᏓᏅᏖᏛ	-11.6811
▁ᎤᎪᎵᏰᏗᏱ	-11.6811
▁ᏥᎨᎲ	-11.6811
ᏥᎾᏝᎢ	-11.6811
ᏥᏰᎵᏒ	-11.6811
▁ᏓᏁᎶᏛᎩ	-11.6811
▁ᎦᎷᎪᎢ	-11.6811
▁ᏓᏟ	-11.6812
▁ᎾᏂᏪᎭ	-11.6812
▁ᏣᏰᎸᏗ	-11.6812
▁ᏕᎨᏥᏂ	-11.6812
ᎧᏔᏁ	-11.6812
ᏕᏙᎲᎩ	-11.6812
ᎨᎦᏛᏅᎢᏍᏓᏁᎸ	-11.6812
▁ᎠᎦᏍᎦ	-11.6812
▁ᎩᎦᎨᎠᏗᏔᏍᏗ	-11.6812
▁ᏭᏓᎾᏫᏛᎮ	-11.6812
▁ᎨᏥᏛᏙᏗᏱ	-11.6813
ᏍᏆᏗᏍᏗᏍᎩ	-11.6813
▁ᏄᎵᏍᏓᏁᎲ	-11.6813
▁ᎤᏂᏂᎩᏛ	-11.6813
▁ᎤᏍᏆᏗᏍᏗᏱ	-11.6813
▁ᎤᏂᏍᎦᎢᏍᏗ	-11.6813
▁ᎤᎦᏌᏯᏍᏗᏕᎩ	-11.6813
▁ᎤᏬᏝ	-11.6813
▁ᏴᏧ	-11.6813
▁ᎤᏓᏅᏖᏗᏍᎨᎢ	-11.6814
▁ᎠᎵᏌᎳᏗᏍᎬ	-11.6814
▁ᏧᏂᏒᏍᏗᏱ	-11.6815
▁ᏍᏔᎵ	-11.6815
▁ᎦᏢᏗ	-11.6815
▁ᎤᎾᏎᎸ	-11.6815
▁ᏗᎤᎷᏨ	-11.6815
▁ᏥᎧᎸ	-11.6815
▁ᏧᎦᏅ	-11.6816
▁ᎠᏌᏍᏛ	-11.6816
ᏥᏯᏫᏍᎬ	-11.6816
▁ᎤᏂᎪᎵᏰᎥ	-11.6816
▁ᏗᏌ	-11.6816
▁ᎤᏅᎪᏨ	-11.6817
ᎳᏑᎳᎩ	-11.6817
▁ᎤᎾᏨᏏ	-11.6817
▁ᏱᏍᎩᏃᎯᏎ	-11.6817
▁ᏚᏂᏂᏴᎲ	-11.6817
▁ᎣᎩᏍᎦᏅᏨᎢ	-11.6817
ᎰᎻ	-11.6817
ᏓᏁᎶᏗ	-11.6818
ᏓᏙᎵᏣᏘᏳ	-11.6818
ᎦᎪᎯᏳᏗ	-11.6818
▁ᎤᏂᏲᎸᎯ	-11.6818
▁ᏂᏥᏃᎯ	-11.6819
▁ᏄᏓᏪᏎᎴ	-11.6819
▁ᏱᏣᏚᎵᎭ	-11.6819
▁ᎢᏣᏓᏅᏓᏛ	-11.6819
ᏫᏗᏍᎩ	-11.6819
▁ᎤᎾᏚᎸᏅᏗ	-11.682
▁ᎦᏥᎪᎥ	-11.682
▁ᎣᏥᏁᎦ	-11.682
▁ᏥᏄᏍᏙ	-11.682
▁ᏗᎪᏢᏙᏗ	-11.682
▁ᏚᏑᏰᏎ	-11.682
▁ᏕᏥᎨᏳᏒ	-11.682
▁ᏧᏂᎧᎿᏩᏛᏍᏗᏱ	-11.6821
▁ᏇᏓᏁᎳᎻᏱ	-11.6821
ᏱᎵᏓᏍᏗᏱ	-11.6821
▁ᏂᏣᎵᏍᏓᏁᎲᎢ	-11.6821
▁ᎤᏗᏔᎮᎢ	-11.6821
▁ᎤᏬᏁᏔᏅᎢ	-11.6821
▁ᏄᎾᏛᎿᏕᎬᎢ	-11.6821
▁ᏕᎦᎸᏫᏍᏓᏁᎸᎢ	-11.6821
▁ᏥᏮᎦᏙᎢ	-11.6821
▁ᎤᏁᎳᏫᏎᎲᎢ	-11.6821
ᎵᏐᏍᏗ	-11.6821
ᏛᏓᏍᏓᏁᏗᏱ	-11.6821
▁ᏨᏓᎸᎢ	-11.6821
▁ᏣᏛᏁᎸ	-11.6821
▁ᎠᎩᏰᎸᏗᏱ	-11.6821
▁ᎠᏅᏬᎳᏕᏍ	-11.6822
▁ᎤᏲᎰᏒ	-11.6822
▁ᏓᏂᏐ	-11.6822
▁ᎢᏣᎵᎪᎯ	-11.6822
▁ᎤᎾᏏᏁ	-11.6822
ᎭᏄᏩ	-11.6822
ᏘᏅᏍᏗᏱ	-11.6822
▁ᎬᏃᏌᏍᏗ	-11.6822
ᎫᏴᎡᎸ	-11.6823
▁ᏭᏩᎦᏘᏗᏒᎢ	-11.6823
▁ᏓᏂᏬᏂᏍᎬᎢ	-11.6823
▁ᎤᏩᏛᏛ	-11.6823
ᏅᏨᎾ	-11.6823
▁ᏂᏣᎵᏍᏔᏅᎩ	-11.6824
▁ᏚᏂᎳᏫᏨᎩ	-11.6824
ᏣᎦᏔᎲᏛ	-11.6824
▁ᏚᎸᏫᏍᏓᏁᎭ	-11.6824
▁ᏥᏄᏪᏒᎩ	-11.6824
▁ᎢᏣᎢᏒᎢ	-11.6824
▁ᎠᏥᏍᏙᏗ	-11.6825
ᏌᏛᏅᎩ	-11.6825
▁ᏧᎶᎯᏍᏗ	-11.6825
▁ᎤᏁᎵᏒᎩ	-11.6825
ᏅᎥᏏ	-11.6825
▁ᎦᎴᏂᏙᎲ	-11.6825
▁ᏓᎩᎪᎲᎩ	-11.6826
▁ᎴᏈ	-11.6826
▁ᎤᎾᎵᏖᎸᏅᎩ	-11.6826
▁ᏍᎩᏅᎦᎸ	-11.6826
▁ᏚᏬᏁᏔᏁᎢ	-11.6826
▁ᏓᏍᏔᏅᏅ	-11.6826
▁ᎤᎾᏓᏴᎳᏛ	-11.6826
▁ᎠᎦᎸᎢᏛ	-11.6827
ᏚᏓᎸᏙ	-11.6827
▁ᎤᏓᏅᏖᏗᏍᎬ	-11.6827
▁ᏚᎾᏓᏡᎬ	-11.6827
▁ᎠᏓᎴᏂᏍᎩ	-11.6827
ᎾᏍᏆᎶᏍ	-11.6827
ᏍᏚᎶᏙᏗ	-11.6828
▁ᏕᎩᎸᏫᏍᏓᏁᎸ	-11.6828
ᏏᏕᏅ	-11.6828
▁ᏗᏣᎸᏫᏍᏓᏁᏗᏱ	-11.6828
▁ᎤᏗᏞᎦ	-11.6828
▁ᏫᏚᎾᎧᎿᏅ	-11.6828
▁ᏚᏁᏒ	-11.6828
▁ᎤᏁᎲ	-11.6829
▁ᎠᎹᏢᏗ	-11.6829
▁ᎬᏬᏎᎸᎩ	-11.6829
▁ᏴᏛᎾ	-11.6829
▁ᎬᏩᎾᏝᎢ	-11.6829
▁ᎬᏩᏂᎪᏩᏛᏗ	-11.6829
ᎵᏍᏙᏗᏱ	-11.683
ᎦᏛᎴᏒ	-11.683
▁ᎠᏲᏁᎦ	-11.683
ᏏᏔᏗᏍᏗᏱ	-11.683
▁ᏥᏍᏓᏱ	-11.6831
▁ᏗᏗᏙᏗ	-11.6831
▁ᏤᏆᏂ	-11.6831
▁ᏍᎩᏃᎯᏏ	-11.6831
▁ᎤᎵᏍᏕᎸ	-11.6831
ᎪᎲᏍᏔᏅ	-11.6832
ᏤᎵᎯᏍᎪ	-11.6832
▁ᎠᏂᏲᎯᎲ	-11.6832
▁ᎪᏍᏛᏂᏍᏗ	-11.6832
▁ᏫᏚᎧᎿᏅ	-11.6832
ᎠᏗᏒ	-11.6832
▁ᎦᏬᏂᏍᏗ	-11.6832
▁ᎤᏍᎫᏕ	-11.6833
▁ᎤᏅᏁᎸ	-11.6833
▁ᏭᏂᎦᏐᎠ	-11.6833
▁ᏱᏍᎩᏃᏁᎴ	-11.6833
▁ᎢᏣᏓᎳ	-11.6834
▁ᏧᎪᏅ	-11.6834
▁ᎠᎵᏍᏓᏴᎲᏍᎦ	-11.6835
▁ᎤᎾᎷᏒ	-11.6835
▁ᏕᎫᎪᏗᏍᎬ	-11.6835
▁ᏱᏄᎵᏍᏓ	-11.6835
▁ᎤᏍᏚᎩᏎ	-11.6835
▁ᎤᎾᏓᏅᎦᎸᏛ	-11.6835
▁ᎤᏂᏔᏲᏎᎴ	-11.6835
▁ᎤᎾᎵᏖᎸᏅ	-11.6836
▁ᏱᏚᎸᏫᏍᏓᏁ	-11.6836
▁ᏥᏚᎾᏚ	-11.6837
▁ᏂᏣᏛᏁᎲᎾ	-11.6837
▁ᎤᏛᏗᏕᎨ	-11.6837
▁ᎠᏓᏲᏁᏗ	-11.6837
ᏂᏪᏍᎨᎢ	-11.6838
▁ᎠᎾᏙᎴᎰ	-11.6838
ᏥᏅᎦᎸᎡ	-11.6839
▁ᎤᏂᏲᎰᎢ	-11.6839
▁ᎤᏓᏓᏍᎬ	-11.6839
▁ᏚᏰᎵᎯᏍᏔᏅ	-11.6839
▁ᎡᏥᏍᎦᏅᏤ	-11.6839
▁ᎪᏪᎳᏅ	-11.684
▁ᏗᎪᏪᎳᏅᎯ	-11.684
ᎯᏄᎪᎢ	-11.684
▁ᎮᏙᎲ	-11.6841
▁ᏳᏚᎵᏍᎬᎾ	-11.6841
▁ᏚᎾᏙ	-11.6841
ᏘᏳ	-11.6841
▁ᏫᏚᏠᏎ	-11.6841
▁ᏍᎩᏯᏅᏛ	-11.6842
▁ᎨᏥᏰᎸᎢ	-11.6842
ᏗᎦᎴᏲᏨ	-11.6842
ᎵᎲᏲᎵ	-11.6842
▁ᎤᏓᎢᏅ	-11.6843
ᏍᏙᏗᏍᎨ	-11.6843
▁ᎠᏂᎷᎬ	-11.6843
▁ᏭᏍᏆ	-11.6843
▁ᎠᎾᏕᎲᏍᎨ	-11.6843
ᏠᎠᏒᎩ	-11.6843
▁ᏣᏴᏍᏗ	-11.6843
▁ᎤᏂᎪᏁ	-11.6843
▁ᏱᏙᎨᏗ	-11.6844
▁ᎤᎾᎵᏍᎪᎸᏔᏅᎯ	-11.6845
▁ᏚᏟᎶᏍᏓᏁᎴᎢ	-11.6845
▁ᏕᏚ	-11.6845
▁ᎢᏳᏪᏍᏗᏱ	-11.6845
▁ᎢᏣᎨᏳᏅ	-11.6846
▁ᎠᎩᏰᏨ	-11.6846
▁ᏱᎾᎩ	-11.6846
ᏯᏛᏅ	-11.6846
▁ᏩᎩᎶᏒᎩ	-11.6846
▁ᎭᏗᏛ	-11.6847
ᏙᎯᏳᎲᎦ	-11.6847
▁ᎤᎦᏘᏗᏍᏗᏱ	-11.6848
▁ᎤᏓᏍᏕᎸᏗ	-11.6848
▁ᎣᏥᎩᎵᏲᎬ	-11.6848
▁ᏤᏅᏍᏗᏱ	-11.6848
▁ᎠᏆᏕᏗ	-11.6848
▁ᎪᎯᏍᏗᏍᎩ	-11.6848
▁ᎤᎾᏁᎶᏔᏅᎩ	-11.6848
▁ᎤᎾᎵᏍᎪᎸᏔᏅ	-11.6848
ᏨᏌ	-11.6849
▁ᎢᎵᎻ	-11.6849
▁ᎤᏴᏥ	-11.6849
▁ᏫᎲᎦ	-11.685
▁ᎤᏲᏍᏔᎾ	-11.685
▁ᎠᏟᏂᎬᏁ	-11.685
ᏴᏔᏅ	-11.685
▁ᎠᏓᎨᏗᏱ	-11.6851
▁ᏧᏌᎴᏅ	-11.6851
▁ᏥᏫᎾ	-11.6851
ᏰᎢᎸᏍᏗᏱ	-11.6851
ᏍᏔᏩᏕ	-11.6851
▁ᎤᎦᎿᏂ	-11.6852
▁ᏕᏥᎵᎷ	-11.6852
▁ᎾᎾᏛᏁᎮ	-11.6852
▁ᏲᎩᎾ	-11.6852
▁ᏳᏬᎵᏤ	-11.6853
▁ᎤᏫᏒ	-11.6853
▁ᏥᏅᏗᎦᎵᏍᏙᏗᏍᎨ	-11.6853
▁ᏱᏂᎬᎦ	-11.6853
ᏣᏘᏃᎯᎮᏍᏗ	-11.6854
▁ᎠᎪᏢᏅ	-11.6854
▁ᎪᏙᎯ	-11.6855
▁ᎠᏂᏁᏉᏍ	-11.6855
ᏚᎾᏚᏫᏍᏔᏁᎢ	-11.6856
▁ᏯᏛᎦ	-11.6856
▁ᏗᏓᎨ	-11.6857
▁ᎧᏁᏉᎨᎢ	-11.6857
▁ᏓᏂᏅᎬ	-11.6857
▁ᎠᏯᎡᎢ	-11.6858
▁ᎤᏅᏕᏨ	-11.6858
▁ᎠᎾᎢᏎᎢ	-11.6859
▁ᏳᏰᎸᎭ	-11.6859
▁ᏥᏙᏓᎦ	-11.6859
▁ᎤᏘᏃᎴᎢ	-11.6859
▁ᎤᎩᏓᏟ	-11.686
▁ᎤᏁᎢᏍᏔᏁᎢ	-11.686
ᏘᏁᎪᎢ	-11.686
▁ᎤᏍᏗᏰᎬ	-11.686
▁ᎢᏣᏓᏁᏟᏴᏏᏒᎢ	-11.6861
ᏏᏙᎴ	-11.6861
▁ᎤᎵᏠᏯᏍᏛ	-11.6861
ᏚᏪᎧᏁᎢ	-11.6862
▁ᏥᏄᎵᏍᏔᏁᎢ	-11.6862
ᏂᏐᏗ	-11.6863
▁ᏥᎦᎷᎪᎢ	-11.6863
▁ᎢᏥᎩᎬ	-11.6863
▁ᏧᎦᎿᏁ	-11.6864
ᏴᏜ	-11.6864
▁ᎤᏞᎩ	-11.6864
▁ᎤᏁᏉᏤᎢ	-11.6864
▁ᏱᏂᏣᎵᏍᏓᏁ	-11.6865
▁ᏗᏘᏲᎯᎯ	-11.6866
▁ᏧᏂᏁᏗᏱ	-11.6866
ᏡᎦ	-11.6866
▁ᏕᎨᎶ	-11.6866
ᎵᏥᏙᏁᎲᎢ	-11.6866
▁ᏙᏓᏈᏕᎾ	-11.6867
▁ᎠᏛᏃ	-11.6867
▁ᎤᏪᎲᎢ	-11.6867
▁ᏓᏂᏍᎦᎢ	-11.6867
▁ᎠᏥᏁᏗᏱ	-11.6868
▁ᎠᏐᏢᎢᏍᏗᏍᎬᎢ	-11.6869
▁ᎠᎿᎥᎢ	-11.6869
ᏥᏍᏕᎵᏍᎬ	-11.6869
▁ᏥᏫᎯ	-11.6869
▁ᎠᎾᎵᏥᏙᎲᏍᎩ	-11.6869
▁ᎤᏪᎷᎩ	-11.6869
ᎦᎴᏂᏙᎭ	-11.687
▁ᏄᏅᏁᎴᎢ	-11.687
▁ᏣᏍᏆᏂᎪᏙᏗᏱ	-11.687
▁ᎤᏁᎸᏔᏁᎢ	-11.6871
▁ᏑᎠ	-11.6871
▁ᎤᏃᏢᏅᎯ	-11.6872
▁ᎤᏍᏆᎸᎭ	-11.6872
▁ᎤᎾᏖ	-11.6872
▁ᏗᏄᎪᏗᏍᎩᏱ	-11.6873
▁ᎬᏩᎯᏍᏗᏱ	-11.6873
ᎾᏍᏉ	-11.6873
▁ᎤᏂᏲᏍᏔᏁ	-11.6873
ᎷᎳ	-11.6874
▁ᏧᏔᎾ	-11.6874
▁ᎣᎯᏍᏗ	-11.6874
▁ᏕᎪᏢᏒᎩ	-11.6874
ᎶᏒᏍᏙᏗᏱ	-11.6874
▁ᎤᏍᏆᏂᎪᏔᏅ	-11.6874
▁ᏤᎪᎢ	-11.6875
▁ᏧᏬᏢᏁ	-11.6875
▁ᏂᏓᏅᏁᎲ	-11.6876
▁ᎠᏂᏱᏙ	-11.6876
▁ᎤᏪᏘᏁᎢ	-11.6876
▁ᏤᏥᏃ	-11.6876
▁ᏙᎧ	-11.6877
▁ᎠᏓᎴᏂᏍ	-11.6877
ᏥᏯᏁᎶᏗ	-11.6877
▁ᏄᎾᎵᏍᏓᏁᎲ	-11.6877
▁ᎠᏂᎱ	-11.6877
▁ᎠᏍᏆᎵ	-11.6878
▁ᎭᎧ	-11.6879
▁ᎤᏲᎱᎯᏎᎸᎯ	-11.6879
▁ᎡᏣᏛᎦᏁᎸ	-11.6879
ᏍᏛᏗᏍᏗ	-11.6879
▁ᏗᎧᏅ	-11.688
▁ᎤᎾᏏᏅ	-11.688
▁ᏚᏪᏯ	-11.688
ᏛᏁᎵᏍᎩ	-11.688
▁ᏫᏚᏯ	-11.6881
▁ᏚᏅᏒᎩ	-11.6882
▁ᎤᎾᎵᏗᎩ	-11.6882
▁ᏗᎪᏒ	-11.6882
ᏡᏔᏅ	-11.6882
▁ᏥᏚᏲᏎ	-11.6882
▁ᏗᏌᏂ	-11.6882
▁ᏳᏁᏐ	-11.6883
▁ᎦᎶᏐᎲᏍ	-11.6883
▁ᏂᎦᏅᏅ	-11.6883
▁ᏱᏅᏩᏍᏗᏗ	-11.6883
▁ᎤᎩᏥ	-11.6883
▁ᏍᏆᏛᎦᏁ	-11.6884
ᏘᎶᏛ	-11.6884
▁ᎾᎬᏁᎸᎭ	-11.6884
▁ᎦᏓᏅᏖᏍᎪ	-11.6884
ᏌᏙ	-11.6885
ᎦᏥᏲᏎᎸ	-11.6885
▁ᎢᏧᏓ	-11.6885
▁ᏧᏔᏂ	-11.6885
▁ᎠᎩᏍᏚ	-11.6885
▁ᎤᏓᏅᏙᎩᎯ	-11.6886
▁ᎤᏂᏃᎴ	-11.6886
▁ᎤᎷᏤᎸᎯ	-11.6886
ᏰᎵᏎᏗ	-11.6886
▁ᏚᏟᎶᏍᏓᏁᎴᏃ	-11.6887
▁ᏂᏓᎬ	-11.6887
▁ᎮᎲᎢ	-11.6887
▁ᎢᎦᏅᎯᏛ	-11.6888
▁ᎠᏂᎫ	-11.6888
▁ᏱᏮ	-11.6889
ᏕᎬᏲᎯᏏ	-11.6889
▁ᎠᏯᎡᏍᏗ	-11.689
ᎵᏍᏓᏴᎾᏁᏗᏱ	-11.689
▁ᏧᎪᏄᎶ	-11.6891
▁ᎠᎵᏍᏓᏴᎲᏍᎬᎢ	-11.6892
▁ᏧᎸᏉᏗ	-11.6893
▁ᏚᏆᎵ	-11.6893
▁ᏚᏂᏃᎩᏒ	-11.6893
▁ᎢᎬᏩᎷᏤᎴ	-11.6893
▁ᎤᎾᏟᎶᎥ	-11.6894
▁ᎢᎬᏩᏁᏗᏱ	-11.6894
▁ᎯᏴᎭ	-11.6895
ᏔᏁᎸᎯ	-11.6895
▁ᎤᏅᏎᏍᏗ	-11.6895
▁ᏚᏂᏢᎬᎢ	-11.6896
▁ᏕᏣᎸᏫᏍᏓᏁᎸᎢ	-11.6896
▁ᏧᏂᎷᏤ	-11.6896
▁ᎠᏄᎯᏍᏗᏍᎬᎢ	-11.6896
▁ᏚᏍᎫᏓᏛᎢ	-11.6896
▁ᏫᎬᏍᏗ	-11.6896
▁ᏚᏭᎪᏔᏅᎢ	-11.6896
▁ᎤᏃᎯᏳᏁᎢ	-11.6896
ᎦᏬᏍᎪᎢ	-11.6896
ᏪᏒᏛ	-11.6897
ᏓᏡᏗᎭ	-11.6897
▁ᏚᏄᎪᏔᏅᎢ	-11.6897
▁ᏗᏓᎾᏅᎢ	-11.6897
▁ᏓᏅᏗᏍᎬᎢ	-11.6897
▁ᎠᏒᎨᏍᏗ	-11.6897
▁ᏛᏨ	-11.6898
ᎧᎪ	-11.6898
▁ᎠᏁᏙᎮᏍᏗ	-11.6898
▁ᎠᏥᎢᏍᏗᏱ	-11.6898
▁ᏓᏂᏍᏓᏲᎯᎲᎢ	-11.6898
▁ᎤᏮᏔᏅᎩ	-11.6899
ᎤᏂᏃᏕᏅ	-11.69
▁ᎢᎤᎷᏤ	-11.69
▁ᎠᏛᏍᎨᎢ	-11.6901
ᏂᏱᏍᎩ	-11.6901
▁ᏬᏱ	-11.6901
ᏂᏙᎸᎯ	-11.6902
▁ᏫᎦᎾᏄᎪᎢ	-11.6903
ᎵᏣᏙ	-11.6903
ᏗᏔᎲᎭ	-11.6903
ᏁᏡᏅ	-11.6904
▁ᎤᏕᏘᏱᏍᎬ	-11.6905
▁ᎠᎩᏢᎬ	-11.6905
ᏛᏂᎲ	-11.6907
▁ᏄᏅᏁᎸᎩ	-11.6907
▁ᎢᏳᏍᏗᏓᏂ	-11.6908
▁ᏧᎪᏩᏛᏗ	-11.6909
▁ᏗᎦᏲᏥ	-11.691
ᏩᏘᎭ	-11.691
ᎦᏌᏬᎢ	-11.6911
▁ᎣᎩᎦᎵᏍᏓᏗᏍ	-11.6911
ᎳᏗᏍᎪ	-11.6911
ᎭᎵᏙᎩ	-11.6911
ᏂᏴᎲᎩ	-11.6912
ᏓᏨᏁᎵ	-11.6912
▁ᏧᎾᏄᏬᏍᏗ	-11.6912
▁ᏚᎾᏦᏎ	-11.6913
▁ᏱᎦᎷᎩ	-11.6913
▁ᎠᎾᎵᏍᏓᏴᏗᏍᎬ	-11.6914
▁ᏗᎦᎷᏫᏍᏔᏁ	-11.6914
▁ᏗᎪᏱ	-11.6915
▁ᎠᏲᏍᏗᏍᎬ	-11.6915
▁ᏓᏰᏍ	-11.6915
ᏓᏁᎰᎢ	-11.6915
▁ᎤᏄᏮᎢ	-11.6915
▁ᏂᎦᏪᏏ	-11.6915
▁ᎢᏲᎩ	-11.6915
ᏯᏅᎮᎢ	-11.6916
▁ᏭᏯᏅᎲᎩ	-11.6917
▁ᏗᎧᏃᎩᏍᏗᏱ	-11.6917
▁ᎠᎩᏂᎬᏎᎲ	-11.6917
▁ᏧᏴᏫ	-11.6917
▁ᏓᏕᏲᎲᏍᎨᎢ	-11.6917
▁ᎤᏃᏴᎩ	-11.6918
ᏍᏔᏁᏗ	-11.6918
▁ᎠᏆᎫᏴ	-11.6919
▁ᎤᏥᏍᏛ	-11.6919
▁ᎦᏌᎴ	-11.6919
▁ᎠᎩᏁᎸᎯ	-11.6919
▁ᎠᏯᏙᎵ	-11.692
▁ᎠᏂᎦᎾ	-11.6921
ᏃᎮᎵ	-11.6921
▁ᏗᎧᎵᎢ	-11.6923
ᎵᏍᏓᏁᎸᎩ	-11.6923
▁ᎤᏅᏓᏛ	-11.6923
ᏅᏆᎶ	-11.6924
ᎨᎬᏁᎵ	-11.6924
ᏏᏙᎮ	-11.6924
ᏂᏕᏅ	-11.6925
▁ᎤᏃᎮᎸᎩ	-11.6926
▁ᏚᏪᎧᏁᎢ	-11.6926
▁ᎤᎦᎾᏬᏍᎬ	-11.6926
▁ᎠᏆᏚᎸᎲ	-11.6926
▁ᏕᎨᏥᏅᏩ	-11.6926
ᏚᎢᏍᏓᏁ	-11.6926
▁ᏓᏂᎳᏫᎬ	-11.6927
▁ᏣᏂᏅᎩ	-11.6928
▁ᏥᏂᎦᎵᏍᏗᏍᎪ	-11.6928
▁ᎤᏰᏟ	-11.6928
▁ᎠᏥᎦᏘᏗᏍᏗᏱ	-11.6928
▁ᎢᏣᏓᏅᏛᎢ	-11.6928
▁ᏂᏣᏪᏎᎸ	-11.6928
▁ᎤᏓᏅᏁᎢ	-11.6929
▁ᎤᏍᎩᏓᏒᎢ	-11.6929
ᎦᏄᎳᏥ	-11.693
ᎪᎸᏏ	-11.693
ᏢᏔᎮ	-11.6931
▁ᏱᎬᏅ	-11.6931
▁ᎪᎯᏳᏙᏗ	-11.6931
ᏴᏎᎸᎩ	-11.6932
▁ᎣᎩᏰᎸ	-11.6933
▁ᎠᎾᏕᎲᏍᎬᎢ	-11.6933
▁ᏣᎩᏎ	-11.6934
ᏑᏢᏛ	-11.6934
▁ᎤᏃᎯᏳᏒᎢ	-11.6934
▁ᎠᏍᎧ	-11.6935
▁ᎤᏂᎾᏗᏅᏎ	-11.6935
▁ᏕᎶ	-11.6936
▁ᎤᏍᏘᎬ	-11.6936
▁ᎡᎯᏍᏗᏳ	-11.6937
ᏐᏅᏤᎸᎩ	-11.6937
▁ᎠᎾᏓᏅᏖᎵᏙ	-11.6938
ᎳᏍᏙᏗ	-11.6938
▁ᎠᎩᏍᏛᏗᏍᎬᎢ	-11.6938
▁ᎤᏅᏥ	-11.6938
▁ᏗᎪᏍᏓᏱ	-11.6938
▁ᎨᏥᎸ	-11.6939
▁ᎤᏪᎴ	-11.6939
▁ᏣᎦᏛ	-11.694
ᎦᏘᏲᎢ	-11.694
ᏛᎦᏅᎢ	-11.6941
▁ᎤᏓᏴᏍᏗᏱ	-11.6942
▁ᎠᎩᏩᏛᎲᎩ	-11.6942
▁ᎫᏇ	-11.6942
ᏒᏍᏙᏗ	-11.6943
▁ᎠᎫᏬᏰ	-11.6943
▁ᎠᎾᏔ	-11.6945
▁ᎤᏬᏛ	-11.6947
ᎾᏋᏁᎸ	-11.6947
▁ᏱᏚᏩᏛᎮ	-11.6947
▁ᏚᎾᏘᏃᎸ	-11.6948
▁ᎯᏰᎶ	-11.6948
▁ᎯᏰᎵ	-11.6948
▁ᎤᏓᎴᏅᎯ	-11.6948
ᎦᏁᏍᏓᎳᏗ	-11.6948
▁ᏂᏪᏏ	-11.6949
▁ᏓᎩᏏ	-11.6949
▁ᎤᏬᏱ	-11.6949
▁ᎠᏂᎩᎵᏲᎬᎢ	-11.6949
ᎾᏰᎯᏍᏛ	-11.6952
▁ᏯᏃᎵ	-11.6954
▁ᎤᎳᏏ	-11.6954
ᏍᏢᏂᏍᏔᏅ	-11.6954
▁ᎯᎩᏒ	-11.6955
▁ᏓᎾᏁᎶᎲᏍ	-11.6955
▁ᎡᎵᏏ	-11.6955
ᏓᏦᏍᎬ	-11.6955
▁ᏥᏯᎠ	-11.6956
▁ᎤᏔᏲᏎᎸᎩ	-11.6956
▁ᏓᏂᏃᎩᏍ	-11.6957
▁ᎠᎵᎬ	-11.6957
▁ᎤᏰᎯᏍᎩᏂ	-11.6957
▁ᏓᏂᏁᎵ	-11.6958
ᏛᎿ	-11.6959
▁ᏚᎸᏌᏓ	-11.696
▁ᎠᏝᎲ	-11.696
▁ᏯᏆᏚᎵᎭ	-11.6961
▁ᏚᏓᏓᎴᏔᏁ	-11.6961
▁ᎡᏗᎨᏳᎢ	-11.6961
▁ᏗᎦᏃᏣ	-11.6964
ᎦᎾᏬᎯᏍᏗ	-11.6965
ᏗᎬᏩᎧᏃᏗ	-11.6966
▁ᏓᏤ	-11.6967
ᏙᏳ	-11.6967
▁ᏣᎯᏍᏗᏱ	-11.6968
ᎸᏉᏔᏅᎩ	-11.6968
ᏟᏃᎮᏔᏁ	-11.6968
ᏓᏏᏒ	-11.6968
▁ᎢᏳᏩᏁᎸ	-11.6969
▁ᏚᏘᏃᎴ	-11.6969
ᎵᏍᏓᏁᎵᏒ	-11.697
ᎵᏍᏙᏔᏁ	-11.6971
▁ᎠᏆᏓᏤᎵᎦ	-11.6971
▁ᎠᏓᏪᎵᎩᏍᎬᎢ	-11.6971
▁ᎢᏥᏁᏗᏱ	-11.6972
▁ᎡᎭᏏ	-11.6972
▁ᎥᏘ	-11.6973
▁ᎦᏑ	-11.6973
▁ᎤᎵᏦᏛᎢ	-11.6974
▁ᎤᏁᎷᎬᎢ	-11.6974
ᏱᎩᎵ	-11.6976
▁ᏫᏚᎷᏤᎸ	-11.6976
▁ᏧᏂᎬ	-11.6977
▁ᏐᎭ	-11.6977
ᎢᏍᏔᎾ	-11.6978
▁ᏂᎦᏔᎲᎾ	-11.6979
▁ᎠᏇᏙᎸ	-11.6979
ᏣᏛᎩᎭ	-11.6979
▁ᎤᏍᏕᏓᎵᏴ	-11.698
▁ᏧᏲᎰ	-11.698
ᏓᏉ	-11.698
ᏁᏢᏙᏗᏱ	-11.698
ᏦᏩ	-11.6981
▁ᎪᎵᎦ	-11.6981
▁ᎤᏓᏙ	-11.6981
▁ᏱᏄᏍᏕᎢ	-11.6981
ᎧᏒᎢ	-11.6982
▁ᏓᏲᎩ	-11.6984
▁ᏱᏥᎦᏔᎮᎢ	-11.6985
▁ᏂᎬᏁᎰ	-11.6985
▁ᏓᏥᏁ	-11.6985
ᎬᏍᎪᎸᏁ	-11.6986
ᏁᏙᎰ	-11.6986
▁ᎤᏂᏬᏂᎯᏍᏗᏱ	-11.6987
▁ᎤᏂᎯᏍᏗ	-11.6987
ᎾᏕᎨ	-11.6987
▁ᎾᎾᏛᏁᎭ	-11.6988
▁ᏙᎨ	-11.6988
▁ᎤᏍᏗᏰ	-11.699
▁ᎠᏋᏂ	-11.699
▁ᎣᏨᏗᏍᎬ	-11.699
▁ᏗᎦᎵᏍᏙᏗ	-11.699
▁ᎤᎾᏓᏙᎵᏍᏔᏁ	-11.699
▁ᎢᏤᎮᏍᏗ	-11.6991
▁ᎤᎾᏤᎵᎪ	-11.6991
▁ᎦᏓᎥᎢ	-11.6991
▁ᏚᏂᏰᎵᏒ	-11.6992
▁ᎤᎾᎵᎪᏒᎢ	-11.6993
▁ᎤᏁᎳᏛ	-11.6995
ᏓᏂᏱ	-11.6995
ᏤᏯᏙᏤᎮᏍᏗ	-11.6996
▁ᏥᏃᎮᏍᎬᎢ	-11.6997
ᏓᏁᎶ	-11.6997
▁ᎣᎩᎸᏉᏗ	-11.6997
ᏑᏯᎩᏍᏗ	-11.6998
▁ᏂᏕᎤᏍ	-11.6998
▁ᎪᎪ	-11.6998
ᏗᎦᎵᏍᏙᏗᎭ	-11.6999
▁ᎢᏣᎵᎪ	-11.7
▁ᏂᏣᏛᏁᎰ	-11.7002
ᏍᏔᏲᏍᏙᏗ	-11.7003
▁ᏄᏬᏚᏒ	-11.7003
▁ᎤᎾᏗᏓ	-11.7004
ᏦᎯᏳᎲᎦ	-11.7004
ᎤᏏ	-11.7005
▁ᎦᏛᎬᎦ	-11.7006
▁ᎦᏆ	-11.7006
ᎦᏎᏍᏙ	-11.7006
▁ᏱᏚᏩᏛᎲ	-11.7007
ᏓᎪᎾᏛ	-11.7007
▁ᏂᏙᏔᏘ	-11.7007
▁ᎤᏂᏃᏁᎴ	-11.7008
▁ᎦᏅᎵᏰ	-11.701
ᏱᏉᏍᎩᏂ	-11.7011
▁ᏍᎩᏯᏕᎶᏆᎡ	-11.7011
ᏥᏂ	-11.7011
▁ᏙᎦᏘᏁ	-11.7012
ᏰᎶᎴ	-11.7012
ᎸᏁ	-11.7013
▁ᏓᏲᏥ	-11.7013
▁ᏅᏩᏓ	-11.7014
▁ᏯᎩᏍᏆᎸᎡ	-11.7014
▁ᏃᏥᎥ	-11.7015
▁ᏂᏨᏪᏎᎸ	-11.7017
▁ᏫᎬᏩᏂᏴ	-11.7018
▁ᎦᎷᏥ	-11.7018
▁ᎠᎩᏁᏨᎩ	-11.7018
▁ᏫᎬᏪᎧᏁ	-11.7019
▁ᏗᏁ	-11.7021
ᏂᏍᏚᏁ	-11.7021
ᎢᎲ	-11.7022
▁ᎪᏢᏒᎩ	-11.7023
ᏯᏍᏛ	-11.7025
ᏅᏁᎭ	-11.7025
ᏅᎦᎸᏗ	-11.7027
▁ᏓᏓᎯ	-11.7028
ᏯᎦᏎᏍᏗ	-11.7028
▁ᏤᎮᏍᏗ	-11.7029
ᎾᎵᎩᏛ	-11.7029
ᏲᏏᎭ	-11.703
ᏲᏅᎵ	-11.703
▁ᎤᎦᏙᎥᏒ	-11.7031
▁ᎠᏥᏁᎸᎯ	-11.7032
ᏥᏁᎪᎢ	-11.7033
▁ᏱᏓᏂᏁᏟᏴ	-11.7033
▁ᎤᎶᎯᏍᏗᏱ	-11.7034
ᏰᏍᏔᏁᎢ	-11.7034
▁ᏣᎳ	-11.7035
▁ᎤᏅᏁᎢ	-11.7037
▁ᎤᏲᎷ	-11.7037
ᎵᏴᏌ	-11.7037
▁ᏥᎶᏃ	-11.7038
▁ᎬᏩᏂᏃᎮᏗ	-11.7038
▁ᎠᏉᎯᏳᏅ	-11.7039
ᏓᏅᏓᏗᏍᏔᏅᎯ	-11.7041
▁ᏤᏙᎰ	-11.7041
▁ᎤᏁᏉᎡ	-11.7041
▁ᎤᏂᏄᎸᏅ	-11.7043
ᏃᏍᎩᏎ	-11.7043
▁ᎨᏌ	-11.7045
▁ᏄᏩᏁᎲ	-11.7046
ᏪᎵᏏ	-11.7046
▁ᏙᏤ	-11.7046
▁ᏁᏩᏔᎵᏃ	-11.7047
▁ᏗᎦᏅᏬᎢ	-11.7048
ᎵᏉᎩ	-11.7048
▁ᏙᏓᏆᏍᎬᎢ	-11.7048
▁ᏂᏍᏛ	-11.7048
▁ᏗᏦᏢ	-11.7049
▁ᏂᎦᏛᏁᎰᎢ	-11.7049
▁ᎢᏥᎦᎵᏍᏓᏗᏍ	-11.7052
▁ᏧᏁᎯ	-11.7054
▁ᎤᎾᏓᏅᏖᏔᏁ	-11.7054
ᏁᎥᏏ	-11.7054
▁ᎢᎬᏩᎵᏍᏓᏁ	-11.7054
▁ᏂᎦᏥᏴᏁᎸ	-11.7056
ᏛᏗᏍᎨᏍᏗ	-11.7056
▁ᏁᎵᏍᎬᎾ	-11.7056
ᎫᏴᎲᎾ	-11.7057
ᏔᏲᏎᎮ	-11.7059
▁ᏕᎨᏲᎲᏍᎨ	-11.706
▁ᎤᏃᎭ	-11.7062
ᏚᏳᎯᏛ	-11.7065
ᏓᏰᏠ	-11.7065
▁ᏚᏂᏔᎴ	-11.7066
ᏣᏃᏁᎵ	-11.7066
ᏒᎲᏍᏗᏱ	-11.7066
▁ᏤᎲᎢ	-11.7067
▁ᏧᎾᏙᏅ	-11.7068
▁ᎤᏲᎰᎢ	-11.7069
ᏂᎨᏒ	-11.7069
ᏏᏓᏍᏗ	-11.707
▁ᎠᏲᎵᏃ	-11.7071
▁ᏚᏫᏒ	-11.7072
▁ᏓᏂᎯᏯᏍ	-11.7073
▁ᎠᎦᏯ	-11.7073
ᏲᎱᏍᎬ	-11.7073
ᎰᎯᏍᏗ	-11.7075
ᏓᏛᎢ	-11.7076
ᎣᎸ	-11.7076
▁ᎤᏪᎳᏗᏍ	-11.7077
ᏁᏙᎭ	-11.7077
▁ᎯᏰᏌᏛ	-11.7078
▁ᎳᏏ	-11.7078
ᎬᏇᎯᏍᏗᎭ	-11.708
ᏚᏓᏴᎳᏛ	-11.7081
▁ᎦᏬ	-11.7081
▁ᎠᏥᎪᎵᏰᎥ	-11.7081
ᏤᏍᏙᎩᎯ	-11.7082
ᏅᏍᎬᎾ	-11.7082
▁ᎤᎾᎵᎮᎵᏤᎢ	-11.7084
▁ᎦᏁᎵᏒ	-11.7084
▁ᏅᏂ	-11.7085
ᏁᏟᏴᏍᏔᏁ	-11.7086
▁ᏱᏔ	-11.7086
ᏩᏛᎯᏓᏍᏗ	-11.7086
▁ᏩᎦᏘ	-11.7087
▁ᏕᎤᎴᏔᏅᎢ	-11.7087
ᎨᏠᎮ	-11.7088
▁ᎤᏩᏛᎲᎩ	-11.7088
▁ᎬᏩᎾᏓᏅᎡ	-11.7088
▁ᎤᏂᎾᏝᎾᎥ	-11.7089
▁ᎤᏔᏃ	-11.7089
▁ᏂᎦᎵᏍᏗᏍᎨᎢ	-11.7089
▁ᏄᏂᏪᏒᎢ	-11.7089
ᏔᎷᎩᏍᎬ	-11.7091
▁ᏣᏲ	-11.7092
ᏍᎪᎵᏰᎥ	-11.7093
ᎵᏎᎭ	-11.7094
ᏌᏙᏯ	-11.7094
▁ᎵᏓ	-11.7094
▁ᎤᏂᏩᏛᎲ	-11.7095
▁ᎢᏥᏪᏍ	-11.7097
▁ᎤᏬᏰ	-11.7099
▁ᎠᏢᏗ	-11.7099
ᏍᏓᏩᏗᏙ	-11.7101
▁ᎤᎦᏖᏃ	-11.7101
▁ᎦᏄᎪᎢ	-11.7103
▁ᎠᎩᏌ	-11.7103
▁ᎤᎾᏗᏔᎲ	-11.7104
▁ᏱᏝ	-11.7107
▁ᎠᏆᎩᎸ	-11.7107
ᏓᏬᏍᏙᏗ	-11.711
▁ᏗᎬᏅ	-11.711
▁ᎤᏰᏥ	-11.7111
▁ᏱᏅᎨᏣ	-11.7111
▁ᎤᏂᎩᏒᎢ	-11.7112
ᏥᏰᎸᎾᏁᎰᎢ	-11.7112
▁ᎤᏍᏕᎸᏗ	-11.7115
ᏔᏂᎴ	-11.7119
▁ᎠᎪᎵᏰᏍᎨ	-11.7119
ᎴᏎᎢ	-11.712
▁ᏚᎸᏫᏍᏓᏁᎸᎩ	-11.712
▁ᏱᏕᏍᏗ	-11.7121
▁ᎢᎦᏛᏁᏗ	-11.7121
▁ᎤᏁᎵᏎᎢ	-11.7123
ᎦᎵᏍᏓᏛ	-11.7123
▁ᎤᎾᏌ	-11.7124
▁ᏣᏓᏅᏘ	-11.7126
▁ᎤᎷᏤᏗ	-11.7127
ᏘᎭᏁ	-11.713
▁ᎨᏥᏍᏗ	-11.7135
ᎧᏁᎬ	-11.7136
▁ᏚᏕᏲᏅ	-11.7137
ᏗᎧ	-11.714
▁ᎡᏥᎷᏤᎸ	-11.714
ᏓᏙᎵᎨᏍᏗ	-11.7142
▁ᎤᏥᏯ	-11.7143
▁ᏱᏗᏍᎩ	-11.7144
ᏯᏛᎦᏁᎵ	-11.7145
▁ᎤᎧᎭ	-11.7149
▁ᎤᏂᏍᎫᏕᏒ	-11.7149
ᎪᏪᎶᏗ	-11.715
▁ᏓᏘᏁ	-11.715
ᎷᏓ	-11.7153
ᎾᏌᎢ	-11.7153
▁ᏩᏗ	-11.7153
▁ᎤᏪᎶ	-11.7155
ᏌᏕᎢ	-11.7157
▁ᏗᏥᏰᎸᎢ	-11.7161
▁ᎾᏆᎵᏍᏓᏁ	-11.7162
ᏉᏎᏗ	-11.7165
ᏓᏅᏔᏩᏕᎬ	-11.7166
ᎭᏁᎦᎸ	-11.7166
▁ᎤᏁᎩᏒ	-11.7167
▁ᎠᎪᏎᎴ	-11.7167
ᏲᎯᎭ	-11.7168
ᎬᏂᏐᏗᏱ	-11.7169
▁ᎠᏗᏔᏍᏗᏱ	-11.7169
▁ᏣᎬᎩ	-11.717
▁ᏱᏧ	-11.7171
▁ᎦᏰᏌᏛᎢ	-11.7171
ᎹᎩ	-11.7177
ᎾᏬᏍᏔᏁᎢ	-11.7177
ᏫᏍᎦ	-11.7179
ᎪᎰᏍᎬ	-11.718
▁ᎤᏁᎦᎸᎢ	-11.718
▁ᏲᎪ	-11.7181
ᏣᎳᎩ	-11.7182
▁ᎤᏂᏁᎸ	-11.7182
▁ᏚᏲᎴ	-11.7185
▁ᏂᎦᏪᏒ	-11.7185
▁ᎤᏛᏗ	-11.7186
▁ᏗᎬᏩᏁ	-11.7187
▁ᎠᏓᏅᏖᏍᎨᎢ	-11.7188
▁ᎡᎪ	-11.7191
ᎦᎾᎦᏘ	-11.7193
▁ᏕᎰ	-11.7194
▁ᎠᎵᏍᏕᎵᏍ	-11.7196
▁ᎤᏕᏒᏅ	-11.7196
ᎧᎯᏴᎩ	-11.7196
ᏓᏱᎭ	-11.7197
▁ᏙᎦᏠᎯᏍ	-11.7197
▁ᎬᎳ	-11.7201
▁ᏚᎸᏌᏛᎢ	-11.7202
▁ᎠᏁᎵᏍᎨᎢ	-11.7203
▁ᎠᏢᏛ	-11.7203
▁ᏳᏘ	-11.7205
▁ᏓᎾᏛ	-11.7205
▁ᏄᏛᎾᏕ	-11.7206
▁ᏂᎦᎷᎬ	-11.7206
▁ᏕᎦᏅᏅᎢ	-11.721
▁ᏧᏁᏨᏃ	-11.7212
ᏂᏨᏁᏍᏗ	-11.7214
▁ᏳᏔᎳᏬ	-11.7215
▁ᎤᏂᏁᏨᎢ	-11.7216
ᏎᎲᎢ	-11.7217
ᏨᏗᏍᎨᏍᏗ	-11.7217
ᏣᏙᎴᎰᎯᏍᏗᏱ	-11.722
ᏲᏎᎸ	-11.722
▁ᎦᎸᎥ	-11.7222
ᏅᏍᏙᏗᏱ	-11.7223
▁ᎣᏣᏓᏙᎵᏍᏗᏍ	-11.7229
▁ᎤᏂᏰᎸᏒ	-11.723
▁ᎠᎾᏁ	-11.7231
▁ᎦᎳᎩ	-11.7231
▁ᎤᎶᏒᎢ	-11.7232
ᎩᎡᎭ	-11.7233
▁ᎠᎵᏍᎪᎸᏙᏗᏱ	-11.7234
ᎮᎯ	-11.7238
▁ᎣᎬᏔᏅ	-11.7239
ᏥᎪᎵᏯ	-11.7239
ᏕᎰᎯᏍᏙᏗᏱ	-11.7241
ᏂᏜ	-11.7243
ᎨᏍᎩ	-11.7245
ᏲᏍᏗᏍᎩ	-11.7249
▁ᏴᎬᏩ	-11.725
▁ᏥᏂᎦᏪᏍᎬ	-11.7251
ᏘᏍᎬᎾ	-11.7251
▁ᏲᎨ	-11.7257
ᎦᏙᏴ	-11.7258
ᎠᏴ	-11.7258
▁ᏱᎾᎾᏛᏁᎰ	-11.726
ᏱᏐ	-11.726
ᏂᏏᏅᎩ	-11.726
ᏥᏂᏐᏗᏱ	-11.7263
ᏨᏁᎰ	-11.7264
▁ᎢᏣᏓᏑᏴ	-11.7266
ᎵᏩᏛᎡᎲᎢ	-11.7266
▁ᎡᏙᎰ	-11.7266
▁ᎠᏁᏙᎮᎢ	-11.7267
▁ᎫᎭ	-11.7268
ᎿᏬᏍᏗ	-11.7268
▁ᏥᏯᏙᎵ	-11.7273
▁ᎤᎵᏍᏔᏁ	-11.7275
ᏳᎦ	-11.7275
ᏅᎨᎢ	-11.7276
▁ᎠᏗᏔᏍᎬ	-11.7276
ᏥᏏ	-11.7282
▁ᎤᏂᎷᏤᎭ	-11.7285
ᏙᎴᎰᎯᏍᏙᏗ	-11.7286
ᏓᏂᎸᏤ	-11.7286
▁ᎪᏍᏗᏳ	-11.7288
ᏙᎯᏏ	-11.7289
▁ᏧᏂᏙ	-11.7289
ᎫᏴᎡᎮᏍᏗ	-11.729
ᏝᏅᎯ	-11.729
▁ᎠᎩᏍᏆᏛ	-11.729
ᎬᏍᏉ	-11.7291
ᏓᏍᎦ	-11.7293
▁ᎠᏥᏔᏲᏎ	-11.7303
ᏚᏅᏁᎴ	-11.7303
ᏛᎲᏃ	-11.7308
ᏦᏴ	-11.7309
ᏍᏔᏁᏍᏗ	-11.7309
▁ᎬᎩᎸᏉᏗ	-11.7311
ᎵᏃᎮᏗᏍᎨᏍᏗ	-11.7312
▁ᏙᎢ	-11.7314
▁ᏳᏃᎯᏳ	-11.7314
▁ᏱᏍᎩᏯ	-11.7315
▁ᎦᏰᏗ	-11.7317
ᏍᎦᏍᎪ	-11.7318
ᎩᎪᏩᏛ	-11.7319
▁ᏚᏪᏘ	-11.7321
▁ᎠᏂᎳᎨᏴ	-11.7325
▁ᎤᏪᎧᎮ	-11.7325
▁ᏚᎾᏗᏩᏍᎨ	-11.7329
▁ᎢᏫ	-11.733
ᏰᎾ	-11.7332
▁ᏚᏬᏎᎴ	-11.7332
▁ᎢᏳᏩᏁ	-11.7333
ᏄᏪᏎᎢ	-11.7333
▁ᏂᎦᏛᏅᎢ	-11.7335
▁ᎤᏴᏔᏁ	-11.7335
▁ᏳᏯ	-11.7336
▁ᏙᏍᎩ	-11.7336
▁ᎤᏚᎵᏍᎨᎢ	-11.7336
▁ᎤᏪᏅᎡ	-11.7339
▁ᏳᎾᏚᎵᏍ	-11.7341
▁ᎢᏨᏗᏍᎪ	-11.7342
ᏍᎪᏎ	-11.7344
▁ᎠᏂᏁᎩ	-11.7348
▁ᎦᎵᎭ	-11.735
ᏃᎯᏯ	-11.7351
▁ᎬᏩᏓᏅᏘ	-11.7356
ᏩᏕᎩ	-11.7357
▁ᏛᎵ	-11.7359
ᎩᏂᎬᎦ	-11.736
ᎾᏟᎴ	-11.736
▁ᏚᎾᎵᏂᎪ	-11.7361
ᏅᎾᏉ	-11.7363
▁ᏱᎾᏅ	-11.7363
ᏣᏛᎦᏁᎸ	-11.7365
ᎴᎪᎢ	-11.7366
ᏓᏴᏍᏗ	-11.7367
ᏍᏔᏁᎯ	-11.7367
ᎦᏙᏍᏙ	-11.7367
▁ᏙᏥᏩᏛᎲ	-11.7371
▁ᏧᏍᎪᏍ	-11.7373
ᎬᏙᏗ	-11.7376
ᏒᏍᏗᏱ	-11.7376
▁ᎤᎾᎵᏍᎦᏍᏙ	-11.7377
▁ᏥᎩᏁᎸ	-11.7379
▁ᎢᏥᎦ	-11.7379
▁ᏫᏥᎷᏤᎸ	-11.738
▁ᏒᏟ	-11.7384
ᏃᎸᏔᏅᎩ	-11.7385
ᎾᎥᎾ	-11.7386
ᏁᏟᏴᏎ	-11.7388
▁ᎠᏂᏌ	-11.7389
▁ᏍᎩᎾᎾᏂ	-11.7389
▁ᎤᏕᏒ	-11.7392
▁ᏚᏂᏅᏁ	-11.7394
ᏗᏎ	-11.7399
ᏙᏓᏋ	-11.7401
▁ᏱᏂᏨᏁ	-11.7404
ᏯᏛᎩᎭ	-11.7404
▁ᏩᎩᎶᎯ	-11.7408
▁ᏓᏳᏪ	-11.741
ᏘᏲᎸ	-11.741
▁ᎤᏩᏥ	-11.7411
▁ᎤᎸᏅ	-11.7411
ᏯᏘᏄᎦ	-11.7415
▁ᏯᎩᏍᏕᎵ	-11.7415
ᎵᎥᏂ	-11.7415
ᎢᏎᏗ	-11.7417
ᎾᏗᏍᎪ	-11.7418
▁ᎬᎩᏰᎸ	-11.7421
▁ᏂᎤᏪᏎ	-11.7427
▁ᏱᏗᎩ	-11.7427
ᎨᎵ	-11.7427
ᎵᏎᎯ	-11.7428
ᎪᏢᏁᎢ	-11.7429
ᎩᎸᏂ	-11.7433
ᏁᏤᎸᎩ	-11.7433
▁ᎢᏨᏃᏁᎸ	-11.7433
▁ᎤᏲᏨᎩ	-11.7437
ᎳᏁᎸ	-11.7437
▁ᏥᏄᏛᏁᎴ	-11.7439
ᎦᏌᏯᏍᏗ	-11.7439
ᏂᏙᎭ	-11.744
ᎣᏐᏅ	-11.744
ᎯᏨ	-11.7443
▁ᏗᎨᎩ	-11.7446
ᏴᏍᎪᏳᏁ	-11.7447
▁ᎤᎴᏅᏔᏅ	-11.7449
▁ᎠᎴᏂᏓᏍᏗ	-11.7449
▁ᎢᏳᎾᏛᏁᎸ	-11.745
▁ᎠᏂᎲᏍᎨ	-11.7453
▁ᏂᏨᏃᏁ	-11.7453
▁ᎦᏛᎢ	-11.7458
ᏭᎪ	-11.7458
▁ᏧᏪᏰ	-11.7462
▁ᎦᏙᎥ	-11.7463
ᏍᎦᎢᎮ	-11.7463
▁ᏦᏥᏩᎾᎦᎳ	-11.7466
▁ᏧᏂᏴ	-11.7467
ᏪᏅᏎ	-11.7469
ᎤᏂᏴ	-11.7471
ᏙᎳᏛᏗ	-11.7472
ᏙᎲᎾ	-11.7472
▁ᎠᏆᏚᎵᏍᎬᎢ	-11.7473
ᎡᏥᏍᏓᏩᏕᎩ	-11.7474
▁ᎤᎿᎸᏤ	-11.7475
ᏯᏔᎲ	-11.7475
▁ᎤᎦᏘᏗᏍ	-11.7477
ᎭᏯᎸ	-11.7486
▁ᎦᎵᏍᏓᏴᎲᏍᎬ	-11.7486
▁ᎠᏍᏓᏱᏗᏍᏗ	-11.7491
▁ᎬᏍᎦ	-11.7491
ᎬᏓᏃᏍ	-11.7492
▁ᏗᏣᏓᏅᏙᎩ	-11.7498
ᎵᏖᎸᏂᎴ	-11.7501
ᏕᎶᏆᎥ	-11.7501
ᏗᎦᎸᏉᏗ	-11.7504
ᏩᎾᎨ	-11.7505
▁ᎷᎦ	-11.7506
ᎸᏔᏅᎯ	-11.7506
ᏩᏔᎰ	-11.7509
ᎪᏪᎸ	-11.7509
▁ᏛᎾᎢ	-11.7512
▁ᎤᏍᎦᎸ	-11.7514
▁ᎤᏩᎯ	-11.7514
▁ᏧᎦᎾ	-11.7514
▁ᏘᎪ	-11.7517
▁ᏣᏍᏆᏂᎪ	-11.7519
▁ᏧᏂᎭ	-11.7519
ᎵᎦᎵᏴ	-11.752
▁ᎠᎾᏓᏱ	-11.7522
ᎫᏍᏛᏗ	-11.7524
▁ᎤᏲᎮᏍᏗ	-11.7526
▁ᎬᎵ	-11.7526
ᏱᎵᏙᎯ	-11.7529
▁ᏓᎾᏘᏁ	-11.7532
ᎦᏔᎿᎥᎾ	-11.7534
▁ᎤᏲᏉᏍᎩᏂ	-11.7536
ᏓᎴᏍᏗ	-11.7536
ᎬᎾᏬᏙᏗᏱ	-11.7537
ᏩᏂ	-11.7537
▁ᎠᏍᏓᏲ	-11.7542
▁ᏧᏩᏅ	-11.755
▁ᏂᏗᎩ	-11.7552
▁ᏣᎾᎢ	-11.7552
ᏢᏔᏅᎯ	-11.7554
ᏓᏁᏘ	-11.7555
▁ᎧᏂ	-11.7558
ᎦᎿᏅ	-11.7561
▁ᎨᏥᎪᎵᏰᏗ	-11.7566
ᏘᏁᏏ	-11.7569
ᏆᏒᎦᎸ	-11.757
▁ᎣᏥᏅ	-11.7572
ᏡᎩ	-11.7573
▁ᏗᎦᎬ	-11.7574
ᎦᎵᏯ	-11.7574
▁ᎠᏓᏔᎶᎯ	-11.7576
▁ᏣᏚᎳ	-11.7576
ᏥᏅᎵ	-11.7576
▁ᏕᎦᏁ	-11.7579
ᏏᏲ	-11.7579
ᎧᏁᎢ	-11.758
ᏒᏓᏅ	-11.7583
▁ᎤᏩᏒᎯ	-11.7589
ᏴᏈᏛ	-11.7591
▁ᎤᎵᏂ	-11.7591
▁ᏱᎪᎯᏳᎲ	-11.7593
ᏰᏙᎳᏛᏅ	-11.7597
ᎯᏳᎲᎦ	-11.76
ᏚᏂᎸᏫᏍᏓᏁᎰᎢ	-11.76
▁ᎤᏍᏕᎸᎮ	-11.76
▁ᎤᏬᏢᎾᏁ	-11.7602
▁ᏚᏅᏏ	-11.7606
▁ᏩᏥᏯᏅ	-11.761
ᎴᏍᏗᏱ	-11.7611
ᎥᏍᎬᎾ	-11.7617
▁ᏗᏕ	-11.7618
▁ᏱᏗᏥᏳᎪᏓᏁ	-11.7619
ᎳᎩ	-11.762
▁ᏙᏓᎦᏅ	-11.7621
ᏂᏐᏗᏱ	-11.7624
ᎦᎵᏍᏗᏍᎩ	-11.7624
ᏂᎬᎬᎢ	-11.7625
▁ᎡᏥᏃᏁ	-11.7629
▁ᎣᎩᏂᏙ	-11.763
ᎧᎾᏂ	-11.7634
▁ᎠᏍᏚᎩ	-11.7634
▁ᏂᎠ	-11.7636
▁ᎦᏥᏔᏲᏎ	-11.7636
ᎵᏃᎮᏔᏅᎩ	-11.7637
ᏂᏴᏍᏗ	-11.7639
ᎡᎸᎢ	-11.7642
▁ᏂᏍᎩ	-11.7643
▁ᎢᎦᎯ	-11.7648
ᎪᎵᏰᏍᎪᎢ	-11.7649
▁ᏧᎬᏩᎴ	-11.765
ᏚᏛᏛᏅᎩ	-11.765
▁ᎦᎪᏗᏱ	-11.7655
▁ᎤᏁᏅᎢᏍᏗ	-11.766
ᎬᏍᎪᎸᏅᎢ	-11.7662
ᎩᏍᎬᎢ	-11.7667
▁ᎦᏒ	-11.7669
▁ᎠᏢᏈᏍᏗ	-11.7676
ᏌᏬᎢᎲ	-11.7677
▁ᎦᎵᏥᏙᎲᏍ	-11.7677
ᏢᏙᏗᏱ	-11.7678
▁ᏧᏂᏢᎩᎢ	-11.768
ᎫᏴᎲ	-11.7681
ᎫᏤᎵ	-11.7683
▁ᏕᎤᏅ	-11.7689
ᏯᏓᏱ	-11.7692
▁ᎠᎾᏓᏟᏏ	-11.7693
▁ᎤᏅᏗᏱ	-11.7693
ᏆᏗᏅᏛ	-11.7696
ᏙᏓᏆᏛ	-11.77
ᎠᏆᏚᎵ	-11.77
▁ᏓᏂᏱ	-11.7703
ᏍᏆᏗᏍᏗᏱ	-11.7703
ᏂᏍᎩᏴᎦ	-11.7708
ᏯᏙᎮᎮᏍᏗ	-11.7708
▁ᎠᏍᎦᏰᎬᏍ	-11.7713
▁ᏭᏕᎵᎨ	-11.7716
ᎾᏗᏅᏒᎩ	-11.7717
▁ᎤᏙᏩᏗᏍ	-11.772
ᎶᏁᎢ	-11.772
ᎵᏙᎮᏍᏗ	-11.7725
▁ᏣᏚᎵᏍᎬᎢ	-11.7725
ᏛᏎᎢ	-11.7726
ᎿᏕᎬ	-11.7728
ᏗᏍᎦᎳᏁ	-11.773
ᏲᏞᏒ	-11.7731
▁ᏭᏖᎳ	-11.7732
ᏯᏅᎯᎸ	-11.7736
▁ᏩᏴ	-11.7736
▁ᎢᏨᏴᏁ	-11.7739
▁ᎠᎩᏰᎸᏒ	-11.7741
ᎾᏏᏗ	-11.7742
▁ᎬᏩᏂᎾᏄᎪᏫᏒ	-11.7743
ᏛᏁᎴᎢ	-11.7743
ᏫᏱ	-11.7751
▁ᎤᏕᏯ	-11.7756
▁ᎬᏍᎬ	-11.7757
ᏅᏎᏃ	-11.7759
▁ᏣᏕᎲᏍ	-11.7759
▁ᎠᏆᎵᏃᎮᏔᏅ	-11.776
▁ᏥᏳᎯᏃ	-11.7762
ᏥᏍᏆ	-11.7765
▁ᏞᎩ	-11.7766
▁ᎨᏣᎪᏩᏛᏗ	-11.7767
▁ᏰᏙ	-11.777
▁ᎠᎾᏁᏍᎨ	-11.7773
ᏘᏍ	-11.7781
▁ᎠᎪᎲ	-11.7784
ᏩᏛᎡᏗᏱ	-11.7787
ᏥᎵᎥᏂᎵ	-11.7788
▁ᏣᏂᎧᏔᎮ	-11.779
▁ᏚᎪᎲᏃ	-11.7795
▁ᏯᏆᏓᏅᏓᏗᏍ	-11.7795
ᏲᎸᎩ	-11.7795
ᎬᎾᏉ	-11.7798
▁ᎤᏪᎳ	-11.78
ᎶᏁᎥ	-11.78
▁ᏚᎾᏠᏒ	-11.78
▁ᎢᏤᎵᏎ	-11.7803
▁ᏂᎦᎵᏍᏗᏍᎬᎢ	-11.7803
ᎾᏁᏍᎩ	-11.7803
ᏂᎷᏣ	-11.7805
▁ᏧᎶᏁ	-11.7807
ᏕᎪᏢᎾ	-11.7811
ᏢᏔᎲ	-11.7815
▁ᏥᏅᏏᏓᏍᏗᏃ	-11.7815
▁ᎠᏥᏴ	-11.7816
ᎫᏴᎡᏗ	-11.7818
▁ᏥᏓᏓ	-11.7818
▁ᎡᏥᎩᎵᏲᎢᏍᏗᏍ	-11.7823
▁ᏓᏂᏢ	-11.7824
▁ᎤᏍᏗᎢ	-11.783
ᏠᎲ	-11.7831
▁ᎠᏍᎪᏒ	-11.7837
ᏎᏛ	-11.7838
ᏈᏴ	-11.7838
ᏓᏍᏓᏴᏗ	-11.7842
▁ᏗᎲᎢ	-11.7844
▁ᏓᎦᏙ	-11.7853
ᏱᎲᎢ	-11.7854
ᏏᏙᎸ	-11.7854
▁ᎦᏍᎩ	-11.7855
ᏚᎢᏍ	-11.7859
ᎦᏚᏢ	-11.7865
ᏌᏆᎴᎸ	-11.7866
ᏥᎦᏖᏃᎭ	-11.7871
▁ᎤᏲᎴᎢ	-11.7874
▁ᎤᏂᎦᏙᎥᎯᏍᏗ	-11.7875
▁ᏙᎤᏁᏅ	-11.7878
ᎦᏔᏂᎴ	-11.7882
▁ᏓᏂᎾ	-11.7885
▁ᎤᏓᎵᏓᏍ	-11.7887
ᏓᏦᎲ	-11.789
ᎳᎨᏯᏛ	-11.7893
▁ᏧᎾᏓᎯᏍᏗ	-11.7893
▁ᏄᎨᏳᏎ	-11.7896
▁ᎤᏩᎨᏫᏒ	-11.7898
▁ᏗᎦᎳ	-11.7902
▁ᎠᏥᎪᎵᏰ	-11.7903
▁ᏕᎯᏁ	-11.7906
▁ᎬᏩᏒ	-11.7908
▁ᎤᏓᏠᏍ	-11.7912
▁ᎢᏣᏪᏍᏗ	-11.7918
▁ᎬᏯᏛᏁ	-11.792
ᏅᎵᏰᎥ	-11.792
▁ᏗᎦᎳᏗᏍ	-11.7922
ᎵᏓᏍᏙᏗ	-11.7926
ᏯᏂᏍᎨᏍᏗ	-11.7926
ᎩᎵᏲᎢᏍᏗᏍᎬᎢ	-11.7928
▁ᏍᏆᎵᏍᎪᎸᏓ	-11.7931
ᏥᏯᎵᏍᎪᎸᏓᏁ	-11.7931
ᎧᎭᏲ	-11.7932
▁ᎢᎸᏍᎩᏉ	-11.7932
▁ᏧᏃᎯᏳᏗ	-11.7933
▁ᏫᏚᏂᏲᎯᏎ	-11.7933
▁ᎧᏅᏂᏍᎩᏉ	-11.7933
▁ᏕᏥᏁ	-11.7937
▁ᎦᏰᎪ	-11.794
ᏥᏚᎢᏍᏓᏁᎸ	-11.7941
▁ᏕᎦᎵ	-11.7942
▁ᏚᏃᏒ	-11.7945
▁ᎠᏂᎧᎵ	-11.7947
ᏐᏗᏱ	-11.7949
ᎳᏗᏍᎨᎢ	-11.7953
▁ᎨᏦᎯᏳ	-11.7953
ᏯᏘᏃᎯᏏ	-11.7953
▁ᏕᎦᏂᏱᏍ	-11.7959
ᎦᎵᏍᏓᏗᏍᏗᏱ	-11.7959
▁ᎤᏂᏟᏌᏅ	-11.7962
ᏂᎾᏰᏍᎬ	-11.7964
ᏬᏁᏗᏍᎨ	-11.7965
ᏲᏅᎯ	-11.7966
ᏏᏛ	-11.7969
▁ᏚᎩᏎ	-11.7972
▁ᏏᎻ	-11.7974
ᎸᏨ	-11.7976
ᎧᎿᏩᏗᏙᎮᏍᏗ	-11.7977
ᏄᏬᎥ	-11.7983
ᏚᎩᏍᏗ	-11.7989
ᏗᎷᏥ	-11.7994
▁ᏣᏓᏅᏖ	-11.7996
▁ᎤᎾᏙᎴᎰᏒᏃ	-11.7997
ᏨᏁᏗᏱ	-11.7999
▁ᎢᏣᏙᎴᎰ	-11.8002
▁ᎢᏳᎵᏍᏔᏁ	-11.8005
ᎦᏔᎮᎢ	-11.8006
ᏓᏁᏢ	-11.8009
▁ᎤᎾᏕᏯᏙᏗ	-11.8016
▁ᏱᏕᏣ	-11.8018
ᏓᏁᎢ	-11.8019
▁ᎤᎶᏒᏍᏓᏁ	-11.8019
▁ᎡᏥᏍᏕᎸ	-11.8019
ᎾᏓᏛᏁᏗᏱ	-11.8028
ᏥᏍᏈ	-11.8028
▁ᏥᏫᎦ	-11.8035
ᎾᏓᏨᏯᏍ	-11.8035
▁ᎯᏃᎮᏍᎬ	-11.8043
▁ᏚᏅᏅ	-11.8046
ᎬᏩᏓᎴᏅᏛ	-11.8047
▁ᎬᏩᏂᎩ	-11.805
▁ᏓᎧ	-11.8051
▁ᎤᎵᏍᏙᏰ	-11.8055
▁ᎭᎸ	-11.8061
▁ᎾᏗᏍ	-11.8061
ᏥᎾᏌᎢ	-11.8066
ᏤᎶᎯ	-11.8068
▁ᎨᏦᎯᏳᏗ	-11.8071
ᎾᎵᏖᎸᏂ	-11.8079
▁ᏗᏥᏁᎸ	-11.808
▁ᎠᎩᏥ	-11.8081
▁ᏍᏆᏛᏓᏍᏓ	-11.8082
ᏴᏍᎪᎢ	-11.8112
▁ᎤᏌᏛ	-11.8114
ᏂᏯᏫᏍᎬ	-11.8117
ᏂᏴᏙᏗ	-11.812
ᎧᎵᎢᏍᏔᏅ	-11.8121
▁ᎤᏓᎸᏉ	-11.8124
ᏈᏃ	-11.8126
▁ᎤᏁᎳᏗᏍᏗ	-11.8126
ᏂᏅᏫᏍᏗᏍᎩ	-11.8131
ᏔᏟ	-11.8131
ᏍᏆᏛᎯ	-11.8136
▁ᎠᏆᏓᏅᏘ	-11.8139
ᎾᏄᎪᎨᏍᏗ	-11.8142
▁ᏗᏤᎷ	-11.8143
▁ᎤᏩᏛ	-11.8144
ᏥᏲᎭ	-11.8144
ᏚᏙᎥ	-11.8144
ᎾᏓᏛᏁᎭ	-11.8147
ᏲᎱᏎᎸ	-11.8152
▁ᎠᏥᏐᏅ	-11.8156
▁ᏘᎧᎵ	-11.8159
ᎾᏰᏍᎬᎢ	-11.8162
▁ᏰᎵᎠ	-11.8165
ᏘᏲᎯ	-11.8166
ᏣᏛᏁᎮᏍᏗ	-11.8167
▁ᎠᏓᎩᎡ	-11.817
ᎾᏓᏂᎸᏤ	-11.8172
▁ᎢᏨᎪ	-11.8184
ᎩᎷᏨᎩ	-11.8185
ᏅᏫᏍᏗᏍᎨ	-11.8185
ᏥᏍᏢ	-11.8186
▁ᎤᏔᏕᎩᏍᎨ	-11.819
ᏙᎴᎰᎯ	-11.8196
ᏲᎯᏍᏗᏱ	-11.8196
ᏕᏙᏛ	-11.8197
▁ᎠᎾᏡᏗ	-11.8201
▁ᏳᎾᏅ	-11.8206
ᎷᎸᎥᏍ	-11.8206
ᎵᏎᏗ	-11.821
ᏯᎩᏍᎪ	-11.8217
▁ᏳᏴ	-11.8217
ᎫᏍᏙ	-11.8222
▁ᎣᎨ	-11.8227
ᏥᏁᎢᏍᏗᏍᎬ	-11.8228
▁ᎤᎵᎬᏚ	-11.8231
ᏏᎾᏍᏛ	-11.8244
▁ᎢᏍᏗᎪ	-11.8248
ᎬᏔᏅᎯ	-11.8253
ᎮᎸᎯ	-11.8254
ᏰᎸᎰ	-11.8257
▁ᎤᎾᏘ	-11.8258
ᎯᏙᎸ	-11.8258
p	-11.8258
▁ᏓᏁᎶᏛ	-11.8263
ᏙᏯᏅᎯᏕᎢ	-11.8264
ᏥᏫ	-11.8265
▁ᎣᏂᏍᎩᏂ	-11.8271
ᎬᏩᎶᏔᏅ	-11.8279
▁ᎠᎩᏛ	-11.8283
ᎸᏒᎢ	-11.8284
▁ᎦᎸᏅ	-11.8289
ns	-11.829
▁ᎧᏁᏉᎨ	-11.8291
▁ᏗᏔᎴ	-11.8295
ᎸᏉᏔᏅ	-11.8304
▁ᎤᏪᎵᏎᎢ	-11.8306
ᏕᏏ	-11.8308
▁ᎦᏙᎬᎢ	-11.8308
ᏲᎲᎩ	-11.8315
▁ᏏᏂ	-11.8324
▁ᏥᏕᎲ	-11.8332
ᏆᎵᏍᏓᏁ	-11.8334
▁ᎠᎪᎵᏰᏍᎪ	-11.8334
▁ᏓᎪᏩᏘᏍᎨ	-11.8335
ᎦᏥᏯᏓᏙᎵᏍᏓᏁᎭ	-11.8337
▁ᎠᏲᎪ	-11.8343
▁ᏂᎬᏅᎩ	-11.8343
ᏗᎦᏄᎪᎪ	-11.8355
▁ᎠᎩᎬ	-11.8355
ᏗᏅᏓ	-11.8358
ᎮᎭ	-11.8358
▁ᎠᏙᎴᎰ	-11.8361
ᎾᏕᎶᏆᏍᏗ	-11.8364
▁ᎤᏱᎶ	-11.8368
ᏆᏓᎾᏰᏍ	-11.8369
ᎧᎸᎩ	-11.837
ᏘᎾᏫᏛᎯ	-11.8371
▁ᏅᏙᎯ	-11.8371
ᏍᏓᏩᏗᏙᎭ	-11.8378
ᎬᏍᎦᎳ	-11.8379
ᏨᏁᎸ	-11.8379
ᏬᎡ	-11.838
ᏒᎨ	-11.838
▁ᎤᏍᎪᏎ	-11.8387
▁ᏂᏥᎦᏔ	-11.8388
▁ᏫᏓᏯᏂᏍ	-11.8389
ᎦᏅᏓᏓ	-11.8391
▁ᎬᏬᎯᏳᎲᏍᎨ	-11.8396
▁ᏚᏏᎳᏛᎢ	-11.8399
ᏂᏏᏁ	-11.84
▁ᎦᏂᎩ	-11.8403
ᎯᎸᏍᏗ	-11.8404
▁ᏙᏓᏥᏃᎩ	-11.8408
▁ᎦᏙᎨᎢ	-11.841
ᏛᏁᎰᎢ	-11.8415
▁ᏯᏍᎦᎢᎮ	-11.8417
▁ᎠᏎᏍᏗ	-11.8418
▁ᎤᏂᏔᏲ	-11.8419
ᏁᏒ	-11.842
ᎬᏍᎦᎸ	-11.8422
ᏯᎪᎦ	-11.8428
ᎾᏲᎪ	-11.8431
▁ᏒᏃ	-11.8434
▁ᏔᎵᏉ	-11.8439
ᎸᎾᏉ	-11.8452
▁ᏧᎾᏁᎳ	-11.8453
▁ᎬᏩᏯᎢ	-11.8459
▁ᎦᏕᎶᎣᏍ	-11.846
▁ᏗᏓᎴᎲᏍᎨ	-11.846
ᏅᎦᎸᎮᎢ	-11.8467
▁ᎢᏥᏰᎸᏒ	-11.8469
ᏩᏂᏌᏁ	-11.847
ᎧᎳ	-11.8475
ᏕᎮᏍᏗ	-11.848
ᏛᏅᎢᏍᏙᏗ	-11.8483
▁ᏗᏣᏛ	-11.8484
ᏃᏁᎸᎯ	-11.849
ᎾᏩᏛ	-11.8494
▁ᏧᏬᏚ	-11.8497
ᏘᏍᏓᏁᎯ	-11.8497
▁ᎣᎩᏃ	-11.8498
ᏕᏨᎩ	-11.8498
▁ᏓᏰᏥ	-11.8501
▁ᎤᎾᎴᏗ	-11.8505
▁ᏚᎦᏙᏍᏔᏁ	-11.8507
▁ᎤᎵᏃᎯᏰ	-11.8507
ᎦᏙᎥᏒ	-11.851
▁ᎤᏲᎭ	-11.8515
ᎳᏅᏓᏕᎸ	-11.852
▁ᎤᏂᎦᏯᎷ	-11.8526
ᎩᏙᎵᏍᏗᏱ	-11.8526
▁ᏚᏄ	-11.8528
▁ᏭᎪᎲ	-11.8528
▁ᏯᏂᏁ	-11.8528
ᎯᎦᏔᎭᏍᎪ	-11.8531
ᏤᎸᏍᎦ	-11.854
▁ᎤᏩᏌᏆ	-11.854
▁ᏴᎦᏥᏍᎦ	-11.8543
▁ᎤᏂᏁᏎ	-11.8546
ᏓᎩᏅ	-11.8549
ᎪᏛᎢ	-11.8552
ᎾᏓᏂᎸᏨ	-11.8552
▁ᏚᏃᏢ	-11.857
ᏓᏅᎦᎸ	-11.8572
ᏯᏙᎯᎯ	-11.8575
ᎲᏍᏔᏅ	-11.8577
▁ᏕᎩᏂᏴ	-11.8577
ᎪᏂᎭ	-11.8581
▁ᏚᏏᏔᏕ	-11.8588
▁ᏓᏂᏃᎮ	-11.8589
▁ᎤᎨᎢ	-11.86
ᎩᏁᏥ	-11.8603
▁ᏴᏫᏍᎩᏂ	-11.8608
ᏉᏑᎴ	-11.8609
ᎧᏁᏥ	-11.861
▁ᎬᏴ	-11.862
▁ᏱᏂᎦᎵᏍᏗ	-11.8637
▁ᎭᎵᏍᏓᏴᎲᏍ	-11.864
ᎯᏓᏍᏗᏱ	-11.8641
ᏔᏲᏎᎸ	-11.8642
ᏕᎲᎦ	-11.8662
ᎪᎮ	-11.8669
▁ᏯᏇᎵ	-11.8669
ᎦᏘᏗ	-11.8669
ᎩᏯᎷᎦ	-11.8673
ᏥᏬᏁᏔᏅ	-11.8674
ᏲᎱᏎᎸᎯ	-11.8677
ᎵᎮᎵᏥ	-11.8677
ᏑᎦᏢ	-11.8678
ᏍᏚᏣ	-11.8681
ᏍᏓᏴᏗ	-11.8683
ᏥᏅᏏᏛ	-11.8686
ᎷᏤᎰᎢ	-11.8688
ᎳᏑᎸ	-11.8689
ᏕᎳ	-11.869
▁ᎤᏤᎸᏅ	-11.8693
ᎬᏎ	-11.8693
▁ᏚᏄᎪ	-11.8693
▁ᏓᏥᏃ	-11.8706
▁ᏱᏥᏲᏍ	-11.8707
▁ᎤᏬᏪᎳ	-11.8712
ᏛᏓᏍᏔᏅ	-11.8715
ᏲᏍᏙᏓ	-11.872
ᏂᎴᎢ	-11.872
▁ᏭᏂᏴᏍᏗ	-11.8724
ᏬᎥᎢ	-11.8728
ᎾᎴᏫᏍᏔᏁ	-11.8737
ᎵᏍ	-11.874
▁ᏧᏂᏁᏤ	-11.8747
▁ᎤᎵᎮᎵᏤᎸ	-11.8755
▁ᏳᏝ	-11.8755
▁ᎤᎵᏍᎨ	-11.8758
ᏰᎸᏍᎨ	-11.8765
▁ᎥᎩᏁᎸ	-11.8766
▁ᏧᎪᎲ	-11.8768
ᎩᎡᎴ	-11.8769
ᏂᏎᎢ	-11.877
ᏬᏂᏍᎩ	-11.8777
▁ᎬᏯᏛᏁᎸ	-11.8779
▁ᏨᏛ	-11.8779
▁ᎠᎫᎩ	-11.8781
▁ᎤᎾᎵᏍᎪᎸᏙᏗ	-11.8785
ᏥᏯᏅᎲ	-11.8786
ᏂᏗᏍᏗ	-11.8788
▁ᏣᎶ	-11.8789
ᏛᎯᏍᏓ	-11.879
▁ᎠᏓᏯᏅ	-11.8791
▁ᎠᏥᎪᏗ	-11.8792
▁ᎢᏳᏩᎦ	-11.8795
▁ᎠᏆᏍᏗ	-11.8796
▁ᏗᏏᎳᏛ	-11.8798
ᎦᏡᏓ	-11.88
▁ᏧᏅᏙᏗ	-11.8806
▁ᏣᏛᏗ	-11.8807
▁ᏂᎨᏥ	-11.8818
ᎢᏍᏓᏁᏗᏱ	-11.8822
ᏚᎴ	-11.8823
▁ᎨᏥᏁ	-11.8828
ᎦᎷ	-11.8828
ᎵᏍᏓᏴᏁᎢ	-11.8836
ᎯᏎᎴ	-11.8839
ᎦᎵᏴ	-11.8841
ᏫᏍᏔᏁ	-11.8845
ᎬᏁᏗᏱ	-11.8846
▁ᎤᏥᏈ	-11.8847
▁ᎤᏂᏲᎰᏎ	-11.8852
ᎴᏫᏍᏗᏍᎨ	-11.8855
ᏥᎷᏤᎸ	-11.8862
▁ᎡᏣᎵ	-11.8869
▁ᏗᏣᎵ	-11.8872
ᎯᏯᏍᏗ	-11.8872
▁ᎬᏆᏕ	-11.8885
ᏅᏤ	-11.889
ᏓᎴᎲᏍᎩ	-11.8892
ᏅᏎᎢ	-11.8894
▁ᎨᏥᏰᎸ	-11.8897
ᎵᏃᎮᏍᎬᎢ	-11.8897
▁ᏍᏆᏓᏅ	-11.8898
ᏛᎦᏁᏗᏱ	-11.8902
ᎵᏁᏌ	-11.8909
▁ᏄᏧᏈᏍ	-11.8909
ᏂᎦᎵᏍᏓ	-11.8912
▁ᎤᏃᎮ	-11.8917
ᏓᏁᎮᎢ	-11.8918
▁ᎤᎵᏠᏯᏍ	-11.8926
ᏥᏁᏟᏴᏒ	-11.893
ᎷᏤᎲ	-11.893
▁ᏗᏂᏲᎵᏉ	-11.8931
ᎸᏃᏘᎭ	-11.8932
ᎧᏘ	-11.8935
▁ᎠᏂᎾᏰ	-11.8947
▁ᏳᏂᏁ	-11.8952
▁ᎤᏪᏙᎵᏨ	-11.8961
ᏍᎪᏯ	-11.8961
▁ᏧᏘᏲ	-11.8969
ᏁᎳᏗ	-11.8977
▁ᏫᎦᏅ	-11.8987
ᎬᏩᎪᎲ	-11.8987
▁ᏱᏂᏣᏛ	-11.8996
▁ᏒᏕ	-11.8997
ᎩᎸᏉᏛᎢ	-11.8998
▁ᎦᎧᎲ	-11.8999
ᏟᏃᎮᏙᏗ	-11.9002
▁ᏓᏂᏁ	-11.9009
▁ᎾᎾᎵᏍ	-11.9011
▁ᏥᏓᎾ	-11.9016
ᏓᏙᎵᏍᏙᏗᏱ	-11.9017
ᏥᏍᏕᎸᏗᏱ	-11.9019
▁ᏥᏅᏩᏍᏗ	-11.9021
ᎠᏍᎦᎦ	-11.9024
▁ᎦᏁᏟᏴ	-11.9025
ᏛᏓᎴᎲᏍᎩ	-11.903
ᏪᏙᎵᏨᎩ	-11.9036
ᎫᏱᏍᎨᏍᏗ	-11.904
ᏓᏅᏓᏗᏍᏗᏱ	-11.9046
ᎾᎩᏪᏒ	-11.9047
▁ᎤᏂᏣ	-11.9048
ᏂᎶᏌ	-11.9048
ᏆᏕᏘᏴᎲ	-11.9051
ᏠᎯᏍᏔᏅ	-11.9054
▁ᎤᏒᏂ	-11.9062
▁ᏙᏛᏃ	-11.9064
ᎪᏗᏍᎩ	-11.9064
ᏁᎳᏗᏍᎨ	-11.9065
ᏂᏯᏍᏗ	-11.907
ᏣᏪᏐᎸᏍᏙ	-11.9072
▁ᎠᎩᎷᏤᏗ	-11.9079
▁ᏚᏂᏲᏒ	-11.9081
ᎵᏍᏓᏴᎲᏍᎨᎢ	-11.9082
ᏂᎨᏳ	-11.9084
ᎾᏚᎵᏍᎨᏍᏗ	-11.9085
ᏘᏂᏙᎯ	-11.9086
ᏆᏲᏗ	-11.9088
ᏁᏍᏓᎳ	-11.9089
ᎦᏂᏴᏛ	-11.9091
ᎩᎧᏏ	-11.9099
ᏅᎦᎵᏍᎬᎢ	-11.9104
ᎬᏩᏂ	-11.9105
▁ᎬᏙ	-11.9106
ᎾᏄᎪᎬ	-11.9113
▁ᏂᎬᏂᏏ	-11.9127
▁ᎤᎵᏬᏨᎢ	-11.9128
▁ᏚᏃᏴ	-11.9129
ᏰᎵᏎᎭ	-11.913
ᏍᎦᏃᎸ	-11.9136
ᎵᏤᏗᏱ	-11.9141
ᏓᏲᏁᎯ	-11.9146
▁ᎤᏓᏂᏴ	-11.9147
▁ᎦᏗᏔ	-11.9147
ᏆᏂᏏ	-11.9148
ᏍᎩᎦᏔᎭ	-11.9148
▁ᎠᏥᏍᏚ	-11.9155
ᏟᏌᏅᎩ	-11.9156
▁ᏂᎬᏴ	-11.9163
ᏘᏍᎪ	-11.9163
▁ᏛᎾᎵᏍᏓᏴ	-11.9168
▁ᎤᏂᏯᎸ	-11.9168
▁ᎦᏰᏥᏙ	-11.9172
▁ᏙᏓᏥᏯ	-11.9174
▁ᏚᏙᎥᎩ	-11.9174
▁ᎤᏍᎦᏍᏓᏁ	-11.9183
▁ᎠᎩᏍᏙ	-11.9188
▁ᎤᎦᏔᎲ	-11.919
▁ᎤᏛᏂᏗ	-11.9195
ᏕᏯᏙ	-11.9207
▁ᏳᏚ	-11.9211
ᎩᏐᏢ	-11.9216
ᎯᏍᏗᏍᎨᏍᏗ	-11.922
ᎾᏓᏅᏖᎸ	-11.9222
ᏙᎮᎯ	-11.9224
ᏕᏔᏅᎯ	-11.9225
▁ᎬᎩᏯ	-11.9228
▁ᏄᎾᏛ	-11.9232
▁ᎢᏥᏙᎾ	-11.9235
ᏑᎵᎪᎬ	-11.9238
▁ᎠᎩᏩᏛᏗ	-11.9241
ᏔᎳᏬ	-11.9241
▁ᎤᎵᏘᏎ	-11.9242
ᏓᏁᎵ	-11.9245
▁ᎧᏁᎢᏍᏗᏍᎨ	-11.9247
▁ᎭᎦᏔ	-11.9247
ᏎᎩ	-11.9251
▁ᏂᏚᎾᏓ	-11.9253
▁ᏫᏗᎨ	-11.9254
ᎭᏂᏍᏔᏅ	-11.9255
ᏂᏚᏪᏎᎸᎩ	-11.9259
ᏯᏛᏗ	-11.926
ᏩᏛᏍᏗ	-11.9262
▁ᎤᎪᎮᏃ	-11.9264
ᏂᏎ	-11.9272
▁ᎡᏣᏛ	-11.9278
ᏱᎴ	-11.9279
ᎦᏔᎲᎢ	-11.928
ᏕᏋᎯᏍᏗ	-11.9283
▁ᏓᏥᎶᏍ	-11.9284
ᏰᎩ	-11.9286
ᎡᎮ	-11.9288
▁ᏓᏳᏁ	-11.9293
ᏙᏯ	-11.9294
▁ᏂᎬᏅᎢ	-11.9297
▁ᎠᎵᏍᎪ	-11.9297
▁ᎤᎵᏍᎪᎸᏙᏗ	-11.93
▁ᎠᏢᏈᏍ	-11.9309
ᏯᎷᎦ	-11.9311
ᏄᎮᎵ	-11.9321
ᏂᎴᏴ	-11.9322
ᏍᎩᏲᏎᎭ	-11.9323
▁ᎠᎾᏅ	-11.9341
ᏥᏯᏬᎥ	-11.9342
▁ᏱᎦᏥ	-11.9353
ᏍᎪᎸᏓᏏ	-11.9357
▁ᎯᏃᏁᎸ	-11.936
▁ᎠᏂᎦᏗ	-11.9361
ᎦᎵᏍᏔᏅ	-11.9363
ᏱᎵᏙᎭ	-11.9363
ᏣᏁᎵ	-11.9366
ᏆᏗᏍᏗ	-11.9376
ᏓᏰᏅ	-11.9377
ᎧᎿᏩᏛᏍᏗ	-11.9381
▁ᎤᏂᏲᎯᏍᏔ	-11.9383
ᏥᎪᎵᏰᏗᏱ	-11.9383
ᎦᏛᎴᎯ	-11.9386
ᎵᏍᎪᎸᏓᏁᎸᎩ	-11.9387
▁ᏱᏚᏩ	-11.9389
▁ᏕᏍᎩᏯ	-11.9391
▁ᎢᏣᎫᏱᏍ	-11.9396
▁ᎠᎾᎵᏥᏙᏂᏙ	-11.9402
▁ᏍᎪᏂ	-11.9404
ᏖᎳᏗᏍᏗ	-11.9406
▁ᎤᏬᏎ	-11.9413
ᎸᏉᏗᏍᎨᏍᏗ	-11.9418
▁ᎣᏥᏃᎮ	-11.9419
▁ᏥᏚᏄᎪ	-11.9427
ᏓᏥᎩᏏ	-11.9428
ᎮᏍᎬᎾ	-11.9448
ᏰᎸᎾᏁᏗ	-11.945
▁ᎤᏍᏆᎳ	-11.9457
▁ᏫᏓᎾ	-11.9459
▁ᎡᎶᎯᏉ	-11.9468
▁ᏣᏄᏬ	-11.9473
▁ᎯᏩᏛ	-11.9475
ᎾᏉᎯ	-11.9485
ᎯᏎᎸᎢ	-11.9487
ᎵᏏᏅᏗ	-11.9489
ᏓᎴᎲᏍᎨ	-11.949
ᏥᎸ	-11.9491
▁ᏧᏍᏆᏂᎪᏙᏗ	-11.9496
▁ᏳᏔᏲᏎ	-11.9496
▁ᎡᏣᏚ	-11.9497
▁ᏱᏂᎦᎵᏍ	-11.9506
ᏰᎲᎾ	-11.9506
ᎷᎬᎾ	-11.9506
▁ᏘᏲᎯ	-11.9516
ᏓᎦ	-11.9526
▁ᎤᏂᏍᏘᏰ	-11.9526
ᏩᏛᎡᎮ	-11.953
ᏂᏔᏲᎴ	-11.9533
ᏟᏴᎭ	-11.9538
ᎨᏰᎢ	-11.9543
ᏁᏙᎯ	-11.9544
▁ᏚᎵᏦ	-11.9545
ᎣᎦᏂᎩᏒ	-11.9545
▁ᎦᎾᏍ	-11.9547
ᏧᏣ	-11.9548
▁ᎠᎧᏔ	-11.9552
▁ᎠᎵᏍᎩ	-11.9553
▁ᎠᎸᎯ	-11.9559
▁ᏥᏯᏓᏅᏖᏍ	-11.9561
ᏂᏍᏘᏰᎬ	-11.9563
ᏣᏓᏱᎸ	-11.9565
ᎯᏍᏗᏍᎩ	-11.9568
ᏱᏙ	-11.9573
▁ᎬᏩᏛᏓᏍᏓᏁ	-11.9575
ᏗᏔᏍᏗᏱ	-11.9584
ᎦᏙᏍᏕᎢ	-11.9585
ᏥᏓᏍᏗ	-11.9586
ᏚᏓᎳ	-11.959
▁ᏥᏂᏨ	-11.9591
▁ᏯᎦᎵ	-11.9597
ᏦᎣ	-11.9607
▁ᎯᏍᏕᎸᏗ	-11.9609
▁ᎠᏓᏙᎵᏍ	-11.961
ᏥᏂᏴ	-11.9613
▁ᎤᎧᏙᏍ	-11.9617
ᏤᎮᏍᏗ	-11.9623
▁ᎤᏂᏁᎦ	-11.9625
▁ᎢᎦᏓᏅᏓᏗᏍᏗ	-11.9631
ᏉᎯᏳ	-11.9643
ᎦᏘᏰᎢ	-11.9654
ᏅᏗᏍᎪᎢ	-11.9663
▁ᎠᏂᎶᏏᏙ	-11.9665
▁ᎠᏆᏦ	-11.9666
ᏛᏛᏅᎩ	-11.9669
▁ᏍᎩᏰᎸ	-11.9671
ᏓᏙᎵᏍᏓᏁᎮᏍᏗ	-11.9674
▁ᏄᏪᎡ	-11.9676
▁ᏣᏩᎯ	-11.9681
▁ᏚᏪᎧ	-11.9687
▁ᏧᎵᏍᏚ	-11.9689
ᎾᎦᏔᎲᏍᎬ	-11.9693
▁ᏚᏂᏅ	-11.9695
▁ᏧᏳ	-11.9699
▁ᏱᏣᏛᏓᏍᏔ	-11.9707
▁ᎤᏰᎶᎢᏍ	-11.971
▁ᎠᏕᎵ	-11.971
pi	-11.9714
ᏕᏙᎭ	-11.9718
ᏴᎩᏛ	-11.9723
ᎯᏍᏗᎭ	-11.9725
▁ᎲᎾ	-11.9729
▁ᎠᎾᏕ	-11.974
▁ᏱᎦᎷᏤ	-11.9744
ᏃᎯᏏ	-11.9747
ᏦᏱ	-11.9749
▁ᎠᏍᎦᏅ	-11.9753
ᎷᎯᏍᏓᏁ	-11.9763
ᏥᏁᏤᎸᎯ	-11.9764
ᏂᏩᏛᎯᏙ	-11.9772
ᏰᎸᏅ	-11.9775
▁ᎤᏭᏢ	-11.9779
ᏓᎨᏛ	-11.9782
ᎾᏁᏍᎨᏗ	-11.9787
ᏤᎵᎦᏯ	-11.9788
ᎾᏗᏅ	-11.979
ᏯᏑᏰᏛ	-11.9806
▁ᎠᎩᏁᎵᏍ	-11.9813
ᏃᎩᏍᏔᏂ	-11.9813
ᏲᏍᏙᏗᏱ	-11.9822
▁ᎬᏩᎾᏓ	-11.9825
ᏕᏍᎬᎢ	-11.9827
ᏂᏲ	-11.9829
ᏫᏌ	-11.9832
ᏬᏯᏁᏎᎢ	-11.9838
ᏥᏲᎢᏳᏓᏁᎭ	-11.984
▁ᏚᎵᏍᏚ	-11.984
▁ᎤᏂᎷ	-11.9843
▁ᎠᏂᎦᏔ	-11.9848
▁ᎦᎳ	-11.9852
▁ᎠᎩᏁᏤ	-11.9854
ᏬᏂᎯᏍᏗᏱ	-11.9861
ᎸᏍᎨᎢ	-11.9863
ᏐᏯᏍᏗ	-11.9866
▁ᏚᏒᏁ	-11.9877
▁ᎤᏁᎳᏗᏍ	-11.9881
ᏌᎳᏗ	-11.9882
▁ᏭᏭᏓᎸ	-11.9883
▁ᎠᏂᏯᏫᏍ	-11.9884
ᏞᏤ	-11.9887
▁ᏂᎨᏣ	-11.9889
▁ᏧᏬᏎ	-11.9889
ᏓᏗᏍᏗᏱ	-11.989
ᎾᏕᎪᎢ	-11.9893
ᏩᎯᏎᎴᎢ	-11.9896
ᎧᎵᏣ	-11.9902
ᎪᎳᏗᏴ	-11.9903
ᏁᎵᏔᏅ	-11.9905
ᎦᏄᎪᎬᎢ	-11.9906
▁ᎢᏥᎦᎵ	-11.9906
ᎩᏂᏆᏘᎯ	-11.9907
ᎸᎥᏍᎩ	-11.9909
ᏩᎪᏗ	-11.9909
ᏛᏔᏁ	-11.9913
ᏙᏢᏒᎢ	-11.9914
ᏒᎦᎳ	-11.9915
ᏙᎾᎥ	-11.9916
▁ᎤᏔᏍᎩ	-11.9923
ᏆᏚᎵᎭ	-11.9924
▁ᏓᎦᏂ	-11.9926
▁ᎠᎩᏲᏏ	-11.9926
▁ᎤᏍᏆᎸᏗ	-11.9929
▁ᎨᎪ	-11.9931
▁ᎾᎯ	-11.9932
▁ᎤᏂᎶᎯᏍᏗ	-11.9933
ᏲᎦᏘ	-11.9933
▁ᏗᎦᎶᎯᏍᏗ	-11.9948
ᎪᏎᎮᏍᏗ	-11.9948
▁ᏧᏲᎱᏎ	-11.995
▁ᏥᎨᏣ	-11.9952
▁ᏨᏗᎦ	-11.9959
ᎵᏂᎪᎯᏍᏓ	-11.9963
▁ᏥᎧᏁᎢᏍᏗ	-11.997
▁ᎬᏩᏲ	-11.9972
ᎴᎲᏍᎬᎩ	-11.9976
ᏓᏂᎸᎦ	-11.9978
▁ᏓᏍᏆᏂᎪ	-11.9979
▁ᎢᏳᏛᏁ	-11.9981
ᏭᎾ	-11.9983
▁ᎤᏲᎱᏎᎸ	-11.9985
ᎧᏅᎩ	-11.9987
▁ᏥᎦᎳ	-11.9987
ᏥᏩᏛᏓ	-11.999
ᎵᎰᎢ	-11.9992
▁ᏯᏋ	-11.9993
▁ᎢᏣᏗᏔ	-11.9995
▁ᎤᏏᎳᏛ	-12.0004
ᏴᎭᎦ	-12.0005
ᏓᏅᏒᎭ	-12.0007
ᏣᏖ	-12.0008
ᎸᎡᎸ	-12.0008
ᏩᏕᎨ	-12.001
ᏁᎵᏍᎨ	-12.0011
▁ᎬᏭᎯᏍᏗᏍ	-12.0012
ᏥᎪᎥ	-12.0021
ᎩᎵᏲᎢᏍᏙᏗᏱ	-12.0026
ᎪᎸᏒ	-12.0026
ᏏᏃᎴ	-12.0031
ᏓᎴᎿ	-12.0032
▁ᎣᎦᎵᏍᏔᏴ	-12.0033
ᏲᏍᏙᏓᏁᎸᎩ	-12.0037
ᏓᏅᎡᏗᏱ	-12.0039
▁ᎣᏆ	-12.0043
▁ᏣᏓᏅᎦᎸ	-12.0046
ᏃᎭᏝ	-12.0047
▁ᎠᎩᏁᏤᎸ	-12.0049
ᏁᎪ	-12.0051
ᎶᏍᎨᏍᏗ	-12.0056
▁ᎠᏂᎶᏍᎨ	-12.0059
ᎾᏓᏴᎳᏛ	-12.0062
▁ᏳᎾᏚᎵ	-12.0064
ᎦᎵᏱ	-12.0069
ᎴᏅᏗᏱ	-12.0073
▁ᎠᎾᏛᎩ	-12.0077
ᏕᏘᏴᏛ	-12.0079
ᏓᎢᏅ	-12.0079
ᏚᎸᏛ	-12.0079
▁ᎣᏎ	-12.0084
ᏘᏃᎸᎩ	-12.0085
▁ᎥᏓᏗ	-12.0085
▁ᏓᎬᏯ	-12.0085
ᏘᏃᎯᏏ	-12.0086
ᏍᏆᎳᎯ	-12.01
ᏘᎶ	-12.0102
▁ᏧᎾᏓᏁᎳ	-12.0109
ᏗᎦᏔᎭ	-12.011
ᎫᏏ	-12.0111
▁ᏧᏃᎯᏳ	-12.0114
ᏣᎸᏫᏍᏓᏁᎮᏍᏗ	-12.012
▁ᎠᎦᏘᏃᎮ	-12.0122
▁ᎣᏍᏕᏙ	-12.0124
ᎵᏍᏓᏁᏗ	-12.0126
ᏁᎶᎯ	-12.0128
▁ᏗᏰ	-12.013
▁ᎢᏣᎴ	-12.0134
▁ᏳᎾᏗᏅ	-12.0139
ᎵᏒᎩ	-12.014
ᎩᏂᏴᎲ	-12.0143
▁ᎠᏍᏆᏂᎪᏗᏍ	-12.0147
ᏲᎵᎦ	-12.0154
▁ᎪᎯᏴ	-12.0157
ᏓᎪᏩᏘᎭ	-12.0159
ᏰᏍᎩ	-12.017
ᏲᎩ	-12.0171
ᏂᎪᏩᏛ	-12.0174
ᏓᎴᏅᏓ	-12.0175
ᏦᎯᏳᎲᏍᎦ	-12.0176
▁ᎠᎯᏯ	-12.0182
ᏫᎨᏙᎲ	-12.0183
ᏂᎪᎯᏍᏗᏍᎨᏍᏗ	-12.0183
▁ᎤᏓᏦ	-12.0185
ᏅᎦᎸᏙᏗ	-12.0188
ᏍᏆᏂᎪᏙᏗ	-12.0196
ᎾᏓᏡᎬ	-12.0196
▁ᎤᎾᏞ	-12.0203
ᏪᎶ	-12.021
ᏍᏗᎧ	-12.0213
▁ᏱᎨᎦ	-12.0214
ᏪᏍᏗᏱ	-12.0217
ᏂᎾᏌᏁ	-12.022
▁ᎢᎾᎯ	-12.0222
▁ᎦᎾᏄᎪᏫᏎ	-12.0224
ᏤᎲᎾ	-12.0226
ᎦᏘᏯ	-12.0226
▁ᏧᎫᏴ	-12.0229
ᎼᏏ	-12.0231
ᏛᏍᎬ	-12.0232
ᏅᏍᏓᏕ	-12.0237
ᏂᏍᎪ	-12.0239
ᏗᏕᎬᎢ	-12.0241
▁ᎤᏓᏙᎵᏍᏙᏗ	-12.0242
▁ᎠᏓᏁ	-12.025
ᏒᏗᏍᎬ	-12.0252
▁ᏂᏛᏁ	-12.0258
ᎾᎿ	-12.0263
▁ᎭᎵᏍᏓᏴ	-12.0263
ᏣᏢ	-12.0264
ᏂᏩᏛᎲ	-12.0268
ᎵᎪᏔᏅ	-12.0271
ᎪᎯᏳᏗᏱ	-12.028
ᏡᏗᎭ	-12.0288
ᎵᎮᎵᎩ	-12.0288
ᏚᎳ	-12.0293
ᏁᏍᎨᏍᎩ	-12.0299
ᎮᎴᎢ	-12.0302
ᏖᎳᏗ	-12.0307
ᎵᎥᏂᎵ	-12.0309
▁ᎤᎵᏘ	-12.0311
▁ᏞᎦᏉ	-12.0312
ᏍᎩᎶ	-12.0312
ᎩᏂᏴᏎᏍᏗ	-12.0314
▁ᏯᏂᎸᏉ	-12.0315
▁ᏓᏂᏅ	-12.0317
ᏂᎳᎨᏯᏛ	-12.0318
▁ᎭᏓᏅᏖ	-12.0321
ᏕᏯᏙᏗᎭ	-12.0324
ᏂᎩᏏ	-12.0325
ᏂᏍᏙᏗᏱ	-12.0328
ᎵᏍᏔᏴᎾ	-12.0331
▁ᎥᎠᎩ	-12.0332
ᎨᏳᏒᎾ	-12.0332
▁ᏅᏓᏳᏂ	-12.0334
▁ᎯᏃᎯ	-12.0335
▁ᎠᏋᎨᏫ	-12.034
ᏁᎵᏒᎢ	-12.0341
ᏖᏆᎶᎯ	-12.0343
ᏗᏤᎾ	-12.0344
ᏂᏬᏂᎭ	-12.0344
▁ᏫᏚᏃᏁ	-12.0344
▁ᏫᏄᏩ	-12.035
ᏯᏙᎯᎲ	-12.0354
ᏍᏚᎮᎢ	-12.036
ᏣᏓᏑᏯ	-12.0364
ᏍᏛᏗᏍᎬᎢ	-12.0369
▁ᎠᏂᏰ	-12.0376
▁ᏣᏁᎯ	-12.0377
▁ᎠᏓᎨ	-12.0378
▁ᎦᏂᏱᏍ	-12.0378
▁ᏚᎦᏙᏍ	-12.0379
ᏪᏎᎸ	-12.0382
ᏙᏂ	-12.0384
▁ᎤᏒᎴ	-12.0391
ᏑᎴᏗ	-12.0392
ᏲᏏᏍᎨᎢ	-12.0392
ᎯᏍᏓᏱ	-12.0393
▁ᏛᎪ	-12.0395
ᏕᏯᏙᏓ	-12.0399
▁ᏥᏂᏣᎵᏍ	-12.04
▁ᎢᏥᎶᏁ	-12.0406
▁ᏂᏍᎩᏴ	-12.0415
▁ᏭᏗ	-12.0416
lo	-12.0417
ᏁᎵᏍᎪ	-12.0419
▁ᎩᏄ	-12.0422
▁ᎬᏩᎸᏉᏗ	-12.0424
▁ᎤᎾᎵᏍᎩ	-12.0424
ᎬᏅᎢ	-12.0426
ᏪᏐᎸᏍᏗ	-12.0431
ᏓᏥᎷᏥ	-12.0437
▁ᎢᏕᏙ	-12.0439
▁ᏧᏂᎸᏉᏗ	-12.0447
ᎵᏍᏔᏁᏗ	-12.0447
ᎾᏗᎾ	-12.0452
▁ᏥᏃᎮ	-12.0455
ᏄᎪᎬᎢ	-12.0456
ᎮᎵᏍᎬᏉ	-12.046
▁ᏣᏁᏤ	-12.0464
▁ᎢᏣᏍᏗ	-12.0469
ᎨᏯ	-12.0475
▁ᏗᏥᏲᎯ	-12.0478
ᎧᎿᏅᎩ	-12.048
▁ᏧᏢᏗ	-12.0483
▁ᎠᎾᏓᏛᎥ	-12.0487
ᏲᎯᏎᎴᎢ	-12.0489
▁ᎢᏙᎯᏳᎲᏍ	-12.0495
▁ᎬᏩᏂᎩᎵᏲᎢᏍ	-12.0504
▁ᎠᏘᏲ	-12.0507
▁ᎠᎩᎵᏓᏍ	-12.0509
ᎸᏅᎭ	-12.0512
▁ᎠᎾᏙ	-12.0517
ᏍᏕᎸᎡᏗᏱ	-12.0519
ᏌᎴᏓ	-12.052
▁ᎠᏂᏃᎮᎵᏙ	-12.0521
ᎾᏟᏃᎮᏗ	-12.0523
▁ᏣᏍᏕᎸ	-12.0526
ᏥᎸᏉᏗ	-12.0527
ᏣᏓᏂᎸᎩ	-12.0528
ᎵᎪᎲ	-12.0529
ᏄᏙᎬ	-12.0531
ᏚᎾᏛ	-12.0534
▁ᏚᏩᏍᎦ	-12.0534
ᏄᎪᏫᏍᎦ	-12.0542
ᎾᏯ	-12.0544
ᏫᎠ	-12.0549
▁ᎤᎸᏒ	-12.055
ᎭᎷᎨ	-12.0551
▁ᎠᎩᎷ	-12.056
▁ᏍᏆᎳ	-12.0575
▁ᎠᎩᏯ	-12.0576
ᎵᏌᎳᏓᏅ	-12.0576
▁ᏛᎤ	-12.0576
ᏩᏐ	-12.0585
ᏲᏌ	-12.0587
ᏓᏒᏂ	-12.0592
▁ᎤᏃᎯ	-12.0598
ᎸᎡᎴ	-12.0599
ᏢᏗᏍᎨ	-12.0601
ᎾᎴᏗ	-12.0604
▁ᎤᎾᎦᏌᏯᏍ	-12.0605
ᎯᏥᎨ	-12.0607
▁ᎤᏂᎿᎸ	-12.0623
▁ᏚᎧᏁ	-12.0624
ᎯᎶᎥ	-12.0625
▁ᎠᎩᏍᏕᎸᏗ	-12.0628
ᏔᎲᎾ	-12.0629
ᏂᏲᎸ	-12.0629
▁ᎦᎳᏅ	-12.0633
ᎵᏗᏍᎩ	-12.0637
ᎧᎾᏩᏗᏙ	-12.0643
ᏥᏍᎪᎵ	-12.0644
ᏥᎸᎯ	-12.0647
ᏍᏓᎥ	-12.0647
▁ᎣᎩᏍᏛᏗᏍ	-12.0647
▁ᎡᏦᎢᏳ	-12.0651
▁ᏫᏥᏂ	-12.0652
ᏣᎧᏂᏍᎬ	-12.0652
ᏴᏅ	-12.0654
ᎵᏍᏓᏴᎲᏍᎬᎢ	-12.0657
▁ᏄᏟᏂᎬ	-12.0657
▁ᏥᎦᏬᏂ	-12.0658
la	-12.0658
▁ᏓᏥᏯᏛ	-12.0659
ᏦᎯᏍᏗ	-12.066
ᏍᎪᏎᎢ	-12.0664
▁ᏓᏍᏆ	-12.067
ᏣᏅᏓᏗᏍ	-12.0671
ᏂᏲᎯᏍᏙᏗ	-12.0672
ᏂᎨᏳᎯ	-12.0672
ᎾᏕᎬᎢ	-12.0674
ᏥᏎᎪᎩ	-12.0674
▁ᎠᏔᏲᎯ	-12.0675
ᎵᏍᏓᏴᏔᏂ	-12.0675
ᏓᏥᏩᏛᎯᏃ	-12.0678
ᎦᏘᏰ	-12.0682
ᏥᏳ	-12.0684
ᎪᏓᏁᎸ	-12.0687
ᏥᏲᎵᎭ	-12.0687
▁ᎯᏁᏤ	-12.0687
▁ᎢᏳᎾᏛᏁ	-12.0688
ᎵᎪᎢ	-12.0689
▁ᎾᏂᏪ	-12.0691
ᎦᏖᏃᎭ	-12.0692
▁ᏱᎪᎯᏳ	-12.0694
▁ᎡᏥᏄᎪ	-12.0697
▁ᏗᎦᏔ	-12.0698
▁ᏓᏂᏬᏂ	-12.0699
▁ᎠᎵᏖᎸᎮᏍ	-12.07
▁ᏱᎪᎵ	-12.0707
ᏄᎪᏥ	-12.0707
▁ᏱᎦᏢ	-12.0713
▁ᏥᏂᏣ	-12.0714
ᎾᏫᏛᎮ	-12.0721
ᏨᏯᏍᏗ	-12.0721
▁ᎤᏂᏲᎵ	-12.0723
▁ᎠᏂᎦᏖᏃ	-12.0724
▁ᎤᏃᎯᎸ	-12.0725
▁ᎠᏑᏰᏍ	-12.0728
ᎵᎮᎵᏨᎯ	-12.0731
ᏃᏁᎸ	-12.0732
▁ᎤᏩᏙᏗ	-12.0736
ᏘᏂ	-12.0737
ᎩᎵᏲᎢᏍ	-12.074
ᏕᎰᏍᎨᏍᏗ	-12.0743
ᏗᏓᎴᎲᏍᎪᎢ	-12.0744
▁ᎤᏂᏱ	-12.0745
ᏂᎩᏒᎩ	-12.0747
ᏍᎩᎳ	-12.0749
ᏣᎦᎸᎮ	-12.076
ᎴᏉ	-12.0769
ᎶᏁᏗ	-12.0769
ᎬᏩᎶ	-12.0769
ᎩᎵᏲᎬᎢ	-12.0773
▁ᏓᏂᎳᏫ	-12.0775
▁ᏧᏓᏅᏖ	-12.0777
▁ᏓᎨᏥ	-12.0779
ᎾᏙᎴᏆᏍᎬ	-12.0781
ᏓᏍᎦᎨᏍᏗ	-12.0783
▁ᎠᏡᏗᏍ	-12.0786
ᎵᏍᎪᎸᏓᏁᎴ	-12.0798
▁ᎠᏯᏖ	-12.08
▁ᏚᏂᏚ	-12.0804
▁ᏓᏳᏩ	-12.0807
ᎠᏁ	-12.0814
ᏰᎸᏁ	-12.0816
▁ᏗᏓᏂ	-12.0824
ᏆᎵᏍᎪᎸᏓᏁ	-12.0826
▁ᎤᏂᏍᎪᎸ	-12.0829
ᏩᏗᏒ	-12.0832
ᎤᏅᏎ	-12.0832
ᏓᏪᎵᎩᏍ	-12.0833
ᏣᎷᏤᎵ	-12.0842
▁ᏓᎾᏘ	-12.0846
ᏥᏍᎦᏅᏤᎸ	-12.0847
ᏍᏛᏗᏍᏗᏱ	-12.0848
ᎸᏫᏍᏓᏁᎭ	-12.085
▁ᎦᎸᏉᏗᏳᏍᎩᏂ	-12.0852
ᎴᎦ	-12.0852
ᏏᏔᏕ	-12.0854
ᏦᎯᏳᏅ	-12.0855
ᏥᏍᎬ	-12.0857
▁ᎤᎾᏕᎰ	-12.0858
ᏒᎦᎶᏗ	-12.0867
▁ᎣᎩᏍᏛᏗᏍᏗ	-12.0874
ᏂᏒᎩ	-12.0874
▁ᎢᏤᏯᏔ	-12.0876
ᏓᏙᎵᏍᏓᏁᎯ	-12.0878
ᏄᏛᏁᎴᎢ	-12.0879
▁ᏥᏫᎬ	-12.0881
ᏂᎪᏩᏘᏍᎨᎢ	-12.0883
ᎯᏴᏁᎸ	-12.089
ᎥᏍᎩ	-12.0892
ᏓᎪᎲᏍᏗ	-12.0899
ᎾᎵᏍᏓ	-12.0901
▁ᎤᏍᏆᎸᎡ	-12.0903
▁ᏓᎧᎿᏩᏗᏙᎮ	-12.0913
ᎷᏨᎯ	-12.0918
▁ᎬᏩᏍᏕᎸᎯᏙ	-12.092
ᏍᏔᏁᎲ	-12.092
▁ᎢᏳᏅᏁ	-12.0923
ᏐᏢᎢᏍᏗᎭ	-12.0923
▁ᎨᏥᎾᏄᎪᏫ	-12.0937
ᎦᏯᎷᏗ	-12.0938
ᏗᏓᎾ	-12.0938
ᏋᏁᎸᎩ	-12.0943
▁ᎡᏣᎵᏍᎪᎸᏓᏁ	-12.0945
▁ᏗᎦᏂᏴ	-12.0949
ᏛᏗᏕᎬ	-12.0954
ᏂᎨᏴ	-12.0955
▁ᏧᏭᏓᎴ	-12.0963
▁ᏛᏛ	-12.0964
ᏍᎦᏅᎪᎢ	-12.0969
ᎴᎲᏍᎦ	-12.0976
ᎾᎦᏔᎲ	-12.0976
▁ᎠᏂᏍᏆᏂ	-12.098
▁ᎠᏂᏬᏂᏍᎨ	-12.0981
▁ᎠᎩᏍᎬ	-12.0984
▁ᎫᏔ	-12.0986
ᏄᏂ	-12.0989
ᎶᎢᏍᏗᏱ	-12.099
ᏓᏔᎶᎯᏍᏗ	-12.0992
▁ᎤᎴᏫᏍ	-12.0992
▁ᎤᏂᏃᎸᏔ	-12.0994
ᏄᎪᏫᏎ	-12.0994
ᏍᏓᏏ	-12.0997
▁ᎤᎪᎯ	-12.1004
ᏬᏂᏎᎢ	-12.1005
ᏂᎶᏍᎨᏍᏗ	-12.1005
ᎾᏓᏛᏁᎮᏍᏗ	-12.1005
ᏳᏨ	-12.1017
ᏘᏒᎴᎢ	-12.1025
ᏢᏗᏍᎪᎢ	-12.1026
▁ᏥᏕᎦᏓ	-12.1027
ᏙᎵᏍᏗᏱ	-12.1029
▁ᎤᎵᏖᎸᏂ	-12.1029
ᏬᏅ	-12.1032
▁ᎠᎾᎦ	-12.1036
ᎱᏍᏕᏎᎸ	-12.1036
ᏩᏛᏛ	-12.1037
▁ᎢᏨᏯᎵᏥᏙᏁ	-12.1041
▁ᏧᎾᏁᏍᎨ	-12.1042
▁ᎤᏗᎦᎵᏍᏙ	-12.1043
ᎩᎷᏤᎸ	-12.1045
ᏂᏧ	-12.1048
ᎵᏂᎬᎬ	-12.1049
ᏑᎦᎸ	-12.105
▁ᏚᎾᏕ	-12.1054
▁ᏕᎦᎶ	-12.1054
ᎵᎪᏁᎸᎩ	-12.1059
ᏂᎶᏒᎯ	-12.106
▁ᎾᏋᏁ	-12.1062
ᎦᏔᎲᏒᎩ	-12.1063
▁ᏣᎸᏉᏗ	-12.1065
▁ᏓᏑ	-12.1066
▁ᏳᏕᎶᎰ	-12.1072
▁ᎤᏓᏍᏕ	-12.1078
▁ᏱᏂᎦᏪ	-12.1082
▁ᎤᏓᎪᎾᏛ	-12.1082
▁ᏕᏣᎸ	-12.1083
ᏙᎣ	-12.1086
▁ᎢᏯᏥ	-12.1087
ᏜᏍᏛ	-12.1094
ᎦᎵᏍᏓᏗᏍᎩ	-12.1094
ᏓᏍᏕᏓᎵᏴᏍᎩ	-12.1096
ᏣᏓᏅᎦᎸᏛ	-12.1097
ᏥᏍᏕᎸᎯ	-12.1098
ᏗᏅᏎ	-12.1098
ᏍᏆᎵᏎ	-12.1102
▁ᏛᏥ	-12.1108
ᏐᏢᏙᏗ	-12.1108
ᎩᎸᏉᏔᏅ	-12.111
ᏘᏃᎮᏗᏱ	-12.1111
▁ᎬᏩᏍᎦ	-12.1115
ᏕᏗᏱ	-12.1116
▁ᎤᏗᏍᎦᎳ	-12.1122
ᏕᏍᏗᏱ	-12.1128
▁ᏧᎷᏤ	-12.1129
ᎵᏌᎳᏓᏅᎩ	-12.1131
ᎦᏓᎡ	-12.1134
▁ᏕᎦᏥᏯ	-12.1143
ᏓᏖᎸᎮᏍ	-12.1145
ᏮᎩ	-12.1146
ᎾᏓᏂᎸᎢᏍᏗ	-12.1148
▁ᏱᏭ	-12.115
▁ᏴᏥ	-12.1152
ᏕᏍᏔ	-12.1153
ᎵᏃᎮᏙᏗᏱ	-12.1153
ᏯᏪᎦ	-12.1154
▁ᎠᏂᏯᎡ	-12.1154
▁ᎬᏩᏯᏫ	-12.1156
▁ᏭᏕᎵ	-12.1159
ᎵᎬᏚ	-12.1161
▁ᎢᎦᏚᏓᎴᏍ	-12.1168
ᏟᎶᎡᎸ	-12.1177
▁ᎢᏣᏠᏯᏍ	-12.1178
ᎠᏯᎨ	-12.118
▁ᏗᏧᎪᏓ	-12.1184
▁ᎠᎵᏍ	-12.1191
ᏑᎴᏍᏗ	-12.1194
▁ᏩᏂᏴ	-12.1195
▁ᏧᏚᎢᏍᏓᏁ	-12.1195
ᏃᎮᎴᎢ	-12.1196
▁ᎤᏂᏁᏉ	-12.1199
ᎦᏪᏍᏗ	-12.1202
▁ᏳᏩᏛ	-12.1203
▁ᎠᎩᎾᏄᎪᏫᏍᏗ	-12.1211
▁ᎤᎾᏙᏢ	-12.1214
ᏥᏬᏁᏙᏗ	-12.1216
ᏚᏂ	-12.1217
ᏓᏬᎢ	-12.122
ᎦᎾᏅᎪ	-12.1222
▁ᎩᎦᎨᏃ	-12.1228
▁ᏚᏂᎧᏁ	-12.1229
ᏓᎷᏯᏛ	-12.1232
▁ᏳᏄ	-12.1234
ᏔᎶᏒ	-12.1235
ᏕᏍᏗᏍᎨᏍᏗ	-12.1237
ᏒᎸᎩ	-12.1238
▁ᎪᏒ	-12.1239
ᏩᏘᏃ	-12.1241
ᏪᏌᏆᎴ	-12.1241
▁ᎡᏚ	-12.1242
ᏲᏏᏌ	-12.1248
ᎩᎳᎾᎳ	-12.1251
ᏳᏩᏂ	-12.1254
ᏚᎨ	-12.1256
ᏂᎰᎢ	-12.126
▁ᏕᏥᎸᏫᏍᏓᏁ	-12.1266
▁ᏯᏴ	-12.1267
ᎾᏁᎴ	-12.1271
▁ᎤᎾᎦᎸ	-12.1272
ᏓᏰᎨᏍᏗ	-12.1276
ᎵᏂᎪᎯᏍᏔᏅ	-12.1276
▁ᎥᎤ	-12.128
ᏟᏴᎮᎢ	-12.1282
▁ᏚᏂᏣᎦ	-12.1282
▁ᎠᎩᏫ	-12.1282
ᎾᏝᎾᎥᎢ	-12.1282
ᏗᏔᎲᎩ	-12.129
▁ᎤᏥᏍᏓ	-12.1292
ᏅᏓᏗᏍᎪ	-12.1292
ᏥᏯ	-12.1293
ᎤᏙᎯᏳᏗ	-12.1294
ᎦᏙᎨ	-12.1294
▁ᏳᏁ	-12.1297
ᏂᏴᎩ	-12.13
ᎪᏁᎶ	-12.1307
ᏥᎪᏗ	-12.1308
ᏍᎪᎳ	-12.1315
ᎦᏪᎠ	-12.1317
ᏗᏍᎦᎶᏗ	-12.1317
▁ᎢᏧᎳᎭᏉ	-12.1317
▁ᎾᎾᏛᏁ	-12.132
ᎦᏔᎾᎢ	-12.1322
▁ᏗᏓᎾ	-12.1325
▁ᎢᎫ	-12.1326
ᎾᏄᎪᏫ	-12.1326
▁ᏦᎸ	-12.1335
▁ᎤᎦᏌ	-12.1335
▁ᎦᏄᎪ	-12.1336
▁ᎠᎾᎵᏍᏓᏴᏗᏍ	-12.1338
▁ᏓᏂᏔ	-12.1339
ᏯᏍᏛᎾ	-12.1342
ᏍᎫᏓᏛ	-12.1343
[...]
