<unk>	0
<s>	0
</s>	0
,	-2.74331
▁the	-2.98206
.	-3.31763
▁and	-3.35526
▁of	-3.6752
▁to	-4.14206
▁that	-4.34654
▁in	-4.35841
▁a	-4.39775
▁And	-4.4334
▁he	-4.44577
▁I	-4.53376
s	-4.6082
;	-4.75203
:	-4.80408
▁unto	-4.81069
▁his	-4.86563
▁him	-4.87296
▁is	-4.90523
▁be	-4.98462
▁for	-4.98616
▁it	-5.03008
▁they	-5.03718
▁not	-5.04741
▁shal	-5.06175
▁was	-5.06682
l	-5.10242
▁with	-5.11976
▁them	-5.17172
▁	-5.20753
▁said	-5.24465
▁you	-5.30677
ing	-5.40876
▁all	-5.43327
ed	-5.45836
▁God	-5.51419
?	-5.51827
▁ye	-5.57463
▁me	-5.59838
▁as	-5.61371
▁from	-5.63486
’	-5.65003
t	-5.66442
▁thou	-5.67063
▁on	-5.70548
▁my	-5.71626
▁are	-5.72382
▁have	-5.76449
▁but	-5.7716
▁when	-5.78482
▁were	-5.80173
▁had	-5.85008
▁Lord	-5.8563
▁which	-5.86624
▁their	-5.91478
▁man	-5.91621
▁“	-5.91908
▁The	-5.92917
▁one	-5.9493
▁out	-5.95315
▁this	-5.98001
▁will	-5.99801
▁up	-6.00437
▁we	-6.01391
▁He	-6.03031
▁by	-6.0342
▁into	-6.06354
▁thy	-6.08577
▁thee	-6.11517
▁there	-6.15475
▁But	-6.16538
'	-6.17135
▁came	-6.18808
▁her	-6.19731
▁who	-6.20472
▁at	-6.21037
▁Jesus	-6.21394
▁things	-6.29052
d	-6.29169
▁your	-6.31819
▁also	-6.32335
▁upon	-6.34519
▁us	-6.36912
▁no	-6.38262
▁come	-6.38777
▁For	-6.39133
▁she	-6.39971
▁do	-6.42805
▁if	-6.45933
▁hath	-6.48579
▁an	-6.51973
▁made	-6.53048
▁went	-6.55175
▁day	-6.59555
▁down	-6.61854
▁people	-6.63195
▁so	-6.63228
▁saying	-6.64056
▁say	-6.64891
▁our	-6.66635
▁go	-6.6713
▁even	-6.67322
▁men	-6.67534
▁before	-6.67818
▁or	-6.71075
▁did	-6.73176
▁these	-6.73387
▁may	-6.74241
▁what	-6.747
▁Christ	-6.75569
-	-6.75781
▁know	-6.78546
ly	-6.7912
eth	-6.79267
▁make	-6.81119
▁after	-6.81945
▁every	-6.83866
cause	-6.84231
▁let	-6.85029
▁through	-6.85778
▁son	-6.88069
▁away	-6.90031
▁Wilbur	-6.90268
▁would	-6.90951
▁am	-6.91216
▁land	-6.91359
▁therefore	-6.91821
▁good	-6.92371
▁then	-6.92537
▁over	-6.92599
▁hand	-6.93405
▁children	-6.9363
▁like	-6.9404
▁about	-6.95503
▁two	-6.9603
▁house	-6.97227
▁Moses	-7.00444
”	-7.00847
▁put	-7.01271
▁called	-7.01393
▁earth	-7.02516
y	-7.03684
▁should	-7.04711
▁see	-7.04946
th	-7.05602
▁name	-7.05974
▁any	-7.06079
▁father	-7.06459
▁where	-7.07488
▁now	-7.08078
▁great	-7.08477
▁saw	-7.08939
▁been	-7.09112
▁days	-7.10905
▁heard	-7.11311
▁many	-7.12076
▁against	-7.12798
▁whom	-7.13523
▁took	-7.13714
e	-7.14579
▁saith	-7.15648
▁more	-7.15664
▁When	-7.17324
▁time	-7.18709
▁give	-7.20249
▁take	-7.22627
▁Israel	-7.23023
▁pass	-7.23069
▁Now	-7.24248
▁life	-7.24574
▁forth	-7.24714
▁again	-7.25947
▁another	-7.26053
▁brethren	-7.26751
▁heaven	-7.27502
▁some	-7.28001
st	-7.28034
▁himself	-7.29353
se	-7.30078
▁A	-7.30352
▁way	-7.3067
▁word	-7.3222
▁might	-7.32324
▁how	-7.32802
▁world	-7.33192
▁water	-7.33854
▁sons	-7.33953
!	-7.34679
▁eat	-7.34994
▁own	-7.35126
▁first	-7.35141
▁Then	-7.35323
▁other	-7.35796
▁little	-7.36379
▁behold	-7.36734
.”	-7.3796
f	-7.38438
▁place	-7.38693
▁old	-7.38809
▁among	-7.38849
▁back	-7.39244
▁law	-7.39465
▁They	-7.40471
▁brought	-7.40498
▁Father	-7.41343
▁What	-7.43603
m	-7.44909
▁than	-7.45195
▁years	-7.46017
▁could	-7.46092
▁It	-7.46827
▁brother	-7.47024
▁gave	-7.47935
▁She	-7.48198
▁Jacob	-7.48379
▁sent	-7.48849
▁Egypt	-7.49753
▁accord	-7.50245
▁Spirit	-7.51151
▁Pharaoh	-7.52092
▁love	-7.52408
▁found	-7.52538
▁night	-7.52611
▁cast	-7.53943
▁set	-7.54005
▁disciples	-7.54608
▁faith	-7.54951
▁dead	-7.5497
▁wife	-7.54977
▁Abraham	-7.55458
▁Mr	-7.55574
▁under	-7.56934
▁voice	-7.56939
▁yet	-7.57497
▁having	-7.58437
▁glory	-7.58993
▁being	-7.59379
▁hast	-7.5957
▁O	-7.59973
▁work	-7.60027
▁Charlotte	-7.61033
!”	-7.61105
?”	-7.61208
▁long	-7.61666
▁together	-7.62026
▁done	-7.62082
▁bring	-7.62116
▁answered	-7.62124
▁speak	-7.62434
▁spake	-7.6255
▁three	-7.62552
▁can	-7.62746
r	-7.62783
▁Joseph	-7.63076
▁heart	-7.6358
▁Thi	-7.64096
▁much	-7.64766
▁city	-7.65212
▁hear	-7.65385
▁fire	-7.6696
▁going	-7.67499
▁off	-7.67935
▁Son	-7.67981
▁eyes	-7.68218
▁right	-7.69507
▁only	-7.69877
▁neither	-7.70751
▁both	-7.71198
▁flesh	-7.71897
▁given	-7.71955
▁without	-7.72099
▁left	-7.72475
▁same	-7.72497
▁asked	-7.72697
▁thereof	-7.7309
▁nor	-7.7315
I	-7.73328
▁head	-7.73354
▁seven	-7.74136
▁while	-7.7423
▁blood	-7.74836
▁well	-7.7508
▁face	-7.75641
▁thing	-7.77297
▁LORD	-7.78447
▁evil	-7.80315
▁sat	-7.80985
▁words	-7.81271
▁get	-7.81563
▁mother	-7.81577
est	-7.81844
▁th	-7.82022
▁hands	-7.82028
▁art	-7.82214
very	-7.82675
▁So	-7.82832
▁death	-7.8285
er	-7.83571
▁kingdom	-7.84799
▁Let	-7.84855
▁just	-7.85724
▁Thou	-7.8612
▁unti	-7.86127
▁Jews	-7.86941
▁bear	-7.87591
▁light	-7.87809
▁nothing	-7.88828
▁ever	-7.88835
▁s	-7.89087
a	-7.89325
▁stood	-7.90891
ose	-7.90968
▁new	-7.92691
▁gold	-7.93696
▁themselves	-7.93708
▁Paul	-7.93714
▁ground	-7.93718
▁tree	-7.94163
▁keep	-7.94201
▁lay	-7.94261
▁side	-7.94931
▁sea	-7.94976
▁Zuckerman	-7.95613
▁Be	-7.9629
▁We	-7.96534
▁woman	-7.96617
▁Behold	-7.96621
▁seen	-7.96785
▁looked	-7.9689
▁Fern	-7.97394
soever	-7.97629
▁There	-7.97671
▁morning	-7.9779
▁In	-7.97933
re	-7.98133
▁Ye	-7.98272
▁sin	-7.98772
▁Jerusalem	-7.98856
▁Peter	-7.98856
▁feet	-7.98856
▁here	-7.99562
▁chief	-7.99614
▁want	-8.00223
▁thine	-8.00398
▁cometh	-8.00841
ll	-8.01034
▁certain	-8.01155
▁body	-8.01297
▁end	-8.01537
▁hundred	-8.0245
▁bread	-8.02611
▁knew	-8.02703
▁such	-8.02709
▁fear	-8.02891
▁power	-8.03278
▁pig	-8.0406
▁live	-8.04482
▁Who	-8.05035
▁sheep	-8.05088
▁whole	-8.05176
▁holy	-8.05897
▁fell	-8.05906
▁began	-8.05919
n	-8.06101
▁toward	-8.06306
▁Aaron	-8.06703
▁told	-8.06756
▁John	-8.07523
▁must	-8.0753
▁servant	-8.08224
▁S	-8.08708
▁receive	-8.08903
▁multitude	-8.09032
▁works	-8.09109
▁written	-8.09183
▁die	-8.09284
▁high	-8.09907
▁become	-8.1004
▁believe	-8.10506
▁peace	-8.10552
▁seed	-8.11142
▁five	-8.12602
▁coming	-8.1262
▁How	-8.1268
▁servants	-8.12768
▁truth	-8.1346
▁near	-8.14333
▁mouth	-8.1505
▁spirit	-8.15115
▁four	-8.15125
▁white	-8.15324
een	-8.15365
▁find	-8.16009
▁witness	-8.16095
▁grace	-8.16113
▁tell	-8.17539
▁tabernacle	-8.17798
▁each	-8.17931
▁drink	-8.18269
▁concern	-8.1887
▁around	-8.1888
▁pray	-8.19769
▁Isaac	-8.207
▁still	-8.20701
▁commanded	-8.20814
▁got	-8.21373
▁web	-8.21594
▁part	-8.21829
▁full	-8.22525
▁hour	-8.22531
▁Charley	-8.22596
▁sight	-8.22609
▁child	-8.23545
▁betw	-8.23564
▁spoken	-8.23566
—	-8.23798
▁think	-8.24031
▁F	-8.24331
▁My	-8.24612
▁received	-8.24775
▁hard	-8.25497
▁round	-8.2553
▁laid	-8.25596
▁stand	-8.2594
ther	-8.26204
▁though	-8.26229
▁temple	-8.26499
▁mine	-8.26503
▁bega	-8.2654
▁door	-8.26549
▁walk	-8.26639
▁field	-8.27493
▁never	-8.27508
▁seek	-8.27773
▁has	-8.28031
▁altar	-8.28509
▁manner	-8.28509
▁river	-8.28519
▁always	-8.29529
▁send	-8.29538
▁too	-8.29578
▁last	-8.30562
▁daughter	-8.30614
▁righteousness	-8.31615
▁died	-8.32929
▁save	-8.33535
▁living	-8.33718
▁Holy	-8.33729
▁became	-8.3373
▁king	-8.33871
▁stone	-8.34766
▁money	-8.34793
▁young	-8.34895
▁C	-8.35756
▁Wherefore	-8.35888
▁Arable	-8.35953
▁angel	-8.36049
▁don	-8.3607
▁cried	-8.3698
▁taken	-8.37088
▁look	-8.3732
▁cause	-8.37511
▁gospel	-8.3809
▁judgment	-8.38185
▁priest	-8.38227
▁enter	-8.38701
▁rest	-8.38829
▁few	-8.39168
▁known	-8.39387
▁You	-8.39599
▁All	-8.40572
▁mind	-8.41084
▁mercy	-8.415
▁second	-8.41503
▁Gentiles	-8.41506
▁gone	-8.41523
▁blessed	-8.4167
▁ask	-8.42006
▁Do	-8.42068
▁hold	-8.42222
▁bare	-8.42552
▁His	-8.42666
▁kill	-8.42692
▁call	-8.42888
▁ten	-8.43442
▁un	-8.43615
▁opened	-8.44023
▁entered	-8.44272
ce	-8.44901
▁believed	-8.45301
▁lord	-8.45323
▁looking	-8.45528
▁hope	-8.46076
▁Go	-8.46152
▁Templeton	-8.46273
▁show	-8.46986
ter	-8.47002
▁Pharisees	-8.47594
▁didn	-8.47653
▁As	-8.47796
▁big	-8.4868
▁walked	-8.49201
▁born	-8.4987
▁something	-8.49946
▁wood	-8.50352
▁Esau	-8.51204
▁twelve	-8.51204
▁wise	-8.51206
▁gathered	-8.51438
▁minister	-8.52021
▁daughters	-8.52418
▁third	-8.52486
▁raised	-8.52575
▁able	-8.52924
▁thought	-8.53232
▁small	-8.53743
▁above	-8.53785
▁cannot	-8.53792
▁lest	-8.53796
▁sure	-8.53798
▁none	-8.53818
▁delivered	-8.54047
▁sake	-8.54105
▁boy	-8.54111
▁year	-8.54316
▁dwell	-8.54492
▁righteous	-8.54956
▁whe	-8.55024
▁yourselves	-8.55101
▁barn	-8.55101
▁country	-8.55107
▁Avery	-8.55252
▁Where	-8.55545
▁prophets	-8.55926
▁car	-8.56364
▁judge	-8.56415
▁cattle	-8.56434
▁food	-8.56434
▁Why	-8.56507
▁That	-8.56574
▁ran	-8.56666
▁followed	-8.56743
▁beast	-8.56843
▁priests	-8.5762
▁dark	-8.57765
▁women	-8.57784
▁mount	-8.57789
▁anything	-8.5782
▁To	-8.5798
▁offering	-8.58379
▁angels	-8.59015
▁half	-8.59155
▁fall	-8.59964
▁sun	-8.6012
▁fine	-8.60471
▁filled	-8.60649
▁fruit	-8.60936
▁fish	-8.61458
▁joy	-8.61946
▁true	-8.61953
▁strong	-8.61955
p	-8.61981
▁midst	-8.61997
▁Every	-8.62002
▁most	-8.62062
▁soul	-8.62403
▁church	-8.63363
▁home	-8.63378
▁remember	-8.63381
▁indeed	-8.63381
▁elders	-8.63546
▁friend	-8.63856
▁serve	-8.64546
▁covenant	-8.6483
ness	-8.64917
▁far	-8.65041
es	-8.65052
▁turned	-8.65247
▁Simon	-8.66301
▁silver	-8.66303
▁Egyptians	-8.66503
▁returned	-8.66519
▁lived	-8.66658
▁turn	-8.66925
▁sins	-8.68253
▁standing	-8.68478
▁Smith	-8.69309
▁sabbath	-8.6931
▁Lurvy	-8.69322
▁ready	-8.6936
▁One	-8.69407
rose	-8.69735
▁thousand	-8.69833
▁waters	-8.71248
▁fathers	-8.7126
▁T	-8.71442
en	-8.71848
▁sign	-8.7219
▁Cherokee	-8.7241
▁alone	-8.72415
▁why	-8.72421
▁myself	-8.72423
▁prophet	-8.73009
▁sleep	-8.73439
▁Some	-8.73849
▁kept	-8.73997
▁darkness	-8.74017
▁spider	-8.74602
▁ears	-8.74705
ve	-8.74963
▁cut	-8.75421
▁passed	-8.7587
▁feast	-8.76136
▁wind	-8.76249
ers	-8.76291
▁others	-8.76327
le	-8.77074
▁eternal	-8.77249
▁better	-8.77252
▁sitting	-8.77257
▁along	-8.77383
▁saved	-8.7756
▁month	-8.77919
▁walking	-8.77996
▁fast	-8.78084
▁rat	-8.78881
▁wilderness	-8.78916
▁wisdom	-8.78916
▁straightway	-8.78921
▁departed	-8.79102
▁hair	-8.79475
▁husband	-8.79577
▁loved	-8.79695
an	-8.79757
▁reason	-8.80078
us	-8.80407
▁Abram	-8.80611
▁till	-8.8062
▁Come	-8.80665
▁ark	-8.8073
▁seem	-8.80775
▁whatsoever	-8.80883
▁leave	-8.81305
▁commandment	-8.81343
▁seeing	-8.81505
▁need	-8.82031
▁except	-8.82337
▁wine	-8.82345
▁foot	-8.82421
▁top	-8.82519
out	-8.82724
▁within	-8.82896
▁kind	-8.82918
▁air	-8.82965
▁mountains	-8.83143
You	-8.83519
▁write	-8.83537
▁help	-8.83566
▁six	-8.83624
▁clean	-8.83845
▁afraid	-8.84089
▁beginning	-8.84089
▁behind	-8.84089
▁next	-8.84089
▁try	-8.84104
▁linen	-8.84107
▁watch	-8.84461
▁nations	-8.84876
▁follow	-8.85009
hall	-8.85265
▁its	-8.85321
▁boys	-8.85433
▁saints	-8.85885
erily	-8.85888
▁knowledge	-8.85891
▁Take	-8.85909
▁appeared	-8.86051
▁goose	-8.86209
▁bed	-8.86489
If	-8.8666
▁tent	-8.87215
▁deep	-8.87635
▁present	-8.87693
▁ought	-8.87693
▁fulfilled	-8.87694
▁rather	-8.87699
▁scribes	-8.87849
▁E	-8.88111
▁visit	-8.8905
▁meet	-8.8912
▁sick	-8.8952
▁David	-8.89545
▁thyself	-8.89545
▁Laban	-8.89545
▁authority	-8.89545
▁twenty	-8.89548
▁Bless	-8.89554
▁wilt	-8.89559
▁meat	-8.90565
▁wrath	-8.91432
▁pure	-8.9144
▁baptized	-8.91459
▁soldiers	-8.91676
▁red	-8.92009
▁sh	-8.92251
▁yea	-8.92414
▁leaves	-8.92529
▁eye	-8.92649
▁destroy	-8.92891
▁Chap	-8.93351
▁congregation	-8.93355
▁blue	-8.93359
▁No	-8.93502
▁At	-8.93708
▁teaching	-8.93731
▁generations	-8.94025
▁throne	-8.94287
▁blind	-8.94852
in	-8.95331
▁apostles	-8.9566
▁master	-8.96339
▁woods	-8.96709
▁smell	-8.96833
▁rain	-8.96902
▁Canaan	-8.97296
▁bound	-8.9731
▁Galilee	-8.97316
▁cold	-8.97317
▁replied	-8.97318
▁sit	-8.974
▁wherein	-8.97409
▁cup	-8.97411
▁soon	-8.97455
▁held	-8.97464
▁garments	-8.9781
▁cross	-8.97814
al	-8.97887
▁Indians	-8.97972
▁rock	-8.98355
▁dog	-8.98394
or	-8.98499
▁deliver	-8.98938
▁ball	-8.99335
▁deal	-8.99352
▁sockets	-8.9937
▁worthy	-8.99422
▁beloved	-8.99493
▁therein	-8.99599
▁evening	-8.99764
▁thence	-9.00281
▁knoweth	-9.0036
ous	-9.00443
▁table	-9.00443
▁preach	-9.00624
on	-9.01015
▁arose	-9.01052
▁nigh	-9.01111
▁knowing	-9.01366
▁enough	-9.0144
▁straw	-9.0144
▁salvation	-9.01445
▁Noah	-9.01446
▁thus	-9.01497
▁free	-9.01547
drew	-9.0206
▁M	-9.02254
▁P	-9.02286
▁mountain	-9.02582
▁suffer	-9.02682
▁signs	-9.0277
▁named	-9.02809
▁curtain	-9.03568
▁milk	-9.03568
▁testimony	-9.03568
▁firstborn	-9.03572
▁everything	-9.03587
▁Bear	-9.03597
▁hanging	-9.03731
it	-9.03745
▁almo	-9.0384
▁desire	-9.03887
▁cubits	-9.03987
▁boat	-9.04698
▁sister	-9.047
▁cloud	-9.04712
▁matter	-9.04716
▁p	-9.0478
What	-9.0517
one	-9.05188
▁answer	-9.05214
▁hearts	-9.05437
▁book	-9.05523
▁honor	-9.05732
▁Pilate	-9.05741
▁Even	-9.05744
▁alive	-9.05744
▁broken	-9.05768
▁Therefore	-9.05769
▁ate	-9.05772
▁By	-9.05838
▁lifted	-9.06011
▁forty	-9.06247
▁demons	-9.06319
▁once	-9.06352
▁court	-9.06912
▁nation	-9.06975
▁perfect	-9.07001
▁doeth	-9.07273
▁gather	-9.07555
▁abide	-9.07872
▁Rachel	-9.07964
▁since	-9.07987
▁warm	-9.08001
▁Jud	-9.08041
▁oil	-9.08198
▁dream	-9.08235
▁lie	-9.08472
▁sacrifice	-9.09032
able	-9.09855
▁working	-9.10026
▁Judah	-9.10242
▁camp	-9.10252
▁moved	-9.10332
▁greater	-9.10536
▁re	-9.10754
▁teach	-9.11172
ion	-9.11373
▁tongue	-9.11572
▁lot	-9.1184
cross	-9.11996
▁wait	-9.12139
▁times	-9.12427
▁enemies	-9.12562
▁After	-9.12562
▁verily	-9.12562
▁Mary	-9.12571
▁carried	-9.12573
▁preached	-9.13032
▁sound	-9.13483
▁Yea	-9.13514
▁war	-9.13623
▁promise	-9.13717
▁service	-9.13866
as	-9.13994
o	-9.1417
sought	-9.14253
▁dwelt	-9.14943
▁felt	-9.14943
▁crate	-9.14945
▁grew	-9.14947
▁faithful	-9.1496
▁already	-9.1496
▁sold	-9.14985
▁mighty	-9.15498
▁Of	-9.15539
less	-9.16115
▁prison	-9.16209
▁apple	-9.16371
▁ear	-9.16491
S	-9.16779
▁break	-9.16961
▁B	-9.17123
▁smoke	-9.1718
▁kings	-9.17188
▁loud	-9.17338
▁eight	-9.17341
▁presence	-9.17382
▁sweet	-9.17382
▁taught	-9.17382
▁making	-9.17383
▁thirty	-9.17418
▁early	-9.17497
▁led	-9.17768
▁multitudes	-9.17827
It	-9.18289
▁journey	-9.18348
▁point	-9.18823
▁synagogue	-9.1888
▁N	-9.19145
▁understand	-9.19301
▁worship	-9.1953
▁corn	-9.19831
▁black	-9.19861
▁summer	-9.1988
▁purple	-9.19882
▁Sarah	-9.19882
▁hearken	-9.19882
▁lead	-9.19904
▁dry	-9.19928
▁lost	-9.19953
ies	-9.20698
▁killed	-9.20781
▁trees	-9.20819
▁goeth	-9.21267
▁rich	-9.21955
▁close	-9.22073
▁stones	-9.22224
▁please	-9.2228
▁ourselves	-9.22446
▁resurrection	-9.22446
▁least	-9.22446
▁stopped	-9.22497
ment	-9.22602
▁Are	-9.22682
▁burnt	-9.2274
▁rings	-9.22876
▁lo	-9.23456
▁open	-9.23935
▁sword	-9.2396
▁fellow	-9.23969
▁egg	-9.24078
▁measure	-9.24104
▁build	-9.24178
▁offer	-9.24408
▁read	-9.24465
▁buy	-9.24556
▁Herod	-9.25077
▁herself	-9.25078
▁Littlefish	-9.25078
▁else	-9.25078
▁branches	-9.25084
▁road	-9.25098
▁really	-9.25106
▁Have	-9.2516
▁brass	-9.25278
▁blessing	-9.25549
▁vain	-9.25563
▁speaketh	-9.2564
▁boards	-9.25948
▁horses	-9.25966
▁souls	-9.26945
▁grass	-9.27666
fore	-9.27676
▁strength	-9.27759
▁fifty	-9.2778
▁wives	-9.2778
▁shirt	-9.2778
▁quit	-9.27782
▁bought	-9.27805
▁green	-9.27812
▁younger	-9.27916
▁arise	-9.27963
▁clothes	-9.27966
▁See	-9.27971
▁rulers	-9.28469
▁f	-9.28502
▁names	-9.28558
▁On	-9.29417
▁gift	-9.29558
▁bless	-9.29661
▁prayer	-9.29668
▁return	-9.30146
▁speaking	-9.30187
▁Thu	-9.30248
▁continue	-9.30486
▁Satan	-9.30558
▁buried	-9.30558
▁apart	-9.30558
▁beyond	-9.30558
▁poor	-9.3057
▁neck	-9.30629
▁hot	-9.30629
▁finished	-9.30668
▁morrow	-9.30699
▁healed	-9.30741
▁means	-9.31555
ation	-9.31636
▁houses	-9.32203
▁order	-9.3238
▁generation	-9.3245
ty	-9.3246
▁gate	-9.32461
▁feel	-9.32938
▁manifest	-9.33003
ur	-9.33151
▁false	-9.33282
▁scarlet	-9.33415
▁Teacher	-9.33417
▁James	-9.33417
▁Nation	-9.33426
▁spread	-9.33441
▁Give	-9.33444
▁fled	-9.33469
▁room	-9.3349
▁age	-9.33553
h	-9.33671
▁started	-9.33678
▁eating	-9.33771
▁judged	-9.33876
▁fat	-9.33954
▁t	-9.3413
w	-9.3427
▁play	-9.34448
▁run	-9.34545
▁number	-9.34813
body	-9.34941
▁use	-9.35146
i	-9.35233
▁weak	-9.35839
▁rejoice	-9.36158
▁beautiful	-9.36356
▁grey	-9.36356
▁wrought	-9.36356
▁famine	-9.36357
▁dust	-9.36377
▁east	-9.36394
▁outside	-9.364
▁soil	-9.36421
▁front	-9.36452
▁abideth	-9.36478
▁appointed	-9.36487
▁Lot	-9.36642
▁pillars	-9.37001
el	-9.37082
ng	-9.37182
▁pieces	-9.37286
▁wanted	-9.37981
▁horse	-9.384
▁Indian	-9.38405
▁friends	-9.38418
▁board	-9.38533
▁sharp	-9.38661
Well	-9.38803
▁crown	-9.38951
▁low	-9.39038
▁pen	-9.39188
▁draw	-9.39353
▁wrong	-9.39384
▁Fair	-9.39387
▁caught	-9.39387
▁tried	-9.39387
▁Leah	-9.39389
▁pick	-9.39403
▁south	-9.39409
▁gain	-9.3947
▁Did	-9.39484
▁climbed	-9.39496
▁Thy	-9.39505
▁shew	-9.39581
▁gods	-9.39635
▁Don	-9.39661
▁sinners	-9.39742
▁bit	-9.3977
▁thanks	-9.4001
▁bad	-9.40393
ward	-9.40511
▁praise	-9.40683
▁H	-9.40922
▁mean	-9.41125
▁Is	-9.4132
▁stay	-9.416
rom	-9.41658
rs	-9.41956
▁length	-9.42048
▁comfort	-9.42078
ar	-9.42333
▁speech	-9.42488
▁sorrow	-9.42504
▁kiss	-9.42512
▁hungry	-9.42514
▁shame	-9.42518
▁past	-9.42522
▁b	-9.42546
▁worshipped	-9.42565
▁fallen	-9.42574
▁happened	-9.42693
▁putt	-9.4282
▁dur	-9.42863
▁animals	-9.42879
▁burned	-9.42905
▁vessels	-9.4291
▁Th	-9.43161
▁giveth	-9.43363
▁places	-9.43713
is	-9.4377
▁heavens	-9.4461
▁tomb	-9.44702
A	-9.44944
much	-9.45113
▁anoint	-9.45311
▁pay	-9.45587
▁rise	-9.45721
▁unclean	-9.45722
▁dis	-9.45727
▁Wolf	-9.45738
▁asleep	-9.45738
▁counsel	-9.45738
▁crucified	-9.45738
▁itself	-9.45738
▁ephod	-9.45738
▁circumcision	-9.45738
▁swim	-9.45738
▁garden	-9.45738
▁devil	-9.45738
▁trough	-9.45741
▁justified	-9.45748
▁writing	-9.45748
▁course	-9.45805
▁King	-9.4583
▁met	-9.45913
with	-9.46147
▁raise	-9.46229
▁seventh	-9.46249
▁often	-9.46349
at	-9.46645
▁catch	-9.46704
▁burn	-9.47847
▁piece	-9.48086
▁bow	-9.48202
taking	-9.48213
▁command	-9.48523
▁lift	-9.48668
▁exceeding	-9.4898
▁office	-9.49022
▁Philip	-9.49071
▁abroad	-9.49071
▁Rebekah	-9.49071
▁winter	-9.49075
▁guard	-9.49076
▁shut	-9.49077
▁moment	-9.49088
▁Judas	-9.49089
▁tired	-9.49089
▁prepared	-9.49158
am	-9.49173
▁covered	-9.49351
▁closed	-9.49375
▁talked	-9.49394
▁shoes	-9.49404
▁hid	-9.49538
▁hit	-9.49588
▁offered	-9.49621
▁suffered	-9.49733
▁Not	-9.50021
▁seat	-9.5057
▁doing	-9.50783
▁care	-9.50937
▁commandments	-9.51046
ir	-9.5114
▁Lo	-9.51156
▁scripture	-9.51512
▁coat	-9.51517
ever	-9.51747
gotten	-9.51933
▁wash	-9.51948
▁perish	-9.51971
▁town	-9.52036
▁best	-9.52058
▁foolish	-9.52503
▁guess	-9.52519
▁beseech	-9.52519
▁staves	-9.52519
▁large	-9.5252
▁passover	-9.5252
▁wept	-9.52521
▁built	-9.52531
▁sky	-9.52531
▁reward	-9.52532
▁immediately	-9.52533
▁conceived	-9.5255
▁Amen	-9.52573
▁crowd	-9.52619
▁Put	-9.52631
▁eaten	-9.52674
▁pleased	-9.52782
▁ago	-9.5279
▁couldn	-9.52797
▁touched	-9.52896
▁believeth	-9.529
▁crying	-9.52925
▁R	-9.52927
▁legs	-9.53048
▁understanding	-9.5315
▁members	-9.53341
▁flocks	-9.53457
▁spring	-9.53479
▁calling	-9.53873
▁tongues	-9.54026
▁season	-9.54612
▁smite	-9.54852
ful	-9.549
▁edge	-9.54983
▁image	-9.55005
▁captain	-9.55037
▁parable	-9.55058
▁tribe	-9.55071
▁D	-9.55436
▁hearing	-9.55486
▁building	-9.55587
ting	-9.55892
▁bright	-9.55907
▁short	-9.5592
▁reign	-9.55951
▁quiet	-9.56007
▁subject	-9.56084
▁straight	-9.56089
▁breastplate	-9.56091
▁fornication	-9.56091
▁patience	-9.56091
▁salute	-9.56091
▁slay	-9.56091
▁fence	-9.56092
▁Adam	-9.56092
▁empty	-9.56104
▁does	-9.56112
▁quickly	-9.56118
▁churches	-9.56136
▁beheld	-9.56207
▁divided	-9.5621
▁troubled	-9.56288
▁inside	-9.56354
▁e	-9.564
c	-9.5641
▁riches	-9.56631
▁loveth	-9.56801
▁forward	-9.56908
▁prayed	-9.57724
▁committe	-9.5828
ri	-9.58301
▁depart	-9.58533
g	-9.58671
▁duke	-9.58773
▁creature	-9.58786
▁flock	-9.58798
of	-9.59178
▁grow	-9.59292
▁d	-9.59321
▁carry	-9.59346
▁repent	-9.59647
▁rod	-9.59702
▁wild	-9.59716
▁strange	-9.59735
▁forgive	-9.59738
▁ox	-9.59779
▁spoke	-9.59793
▁incense	-9.59794
▁knife	-9.59794
▁spiritual	-9.59794
▁account	-9.59795
▁stick	-9.59796
▁glorified	-9.59798
▁Sodom	-9.59802
▁Lamb	-9.59807
▁deny	-9.59826
▁circumcised	-9.59836
giving	-9.5984
▁truck	-9.59842
▁yard	-9.59898
▁poured	-9.59977
▁st	-9.59998
▁pulled	-9.60007
▁foundation	-9.60019
▁thereon	-9.60193
ittim	-9.60197
▁receiveth	-9.60234
▁breadth	-9.60238
▁bowed	-9.60265
▁sore	-9.60382
▁less	-9.60683
▁besought	-9.60896
▁wet	-9.6135
▁wax	-9.61514
▁o	-9.62105
▁creek	-9.62574
▁pit	-9.62595
▁disciple	-9.62658
▁stranger	-9.62689
ped	-9.63014
▁touch	-9.63229
▁cry	-9.63244
▁glad	-9.63501
▁lawful	-9.63574
▁broke	-9.63606
▁council	-9.6364
▁Barnabas	-9.6364
▁iniquity	-9.6364
▁whither	-9.6364
▁cities	-9.63641
▁brown	-9.63655
▁Woe	-9.6367
▁snake	-9.63698
▁lad	-9.63701
▁exceedingly	-9.63773
▁Whi	-9.63801
▁stretched	-9.63846
▁charged	-9.63894
▁longer	-9.63944
▁learned	-9.63987
▁nine	-9.63988
▁hated	-9.64035
▁beat	-9.64114
im	-9.64124
▁manifested	-9.64207
ted	-9.64319
▁stars	-9.64337
▁knowest	-9.64353
▁worketh	-9.64491
and	-9.64513
▁purpose	-9.64623
▁sac	-9.64764
▁gifts	-9.6505
▁greatly	-9.65114
ear	-9.65991
▁hurt	-9.66063
▁skin	-9.66306
▁afternoon	-9.66523
▁tail	-9.66537
▁heads	-9.66564
▁wheel	-9.66638
▁garment	-9.66649
▁finger	-9.66674
▁ruler	-9.66693
▁line	-9.66832
ch	-9.66928
▁reach	-9.66953
▁multiply	-9.6711
for	-9.67162
▁obey	-9.67205
▁Jackson	-9.6764
▁couple	-9.6764
▁teeth	-9.67641
▁spent	-9.67642
▁bondage	-9.67642
▁self	-9.67644
▁Which	-9.67647
▁created	-9.67653
▁swear	-9.67659
▁trouble	-9.67895
▁touching	-9.68115
▁wonders	-9.68121
sar	-9.68158
▁birds	-9.6844
▁eggs	-9.69192
day	-9.69633
▁rocks	-9.6965
ity	-9.69799
▁months	-9.7011
▁hole	-9.70805
▁appear	-9.70906
▁Jew	-9.7096
▁act	-9.71339
▁rule	-9.71422
▁wall	-9.71666
▁count	-9.71669
▁loose	-9.71682
▁thin	-9.718
▁Abimelech	-9.71807
▁bottom	-9.71807
▁conscience	-9.71807
▁twin	-9.71807
▁unleavened	-9.71807
▁Elijah	-9.71807
▁moon	-9.71812
▁story	-9.71814
▁sinned	-9.71824
▁household	-9.71826
▁suddenly	-9.71834
▁goats	-9.71834
▁sell	-9.71848
▁With	-9.71853
▁risen	-9.71853
▁someone	-9.71946
▁weight	-9.72139
▁spirits	-9.72306
red	-9.72474
▁destroyed	-9.72729
▁watched	-9.7282
▁skins	-9.73047
▁sides	-9.73374
▁ones	-9.73513
▁drinking	-9.73924
▁talk	-9.74102
ake	-9.7422
▁h	-9.7433
▁ways	-9.74361
▁faces	-9.74624
▁c	-9.74766
▁state	-9.74988
He	-9.75456
Oh	-9.75559
▁feed	-9.75713
▁shoulder	-9.75739
▁double	-9.75925
▁secret	-9.76008
▁abound	-9.76013
▁Levi	-9.76151
▁hither	-9.76152
▁raiment	-9.76155
▁glorify	-9.76155
▁space	-9.76155
▁vineyard	-9.76156
▁afar	-9.76156
▁hail	-9.76157
▁trail	-9.76157
▁Ridge	-9.76158
▁pigpen	-9.7616
▁possible	-9.76165
▁wrote	-9.76169
▁adultery	-9.76181
▁creep	-9.76182
▁flies	-9.76195
▁arrived	-9.76196
▁forgiven	-9.76196
▁maid	-9.76201
▁cat	-9.76208
▁golden	-9.76256
▁scattered	-9.76258
▁witnesses	-9.76285
▁parts	-9.76361
▁officers	-9.76459
▁lose	-9.76513
▁talking	-9.76617
▁An	-9.76664
ory	-9.76783
▁g	-9.76837
▁breath	-9.76864
▁mayest	-9.77001
▁Her	-9.77367
▁eateth	-9.77399
▁ends	-9.77409
▁heavenly	-9.77537
▁willing	-9.77559
▁synagogues	-9.77939
ah	-9.78504
▁feared	-9.78536
▁fight	-9.78702
▁heed	-9.79191
▁Can	-9.79223
ill	-9.79266
▁charge	-9.79437
▁beasts	-9.79493
▁bottle	-9.79527
▁root	-9.7965
▁pleasure	-9.79654
▁pillar	-9.79704
rew	-9.79778
▁song	-9.79985
▁rope	-9.80075
▁won	-9.80103
either	-9.8012
▁remain	-9.80166
▁report	-9.80359
▁start	-9.80576
▁move	-9.80598
▁confess	-9.80692
▁inherit	-9.80695
▁Benjamin	-9.807
▁Isaiah	-9.807
▁daily	-9.807
▁haply	-9.807
▁likewise	-9.807
▁remembrance	-9.807
▁womb	-9.807
▁array	-9.807
▁running	-9.80701
▁Timothy	-9.80701
▁mystery	-9.80701
▁happy	-9.80701
▁marry	-9.80702
▁pretty	-9.80702
▁inheritance	-9.80706
▁sail	-9.80708
▁brake	-9.80719
▁amazed	-9.80743
▁sixth	-9.80947
ish	-9.81025
▁bones	-9.81056
▁camels	-9.81173
▁washed	-9.81279
▁feeling	-9.81474
▁heareth	-9.81664
▁lives	-9.82183
ance	-9.82299
▁today	-9.82541
▁nose	-9.82798
▁thinking	-9.82891
z	-9.8326
▁—	-9.83561
men	-9.83593
▁snow	-9.8429
▁candlestick	-9.84408
▁neighbor	-9.84431
▁village	-9.84435
▁lamb	-9.8445
▁ship	-9.84562
adventure	-9.84754
Yes	-9.84854
▁bury	-9.8498
▁fashion	-9.85009
▁establish	-9.85034
▁store	-9.85047
▁thank	-9.85091
ry	-9.85262
▁possess	-9.85278
▁curse	-9.85319
▁stumble	-9.85385
▁flee	-9.85394
▁late	-9.85426
▁naked	-9.85444
▁ashamed	-9.85462
▁dominion	-9.85462
▁middle	-9.85462
▁smote	-9.85462
▁iron	-9.85462
▁devour	-9.85463
▁precious	-9.85463
▁Saviour	-9.85463
▁vail	-9.85463
▁further	-9.85465
▁Perry	-9.85466
▁hire	-9.85471
▁direction	-9.85505
▁decided	-9.85505
▁sware	-9.8551
▁lying	-9.85517
▁slowly	-9.85549
▁tied	-9.85601
▁hardened	-9.8561
▁sort	-9.85611
▁anger	-9.85618
▁anyone	-9.85661
▁horns	-9.85696
▁borne	-9.85818
▁hence	-9.85871
▁fourth	-9.85971
▁liveth	-9.86028
▁letters	-9.86281
▁strangers	-9.86738
▁notice	-9.86753
▁Here	-9.86852
▁heat	-9.87281
▁commit	-9.87455
▁perceive	-9.88116
▁wear	-9.88117
▁drive	-9.88126
▁question	-9.88876
▁form	-9.8901
▁Salut	-9.89269
▁arm	-9.89332
▁begin	-9.89332
▁Hebrew	-9.89442
▁cubit	-9.8947
▁corner	-9.89535
▁sanctif	-9.89754
▁clear	-9.89859
▁worry	-9.89961
▁stop	-9.90339
▁Macedonia	-9.90462
▁Spearfinger	-9.90462
▁behalf	-9.90462
▁breakfast	-9.90462
▁fair	-9.90462
▁ignorant	-9.90462
▁loaves	-9.90462
▁marriage	-9.90462
▁school	-9.90462
▁thither	-9.90462
▁tidings	-9.90462
▁Saul	-9.90463
▁idea	-9.90463
▁struck	-9.90463
▁supper	-9.90466
▁elect	-9.90467
▁cheer	-9.90471
▁reproach	-9.90471
▁Arise	-9.90478
▁handmaid	-9.90493
▁getting	-9.90538
▁wide	-9.90554
▁Art	-9.90603
▁idols	-9.908
▁knees	-9.90966
▁bonds	-9.91061
▁either	-9.91111
▁stayed	-9.91147
▁fully	-9.91196
▁north	-9.91287
▁hate	-9.91803
▁treasure	-9.92369
nto	-9.92389
▁sacrifices	-9.92746
▁tables	-9.92952
ate	-9.92994
k	-9.93258
▁needs	-9.93458
▁join	-9.93619
▁cover	-9.93773
▁labor	-9.94035
▁bearing	-9.94101
▁demon	-9.9432
▁accuse	-9.94343
▁goods	-9.94389
the	-9.94544
▁affliction	-9.94556
▁flood	-9.94608
▁governor	-9.94608
▁window	-9.94657
▁possession	-9.94683
▁week	-9.94688
▁host	-9.94734
▁bird	-9.94742
▁color	-9.94781
▁afterward	-9.94851
▁grave	-9.95077
▁L	-9.95098
How	-9.95154
But	-9.95156
▁strip	-9.95254
▁regard	-9.95261
▁proceed	-9.95275
▁change	-9.95492
▁forbid	-9.95517
▁wicked	-9.95561
▁grievous	-9.95601
▁chose	-9.9569
▁Claire	-9.95725
▁Jordan	-9.95725
▁Washington	-9.95725
▁abode	-9.95725
▁centurion	-9.95725
▁company	-9.95725
▁dawn	-9.95725
▁language	-9.95725
▁neighbour	-9.95725
▁nought	-9.95725
▁parents	-9.95726
▁families	-9.95726
▁different	-9.95726
▁fourteen	-9.95726
▁chair	-9.95729
▁business	-9.95729
▁Cain	-9.95732
▁repentance	-9.95733
▁subjection	-9.95742
▁spoil	-9.95746
▁Most	-9.95754
▁cock	-9.9576
▁tiny	-9.95767
▁shot	-9.95784
▁robe	-9.95833
▁marvelled	-9.95852
▁fill	-9.95882
▁spin	-9.95918
▁reckoned	-9.95988
▁Look	-9.96072
▁hunting	-9.96082
▁nights	-9.96164
▁covering	-9.96205
▁height	-9.96302
▁served	-9.96456
▁lusts	-9.96576
▁journeyed	-9.96636
ily	-9.96795
▁faint	-9.96799
▁declare	-9.96822
▁corners	-9.96841
▁following	-9.97108
▁watching	-9.97208
▁scriptures	-9.97297
ug	-9.97304
▁falling	-9.97505
▁gates	-9.97632
ic	-9.9772
▁G	-9.97866
he	-9.98133
▁Br	-9.99778
▁star	-9.99791
▁tribulation	-10.0011
▁apostle	-10.0033
▁learn	-10.0038
The	-10.0055
▁pain	-10.0056
That	-10.0071
▁profit	-10.0081
▁utter	-10.0083
▁leaven	-10.0097
ary	-10.0101
▁fly	-10.0105
▁refuse	-10.0108
▁plain	-10.0116
▁natural	-10.0117
▁Te	-10.0119
▁voices	-10.0125
▁Again	-10.0128
▁Brethren	-10.0128
▁Nazareth	-10.0128
▁baptism	-10.0128
▁beneath	-10.0128
▁geese	-10.0128
▁Grace	-10.0128
▁drove	-10.0128
▁woe	-10.0128
▁Know	-10.0128
▁respect	-10.0128
▁shook	-10.0129
▁yellow	-10.0129
▁price	-10.013
▁pool	-10.013
▁sorry	-10.013
▁abundantly	-10.013
▁Nay	-10.0132
▁bigge	-10.0132
▁wish	-10.0133
▁wheat	-10.0134
▁revealed	-10.0141
▁rent	-10.0142
▁pond	-10.0143
▁noise	-10.0143
▁row	-10.0154
▁con	-10.0165
▁talents	-10.0166
▁tears	-10.0172
▁clothed	-10.0173
▁remained	-10.018
ge	-10.0201
▁persons	-10.0213
▁Asia	-10.0216
wo	-10.0219
▁wouldest	-10.0221
▁lines	-10.0271
▁creatures	-10.0283
▁holding	-10.0362
ors	-10.0368
▁pipe	-10.0376
▁perceiv	-10.0396
▁rush	-10.0463
▁trust	-10.0485
age	-10.0537
▁hide	-10.056
▁oath	-10.0599
▁vision	-10.0604
▁cave	-10.0605
▁fowl	-10.0608
▁miracle	-10.0608
▁male	-10.0608
▁serpent	-10.0609
▁widow	-10.0615
▁border	-10.0615
▁ram	-10.0615
▁hill	-10.0622
▁post	-10.0627
▁W	-10.0644
▁m	-10.0645
▁ring	-10.0654
▁Dr	-10.0664
▁cook	-10.0668
▁letter	-10.067
▁redeem	-10.0672
ne	-10.0691
▁escape	-10.0697
▁reap	-10.0703
▁several	-10.0706
▁dirt	-10.0707
▁per	-10.0715
▁swam	-10.0715
▁Antioch	-10.0716
▁Crockett	-10.0716
▁Ishmael	-10.0716
▁Reuben	-10.0716
▁Sarai	-10.0716
▁cunning	-10.0716
▁everlasting	-10.0716
▁heavy	-10.0716
▁leaving	-10.0716
▁truly	-10.0716
▁Sinai	-10.0716
▁drank	-10.0716
▁slew	-10.0716
▁astray	-10.0716
▁nature	-10.0716
▁colonel	-10.0716
▁sitteth	-10.0716
▁sanctuary	-10.0717
▁Howbeit	-10.0717
▁Shechem	-10.0717
▁grain	-10.0717
▁tarried	-10.0717
▁sanctified	-10.0718
▁interpretation	-10.0718
▁bitter	-10.0718
▁oxen	-10.0719
▁married	-10.0719
▁chosen	-10.072
▁mark	-10.0722
▁fishes	-10.0724
▁render	-10.0725
▁dirty	-10.0725
▁wings	-10.0729
▁sown	-10.0731
▁pail	-10.0732
▁farm	-10.0735
▁exalted	-10.0736
▁jumped	-10.0738
▁mourning	-10.074
▁wipe	-10.0741
▁weeping	-10.0748
▁loosed	-10.0751
ite	-10.076
▁lower	-10.0761
▁sailed	-10.0771
▁calleth	-10.0774
▁counted	-10.0777
ants	-10.0782
hick	-10.079
▁hiding	-10.0797
▁comforted	-10.0797
▁burning	-10.0799
▁borders	-10.0818
▁reading	-10.0825
▁meeting	-10.0871
b	-10.0879
▁turning	-10.0903
▁doest	-10.0936
▁prayers	-10.0948
▁roll	-10.0963
▁Ha	-10.0993
▁Oh	-10.0995
ris	-10.1033
▁meal	-10.1067
▁spiders	-10.1102
▁cloth	-10.1142
▁offerings	-10.1172
man	-10.1173
▁thoughts	-10.1196
ay	-10.1208
▁cabin	-10.1224
▁fig	-10.1229
▁lust	-10.1242
▁exhort	-10.1245
▁r	-10.1246
Charlotte	-10.1284
Now	-10.1285
▁lack	-10.129
▁salt	-10.1293
laid	-10.13
▁patient	-10.1328
▁slow	-10.1331
▁overcome	-10.1334
▁glass	-10.1339
ollow	-10.134
▁Asmeret	-10.1341
▁English	-10.1341
▁Ephesus	-10.1341
▁Hittite	-10.1341
▁Nahor	-10.1341
▁Simeon	-10.1341
▁cellar	-10.1341
▁harlot	-10.1341
▁lips	-10.1341
▁yield	-10.1341
▁Damascus	-10.1341
▁godliness	-10.1341
▁honey	-10.1341
▁common	-10.1342
▁family	-10.1342
▁compassion	-10.1343
▁grant	-10.1343
▁beaten	-10.1344
▁inso	-10.1344
▁yesterday	-10.1345
▁deer	-10.1345
▁je	-10.1347
▁doesn	-10.1348
▁asses	-10.1351
▁thorns	-10.1351
▁tempted	-10.1359
▁shortly	-10.1362
▁goes	-10.1363
▁planted	-10.1373
▁wor	-10.1379
▁chains	-10.1384
▁goodness	-10.1385
▁speaker	-10.1391
▁herds	-10.1392
▁Hear	-10.1393
▁soft	-10.1399
▁cows	-10.1404
▁pale	-10.1412
ra	-10.1421
▁lamps	-10.1424
▁bowls	-10.1424
▁frogs	-10.1426
▁breaking	-10.1462
▁arms	-10.147
▁lambs	-10.1477
▁sayest	-10.1478
▁de	-10.1501
▁hell	-10.1524
te	-10.154
▁withal	-10.1547
▁pro	-10.1551
▁steppe	-10.1558
▁ass	-10.1576
▁apples	-10.1613
▁Shem	-10.1626
nt	-10.165
▁heal	-10.1656
▁commun	-10.1695
▁west	-10.1714
▁hat	-10.1787
▁judges	-10.1797
▁fruits	-10.1816
▁desert	-10.1842
▁cr	-10.1863
▁person	-10.1865
▁girdle	-10.1891
▁stream	-10.1898
▁blanket	-10.1905
▁Greek	-10.1907
▁girl	-10.1912
▁bringing	-10.1918
ia	-10.1925
▁prisoner	-10.1926
▁glorying	-10.1938
▁haste	-10.1939
Good	-10.1943
▁says	-10.1944
▁flow	-10.1954
▁steal	-10.196
▁hunt	-10.1974
▁race	-10.1991
▁hung	-10.1991
▁flat	-10.1994
▁stumbling	-10.2008
▁Almighty	-10.2008
▁America	-10.2008
▁anxious	-10.2008
▁bodies	-10.2008
▁bridegroom	-10.2008
▁coffee	-10.2008
▁cousin	-10.2008
▁damsel	-10.2008
▁disobedient	-10.2008
▁enemy	-10.2008
▁necessary	-10.2008
▁obedience	-10.2008
▁prosper	-10.2008
▁screamed	-10.2008
▁silence	-10.2008
▁uncircumcision	-10.2008
▁diligence	-10.2008
▁trumpet	-10.2008
▁doctor	-10.2008
▁harvest	-10.2008
▁slain	-10.2008
▁Stephen	-10.2008
▁overlay	-10.2008
▁Haran	-10.2008
▁divers	-10.2008
▁rising	-10.2008
▁Nancy	-10.2008
▁lawyer	-10.2009
▁scratch	-10.2009
▁pasture	-10.2009
▁acceptable	-10.2009
▁calf	-10.2009
▁boldness	-10.2009
▁temptation	-10.2009
▁spare	-10.201
▁trade	-10.201
▁lodge	-10.2011
▁doorway	-10.2013
▁carefully	-10.2014
▁axe	-10.2015
▁worse	-10.2015
▁floor	-10.2018
▁Man	-10.202
▁Sure	-10.2021
▁removed	-10.2023
▁ceased	-10.2024
▁Sir	-10.2025
▁thick	-10.2025
▁hypocrites	-10.2026
▁defiled	-10.2026
▁quietly	-10.203
▁henceforth	-10.203
THE	-10.203
▁goslings	-10.2033
▁obtained	-10.2033
▁spit	-10.204
▁onto	-10.2041
▁consider	-10.2047
▁stared	-10.2062
▁promised	-10.2068
▁sacrificed	-10.2068
▁tall	-10.2072
▁wearing	-10.2072
▁barely	-10.2077
▁ex	-10.211
▁Greeks	-10.2111
▁widows	-10.2125
▁comes	-10.2135
▁rebuke	-10.2142
▁Sen	-10.2177
▁needed	-10.2177
▁seeth	-10.2221
▁prove	-10.2225
▁St	-10.2244
▁sad	-10.2274
▁sing	-10.2343
ched	-10.2349
▁telling	-10.236
score	-10.2416
u	-10.2445
▁occasion	-10.2456
▁Re	-10.2482
▁happen	-10.2509
ain	-10.2526
ive	-10.2527
▁ill	-10.2535
▁liked	-10.2539
No	-10.2558
▁burden	-10.2572
▁Get	-10.2596
▁revelation	-10.2605
▁leg	-10.2608
▁region	-10.2611
▁hang	-10.2611
▁paper	-10.2615
▁supplication	-10.2615
▁shepherd	-10.2619
rolled	-10.2619
▁Egyptian	-10.2625
▁sack	-10.2626
▁beside	-10.2647
F	-10.2663
though	-10.2669
▁inhabit	-10.2677
▁interest	-10.2678
▁condemn	-10.2679
▁betray	-10.268
▁pull	-10.2681
▁owner	-10.2685
▁defile	-10.269
▁release	-10.2701
▁despise	-10.2702
▁crow	-10.2703
▁taste	-10.2703
▁proud	-10.2708
▁eleven	-10.2712
xcept	-10.2722
▁Sequoyah	-10.2722
▁ointment	-10.2722
▁roof	-10.2722
▁Lazarus	-10.2722
▁Manasseh	-10.2722
▁Sadducees	-10.2722
▁confidence	-10.2722
▁countenance	-10.2722
▁doctrine	-10.2722
▁dumb	-10.2722
▁fifteen	-10.2722
▁ghost	-10.2722
▁multiplied	-10.2722
▁recompense	-10.2722
▁tarry	-10.2722
▁thief	-10.2722
▁awoke	-10.2722
▁substance	-10.2722
▁trial	-10.2722
▁vine	-10.2722
▁loins	-10.2722
▁Hagar	-10.2722
▁crep	-10.2722
▁digged	-10.2722
▁contrary	-10.2722
▁gander	-10.2722
▁intend	-10.2723
▁forehead	-10.2723
▁dump	-10.2723
▁fellowship	-10.2723
▁Zion	-10.2723
▁understood	-10.2723
▁continually	-10.2724
▁unrighteousness	-10.2724
▁ungodly	-10.2724
▁heap	-10.2724
▁wickedness	-10.2725
▁Hello	-10.2725
▁loss	-10.2725
▁exactly	-10.2725
▁rejected	-10.2727
▁somewhere	-10.2728
▁stedfastly	-10.2728
▁fruitful	-10.2729
▁ashes	-10.2729
▁stirred	-10.273
▁later	-10.273
▁everywhere	-10.2731
▁descended	-10.2733
▁prevailed	-10.2737
▁kindness	-10.2737
▁wrapp	-10.2737
time	-10.2741
▁dying	-10.2741
▁hunger	-10.2741
▁increased	-10.2742
▁manure	-10.2748
▁loops	-10.2749
▁bars	-10.2751
▁string	-10.2762
▁final	-10.2763
▁divide	-10.2769
▁rejoiced	-10.2772
▁condemned	-10.2772
▁special	-10.2773
▁add	-10.2776
▁chariots	-10.2779
▁aside	-10.2792
▁cleanse	-10.2801
▁fore	-10.2813
▁desired	-10.283
▁fasten	-10.2844
▁dreamed	-10.2862
unto	-10.2878
▁Well	-10.2914
▁powers	-10.2923
▁seasons	-10.2933
▁sleeping	-10.2938
▁bell	-10.299
ine	-10.3001
▁Du	-10.3032
▁parted	-10.3057
▁praying	-10.3093
ad	-10.3144
ke	-10.3189
▁sp	-10.3198
▁laying	-10.3204
▁mo	-10.3219
▁favor	-10.3229
ard	-10.3249
▁desir	-10.326
▁shed	-10.3288
▁trap	-10.3289
O	-10.3345
▁forget	-10.3347
▁case	-10.3378
▁custom	-10.338
▁drunk	-10.3388
▁lamp	-10.339
▁frog	-10.3391
▁vessel	-10.3392
ated	-10.3398
▁soldier	-10.3401
▁teacher	-10.3402
clock	-10.3426
les	-10.3434
what	-10.3435
▁prophesy	-10.3436
▁swing	-10.3439
▁fetch	-10.3443
▁stretch	-10.345
▁suck	-10.3451
▁Say	-10.3454
▁Rabbi	-10.3455
that	-10.346
bee	-10.346
ent	-10.3462
▁endure	-10.3466
▁complete	-10.347
▁commend	-10.3479
▁content	-10.3482
▁rivers	-10.3483
▁branch	-10.349
▁Babylon	-10.3492
▁Baptist	-10.3492
▁Capernaum	-10.3492
▁Moreover	-10.3492
▁Nevertheless	-10.3492
▁Remember	-10.3492
▁Titus	-10.3492
▁chicken	-10.3492
▁epistle	-10.3492
▁travail	-10.3492
▁Festus	-10.3492
▁hidden	-10.3492
sarea	-10.3492
▁cherubims	-10.3492
▁moving	-10.3492
▁excellent	-10.3492
▁void	-10.3492
▁famous	-10.3492
▁particular	-10.3492
▁broad	-10.3492
▁colt	-10.3492
▁compass	-10.3492
▁oak	-10.3492
▁Edom	-10.3492
▁bidden	-10.3492
▁sang	-10.3492
▁prophecy	-10.3492
▁dropped	-10.3492
▁distance	-10.3493
▁denied	-10.3493
▁palm	-10.3493
▁stuff	-10.3493
▁nay	-10.3493
▁tender	-10.3493
▁single	-10.3493
▁size	-10.3493
▁jealousy	-10.3493
▁crawled	-10.3494
▁worth	-10.3494
Many	-10.3494
▁rubb	-10.3494
▁husbandmen	-10.3494
▁beforehand	-10.3494
▁stead	-10.3494
▁Abel	-10.3494
▁shaken	-10.3495
▁kindred	-10.3495
▁bind	-10.3495
▁determined	-10.3496
▁wander	-10.3496
▁driven	-10.3498
▁Homer	-10.3499
▁portion	-10.3499
▁pitcher	-10.35
▁required	-10.35
▁fit	-10.3509
▁remaineth	-10.3511
▁pocket	-10.3513
▁pitched	-10.3514
▁separate	-10.3515
▁hateth	-10.3519
▁escaped	-10.352
▁bowl	-10.3521
▁stool	-10.3522
▁youngest	-10.3523
▁Just	-10.3523
▁changed	-10.3526
▁anybody	-10.3527
▁publicans	-10.3537
▁betrayed	-10.3538
▁withered	-10.3543
▁workers	-10.3543
▁hooks	-10.3545
▁likeness	-10.3546
▁beans	-10.3547
▁Per	-10.3552
▁fugitives	-10.3553
ure	-10.3573
ier	-10.3582
▁standeth	-10.3587
▁findeth	-10.3593
▁preacher	-10.3599
▁greatest	-10.3602
▁numbered	-10.3607
▁builded	-10.3621
reached	-10.3627
▁gotten	-10.363
▁waited	-10.3637
▁sounded	-10.3638
▁hosts	-10.3644
▁Hebrews	-10.3653
il	-10.3657
▁tribes	-10.3719
▁shoulders	-10.3722
▁en	-10.3753
▁wr	-10.379
▁La	-10.3792
▁Zuckermans	-10.3793
▁co	-10.3861
id	-10.3888
▁masters	-10.3905
▁seal	-10.4004
op	-10.4031
▁thousands	-10.4032
▁wonder	-10.4118
elah	-10.4158
ened	-10.4173
▁thread	-10.4208
▁game	-10.4213
▁shadow	-10.4219
▁basket	-10.4222
▁animal	-10.4225
pa	-10.4226
▁elder	-10.4226
▁Pharisee	-10.4226
▁laugh	-10.4226
▁sinner	-10.4228
▁shekel	-10.4231
▁band	-10.4233
▁pour	-10.4234
▁bond	-10.4235
▁herb	-10.4248
C	-10.4267
Can	-10.4268
▁doubt	-10.4272
▁plow	-10.4272
▁interpret	-10.4274
▁deed	-10.4276
▁accept	-10.4278
▁Heth	-10.4279
to	-10.4281
▁proclaim	-10.4282
▁reckon	-10.4283
▁press	-10.4288
▁weep	-10.4292
▁ride	-10.4305
▁cease	-10.4305
▁prepare	-10.4305
▁restore	-10.4307
▁observe	-10.4308
▁memorial	-10.4311
▁pleasant	-10.4311
ncle	-10.4324
▁stomach	-10.4325
▁Calhoun	-10.4325
▁Dorian	-10.4325
▁Ephraim	-10.4325
▁Finally	-10.4325
▁Gomorrah	-10.4325
▁Goshen	-10.4325
▁High	-10.4325
▁Lichen	-10.4325
▁Solomon	-10.4325
▁asunder	-10.4325
▁buttermilk	-10.4325
▁creation	-10.4325
▁female	-10.4325
▁longsuffering	-10.4325
▁slept	-10.4325
▁twice	-10.4325
▁yourself	-10.4325
▁baby	-10.4325
▁consent	-10.4325
▁idle	-10.4325
▁spend	-10.4325
▁Christmas	-10.4325
▁crieth	-10.4325
▁dried	-10.4325
▁destruction	-10.4325
▁steward	-10.4325
▁wroth	-10.4325
▁alms	-10.4325
▁dinner	-10.4325
▁stove	-10.4325
▁birthday	-10.4325
▁dash	-10.4325
▁stolen	-10.4326
▁fun	-10.4326
▁corruption	-10.4326
▁mill	-10.4326
▁expect	-10.4326
▁trespasses	-10.4326
▁kine	-10.4326
▁thanksgiving	-10.4327
▁astonished	-10.4327
▁puffe	-10.4327
▁ministration	-10.4328
▁discern	-10.4328
▁merciful	-10.4328
▁error	-10.433
▁grown	-10.4333
▁thirst	-10.4334
▁sixty	-10.4334
▁whispered	-10.4334
▁persuaded	-10.4337
▁drawn	-10.4338
▁pushed	-10.4342
▁wonderful	-10.4342
▁warned	-10.4343
▁fo	-10.4345
▁belly	-10.435
▁pile	-10.4351
▁sow	-10.4353
▁listening	-10.4355
▁partakers	-10.436
▁due	-10.436
▁Rabbit	-10.4364
▁attention	-10.4365
▁supposed	-10.4366
▁blow	-10.4367
▁laughed	-10.4368
▁highest	-10.4368
▁Canaanites	-10.4376
▁net	-10.438
▁sufferings	-10.4385
▁sprinkl	-10.4392
▁bath	-10.4398
▁dwelleth	-10.44
mo	-10.4401
▁miles	-10.4401
▁reported	-10.4405
▁cap	-10.4407
▁West	-10.4421
▁dozen	-10.4428
▁shekels	-10.4428
▁carrying	-10.4432
▁drunken	-10.4433
▁anointed	-10.4439
▁forest	-10.444
▁handle	-10.4443
▁burdens	-10.4446
▁tomorrow	-10.445
▁canst	-10.4451
▁rams	-10.4474
all	-10.4474
ach	-10.4479
ied	-10.4484
▁heir	-10.4526
v	-10.4527
▁str	-10.4536
▁dukes	-10.4564
▁Andrew	-10.4567
reby	-10.46
ree	-10.4637
▁showing	-10.4656
▁rested	-10.4658
ably	-10.4706
▁minded	-10.4708
▁lights	-10.4754
ant	-10.4762
li	-10.4825
▁sometime	-10.4836
▁gun	-10.485
wn	-10.4858
▁claim	-10.4867
▁tro	-10.4891
ring	-10.4944
nd	-10.495
▁sha	-10.4975
ew	-10.4986
▁yours	-10.4989
um	-10.4995
minded	-10.4995
▁fillet	-10.5056
ments	-10.5063
▁worked	-10.5066
▁Me	-10.5097
▁lion	-10.5119
▁log	-10.5125
▁hatchet	-10.5125
▁dress	-10.5141
▁chamber	-10.5148
▁pot	-10.516
where	-10.5161
bye	-10.5175
Look	-10.5176
Let	-10.5177
which	-10.5177
And	-10.5181
▁sojourn	-10.5184
▁travel	-10.5185
▁veil	-10.5189
▁swallow	-10.5191
▁appoint	-10.5199
▁fighting	-10.5213
▁humble	-10.5213
▁nice	-10.522
▁plann	-10.5222
▁direct	-10.5229
▁Pr	-10.5231
▁unrighteous	-10.5232
erhaps	-10.5233
▁equal	-10.5233
▁fulfil	-10.5233
▁trip	-10.5234
▁suggest	-10.5234
▁Wasseton	-10.5234
▁exercise	-10.5234
▁Agrippa	-10.5234
▁Axe	-10.5234
▁Featherstone	-10.5234
▁Iscariot	-10.5234
▁Lamech	-10.5234
▁Martha	-10.5234
▁Midian	-10.5234
▁Zebedee	-10.5234
▁abiding	-10.5234
▁absent	-10.5234
▁choice	-10.5234
▁crucify	-10.5234
▁desolate	-10.5234
▁fought	-10.5234
▁group	-10.5234
▁kitchen	-10.5234
▁laurel	-10.5234
▁leap	-10.5234
▁pencil	-10.5234
▁resist	-10.5234
▁savour	-10.5234
▁smooth	-10.5234
▁stories	-10.5234
▁sweat	-10.5234
▁trembling	-10.5234
▁underneath	-10.5234
▁Also	-10.5234
▁swine	-10.5234
▁Ephron	-10.5234
▁angry	-10.5234
▁defence	-10.5234
▁atonement	-10.5234
▁fulness	-10.5234
▁merry	-10.5234
▁lean	-10.5234
▁Sidon	-10.5234
▁kid	-10.5234
▁token	-10.5234
▁Ross	-10.5234
▁dragon	-10.5234
▁blew	-10.5234
▁lightning	-10.5234
▁Enoch	-10.5234
▁pluck	-10.5234
▁Wayah	-10.5234
▁uttermost	-10.5234
▁coast	-10.5235
▁dangerous	-10.5235
▁Master	-10.5235
▁condemnation	-10.5235
▁lake	-10.5235
▁Hamor	-10.5235
▁New	-10.5235
▁sentence	-10.5235
▁horsemen	-10.5236
▁dew	-10.5236
▁shake	-10.5236
▁motion	-10.5237
▁Ham	-10.5237
▁prize	-10.5237
▁sober	-10.5238
▁snare	-10.5238
▁box	-10.5241
▁whereby	-10.5241
▁radiant	-10.5241
▁flame	-10.5243
▁shone	-10.5244
▁mention	-10.5244
▁span	-10.5244
▁fields	-10.5248
▁easy	-10.5248
▁murmured	-10.5248
▁locusts	-10.5249
▁robbers	-10.5249
ixt	-10.5252
▁shouted	-10.5252
▁consumed	-10.5252
▁Edith	-10.5254
▁terrific	-10.5254
▁Hav	-10.5259
▁favoured	-10.5261
▁inter	-10.5261
▁cleansed	-10.5262
▁failed	-10.5265
▁refused	-10.5267
▁instead	-10.5268
▁everybody	-10.5271
▁pressed	-10.5281
▁wondered	-10.5282
▁force	-10.529
▁Beer	-10.5297
▁tenth	-10.5316
▁plagues	-10.5318
▁established	-10.5318
▁shine	-10.532
▁party	-10.5328
▁streets	-10.5328
▁brush	-10.5331
not	-10.5376
▁formed	-10.5376
▁blankets	-10.5378
▁Je	-10.5392
▁opening	-10.5412
un	-10.5421
▁shape	-10.5432
▁villages	-10.5437
▁Beth	-10.5438
▁strive	-10.5461
▁walls	-10.5463
▁aim	-10.5466
▁fingers	-10.5477
▁goest	-10.5489
joined	-10.5495
me	-10.5503
▁nuts	-10.5516
em	-10.5535
ver	-10.5581
most	-10.5642
▁Dan	-10.5649
if	-10.5703
▁fact	-10.5729
ns	-10.5753
cy	-10.5757
▁step	-10.5789
▁husbands	-10.5824
od	-10.583
▁Ch	-10.5832
▁vi	-10.5841
▁winds	-10.5844
ank	-10.585
▁par	-10.5869
aw	-10.5873
thrown	-10.5902
▁bade	-10.5907
old	-10.5935
ery	-10.5951
ol	-10.5957
▁knee	-10.6004
ling	-10.6018
head	-10.603
math	-10.6064
▁gr	-10.6076
▁earthquake	-10.6117
loved	-10.6121
▁plant	-10.6122
▁thigh	-10.6122
▁dance	-10.6124
formed	-10.6127
▁knop	-10.6127
▁nest	-10.6128
ned	-10.6129
▁ordinance	-10.6129
▁prince	-10.6129
▁thunder	-10.613
▁minute	-10.613
▁cow	-10.613
▁street	-10.6131
▁figure	-10.6137
▁shoe	-10.6138
▁ninet	-10.6142
▁br	-10.6148
▁corrupt	-10.6166
Do	-10.6171
Why	-10.6177
Don	-10.618
There	-10.6184
▁healing	-10.6192
▁den	-10.6193
▁mad	-10.6195
seat	-10.6201
led	-10.6202
▁awake	-10.6209
▁agree	-10.6213
▁increase	-10.6214
▁earnest	-10.622
▁suppose	-10.622
▁jail	-10.6233
eople	-10.6233
sheba	-10.6234
▁fool	-10.6234
▁Hivite	-10.6234
▁Amalek	-10.6234
▁Ananias	-10.6234
▁Bethany	-10.6234
▁Jethro	-10.6234
▁Magdalene	-10.6234
▁Mamre	-10.6234
▁Peace	-10.6234
▁Philadelphia	-10.6234
▁Philistines	-10.6234
▁Samaria	-10.6234
▁Silas	-10.6234
▁Tahlequah	-10.6234
▁apparel	-10.6234
▁aught	-10.6234
▁bacon	-10.6234
▁believing	-10.6234
▁bundle	-10.6234
▁coupling	-10.6234
▁dishonor	-10.6234
▁enjoy	-10.6234
▁fault	-10.6234
▁fifth	-10.6234
▁fountain	-10.6234
▁liberty	-10.6234
▁lieutenant	-10.6234
▁ministry	-10.6234
▁moreover	-10.6234
▁plenty	-10.6234
▁strife	-10.6234
▁thrice	-10.6234
▁tribute	-10.6234
▁barren	-10.6234
▁bosom	-10.6234
▁JE	-10.6234
▁Speak	-10.6234
▁firmament	-10.6234
▁important	-10.6234
▁midnight	-10.6234
▁taches	-10.6234
▁shining	-10.6234
▁staff	-10.6234
▁curious	-10.6234
▁swimming	-10.6234
▁weather	-10.6234
▁trick	-10.6234
wels	-10.6234
▁remission	-10.6234
▁cool	-10.6234
▁meekness	-10.6234
▁George	-10.6234
▁Though	-10.6235
▁fog	-10.6235
▁mix	-10.6235
▁Terah	-10.6235
▁bunch	-10.6235
▁decomposers	-10.6235
▁potatoes	-10.6235
▁choose	-10.6235
▁torn	-10.6236
▁armies	-10.6236
▁darkened	-10.6236
▁dove	-10.6237
▁testified	-10.6237
▁nakedness	-10.6238
▁exhortation	-10.6238
▁approved	-10.6239
▁seize	-10.6239
▁Love	-10.6239
ueen	-10.624
▁upright	-10.624
▁busy	-10.6241
▁Seven	-10.6244
▁Henry	-10.6244
▁upper	-10.6244
▁boldly	-10.6245
▁hay	-10.6245
▁Perhaps	-10.6245
▁ripe	-10.6245
▁endureth	-10.6247
▁butler	-10.6248
▁overcometh	-10.6249
▁contain	-10.625
▁boots	-10.6251
▁Pig	-10.6251
▁guide	-10.6254
▁agreed	-10.6254
▁accomplished	-10.6254
▁spices	-10.6261
Run	-10.6262
▁separated	-10.6263
▁pack	-10.6264
▁Sit	-10.6266
▁listened	-10.6268
▁sand	-10.6269
▁dragg	-10.6269
▁searched	-10.6273
▁swallowed	-10.6282
▁lieth	-10.6283
▁proclaimed	-10.6286
▁pants	-10.6287
laver	-10.6297
▁suit	-10.6299
▁J	-10.6304
▁hunters	-10.6308
▁clothing	-10.6312
▁judgeth	-10.6313
▁falleth	-10.6321
▁thunders	-10.6338
▁baskets	-10.636
▁perished	-10.6364
▁deeds	-10.6364
▁teachers	-10.6379
mp	-10.6381
▁sacks	-10.6382
▁washing	-10.6394
owed	-10.6397
ered	-10.6397
▁ha	-10.64
▁prisoners	-10.6401
▁hoped	-10.6418
nder	-10.6419
▁mud	-10.6433
▁neighbors	-10.646
▁beam	-10.6462
hu	-10.6478
ight	-10.6508
▁Wil	-10.6517
▁fishing	-10.6587
▁simple	-10.6599
▁Pa	-10.6604
▁ministering	-10.6622
▁dwelling	-10.6636
ig	-10.6661
▁Ga	-10.6662
▁promises	-10.6697
land	-10.672
▁dreams	-10.6723
▁haven	-10.673
rash	-10.6736
▁matters	-10.6741
▁clouds	-10.6742
ans	-10.6758
▁share	-10.6773
▁thrones	-10.6799
▁cake	-10.6863
▁kinds	-10.6867
▁Cap	-10.6945
dded	-10.695
▁finish	-10.705
▁rode	-10.7055
ot	-10.7072
▁sakes	-10.7088
▁wave	-10.7091
▁declar	-10.7111
ue	-10.7112
morrow	-10.7121
ee	-10.7132
▁bl	-10.7161
ches	-10.719
▁Wa	-10.721
▁tin	-10.7224
▁bank	-10.7229
▁Ca	-10.723
▁captive	-10.7233
▁habitation	-10.7233
▁effort	-10.7236
▁virgin	-10.7238
▁plague	-10.7242
▁mile	-10.7243
ked	-10.7243
▁drop	-10.7244
▁breast	-10.7245
▁flower	-10.7248
▁scribe	-10.725
▁mourn	-10.7254
▁path	-10.7254
▁climb	-10.7256
ware	-10.7262
▁marvel	-10.7263
▁search	-10.7265
pleasing	-10.7276
▁ru	-10.728
▁rail	-10.7286
foot	-10.7288
▁testify	-10.7297
▁delight	-10.73
▁obtain	-10.7303
▁jump	-10.7304
special	-10.7304
▁real	-10.7309
▁preserve	-10.7322
▁bid	-10.7324
▁accus	-10.7324
▁consume	-10.7326
ook	-10.7326
▁bold	-10.7333
We	-10.7333
▁entire	-10.7333
Thi	-10.7335
▁wasn	-10.7338
▁public	-10.7343
▁trespass	-10.7343
▁danger	-10.7344
▁spra	-10.7344
▁tight	-10.7344
▁vari	-10.7344
▁Padan	-10.7345
▁guile	-10.7345
▁leaf	-10.7345
▁publish	-10.7345
▁rabbit	-10.7345
▁stoop	-10.7345
▁Beaver	-10.7345
▁Bethuel	-10.7345
▁Charlie	-10.7345
▁Japheth	-10.7345
▁Joppa	-10.7345
▁Joshua	-10.7345
▁Sunday	-10.7345
▁Zacharias	-10.7345
▁altogether	-10.7345
▁beauty	-10.7345
▁below	-10.7345
▁bullock	-10.7345
▁degree	-10.7345
▁diligently	-10.7345
▁disobedience	-10.7345
▁furnace	-10.7345
▁future	-10.7345
▁grieved	-10.7345
▁indignation	-10.7345
▁iniquities	-10.7345
▁mirror	-10.7345
▁nevertheless	-10.7345
▁ninth	-10.7345
▁offended	-10.7345
▁plot	-10.7345
▁practise	-10.7345
▁sanctification	-10.7345
▁slops	-10.7345
▁speckled	-10.7345
▁supply	-10.7345
▁surname	-10.7345
▁valley	-10.7345
▁venison	-10.7345
▁violence	-10.7345
▁Apollos	-10.7345
▁Charleston	-10.7345
▁abyss	-10.7345
▁devout	-10.7345
▁narrow	-10.7345
▁silk	-10.7345
▁slaves	-10.7345
▁brimstone	-10.7345
▁magicians	-10.7345
▁smitten	-10.7345
▁Bilhah	-10.7345
▁gracious	-10.7345
▁pattern	-10.7345
▁bride	-10.7345
▁bucket	-10.7345
▁usual	-10.7345
▁wove	-10.7345
▁easier	-10.7345
▁wages	-10.7345
▁harm	-10.7346
▁privily	-10.7346
▁Seir	-10.7346
▁issue	-10.7346
▁match	-10.7346
▁unbelief	-10.7346
▁Everything	-10.7347
▁human	-10.7347
▁Hono	-10.7347
▁roast	-10.7347
▁innocent	-10.7347
▁Chapman	-10.7348
▁assembly	-10.7348
▁confession	-10.7348
▁Anah	-10.7348
▁crawling	-10.7348
▁unbelieving	-10.7348
▁fever	-10.7349
▁mingled	-10.7349
▁throat	-10.7349
▁bondservant	-10.7349
▁skull	-10.7349
▁print	-10.7349
▁clay	-10.735
▁bake	-10.735
control	-10.735
▁rear	-10.7351
▁foolishness	-10.7351
▁honorable	-10.7351
▁appeal	-10.7352
▁muskets	-10.7352
▁crickets	-10.7352
▁City	-10.7352
▁ordained	-10.7353
▁sighed	-10.7353
▁bag	-10.7353
▁view	-10.7354
▁Way	-10.7354
▁bush	-10.7354
ttach	-10.7354
▁dart	-10.7355
owbeit	-10.7356
▁dear	-10.7356
▁Repe	-10.7358
▁maybe	-10.7358
▁earnestly	-10.7358
▁soup	-10.7359
▁platter	-10.7362
▁fle	-10.7365
▁fist	-10.7365
▁waved	-10.7366
▁persecuted	-10.7368
▁hinder	-10.737
▁bug	-10.7375
▁yelled	-10.7376
▁endured	-10.7378
▁afflicted	-10.7378
▁mocked	-10.7379
▁smaller	-10.7383
▁peril	-10.7383
▁entreated	-10.7384
▁pearls	-10.7388
▁music	-10.7392
▁quarter	-10.7394
▁Fer	-10.7394
▁limbs	-10.74
▁interpreted	-10.7404
ix	-10.741
▁shade	-10.7413
▁rust	-10.7413
▁soli	-10.7423
▁kindly	-10.7425
▁island	-10.7429
ck	-10.7429
▁valu	-10.7431
uth	-10.7433
▁poke	-10.7435
▁leavened	-10.7437
▁arrows	-10.7438
▁Doth	-10.7445
▁ra	-10.7447
▁breasts	-10.745
▁flowers	-10.7453
▁bugs	-10.7453
▁minutes	-10.7462
▁...	-10.7467
▁bestow	-10.7473
▁feeding	-10.7479
▁Write	-10.7483
▁hu	-10.7487
▁kneel	-10.7493
▁Sometime	-10.7499
▁besides	-10.7512
▁wouldn	-10.7515
▁playing	-10.7534
▁salutation	-10.7538
▁cloths	-10.7539
▁beating	-10.7543
▁hills	-10.7549
▁exalt	-10.7554
tion	-10.7574
▁weeks	-10.7574
▁stoned	-10.7575
▁mess	-10.7585
up	-10.759
▁rained	-10.76
▁com	-10.7601
ack	-10.7605
mah	-10.7612
▁fearful	-10.7622
▁youth	-10.7637
be	-10.7638
▁pe	-10.7663
▁forbear	-10.7663
▁Ma	-10.7675
▁ward	-10.7681
▁parables	-10.7688
▁coats	-10.77
▁reasoning	-10.772
▁tombs	-10.7726
ni	-10.7772
fully	-10.7797
times	-10.7808
▁news	-10.7859
▁lots	-10.7878
▁killing	-10.7903
▁Wom	-10.7919
▁god	-10.7923
ul	-10.7989
▁w	-10.7997
▁Mi	-10.7999
ung	-10.8005
▁ended	-10.8017
godly	-10.8029
▁Set	-10.8038
ash	-10.8039
tuck	-10.8057
▁sc	-10.8059
▁makes	-10.8083
ice	-10.8136
dden	-10.8137
▁avenge	-10.815
ally	-10.8169
ut	-10.817
way	-10.8177
▁hem	-10.8209
▁Al	-10.8214
▁withstand	-10.8236
ries	-10.8243
▁Ar	-10.825
ions	-10.8252
ture	-10.8254
ade	-10.8258
ern	-10.8272
▁pie	-10.8282
▁lands	-10.829
▁inward	-10.8294
L	-10.8323
▁rebuk	-10.834
ites	-10.8343
▁butter	-10.8353
dal	-10.8358
▁cove	-10.8378
▁po	-10.8389
▁Ho	-10.8414
▁mid	-10.8434
▁Abi	-10.8436
▁attend	-10.8441
gged	-10.8443
house	-10.845
▁du	-10.8465
nother	-10.8476
▁tradition	-10.8478
▁judgments	-10.8483
▁murderer	-10.8487
▁fail	-10.8489
▁trunk	-10.8489
ble	-10.8491
▁looks	-10.8493
▁fugitive	-10.8493
▁chariot	-10.8493
▁bras	-10.8498
aram	-10.8498
▁arrow	-10.85
▁listen	-10.8506
▁Arables	-10.851
▁weigh	-10.8521
board	-10.8525
▁fold	-10.8525
K	-10.8531
▁bone	-10.8533
you	-10.8538
Fern	-10.8538
My	-10.8545
▁torment	-10.855
▁bark	-10.8551
▁entreat	-10.8553
down	-10.8556
▁baptize	-10.8564
rust	-10.857
urn	-10.8571
▁provoke	-10.8573
doing	-10.8574
▁tear	-10.8575
▁becoming	-10.8581
light	-10.8585
▁balloon	-10.8586
▁fade	-10.8587
▁murder	-10.8589
▁Maj	-10.8589
▁potato	-10.8593
aithful	-10.8594
eathen	-10.8594
▁stiff	-10.8595
▁Stretch	-10.8595
▁cloak	-10.8595
▁nourish	-10.8595
▁renew	-10.8595
▁wolf	-10.8595
▁Barabbas	-10.8595
▁Caiaphas	-10.8595
▁Cephas	-10.8595
▁Children	-10.8595
▁Cilicia	-10.8595
▁Naphtali	-10.8595
▁Rejoice	-10.8595
▁Return	-10.8595
▁Scot	-10.8595
▁Zebulun	-10.8595
▁abundance	-10.8595
▁advantage	-10.8595
▁anguish	-10.8595
▁ascended	-10.8595
▁attempt	-10.8595
▁capital	-10.8595
▁cost	-10.8595
▁courage	-10.8595
▁dancing	-10.8595
▁desperate	-10.8595
▁example	-10.8595
▁expedient	-10.8595
▁experience	-10.8595
▁grapes	-10.8595
▁labour	-10.8595
▁necessity	-10.8595
▁ouches	-10.8595
▁perdition	-10.8595
▁pledge	-10.8595
▁terribl	-10.8595
▁uncircumcised	-10.8595
▁woke	-10.8595
▁wolves	-10.8595
▁olive	-10.8595
▁slaughter	-10.8595
▁storm	-10.8595
▁Bethlehem	-10.8595
▁almonds	-10.8595
▁mitre	-10.8595
▁Dinah	-10.8595
▁abomination	-10.8595
▁Think	-10.8595
▁Rome	-10.8595
▁punishment	-10.8595
▁redemption	-10.8595
▁blank	-10.8595
▁chance	-10.8595
▁yoke	-10.8595
▁dispute	-10.8595
▁provide	-10.8595
▁tunnel	-10.8595
▁Gerar	-10.8595
▁conversation	-10.8596
▁Great	-10.8596
▁wake	-10.8596
▁Adah	-10.8596
▁blameless	-10.8596
▁division	-10.8596
▁disgust	-10.8596
▁impossible	-10.8596
▁Tyre	-10.8596
▁admonish	-10.8596
▁blasphemy	-10.8596
▁zealous	-10.8596
▁townhouse	-10.8596
▁lump	-10.8596
▁covetousness	-10.8596
▁Eber	-10.8596
▁freedom	-10.8596
▁miserable	-10.8596
▁Jake	-10.8596
▁chest	-10.8597
▁signet	-10.8597
▁Mark	-10.8597
▁lame	-10.8597
▁sufficien	-10.8597
▁calm	-10.8597
▁profitable	-10.8598
▁partake	-10.8598
▁sorrowful	-10.8598
▁spies	-10.8598
▁privately	-10.8599
▁kindled	-10.86
▁Lowan	-10.86
▁clerk	-10.86
▁easily	-10.86
▁fresh	-10.86
▁shift	-10.86
▁scourge	-10.86
▁dish	-10.86
▁vast	-10.86
▁weakness	-10.8601
▁cheek	-10.8602
▁track	-10.8602
▁range	-10.8602
▁uncleanness	-10.8603
▁frost	-10.8603
▁firstfruits	-10.8603
▁grabbed	-10.8604
▁discover	-10.8606
▁hopeless	-10.8607
▁Watch	-10.8608
▁anyway	-10.8608
▁entirely	-10.8609
▁sheet	-10.8611
▁health	-10.8615
▁selves	-10.8617
▁descending	-10.8617
▁farther	-10.862
ab	-10.862
▁Soon	-10.8623
▁wit	-10.8623
▁stripes	-10.8624
▁clearly	-10.8626
▁wounded	-10.8627
▁disappeared	-10.8633
line	-10.8642
▁scared	-10.8643
▁ridges	-10.8644
▁porch	-10.8644
▁coals	-10.8645
▁climbing	-10.8649
▁corrupted	-10.8651
▁Only	-10.8651
▁openly	-10.8655
▁dressed	-10.8657
▁babes	-10.8658
▁diseases	-10.8658
▁pins	-10.8659
▁teacheth	-10.8661
▁higher	-10.8662
▁proved	-10.8667
▁doors	-10.8669
▁freely	-10.8671
▁wagons	-10.8673
▁transgressions	-10.8673
▁sowed	-10.8675
▁hours	-10.8687
▁watered	-10.8693
▁covet	-10.87
om	-10.8704
▁seeme	-10.8709
▁noon	-10.8712
▁drops	-10.8715
▁toil	-10.8725
▁ordinances	-10.8729
▁princes	-10.8729
▁obeyed	-10.8739
▁judgest	-10.8748
ctually	-10.8753
▁growing	-10.8768
▁nets	-10.8778
▁sawest	-10.8783
▁shepherds	-10.8786
▁beholding	-10.8788
▁Seth	-10.8793
▁acknowledge	-10.882
▁Bo	-10.8826
▁perfected	-10.8858
more	-10.8885
mit	-10.8892
aved	-10.8894
▁songs	-10.8901
▁holes	-10.8929
iel	-10.8956
▁isn	-10.8961
na	-10.8967
▁rods	-10.8969
▁Les	-10.897
▁pigs	-10.8977
ings	-10.8979
▁towns	-10.9002
▁strike	-10.9006
▁shell	-10.9062
▁principal	-10.9115
▁driv	-10.9119
▁di	-10.9125
▁dra	-10.9197
▁Cas	-10.9209
▁uses	-10.9244
▁Mo	-10.9249
▁sisters	-10.925
▁Ja	-10.9253
▁De	-10.9263
▁lover	-10.9264
▁throw	-10.9285
▁cane	-10.9289
der	-10.9312
▁ho	-10.9315
▁base	-10.9351
hip	-10.9357
thing	-10.9363
▁thereby	-10.9379
uch	-10.9383
▁saidst	-10.939
lock	-10.9396
▁tea	-10.9398
▁settl	-10.9422
hi	-10.9452
▁camest	-10.9454
ipped	-10.9474
▁liken	-10.9503
ush	-10.953
▁tr	-10.9549
▁admir	-10.9554
▁Whe	-10.9559
▁bus	-10.9606
right	-10.9606
ping	-10.9622
▁Wi	-10.9626
ating	-10.9654
mer	-10.9664
▁fan	-10.9701
ded	-10.9712
▁distress	-10.9726
▁Will	-10.9736
▁pre	-10.9748
▁hearted	-10.9779
▁Sa	-10.9783
ave	-10.9797
▁im	-10.9804
▁twist	-10.9815
ship	-10.9828
long	-10.9832
gg	-10.9868
▁Sha	-10.9869
▁Er	-10.9873
W	-10.9897
▁tale	-10.9908
▁nail	-10.9908
▁blade	-10.9912
▁liar	-10.9912
▁dollar	-10.9919
▁scar	-10.992
▁talent	-10.9923
▁idol	-10.9923
▁chain	-10.9924
▁farmer	-10.9924
▁clothe	-10.9928
▁hunter	-10.993
▁mock	-10.9939
▁officer	-10.9947
H	-10.9954
▁envy	-10.996
stool	-10.9964
some	-10.9964
Just	-10.9966
deep	-10.9966
Where	-10.9966
same	-10.9967
but	-10.9967
Go	-10.997
ff	-10.997
▁harp	-10.9971
▁suppos	-10.9972
So	-10.9972
▁afflict	-10.9979
▁disappear	-10.998
▁favour	-10.9981
▁hatch	-10.999
▁ti	-10.9992
▁persecute	-10.9997
ations	-10.9998
▁harden	-11.0009
▁silent	-11.0011
▁quick	-11.0012
▁adulter	-11.0015
▁careful	-11.0015
skins	-11.0017
pon	-11.0021
▁engrav	-11.0022
▁forsake	-11.0023
▁birth	-11.0023
▁speed	-11.0023
stitute	-11.0023
▁Galil	-11.0023
▁affection	-11.0023
▁Achaia	-11.0024
▁Aholibamah	-11.0024
▁Arphaxad	-11.0024
▁Beelzebub	-11.0024
▁Cornelius	-11.0024
▁Creek	-11.0024
▁Cyprus	-11.0024
▁Cyren	-11.0024
▁Eliphaz	-11.0024
▁Elisabeth	-11.0024
▁Felix	-11.0024
▁Galatia	-11.0024
▁Grounds	-11.0024
▁Hezron	-11.0024
▁Korah	-11.0024
▁Lieutenant	-11.0024
▁Melchizedek	-11.0024
▁Milcah	-11.0024
▁Olives	-11.0024
▁Zilpah	-11.0024
▁Zoar	-11.0024
▁accompan	-11.0024
▁acres	-11.0024
▁adversaries	-11.0024
▁aloud	-11.0024
▁cotton	-11.0024
▁furniture	-11.0024
▁gnash	-11.0024
▁grandchildren	-11.0024
▁grandmother	-11.0024
▁infirmity	-11.0024
▁leather	-11.0024
▁mediator	-11.0024
▁medicine	-11.0024
▁midwives	-11.0024
▁mischief	-11.0024
▁obedient	-11.0024
▁opportunity	-11.0024
▁outdoors	-11.0024
▁pertain	-11.0024
▁recognize	-11.0024
▁refuge	-11.0024
▁ringstraked	-11.0024
▁rotten	-11.0024
▁runners	-11.0024
▁shoot	-11.0024
▁television	-11.0024
▁tobacco	-11.0024
▁wool	-11.0024
▁Fussy	-11.0024
▁enormous	-11.0024
▁steep	-11.0024
▁carnal	-11.0024
▁clever	-11.0024
▁rattling	-11.0024
▁tumult	-11.0024
▁center	-11.0024
▁occupied	-11.0024
▁adversary	-11.0024
▁myrrh	-11.0024
▁soap	-11.0024
▁consecrate	-11.0024
▁honour	-11.0024
▁regular	-11.0024
▁sewing	-11.0024
▁stockade	-11.0024
▁Enos	-11.0024
▁beckon	-11.0024
▁reins	-11.0024
▁sinneth	-11.0024
▁adorn	-11.0024
▁holiness	-11.0024
▁birthright	-11.0024
▁president	-11.0024
▁strove	-11.0024
▁brave	-11.0024
▁chew	-11.0024
▁frame	-11.0024
▁offspring	-11.0024
▁Hades	-11.0024
▁picture	-11.0024
▁mercies	-11.0024
▁message	-11.0024
▁train	-11.0024
▁package	-11.0024
▁split	-11.0024
▁check	-11.0024
▁stedfast	-11.0024
▁flight	-11.0025
▁litter	-11.0025
▁grate	-11.0025
▁comment	-11.0025
▁frozen	-11.0025
▁Bash	-11.0025
▁peel	-11.0026
▁attack	-11.0026
▁imagination	-11.0026
▁spilled	-11.0026
▁rejecteth	-11.0026
▁Asher	-11.0027
▁hundredfold	-11.0027
▁perplexed	-11.0027
▁useful	-11.0028
▁swarm	-11.0028
▁gallon	-11.0028
▁southward	-11.0028
▁eastward	-11.0028
▁evermore	-11.0028
▁Hand	-11.0028
▁Cainan	-11.0028
▁err	-11.0029
▁sense	-11.0029
▁study	-11.0029
▁onyx	-11.0029
zale	-11.003
▁Am	-11.003
▁spear	-11.003
▁fourscore	-11.003
▁badge	-11.0031
▁gladness	-11.0031
▁comb	-11.0031
▁menservants	-11.0033
▁eighth	-11.0035
▁pursued	-11.0035
▁sickle	-11.0036
▁recent	-11.0037
▁”	-11.0038
▁shineth	-11.0039
▁ham	-11.0039
▁managed	-11.004
▁thirsty	-11.004
▁refreshed	-11.0041
▁deceived	-11.0041
▁fro	-11.0044
▁passage	-11.0044
▁soweth	-11.0044
▁dec	-11.0047
▁pair	-11.0048
▁Hast	-11.0048
▁baker	-11.0048
▁tithes	-11.0049
▁strengthened	-11.0049
▁march	-11.005
▁Gad	-11.005
▁manna	-11.0054
▁loaded	-11.0055
▁position	-11.0056
▁backward	-11.0056
▁Nothing	-11.0059
▁restored	-11.006
▁instruction	-11.006
▁earrings	-11.0065
▁realize	-11.0066
▁observed	-11.007
▁convict	-11.0071
▁gladly	-11.0071
▁tasted	-11.0076
▁lace	-11.0076
ign	-11.009
▁lend	-11.0097
▁Amorites	-11.0097
▁answereth	-11.0106
▁Other	-11.0109
▁wondering	-11.011
rough	-11.0113
▁hanged	-11.0116
▁plans	-11.0116
▁sealed	-11.0118
tial	-11.0119
▁incorruptible	-11.0121
▁beware	-11.0121
▁weary	-11.0124
▁therewith	-11.0129
▁dollars	-11.013
▁redeemed	-11.0136
▁K	-11.0141
▁trunks	-11.0147
▁wa	-11.0147
▁fainted	-11.0148
▁flying	-11.0153
▁learning	-11.0153
▁upward	-11.0156
▁tempt	-11.0167
▁plants	-11.0179
▁books	-11.0179
▁doves	-11.019
▁steps	-11.019
▁Hai	-11.0196
ide	-11.021
▁shadows	-11.0214
▁herbs	-11.0225
▁castle	-11.0232
▁spot	-11.0249
▁girls	-11.0263
▁suffering	-11.0266
stroke	-11.027
▁chase	-11.0272
▁meant	-11.0272
▁posts	-11.0296
▁reed	-11.0316
▁possessions	-11.033
▁imagine	-11.0356
▁Pi	-11.0357
▁candlesticks	-11.0363
▁bother	-11.0364
▁sixt	-11.0366
▁roots	-11.0379
▁temper	-11.0399
ro	-11.0407
▁helped	-11.0415
▁lovely	-11.0422
▁helping	-11.0447
▁examine	-11.0461
tic	-11.0473
▁pitch	-11.0478
et	-11.048
▁captains	-11.0481
▁seats	-11.051
▁Roman	-11.0518
▁keeper	-11.0538
tal	-11.0562
▁worm	-11.0582
▁blot	-11.0594
aph	-11.0595
ha	-11.061
ten	-11.0613
▁takes	-11.0619
ise	-11.0642
▁pi	-11.0668
▁El	-11.0682
lk	-11.0698
▁sounds	-11.0723
▁wars	-11.0724
go	-11.0733
▁sub	-11.0755
ious	-11.0758
▁pai	-11.076
▁cor	-11.0762
liness	-11.0768
ified	-11.0771
▁courts	-11.0773
▁boats	-11.079
▁Z	-11.0793
▁Jo	-11.0807
▁dogs	-11.0843
she	-11.085
unt	-11.0897
▁Ad	-11.0917
▁comest	-11.0944
▁tents	-11.0949
pers	-11.0952
▁herd	-11.0968
▁helps	-11.0977
▁cha	-11.0989
pe	-11.1017
▁prov	-11.1038
▁l	-11.1038
▁win	-11.1058
▁simpl	-11.109
ears	-11.1114
pping	-11.113
▁k	-11.1134
bal	-11.1165
own	-11.1179
▁Ou	-11.1202
longeth	-11.1238
▁yell	-11.1259
ove	-11.1271
ane	-11.128
▁member	-11.1282
do	-11.129
don	-11.1362
▁befall	-11.1377
▁Ti	-11.1417
▁plan	-11.1419
ction	-11.1441
ature	-11.1472
servant	-11.1492
▁Di	-11.1494
ough	-11.1495
M	-11.1517
▁whoso	-11.152
▁scrap	-11.1533
▁cur	-11.1548
fold	-11.156
▁sepulchre	-11.1573
ster	-11.1575
ows	-11.1576
▁statute	-11.1579
▁provision	-11.1579
▁scatter	-11.1579
▁brick	-11.1579
▁persecution	-11.1579
▁fin	-11.158
▁messenger	-11.1582
▁squirrel	-11.1583
▁maidservant	-11.1584
▁wagon	-11.1586
▁transgression	-11.1586
▁hog	-11.1591
▁boil	-11.1591
▁Canaanite	-11.1596
▁publican	-11.1597
▁wound	-11.16
▁pound	-11.1611
ast	-11.1618
Please	-11.1622
ists	-11.1624
work	-11.1628
▁stir	-11.1629
▁receiv	-11.1629
chamber	-11.1631
Come	-11.1633
Templeton	-11.1633
Some	-11.1633
When	-11.1633
front	-11.1635
▁includ	-11.1637
She	-11.1637
▁gnaw	-11.1637
▁attain	-11.1642
▁confirm	-11.1643
▁imitat	-11.1643
▁oppress	-11.1644
lace	-11.165
▁Bar	-11.165
▁eviden	-11.1653
icken	-11.1654
▁reveal	-11.1655
All	-11.166
ile	-11.1661
▁deceive	-11.1663
▁peri	-11.1664
▁gird	-11.167
▁require	-11.167
▁inquire	-11.1671
▁assured	-11.1676
▁remove	-11.1676
▁confident	-11.1677
▁fierce	-11.1678
▁difficult	-11.168
▁glorious	-11.1681
bor	-11.1682
uffer	-11.1684
R	-11.1685
▁forgot	-11.1686
▁Syria	-11.1687
▁gentle	-11.1687
▁candle	-11.1687
▁purse	-11.1688
▁sect	-11.1689
▁correct	-11.1689
urthermore	-11.1689
▁flour	-11.169
▁Alexander	-11.169
▁Aquila	-11.169
▁Believe	-11.169
▁Eleazar	-11.169
▁Hebron	-11.169
▁Iconium	-11.169
▁Issachar	-11.169
▁Jericho	-11.169
▁KING	-11.169
▁Laodicea	-11.169
▁Lystra	-11.169
▁Machpelah	-11.169
▁Mahalaleel	-11.169
▁Methuselah	-11.169
▁Nazarene	-11.169
▁Peleg	-11.169
▁Saturday	-11.169
▁Tamar	-11.169
▁Troas	-11.169
▁Zibeon	-11.169
▁audience	-11.169
▁autumn	-11.169
▁baptizing	-11.169
▁blemish	-11.169
▁bracelets	-11.169
▁cabbage	-11.169
▁carpenter	-11.169
▁ceiling	-11.169
▁cleave	-11.169
▁desolation	-11.169
▁effect	-11.169
▁eldest	-11.169
▁enmity	-11.169
▁ensample	-11.169
▁execute	-11.169
▁extra	-11.169
▁fame	-11.169
▁foreordained	-11.169
▁foreskin	-11.169
▁hurry	-11.169
▁ignorance	-11.169
▁jasper	-11.169
▁machine	-11.169
▁majesty	-11.169
▁merchandise	-11.169
▁muscle	-11.169
▁newspaper	-11.169
▁opinion	-11.169
▁overshadow	-11.169
▁plenteous	-11.169
▁poison	-11.169
▁polish	-11.169
▁rejoicing	-11.169
▁relief	-11.169
▁represent	-11.169
▁reprobate	-11.169
▁reserved	-11.169
▁savor	-11.169
▁serious	-11.169
▁serving	-11.169
▁shotgun	-11.169
▁stink	-11.169
▁student	-11.169
▁swollen	-11.169
▁taskmasters	-11.169
▁tetrarch	-11.169
▁thieves	-11.169
▁treasury	-11.169
▁unprofitable	-11.169
▁Army	-11.169
▁accident	-11.169
▁convert	-11.169
▁deaf	-11.169
▁leftover	-11.169
▁paused	-11.169
▁pepper	-11.169
▁queer	-11.169
▁shield	-11.169
▁worried	-11.169
▁Word	-11.169
▁roar	-11.169
▁scorch	-11.169
▁Alph	-11.169
▁Eden	-11.169
▁existence	-11.169
▁spell	-11.169
torium	-11.169
▁doughnut	-11.169
▁excellenc	-11.169
▁oven	-11.169
▁difference	-11.169
▁grind	-11.169
▁success	-11.169
▁breeze	-11.169
▁estate	-11.169
▁magnified	-11.169
▁foursquare	-11.169
▁needlework	-11.169
▁Jesse	-11.169
▁limit	-11.169
▁overtake	-11.169
▁triumph	-11.169
▁electric	-11.169
▁digging	-11.169
▁studie	-11.1691
▁tenons	-11.1691
▁displease	-11.1691
▁hammer	-11.1691
▁unfruitful	-11.1691
▁aforetime	-11.1691
▁job	-11.1691
▁vinegar	-11.1691
▁Government	-11.1691
▁quail	-11.1691
▁situation	-11.1691
▁abst	-11.1691
▁folk	-11.1691
▁Salah	-11.1691
▁capture	-11.1691
▁Reu	-11.1691
▁squatted	-11.1691
▁encamp	-11.1691
▁government	-11.1691
▁crook	-11.1691
▁herdmen	-11.1691
▁readiness	-11.1691
▁Rise	-11.1691
▁scales	-11.1691
▁Jared	-11.1691
▁Reuel	-11.1691
▁hypocrisy	-11.1691
▁blackberries	-11.1691
▁omer	-11.1692
▁mote	-11.1692
▁barnyard	-11.1692
▁dig	-11.1692
▁proof	-11.1692
▁Moon	-11.1692
▁depth	-11.1693
▁raw	-11.1693
▁lice	-11.1693
▁pole	-11.1693
▁Rain	-11.1693
lapped	-11.1693
▁argument	-11.1693
▁liver	-11.1694
▁Him	-11.1694
▁Syrian	-11.1694
▁tower	-11.1694
▁Old	-11.1694
▁mass	-11.1695
▁Shelah	-11.1695
▁punished	-11.1695
▁squash	-11.1695
▁Hur	-11.1695
▁tossed	-11.1695
▁saving	-11.1695
▁recover	-11.1696
▁Chief	-11.1697
▁downhill	-11.1697
▁Without	-11.1697
▁spotted	-11.1698
▁thrash	-11.1698
▁trimm	-11.1698
▁rank	-11.1698
▁laden	-11.1698
▁melt	-11.1699
▁dishes	-11.17
▁prophesied	-11.17
▁purchased	-11.17
▁lonely	-11.17
stone	-11.1701
▁conditions	-11.1701
▁whiskers	-11.1701
▁pine	-11.1702
▁explained	-11.1703
▁repeated	-11.1703
▁sniffed	-11.1703
▁vexed	-11.1703
▁justice	-11.1703
ext	-11.1703
▁dy	-11.1703
▁blaspheme	-11.1703
▁nurse	-11.1703
▁surety	-11.1703
▁edifying	-11.1704
▁prof	-11.1705
▁uncle	-11.1706
▁moth	-11.1706
▁sum	-11.1707
▁reproved	-11.1707
▁sickness	-11.1709
▁sinful	-11.1709
▁dad	-11.171
▁sway	-11.1712
▁pan	-11.1712
▁circle	-11.1712
▁shovel	-11.1713
▁glasses	-11.1713
▁damp	-11.1714
▁couch	-11.1715
▁Con	-11.1715
▁inquired	-11.1716
ael	-11.1719
▁instructed	-11.1719
muel	-11.172
workers	-11.172
▁entr	-11.172
▁nodded	-11.1722
▁softly	-11.1724
▁groaning	-11.1725
▁wink	-11.1727
▁fixed	-11.1727
▁collected	-11.1727
▁evident	-11.1728
▁setting	-11.1729
▁plainly	-11.1729
▁riding	-11.173
▁melted	-11.1736
▁somebody	-11.1737
how	-11.1737
▁exten	-11.1737
▁despised	-11.1741
▁released	-11.1741
gging	-11.1746
▁tonight	-11.1748
▁distressed	-11.175
▁deck	-11.1751
▁pervert	-11.1751
▁throwing	-11.1753
▁mocking	-11.1754
▁spinn	-11.1754
▁barking	-11.1757
▁distan	-11.1757
▁murmurings	-11.1759
▁forbidd	-11.1762
▁searching	-11.1765
▁testifying	-11.1765
▁spi	-11.1766
▁wrestle	-11.1768
▁cursed	-11.1769
▁openeth	-11.1772
▁marvell	-11.1776
▁sojourned	-11.1776
▁housetop	-11.1778
▁Samaritans	-11.1779
▁marketplaces	-11.1779
▁questionings	-11.178
▁railing	-11.1782
▁accepted	-11.1784
▁belt	-11.1789
▁hairy	-11.1794
▁pounds	-11.1798
▁hogs	-11.1798
▁squirrels	-11.1798
▁maidservants	-11.1799
▁begged	-11.18
▁intent	-11.1802
robably	-11.1804
▁interesting	-11.1816
▁exhorted	-11.1817
▁uttered	-11.1833
ton	-11.1834
▁cooking	-11.1836
▁beach	-11.1839
▁Cret	-11.1839
▁coves	-11.184
▁labored	-11.1843
▁speakest	-11.1843
rk	-11.1845
side	-11.1846
tor	-11.1852
▁paths	-11.1857
▁virgins	-11.1858
▁waves	-11.1858
▁entertain	-11.1859
▁Good	-11.1861
▁ju	-11.1862
uck	-11.1863
▁clearing	-11.1863
▁burying	-11.1872
▁knops	-11.1877
▁webs	-11.1878
▁pri	-11.1878
▁shapes	-11.1881
▁breathing	-11.1886
▁mist	-11.189
Not	-11.1895
uffle	-11.1897
▁appearing	-11.1899
▁bent	-11.1902
▁Eli	-11.1906
ible	-11.1911
▁bands	-11.1917
da	-11.192
▁drinketh	-11.1926
▁ahead	-11.1928
▁tabernacles	-11.194
▁pots	-11.1953
▁supplications	-11.1957
▁papers	-11.1957
no	-11.1963
▁occasions	-11.1964
▁cutt	-11.1972
▁bas	-11.1997
▁serpents	-11.2017
his	-11.2027
▁tu	-11.2028
ick	-11.2031
▁Le	-11.2034
cu	-11.2043
▁peach	-11.2043
▁afterwards	-11.2057
▁windows	-11.2059
ced	-11.206
▁En	-11.2078
▁choke	-11.2102
▁fasting	-11.2103
▁Sin	-11.2113
▁Ne	-11.2116
▁n	-11.2119
▁dreaming	-11.2127
▁sharpen	-11.2129
dom	-11.2135
▁smelling	-11.2141
▁sa	-11.2154
▁hoe	-11.2158
io	-11.2169
▁process	-11.217
▁wheels	-11.2179
▁hurts	-11.2181
▁seest	-11.2191
ith	-11.2193
br	-11.2197
▁creeks	-11.2199
▁char	-11.2208
▁constrain	-11.2234
cept	-11.2246
ech	-11.2264
▁Friend	-11.228
▁doll	-11.2282
▁fi	-11.2286
▁hundreds	-11.2289
▁teaches	-11.2304
king	-11.2317
▁lid	-11.2318
▁Na	-11.2362
pped	-11.2369
▁orders	-11.2383
wood	-11.2386
▁tangle	-11.2402
trusted	-11.2419
by	-11.2427
lushed	-11.2428
row	-11.2429
are	-11.2454
▁laws	-11.2471
▁owe	-11.2486
ump	-11.2524
▁mar	-11.254
pensation	-11.2544
nce	-11.2552
▁signifie	-11.2555
▁wasp	-11.2556
bel	-11.2657
▁Yes	-11.2681
▁dippe	-11.2707
ran	-11.2754
treated	-11.2793
▁welcome	-11.2794
▁Wo	-11.2804
ias	-11.2815
ale	-11.2828
bed	-11.2829
pic	-11.286
ian	-11.2881
▁hairs	-11.2893
▁treasures	-11.2906
▁ours	-11.2907
▁ease	-11.2909
▁mere	-11.2928
▁mol	-11.2932
▁mis	-11.2949
hin	-11.2974
ep	-11.3008
set	-11.3031
▁cla	-11.3047
phe	-11.3047
Is	-11.3069
▁examin	-11.3091
▁fain	-11.3095
cession	-11.3134
▁shave	-11.3137
▁lords	-11.3163
▁camel	-11.3167
▁Sh	-11.3179
ak	-11.3189
N	-11.3203
por	-11.3224
▁imagin	-11.3227
dull	-11.3267
▁trans	-11.329
▁heave	-11.3291
nas	-11.3307
▁min	-11.3314
tained	-11.3335
pots	-11.3344
▁sayings	-11.3348
▁va	-11.3353
▁Sheba	-11.3358
▁flu	-11.3399
test	-11.3477
▁Mu	-11.3477
ching	-11.3485
like	-11.3491
▁longing	-11.351
▁sprinkle	-11.352
▁pant	-11.3539
hold	-11.3553
ber	-11.3553
▁dim	-11.3559
held	-11.3563
ccord	-11.3567
▁rid	-11.3571
▁load	-11.3581
▁eunuch	-11.3582
▁plate	-11.3582
▁shilling	-11.3582
▁chestnut	-11.3582
▁Samaritan	-11.3583
▁marketplace	-11.3583
▁Amorite	-11.3585
▁disease	-11.3586
▁babe	-11.3586
▁Day	-11.3587
▁limb	-11.3587
worker	-11.3589
▁hook	-11.359
▁bat	-11.3592
corruptible	-11.3608
▁Se	-11.3611
rim	-11.3612
▁push	-11.362
wear	-11.3621
▁knock	-11.3627
Will	-11.3631
▁rattle	-11.3632
bow	-11.3632
color	-11.3632
Wilbur	-11.3633
midst	-11.3635
▁charg	-11.3638
▁handful	-11.3639
▁borrow	-11.3642
▁using	-11.3643
▁hind	-11.3643
▁collect	-11.3644
spect	-11.3645
▁accomplish	-11.3647
▁fix	-11.3648
▁prevail	-11.3648
▁pin	-11.3648
Of	-11.3649
back	-11.3649
yard	-11.3662
fe	-11.3668
▁reprove	-11.367
Bee	-11.3671
▁decide	-11.3671
▁conceive	-11.3671
▁circumcise	-11.3672
▁lunch	-11.3675
▁fervent	-11.3677
ursed	-11.3677
▁brief	-11.3678
▁shout	-11.3678
▁deceitful	-11.3678
uddenly	-11.368
▁rend	-11.3683
▁warn	-11.3684
hood	-11.3685
▁overthrow	-11.3686
▁lone	-11.3687
▁magic	-11.3689
▁zeal	-11.3689
▁deceit	-11.3689
▁cruel	-11.369
▁Corinth	-11.369
▁cherub	-11.369
▁instru	-11.369
▁Aholi	-11.369
▁lascivious	-11.369
▁strict	-11.369
Humble	-11.369
closing	-11.369
▁Bethsaida	-11.369
▁Boudinot	-11.369
▁Chedorlaomer	-11.369
▁Deliver	-11.369
▁Like	-11.369
▁Nadab	-11.369
▁Pamphylia	-11.369
▁Philippi	-11.369
▁Tarsus	-11.369
▁Texas	-11.369
▁Thomas	-11.369
▁Tychicus	-11.369
▁Would	-11.369
▁YHWH	-11.369
▁abolish	-11.369
▁accurately	-11.369
▁affrighted	-11.369
▁amazement	-11.369
▁anathema	-11.369
▁attitude	-11.369
▁avoid	-11.369
▁awhile	-11.369
▁beguile	-11.369
▁benefit	-11.369
▁betrothed	-11.369
▁bishop	-11.369
▁bleeding	-11.369
▁bridle	-11.369
▁carriage	-11.369
▁consecration	-11.369
▁cornmeal	-11.369
▁cream	-11.369
▁crime	-11.369
▁crisp	-11.369
▁decision	-11.369
▁dissolved	-11.369
▁excess	-11.369
▁exhausted	-11.369
▁flavor	-11.369
▁frightened	-11.369
▁furlongs	-11.369
▁grandfather	-11.369
▁grandstand	-11.369
▁grief	-11.369
▁grinned	-11.369
▁guest	-11.369
▁heavily	-11.369
▁heretofore	-11.369
▁infirmities	-11.369
▁insurrection	-11.369
▁kinsmen	-11.369
▁magazine	-11.369
▁mandrakes	-11.369
▁muttered	-11.369
▁nutrients	-11.369
▁organisms	-11.369
▁otherwise	-11.369
▁patriarch	-11.369
▁perfume	-11.369
▁possum	-11.369
▁powder	-11.369
▁progress	-11.369
▁pumpkin	-11.369
▁racket	-11.369
▁religion	-11.369
▁scorpion	-11.369
▁slumber	-11.369
▁spinnerets	-11.369
▁stunned	-11.369
▁swift	-11.369
▁task	-11.369
▁terrified	-11.369
▁thoroughly	-11.369
▁thumb	-11.369
▁ungodliness	-11.369
▁upstairs	-11.369
▁vanity	-11.369
▁vengeance	-11.369
▁whisky	-11.369
▁Serug	-11.369
▁burst	-11.369
▁delay	-11.369
▁indoors	-11.369
▁phone	-11.369
▁regret	-11.369
▁secur	-11.369
▁Heaven	-11.369
▁Hosanna	-11.369
▁Nathanael	-11.369
▁cheese	-11.369
▁neglect	-11.369
▁orchard	-11.369
▁rumor	-11.369
▁sneak	-11.369
▁swelling	-11.369
milit	-11.369
▁gravity	-11.369
▁Diana	-11.369
▁adulteress	-11.369
▁alien	-11.369
▁freeze	-11.369
▁result	-11.369
▁crumbs	-11.369
▁paddle	-11.369
Sleep	-11.369
▁graft	-11.369
▁continuing	-11.369
▁fables	-11.369
▁muddy	-11.369
▁snapp	-11.369
▁citizenship	-11.369
▁Count	-11.369
▁bowels	-11.369
▁Deep	-11.369
▁Gaius	-11.369
▁Zerah	-11.369
▁apron	-11.369
▁Jason	-11.3691
▁adj	-11.3691
▁bald	-11.3691
▁snout	-11.3691
▁Little	-11.3691
▁foggy	-11.3691
▁socks	-11.3691
▁straitened	-11.3691
▁odor	-11.3691
diment	-11.3691
▁Depart	-11.3691
▁support	-11.3691
▁tag	-11.3691
▁Walk	-11.3691
▁babies	-11.3691
▁consolation	-11.3691
▁riverboat	-11.3691
▁envie	-11.3691
▁seventeen	-11.3691
▁urgent	-11.3691
▁missed	-11.3691
▁stewardship	-11.3691
tual	-11.3691
▁uncertain	-11.3691
▁hospitality	-11.3691
▁sincerity	-11.3691
▁brook	-11.3691
neck	-11.3691
▁partner	-11.3691
▁confusion	-11.3691
▁property	-11.3691
▁Tru	-11.3691
▁gentlemen	-11.3691
▁announcement	-11.3691
▁candy	-11.3691
▁provender	-11.3691
▁wallet	-11.3691
▁assign	-11.3691
▁Herodias	-11.3692
▁victory	-11.3692
▁buck	-11.3692
▁sweep	-11.3692
▁hys	-11.3692
▁landscape	-11.3692
▁liquor	-11.3692
▁wot	-11.3692
▁accusation	-11.3692
▁ladder	-11.3692
▁stem	-11.3692
▁duty	-11.3692
▁shore	-11.3692
▁shamefully	-11.3692
▁ewe	-11.3692
▁starv	-11.3692
ville	-11.3692
▁distinction	-11.3692
▁shortened	-11.3692
▁utterance	-11.3693
▁Kno	-11.3693
▁expectation	-11.3693
▁behave	-11.3693
▁main	-11.3693
▁motionless	-11.3693
▁Sam	-11.3693
▁appearance	-11.3693
▁square	-11.3693
▁offence	-11.3693
▁westward	-11.3693
▁assay	-11.3693
▁dung	-11.3693
▁stage	-11.3694
▁dizzy	-11.3694
▁filthy	-11.3694
▁memory	-11.3694
▁July	-11.3694
▁glanc	-11.3694
▁firm	-11.3694
▁carton	-11.3694
▁friendship	-11.3695
▁crew	-11.3695
▁bill	-11.3695
▁election	-11.3695
▁bull	-11.3696
▁potter	-11.3696
▁booth	-11.3696
▁ladies	-11.3697
agement	-11.3697
▁barrel	-11.3698
▁Jonah	-11.3698
▁Keep	-11.3698
▁Save	-11.3699
▁grease	-11.37
▁priesthood	-11.3701
▁boast	-11.3701
▁ob	-11.3702
▁relieved	-11.3702
▁Over	-11.3702
▁Onan	-11.3703
▁ribs	-11.3704
▁Bu	-11.3706
▁chuckled	-11.3706
▁graven	-11.3706
▁comfortable	-11.3707
▁trembled	-11.3707
▁gainsaying	-11.3707
▁slight	-11.3708
tent	-11.371
▁Fir	-11.3711
▁ca	-11.3711
▁float	-11.3712
▁waste	-11.3712
▁Summ	-11.3713
▁faction	-11.3713
▁horn	-11.3714
▁pretend	-11.3714
pro	-11.3718
▁Fall	-11.3718
▁chastening	-11.3718
▁noble	-11.3721
▁mor	-11.3721
▁whispering	-11.3721
▁blasphemed	-11.3722
▁upside	-11.3724
▁stern	-11.3725
▁tares	-11.3727
▁warriors	-11.3727
▁idolaters	-11.3727
▁Late	-11.3729
▁mule	-11.3732
▁May	-11.3734
▁laborers	-11.3734
▁claws	-11.3735
▁severally	-11.3736
▁closer	-11.3737
▁however	-11.3737
▁perform	-11.3737
▁urge	-11.3739
▁assembled	-11.3739
▁humbled	-11.374
▁grievously	-11.3741
▁Anna	-11.3742
▁forthwith	-11.3742
servants	-11.3744
▁girded	-11.3746
▁weave	-11.3749
▁imitate	-11.3749
▁Does	-11.3749
▁Jebusites	-11.3751
▁fornicators	-11.3751
▁shelters	-11.3751
▁Perizzites	-11.3752
▁flatter	-11.3753
▁cured	-11.3753
▁ax	-11.3754
▁scattering	-11.3759
▁thereunto	-11.3759
▁stack	-11.376
▁sir	-11.3761
▁Gr	-11.3763
▁seethe	-11.3764
▁hatched	-11.3765
▁passions	-11.3766
▁tormented	-11.3766
▁perisheth	-11.3767
▁peas	-11.3769
▁failing	-11.3773
▁highway	-11.3773
▁droppings	-11.3776
▁sparrows	-11.3776
▁joints	-11.3776
▁delighted	-11.3776
▁mourned	-11.3777
▁fatherless	-11.3777
arley	-11.3778
Thank	-11.3782
▁bite	-11.3783
▁killers	-11.3784
▁sen	-11.3786
▁thinkest	-11.3793
▁treated	-11.3794
ema	-11.3796
▁veiled	-11.3797
▁raced	-11.3797
▁closely	-11.3797
▁questioning	-11.3798
▁plates	-11.38
▁shillings	-11.38
▁chestnuts	-11.38
▁eunuchs	-11.38
▁invisible	-11.3803
▁frie	-11.3807
▁messengers	-11.3825
▁personal	-11.3825
▁inhabited	-11.3827
▁sleepy	-11.3827
T	-11.3829
som	-11.3831
▁considered	-11.3834
▁stopp	-11.3835
ai	-11.3841
▁serveth	-11.3844
▁firstling	-11.3845
▁needeth	-11.3845
▁prophesying	-11.3845
▁singing	-11.3846
▁greas	-11.3853
▁ga	-11.3854
▁driver	-11.3857
II	-11.3857
▁exhorting	-11.3862
▁Whom	-11.387
▁manif	-11.3873
▁wont	-11.3876
vile	-11.3876
▁proceeded	-11.3877
▁smoked	-11.3888
▁filling	-11.389
iest	-11.3897
▁efforts	-11.3899
▁fashioned	-11.3899
▁believest	-11.3903
▁nests	-11.3923
▁older	-11.3926
ross	-11.394
▁hatchets	-11.3948
▁sink	-11.3952
son	-11.3957
ged	-11.3959
▁heirs	-11.3973
cut	-11.3985
alam	-11.3986
▁paint	-11.3986
ards	-11.3988
▁seals	-11.4003
ener	-11.4007
▁divine	-11.4009
▁awful	-11.4035
bah	-11.4038
▁tooth	-11.4044
▁penn	-11.4045
▁dodg	-11.4049
ntil	-11.4055
▁fowls	-11.4098
▁miracles	-11.4098
▁males	-11.4098
▁mouths	-11.4098
▁remind	-11.4119
▁Ari	-11.4128
▁distribute	-11.4134
revious	-11.4141
▁helper	-11.4145
▁colors	-11.4148
▁covers	-11.4152
▁questions	-11.4176
▁forever	-11.4194
▁pleasures	-11.4224
▁charges	-11.4228
▁bu	-11.4238
sop	-11.4266
▁player	-11.4277
▁visiting	-11.4289
▁tails	-11.4301
▁ash	-11.4314
▁scorn	-11.4316
▁accuser	-11.4319
▁pace	-11.4326
▁Co	-11.4329
▁cart	-11.4345
iness	-11.4366
▁images	-11.4378
▁pop	-11.44
iv	-11.4407
aking	-11.4478
eak	-11.4509
▁peaceful	-11.452
rushed	-11.4521
▁Was	-11.4531
gy	-11.4565
lves	-11.4577
ify	-11.4588
▁intreat	-11.4597
▁Zi	-11.4615
▁heel	-11.4618
▁settle	-11.4656
▁points	-11.468
uff	-11.4717
▁dip	-11.4728
▁decompose	-11.4744
▁services	-11.4745
▁commune	-11.4765
▁empt	-11.4806
mong	-11.4808
▁ja	-11.4823
▁tip	-11.4831
shed	-11.4833
nath	-11.4834
sh	-11.484
dge	-11.4864
▁decompos	-11.4902
▁Ten	-11.4907
▁Cana	-11.4919
▁gra	-11.4943
▁bees	-11.4962
▁crack	-11.5011
▁runt	-11.5018
▁Lea	-11.5031
▁prais	-11.5085
▁rac	-11.5093
▁layer	-11.5111
angled	-11.5166
▁bar	-11.5169
eel	-11.5174
bi	-11.519
▁val	-11.5197
▁lee	-11.5199
bout	-11.5202
ode	-11.521
our	-11.5218
▁sta	-11.5291
▁tool	-11.5313
▁Gree	-11.5316
ban	-11.5316
erah	-11.5337
▁lur	-11.535
ined	-11.5377
▁qua	-11.5383
rous	-11.5407
rent	-11.5409
▁Si	-11.5419
os	-11.5567
nut	-11.5619
ub	-11.5633
▁doer	-11.5634
▁Ph	-11.5679
onsider	-11.5701
▁rep	-11.5706
als	-11.5713
▁Ah	-11.5732
j	-11.5773
▁injur	-11.578
▁overthr	-11.5808
▁Fe	-11.5841
lings	-11.5844
▁fires	-11.5871
▁Bela	-11.5875
lah	-11.5941
▁squa	-11.5946
lations	-11.5957
▁skill	-11.5979
handed	-11.6001
round	-11.6007
▁caus	-11.6011
▁prefer	-11.6019
▁vow	-11.602
ians	-11.6029
ves	-11.6037
pri	-11.6038
visible	-11.6048
ati	-11.6057
ttention	-11.6062
▁Whit	-11.6072
▁debtor	-11.6075
▁object	-11.6077
antic	-11.6078
▁pomegranate	-11.6079
▁weapon	-11.6079
will	-11.6082
▁sparrow	-11.6082
▁deceiver	-11.6082
▁dropping	-11.6082
kins	-11.6086
rag	-11.6086
▁invent	-11.6086
cerning	-11.6087
▁gosling	-11.609
▁groan	-11.6091
▁loop	-11.6093
ky	-11.6094
ngel	-11.6097
▁ridge	-11.6097
▁murmur	-11.6097
▁needle	-11.6097
qui	-11.61
▁partaker	-11.61
▁key	-11.6102
▁descend	-11.6105
unted	-11.611
aged	-11.6117
course	-11.6118
▁coal	-11.612
▁exp	-11.6121
▁pearl	-11.6122
▁compel	-11.6122
Stop	-11.6124
Maybe	-11.6126
load	-11.6127
took	-11.6127
▁shear	-11.6128
Nothing	-11.613
Edith	-11.6131
terrific	-11.6131
thirst	-11.6131
hooks	-11.6131
▁judg	-11.6131
eph	-11.6132
▁despair	-11.6132
Who	-11.6133
blood	-11.6133
worthy	-11.6134
speak	-11.6134
▁Y	-11.6134
▁murmuring	-11.6134
gave	-11.6135
Did	-11.6136
face	-11.6137
▁purify	-11.6138
▁instruct	-11.6138
▁dare	-11.6139
For	-11.6139
master	-11.614
fell	-11.614
▁resid	-11.614
▁slipp	-11.6142
ray	-11.6143
▁threaten	-11.6145
que	-11.6149
▁platt	-11.615
Then	-11.6154
▁preten	-11.6162
▁strengthen	-11.6165
bby	-11.6165
▁excite	-11.6168
▁arrange	-11.6169
▁tremble	-11.6169
▁surprise	-11.6169
bone	-11.6169
▁bon	-11.617
▁swa	-11.6171
▁map	-11.6171
▁approve	-11.6171
ouched	-11.6172
▁general	-11.6177
ounded	-11.6177
▁bruise	-11.6177
▁vague	-11.6178
▁exact	-11.6179
▁abundant	-11.6179
▁immediate	-11.6179
▁supplie	-11.618
▁arrive	-11.618
oldiers	-11.6181
▁glorie	-11.6182
▁cheerful	-11.6182
▁clan	-11.6182
They	-11.6183
▁ski	-11.6185
▁chi	-11.6185
▁flash	-11.6185
▁Ke	-11.6186
▁safe	-11.6186
▁transgress	-11.6187
▁vo	-11.6188
belief	-11.6188
▁debt	-11.6188
▁riot	-11.6189
they	-11.6189
▁express	-11.6189
▁announce	-11.6189
▁proper	-11.6189
▁convers	-11.6189
berries	-11.6189
weed	-11.619
▁yo	-11.619
▁hospital	-11.619
nswere	-11.619
▁strait	-11.619
▁Jehovah	-11.619
▁solemn	-11.619
Listen	-11.619
Terrific	-11.619
iamond	-11.619
latchet	-11.619
▁Amminadab	-11.619
▁Aristarchus	-11.619
▁August	-11.619
▁Comforter	-11.619
▁Congress	-11.619
▁Cranshaw	-11.619
▁Derbe	-11.619
▁Dishon	-11.619
▁Ephrath	-11.619
▁Euphrates	-11.619
▁GOD	-11.619
▁Havilah	-11.619
▁Hearken	-11.619
▁Hogsucker	-11.619
▁Ishmeelites	-11.619
▁Ithamar	-11.619
▁Kohath	-11.619
▁Likewise	-11.619
▁Monday	-11.619
▁Nicodemus	-11.619
▁PIG	-11.619
▁Possum	-11.619
▁Receive	-11.619
▁School	-11.619
▁Servant	-11.619
▁Succoth	-11.619
▁Twelve	-11.619
▁Zohar	-11.619
▁absence	-11.619
▁adoption	-11.619
▁afford	-11.619
▁airplane	-11.619
▁assurance	-11.619
▁blowgun	-11.619
▁bondwoman	-11.619
▁bounty	-11.619
▁buryingplace	-11.619
▁century	-11.619
▁chapiters	-11.619
▁chickadee	-11.619
▁cinnamon	-11.619
▁concubine	-11.619
▁contend	-11.619
▁convenient	-11.619
▁correspond	-11.619
▁crazy	-11.619
▁demanded	-11.619
▁devise	-11.619
▁diminish	-11.619
▁discreet	-11.619
▁emerald	-11.619
▁engine	-11.619
▁foxes	-11.619
▁fraction	-11.619
▁freewoman	-11.619
▁fungus	-11.619
▁glutton	-11.619
▁gravy	-11.619
▁handkerchief	-11.619
▁hereafter	-11.619
▁horizon	-11.619
▁impart	-11.619
▁incorruption	-11.619
▁increasing	-11.619
▁insects	-11.619
▁knuckle	-11.619
▁level	-11.619
▁mysterious	-11.619
▁necessities	-11.619
▁nostrils	-11.619
▁obeisance	-11.619
▁occur	-11.619
▁pilgrims	-11.619
▁pronounce	-11.619
▁propitiation	-11.619
▁province	-11.619
▁raspberr	-11.619
▁reproof	-11.619
▁request	-11.619
▁response	-11.619
▁restitution	-11.619
▁restrained	-11.619
▁reviling	-11.619
▁revived	-11.619
▁riverbank	-11.619
▁roam	-11.619
▁sapphire	-11.619
▁sardius	-11.619
▁scrivener	-11.619
▁showbread	-11.619
▁shrank	-11.619
▁smiled	-11.619
▁straddle	-11.619
▁sunshine	-11.619
▁survive	-11.619
▁sworn	-11.619
▁terror	-11.619
▁turkey	-11.619
▁twig	-11.619
▁undress	-11.619
▁unimagin	-11.619
▁unmarried	-11.619
▁unusual	-11.619
▁whiskey	-11.619
tarsus	-11.619
▁Brother	-11.619
▁blink	-11.619
▁conjur	-11.619
▁haught	-11.619
▁orange	-11.619
▁poplar	-11.619
▁proconsul	-11.619
▁queen	-11.619
▁raven	-11.619
▁unloose	-11.619
▁Gilead	-11.619
▁circum	-11.619
▁disappoint	-11.619
▁element	-11.619
▁emerge	-11.619
▁gloves	-11.619
▁latter	-11.619
▁leprosy	-11.619
▁merchant	-11.619
▁impress	-11.619
▁Potiph	-11.619
▁agony	-11.619
▁cedar	-11.619
▁clipping	-11.619
▁crystal	-11.619
▁middling	-11.619
▁mysteries	-11.619
▁gorge	-11.619
▁mammon	-11.619
▁holler	-11.619
▁turban	-11.619
▁bereaved	-11.619
▁exchange	-11.619
▁noodle	-11.619
▁title	-11.619
▁beggar	-11.619
▁liberality	-11.619
▁refrain	-11.619
▁kicked	-11.619
▁enchantments	-11.619
▁workmanship	-11.619
▁occupation	-11.619
▁Salmon	-11.619
▁sackcloth	-11.619
▁stumblingblock	-11.619
▁Buddy	-11.619
▁Preparation	-11.619
▁blasphemies	-11.6191
▁arrival	-11.6191
▁assistance	-11.6191
▁palsied	-11.6191
▁loving	-11.6191
access	-11.6191
▁Joses	-11.6191
▁blossoms	-11.6191
▁winepress	-11.6191
▁bolt	-11.6191
▁quilt	-11.6191
▁Drink	-11.6191
▁reverence	-11.6191
▁bodily	-11.6191
▁vote	-11.6191
▁Goodbye	-11.6191
▁Moab	-11.6191
▁blast	-11.6191
▁principalities	-11.6191
▁Italy	-11.6191
▁gently	-11.6191
▁decree	-11.6191
▁pink	-11.6191
▁rooster	-11.6191
▁nap	-11.6191
▁cursing	-11.6191
▁flick	-11.6191
▁Haden	-11.6191
▁excuse	-11.6191
▁thicket	-11.6191
▁belonging	-11.6191
▁Shinar	-11.6191
▁indig	-11.6191
▁permit	-11.6191
▁tempest	-11.6191
orry	-11.6191
▁Abib	-11.6191
▁towel	-11.6191
▁mistake	-11.6191
▁population	-11.6191
▁covetous	-11.6191
▁smart	-11.6191
▁conceal	-11.6191
▁lane	-11.6191
▁scoop	-11.6191
▁hillside	-11.6191
▁luck	-11.6192
▁halt	-11.6192
▁Miz	-11.6192
▁imprisonment	-11.6192
▁strain	-11.6192
▁Light	-11.6192
▁midday	-11.6192
▁Shur	-11.6192
▁countries	-11.6192
▁Elam	-11.6192
▁guilty	-11.6192
▁malice	-11.6192
▁favorite	-11.6192
▁heathen	-11.6192
▁entangle	-11.6192
nquire	-11.6192
▁wire	-11.6192
▁awkwardly	-11.6192
▁Teman	-11.6193
▁bushel	-11.6193
everal	-11.6193
nkle	-11.6193
▁wrestling	-11.6193
sual	-11.6193
▁crash	-11.6193
▁braid	-11.6193
▁limp	-11.6193
▁furthermore	-11.6193
▁satisfied	-11.6194
▁Abb	-11.6194
▁stedfastness	-11.6194
▁thistles	-11.6194
▁apostleship	-11.6194
▁barbarian	-11.6194
▁wealthy	-11.6195
▁communicate	-11.6195
▁bushes	-11.6195
▁defer	-11.6195
▁Weep	-11.6196
▁nearby	-11.6196
▁sheepfold	-11.6196
▁giant	-11.6196
▁Mother	-11.6196
▁hello	-11.6196
▁super	-11.6197
▁jar	-11.6197
▁chap	-11.6197
▁Meat	-11.6198
▁gambl	-11.6198
▁forsaken	-11.6198
▁violent	-11.6198
▁fur	-11.6198
▁grunted	-11.6198
▁husbandman	-11.6198
eedy	-11.6198
▁cleansing	-11.6198
▁armor	-11.6199
▁supplieth	-11.6201
▁disturb	-11.6201
▁rifle	-11.6201
▁blame	-11.6201
▁skirt	-11.6201
atic	-11.6201
▁carv	-11.6201
▁repute	-11.6202
arge	-11.6202
▁vaguely	-11.6203
▁needful	-11.6203
▁wrist	-11.6204
▁agreement	-11.6204
▁Jam	-11.6204
▁Else	-11.6204
▁trott	-11.6204
chol	-11.6204
▁cheerfully	-11.6204
▁whiteman	-11.6205
▁remark	-11.6206
▁difficulty	-11.6206
▁rubber	-11.6206
▁briefly	-11.6207
▁Lotan	-11.6207
▁cheat	-11.6207
▁deceitfully	-11.6207
▁persecutest	-11.6208
▁candie	-11.6208
▁Dog	-11.6208
▁knot	-11.6208
▁stairs	-11.6208
▁cucumbers	-11.6208
▁magistrates	-11.6208
▁smoking	-11.6209
ently	-11.621
▁loan	-11.621
▁sower	-11.621
▁fiercely	-11.621
▁vanished	-11.6211
▁weaving	-11.6211
ndy	-11.6212
▁maple	-11.6212
▁ability	-11.6212
▁arranged	-11.6212
▁whistling	-11.6212
▁silently	-11.6214
▁clang	-11.6214
▁chill	-11.6215
did	-11.6218
▁citizen	-11.6218
▁stalk	-11.6219
▁reconciled	-11.622
▁Ok	-11.622
▁block	-11.6221
▁overhead	-11.6221
▁joke	-11.6224
aster	-11.6225
▁crushed	-11.6225
▁overthrown	-11.6226
▁pierced	-11.6226
▁quake	-11.6226
▁steady	-11.6226
▁greeting	-11.6227
▁Men	-11.6227
▁eighteen	-11.6228
▁Never	-11.6228
mortal	-11.623
▁stall	-11.6232
▁endless	-11.6234
▁commendeth	-11.6234
▁sno	-11.6235
▁groaned	-11.6237
▁lit	-11.6239
▁pillows	-11.6239
▁slopes	-11.6239
▁physicians	-11.6239
▁manservant	-11.6239
▁sincere	-11.624
▁anew	-11.6242
▁flip	-11.6242
▁louder	-11.6242
▁wanton	-11.6243
▁joint	-11.625
▁stumbleth	-11.625
▁trapper	-11.6253
▁naturally	-11.6254
▁pushing	-11.6256
▁Hous	-11.6256
▁Maybe	-11.6256
▁particle	-11.6259
▁faithless	-11.6261
▁invented	-11.6261
▁oppressed	-11.6264
▁confirmed	-11.6264
▁fann	-11.6269
▁boiling	-11.627
▁pigeons	-11.6271
▁lepers	-11.6271
▁boughs	-11.6271
▁transgressors	-11.6272
▁hon	-11.6272
compelled	-11.6274
▁completed	-11.6275
▁whoring	-11.6276
▁sojourners	-11.6276
▁scare	-11.6279
▁sever	-11.6281
▁thereto	-11.6284
▁sur	-11.6286
▁wildly	-11.6287
▁overmuch	-11.6289
▁extortioner	-11.6291
▁curl	-11.6292
▁continueth	-11.6295
▁commandeth	-11.6295
▁Remov	-11.6302
▁hasn	-11.6302
▁action	-11.6302
▁cards	-11.6303
▁pomegranates	-11.6303
▁weapons	-11.6303
▁metal	-11.6304
▁actions	-11.6306
▁chin	-11.6306
▁confe	-11.6307
▁Gran	-11.6312
meter	-11.6317
▁wond	-11.6319
▁department	-11.6319
▁jo	-11.6321
In	-11.6326
▁richly	-11.6331
▁payment	-11.6339
lessly	-11.6341
▁dresser	-11.6345
this	-11.6346
owing	-11.6347
▁def	-11.6349
eral	-11.6352
▁rider	-11.6352
▁needy	-11.6356
▁sucked	-11.6357
▁pouring	-11.6358
▁preacheth	-11.6359
erable	-11.6359
▁transform	-11.6365
▁finest	-11.6367
▁bricks	-11.6368
▁statutes	-11.6368
▁provisions	-11.6368
▁persecutions	-11.6368
▁lock	-11.6369
position	-11.6371
▁worms	-11.6372
▁patch	-11.6376
▁alike	-11.6377
▁Romans	-11.6388
▁deeply	-11.639
▁lacked	-11.6398
▁liars	-11.64
▁stealing	-11.6401
▁perver	-11.6406
▁embrace	-11.6408
▁farmers	-11.6409
▁willeth	-11.6413
▁profited	-11.6425
alutations	-11.6426
▁squat	-11.6428
▁clock	-11.6428
▁spl	-11.643
▁trapp	-11.6432
▁murderers	-11.6437
vice	-11.6437
▁regarded	-11.6438
unny	-11.6438
ius	-11.6443
gar	-11.6453
ads	-11.6458
ere	-11.6458
ups	-11.6459
▁surge	-11.6462
▁captives	-11.6466
▁habitations	-11.6466
▁mete	-11.6467
▁righteously	-11.647
▁worrying	-11.6475
▁ma	-11.6493
▁killeth	-11.6494
▁amount	-11.6497
▁dances	-11.6498
▁thighs	-11.6498
tty	-11.6513
com	-11.6518
▁gravel	-11.6521
▁worshipp	-11.6531
▁logs	-11.6531
▁Christian	-11.6534
▁guns	-11.6538
▁style	-11.6541
▁card	-11.6552
▁hurting	-11.6553
▁sop	-11.6557
▁Abid	-11.6558
▁seasoned	-11.6564
▁games	-11.6564
▁customs	-11.6598
full	-11.6607
▁ref	-11.662
▁hens	-11.6628
▁regions	-11.6631
▁crowned	-11.6642
▁aged	-11.6644
▁staying	-11.6656
▁streams	-11.6664
▁tie	-11.6673
▁figs	-11.6698
▁treat	-11.6706
▁itch	-11.6713
illy	-11.6719
▁rag	-11.6723
▁forgett	-11.6724
▁caves	-11.6731
▁li	-11.6736
▁meaning	-11.6737
▁visions	-11.6743
bs	-11.6757
▁owners	-11.6761
▁Par	-11.6776
aid	-11.6788
figur	-11.6797
▁floods	-11.6799
▁governors	-11.6799
▁Eph	-11.6813
inning	-11.6835
▁argue	-11.6857
him	-11.6863
▁ships	-11.6866
▁blinded	-11.688
ancy	-11.6886
▁sus	-11.6888
▁ver	-11.6908
enable	-11.6921
▁Clo	-11.6935
▁seeds	-11.6937
B	-11.6946
▁sco	-11.6969
▁kn	-11.697
pen	-11.6973
vi	-11.6986
▁j	-11.6986
▁favorabl	-11.6994
▁ink	-11.6997
▁afternoons	-11.7004
▁impo	-11.7008
alo	-11.7032
▁perp	-11.7051
lic	-11.7084
▁curve	-11.7102
▁edges	-11.7107
racles	-11.7107
▁buildings	-11.7112
ddle	-11.7113
ich	-11.7119
▁writer	-11.7123
▁rehears	-11.7126
▁busi	-11.7139
▁shower	-11.714
▁pea	-11.7167
▁fe	-11.7202
▁lap	-11.7208
anke	-11.7232
urge	-11.7234
▁smit	-11.7241
▁Israelite	-11.7244
▁earthy	-11.7245
▁entice	-11.7255
inner	-11.7272
ull	-11.7281
uni	-11.7287
▁numbers	-11.7323
▁shit	-11.7323
▁doings	-11.7324
ration	-11.7337
▁differ	-11.7343
▁inv	-11.7349
eries	-11.7352
▁rec	-11.7399
uz	-11.7417
▁mornings	-11.746
▁swords	-11.7463
▁fellows	-11.7467
▁companions	-11.7471
▁beard	-11.7483
ular	-11.7506
▁earthly	-11.7521
▁journeys	-11.7533
mma	-11.7566
▁prisons	-11.7572
▁gall	-11.7575
damn	-11.7586
▁afore	-11.7607
scen	-11.7611
▁Hid	-11.7627
enness	-11.7639
▁trac	-11.7689
Be	-11.7738
lation	-11.7751
▁inte	-11.7762
▁Phi	-11.7782
▁su	-11.7793
▁Ben	-11.7803
born	-11.7815
eas	-11.7816
▁stab	-11.7842
mar	-11.7859
ats	-11.7905
dder	-11.7921
ttle	-11.793
ore	-11.794
▁interrupt	-11.7956
sive	-11.7967
wardly	-11.7993
van	-11.7997
▁gaz	-11.8009
▁pur	-11.8013
▁struggle	-11.8038
za	-11.8042
▁meats	-11.8048
▁parting	-11.8137
we	-11.8171
vil	-11.8213
▁pipes	-11.8245
▁wanting	-11.8249
▁cal	-11.8258
dding	-11.828
rah	-11.8301
lab	-11.8322
▁Che	-11.8337
▁feasts	-11.8338
▁strik	-11.8374
fire	-11.838
▁wh	-11.8389
mmed	-11.8406
▁Eu	-11.841
mal	-11.8417
posed	-11.842
▁hug	-11.844
▁Stop	-11.845
nic	-11.8455
uit	-11.8458
lee	-11.8461
pringtime	-11.8515
▁stu	-11.8518
▁breathe	-11.8524
x	-11.8524
ev	-11.853
uring	-11.8544
nched	-11.8578
▁pa	-11.8597
catches	-11.8624
▁temperat	-11.8626
▁argu	-11.8658
▁striv	-11.8675
hoes	-11.8676
ities	-11.8685
▁rage	-11.869
che	-11.8716
ncy	-11.8722
▁Pu	-11.8723
▁rais	-11.875
doers	-11.8813
fare	-11.8832
ender	-11.8846
orn	-11.887
stead	-11.8876
nger	-11.8888
rred	-11.8937
▁Mes	-11.8961
▁oppos	-11.8991
tery	-11.9009
eyed	-11.9016
▁Eve	-11.9024
azed	-11.9045
tops	-11.9057
▁whit	-11.9067
▁ripp	-11.9076
mus	-11.9135
ron	-11.9136
P	-11.9156
ib	-11.9183
top	-11.9188
▁sug	-11.9191
▁fre	-11.9192
▁Ge	-11.9208
easy	-11.9212
hill	-11.9214
▁embrac	-11.9228
▁fir	-11.9235
nets	-11.9248
rance	-11.9253
▁Sal	-11.9256
uary	-11.9283
aving	-11.9323
▁rob	-11.9342
Th	-11.9345
sha	-11.935
pher	-11.9351
rawled	-11.9351
▁gum	-11.9352
ized	-11.9354
ence	-11.9359
▁Cre	-11.936
doer	-11.9366
▁wrest	-11.9374
▁bough	-11.9379
▁extortion	-11.9385
come	-11.9401
nceforth	-11.9404
▁psalm	-11.9407
▁sorcerer	-11.9407
▁eagle	-11.9407
▁elbow	-11.9407
▁senator	-11.9407
▁section	-11.941
▁Levite	-11.9411
▁leper	-11.9412
▁pigeon	-11.9412
▁transgressor	-11.9414
rate	-11.9415
▁Jebusite	-11.9415
▁Perizzite	-11.9415
▁fornicator	-11.9415
▁chasten	-11.9415
▁shelter	-11.9419
lashed	-11.9422
▁hypocrite	-11.9423
▁earring	-11.9425
▁explo	-11.9426
▁Tra	-11.9426
▁whisper	-11.9426
▁sojourner	-11.9432
▁spice	-11.9432
cum	-11.9434
hand	-11.9437
▁shop	-11.9438
gate	-11.9439
upon	-11.9445
quench	-11.9449
rches	-11.9449
Y	-11.9449
warm	-11.9456
Certainly	-11.9456
▁gir	-11.9459
stood	-11.9461
hearted	-11.9464
Pig	-11.9464
Ho	-11.9465
floor	-11.9465
prisoner	-11.9465
bas	-11.9466
learned	-11.9466
legs	-11.9466
pieces	-11.9466
▁operat	-11.9466
snake	-11.9466
thirty	-11.9466
break	-11.9466
friend	-11.9466
closed	-11.9467
quiet	-11.9467
water	-11.9467
wife	-11.9467
finger	-11.9467
Take	-11.9468
looking	-11.9468
ground	-11.9468
▁encounter	-11.947
▁remov	-11.9471
▁confus	-11.9471
Sure	-11.9471
▁assembl	-11.9473
▁greet	-11.9473
unch	-11.9474
Every	-11.9475
▁loos	-11.9475
▁affirm	-11.9475
▁embarrass	-11.9475
▁buffet	-11.9475
rown	-11.9476
▁crush	-11.9479
▁refresh	-11.948
volut	-11.9487
sembled	-11.9487
hath	-11.9492
roi	-11.9492
ega	-11.9493
▁enlarge	-11.9501
five	-11.9501
▁Alexandria	-11.9502
▁relieve	-11.9503
▁bore	-11.9503
▁prophesie	-11.9503
▁purchase	-11.9503
Here	-11.9503
▁determine	-11.9504
▁Right	-11.9505
▁pursue	-11.9506
Te	-11.9506
▁marrie	-11.9506
▁meek	-11.9507
▁pierce	-11.9508
▁delicate	-11.9509
▁nervous	-11.951
ected	-11.9511
▁private	-11.9512
▁tire	-11.9513
alvation	-11.9514
cient	-11.9514
▁jealous	-11.9515
▁possibl	-11.9515
▁Lif	-11.9515
fish	-11.9518
ims	-11.9519
orted	-11.9519
istles	-11.9519
▁froze	-11.952
▁stole	-11.9521
ntity	-11.9521
▁mirac	-11.9522
mission	-11.9522
▁gener	-11.9522
▁princip	-11.9522
▁meditat	-11.9522
upp	-11.9523
orthy	-11.9523
appy	-11.9523
▁author	-11.9523
olonel	-11.9523
oyal	-11.9523
▁stock	-11.9523
▁desp	-11.9523
▁turtle	-11.9524
Play	-11.9524
hibit	-11.9524
▁captivity	-11.9524
▁major	-11.9524
▁responsibilit	-11.9524
▁territory	-11.9524
ograph	-11.9524
wilight	-11.9524
zziah	-11.9524
▁Adullamite	-11.9524
▁Ahaz	-11.9524
▁Aranea	-11.9524
▁Balaam	-11.9524
▁Bartholomew	-11.9524
▁Bernice	-11.9524
▁Bethphage	-11.9524
▁Boaz	-11.9524
▁Boston	-11.9524
▁Breakfast	-11.9524
▁Chaldees	-11.9524
▁Chesapeake	-11.9524
▁Choctaw	-11.9524
▁Climb	-11.9524
▁Crawdaddy	-11.9524
▁Decapolis	-11.9524
▁Demetrius	-11.9524
▁Dishan	-11.9524
▁Echota	-11.9524
▁Eliezer	-11.9524
▁Epaphras	-11.9524
▁Erastus	-11.9524
▁Ethiopia	-11.9524
▁Ezer	-11.9524
▁Galway	-11.9524
▁Gennesaret	-11.9524
▁Gershon	-11.9524
▁Golgotha	-11.9524
▁Hallelujah	-11.9524
▁Hezekiah	-11.9524
▁Horeb	-11.9524
▁Jeremiah	-11.9524
▁Joktan	-11.9524
▁Jotham	-11.9524
▁Jupiter	-11.9524
▁Kadesh	-11.9524
▁Kenaz	-11.9524
▁Luke	-11.9524
▁Matthew	-11.9524
▁Merari	-11.9524
▁Nahshon	-11.9524
▁Nebajoth	-11.9524
▁Nellie	-11.9524
▁Notwithstanding	-11.9524
▁October	-11.9524
▁Oklahoma	-11.9524
▁Olivet	-11.9524
▁Peabody	-11.9524
▁Pentecost	-11.9524
▁Perez	-11.9524
▁Perga	-11.9524
▁Pharez	-11.9524
▁Phrygia	-11.9524
▁Pontus	-11.9524
▁Prince	-11.9524
▁Prisc	-11.9524
▁Priscilla	-11.9524
▁Psalms	-11.9524
▁Rehoboth	-11.9524
▁Rephidim	-11.9524
▁River	-11.9524
▁Sardis	-11.9524
▁September	-11.9524
▁Shealtiel	-11.9524
▁Shobal	-11.9524
▁Shuah	-11.9524
▁Siddim	-11.9524
▁Silvanus	-11.9524
▁Squirrel	-11.9524
▁Symeon	-11.9524
▁Tarshish	-11.9524
▁Thessalonica	-11.9524
▁Trophimus	-11.9524
▁Zeboi	-11.9524
▁Zillah	-11.9524
▁Zipporah	-11.9524
▁addition	-11.9524
▁advance	-11.9524
▁aeronaut	-11.9524
▁affairs	-11.9524
▁anxiety	-11.9524
▁apiece	-11.9524
▁attire	-11.9524
▁avail	-11.9524
▁balsam	-11.9524
▁bountifully	-11.9524
▁cantaloupes	-11.9524
▁canvas	-11.9524
▁colours	-11.9524
▁column	-11.9524
▁compact	-11.9524
▁conclud	-11.9524
▁conclusion	-11.9524
▁conduct	-11.9524
▁conflict	-11.9524
▁congealed	-11.9524
▁congress	-11.9524
▁conquer	-11.9524
▁constructed	-11.9524
▁consult	-11.9524
▁contrariwise	-11.9524
▁cornbread	-11.9524
▁corncob	-11.9524
▁corpse	-11.9524
▁curiosity	-11.9524
▁daube	-11.9524
▁desperation	-11.9524
▁destiny	-11.9524
▁disorderly	-11.9524
▁disputing	-11.9524
▁dissension	-11.9524
▁distinguish	-11.9524
▁district	-11.9524
▁draught	-11.9524
▁dungeon	-11.9524
▁eager	-11.9524
▁edifieth	-11.9524
▁esteem	-11.9524
▁exotic	-11.9524
▁extreme	-11.9524
▁farewell	-11.9524
▁fascinating	-11.9524
▁feeble	-11.9524
▁fetters	-11.9524
▁fifties	-11.9524
▁forewarn	-11.9524
▁fragments	-11.9524
▁frankincense	-11.9524
▁furnished	-11.9524
▁groceries	-11.9524
▁handbreadth	-11.9524
▁happiness	-11.9524
▁hayloft	-11.9524
▁hominy	-11.9524
▁hymn	-11.9524
▁immortality	-11.9524
▁journals	-11.9524
▁kinsfolk	-11.9524
▁knives	-11.9524
▁leanfleshed	-11.9524
▁lodging	-11.9524
▁maintain	-11.9524
▁material	-11.9524
▁matrix	-11.9524
▁meadow	-11.9524
▁moisture	-11.9524
▁okay	-11.9524
▁opposition	-11.9524
▁overwhelm	-11.9524
▁philosoph	-11.9524
▁photograph	-11.9524
▁pilgrimage	-11.9524
▁pistol	-11.9524
▁poverty	-11.9524
▁predator	-11.9524
▁produce	-11.9524
▁quiver	-11.9524
▁raccoon	-11.9524
▁rebelled	-11.9524
▁record	-11.9524
▁rectang	-11.9524
▁remnant	-11.9524
▁replenish	-11.9524
▁representatives	-11.9524
▁retrieve	-11.9524
▁sassafras	-11.9524
▁satisfy	-11.9524
▁sermon	-11.9524
▁shewbread	-11.9524
▁subsistence	-11.9524
▁succeed	-11.9524
▁swept	-11.9524
▁tanner	-11.9524
▁tavern	-11.9524
▁titmouse	-11.9524
▁trading	-11.9524
▁tread	-11.9524
▁trigger	-11.9524
▁unawares	-11.9524
▁unceasing	-11.9524
▁undefiled	-11.9524
▁unexpected	-11.9524
▁unjust	-11.9524
▁unknown	-11.9524
▁unreasonable	-11.9524
▁unveiled	-11.9524
▁uproar	-11.9524
▁vehemently	-11.9524
▁vertical	-11.9524
▁virtue	-11.9524
▁waterproof	-11.9524
▁woodpecker	-11.9524
▁yesternight	-11.9524
▁Asshur	-11.9524
▁antichrist	-11.9524
▁dowry	-11.9524
▁hound	-11.9524
▁license	-11.9524
▁lucre	-11.9524
▁steam	-11.9524
Congratu	-11.9524
▁Athens	-11.9524
▁Demas	-11.9524
▁Street	-11.9524
▁achieve	-11.9524
▁clover	-11.9524
▁employ	-11.9524
▁gnat	-11.9524
▁oblig	-11.9524
▁pitfall	-11.9524
▁proverb	-11.9524
▁superscription	-11.9524
▁terrain	-11.9524
▁throng	-11.9524
▁unloaded	-11.9524
satisfact	-11.9524
▁Glory	-11.9524
▁Latin	-11.9524
▁apprecia	-11.9524
▁contributi	-11.9524
▁dusk	-11.9524
▁exist	-11.9524
▁fading	-11.9524
▁heritage	-11.9524
▁ridden	-11.9524
dopted	-11.9524
▁abated	-11.9524
▁desk	-11.9524
▁loaf	-11.9524
▁moaned	-11.9524
▁saddlebag	-11.9524
timber	-11.9524
vaga	-11.9524
▁Creator	-11.9524
▁States	-11.9524
▁topaz	-11.9524
▁vacation	-11.9524
▁Bind	-11.9524
▁Talk	-11.9524
▁adjourn	-11.9524
▁owl	-11.9524
▁profess	-11.9524
▁York	-11.9524
▁approaching	-11.9524
▁knothole	-11.9524
▁referr	-11.9524
▁Arabia	-11.9524
▁authorities	-11.9524
Could	-11.9524
▁Besides	-11.9524
▁Dedan	-11.9524
▁frying	-11.9524
▁undone	-11.9524
ND	-11.9524
▁Serve	-11.9524
▁backbit	-11.9524
▁shiver	-11.9524
▁sideboards	-11.9524
lashes	-11.9524
▁Jobab	-11.9524
▁battery	-11.9524
▁surround	-11.9524
rawdad	-11.9524
smith	-11.9524
▁mistress	-11.9524
alley	-11.9524
▁procur	-11.9524
▁Welch	-11.9524
▁wafer	-11.9524
▁emotion	-11.9524
▁dread	-11.9524
havi	-11.9524
▁abuse	-11.9524
▁delicious	-11.9524
▁tickl	-11.9524
▁united	-11.9524
▁ceasing	-11.9524
▁engage	-11.9524
▁slant	-11.9524
▁mumbled	-11.9524
▁vomit	-11.9524
▁Tiberias	-11.9524
▁Phoenicia	-11.9524
▁pottage	-11.9524
▁revenge	-11.9524
▁lonesome	-11.9524
▁address	-11.9524
▁dripping	-11.9524
▁quill	-11.9524
ference	-11.9524
▁slanderers	-11.9524
▁soaked	-11.9524
▁Territories	-11.9524
▁cords	-11.9524
▁laz	-11.9524
▁stagger	-11.9524
▁tomatoes	-11.9524
▁chide	-11.9524
▁grownups	-11.9524
▁terrify	-11.9524
▁vouch	-11.9524
▁prophetess	-11.9524
▁overhear	-11.9524
▁route	-11.9524
▁pestilence	-11.9524
▁sheaf	-11.9524
▁tape	-11.9524
▁brink	-11.9524
▁device	-11.9524
▁Marah	-11.9524
▁glow	-11.9524
▁drill	-11.9524
▁midway	-11.9524
ON	-11.9524
▁Lib	-11.9524
▁oats	-11.9524
▁Maha	-11.9524
ronic	-11.9524
▁Luz	-11.9524
▁Fift	-11.9524
OM	-11.9524
iletus	-11.9524
▁nobleman	-11.9524
▁contentious	-11.9525
▁Paradise	-11.9525
noch	-11.9525
▁crafti	-11.9525
▁missing	-11.9525
▁dedicat	-11.9525
ella	-11.9525
▁Lys	-11.9525
choni	-11.9525
▁contest	-11.9525
▁prun	-11.9525
▁destitute	-11.9525
▁steel	-11.9525
▁smear	-11.9525
▁mosquitoes	-11.9525
▁beheaded	-11.9525
▁resolv	-11.9525
▁pouches	-11.9525
▁safety	-11.9525
▁affectionate	-11.9525
▁garnet	-11.9525
tenance	-11.9525
▁funny	-11.9525
▁lobby	-11.9525
▁thefts	-11.9525
▁Herodians	-11.9525
epho	-11.9525
▁spun	-11.9525
▁stubble	-11.9525
▁strap	-11.9525
▁amiss	-11.9525
▁variet	-11.9525
▁poking	-11.9525
▁police	-11.9526
▁harness	-11.9526
▁scalp	-11.9526
▁lawlessness	-11.9526
▁errand	-11.9526
▁dough	-11.9526
▁moonlight	-11.9526
phath	-11.9526
▁bridge	-11.9526
▁bondman	-11.9526
▁jerky	-11.9526
▁necklace	-11.9526
▁lowliness	-11.9526
▁lounge	-11.9526
▁modest	-11.9526
▁remo	-11.9526
▁laun	-11.9526
▁shorn	-11.9526
▁advertisement	-11.9526
▁correction	-11.9526
▁Bible	-11.9526
▁justification	-11.9526
▁pallet	-11.9526
▁weaned	-11.9527
▁Corn	-11.9527
nited	-11.9527
▁stank	-11.9527
kling	-11.9527
▁equality	-11.9527
▁beryl	-11.9527
▁downstream	-11.9527
▁Esh	-11.9527
▁birch	-11.9527
▁Elon	-11.9527
▁Hush	-11.9527
▁Still	-11.9528
▁womenservants	-11.9528
▁departure	-11.9528
▁harmless	-11.9528
▁class	-11.9528
▁Big	-11.9528
▁colla	-11.9528
▁lain	-11.9528
ulous	-11.9528
▁Bethel	-11.9528
▁spru	-11.9528
▁observation	-11.9528
▁hatred	-11.9528
▁withereth	-11.9528
▁trance	-11.9529
pparent	-11.9529
▁crippled	-11.9529
▁hireling	-11.9529
▁Haz	-11.9529
▁forks	-11.9529
▁jailor	-11.9529
little	-11.953
▁cruse	-11.953
▁moss	-11.953
▁weaknesses	-11.953
▁summertime	-11.953
▁bin	-11.953
▁cust	-11.953
▁hateful	-11.953
▁candida	-11.953
▁scarce	-11.953
zah	-11.953
▁brim	-11.953
▁specifi	-11.9531
▁Zeal	-11.9531
▁lingere	-11.9531
onia	-11.9531
▁Cush	-11.9531
▁cele	-11.9531
▁thoughtfully	-11.9531
▁lofty	-11.9531
▁coon	-11.9532
▁invite	-11.9532
▁boxes	-11.9532
▁joyful	-11.9533
onge	-11.9533
▁broth	-11.9533
▁decease	-11.9533
▁boundary	-11.9534
▁Life	-11.9534
▁page	-11.9534
▁Timnath	-11.9534
phan	-11.9534
▁hoisted	-11.9534
▁enlightened	-11.9534
▁visitors	-11.9535
▁sevenfold	-11.9535
▁alleg	-11.9535
▁dive	-11.9535
▁deliverance	-11.9536
▁engraver	-11.9536
▁scent	-11.9536
▁purser	-11.9536
▁bay	-11.9537
▁nervously	-11.9537
▁bitterness	-11.9537
east	-11.9537
▁More	-11.9537
▁mus	-11.9537
▁treaty	-11.9537
▁reviled	-11.9538
▁swipe	-11.9538
▁swoop	-11.9538
▁sobbed	-11.9538
▁wishes	-11.9538
▁lick	-11.9538
▁waist	-11.9539
▁drift	-11.9539
▁circling	-11.9539
mates	-11.9539
▁Ram	-11.9539
▁rare	-11.9539
▁foreign	-11.9539
▁Syr	-11.954
▁owest	-11.954
▁Canaanit	-11.954
▁unfe	-11.954
▁Really	-11.954
▁saddle	-11.954
▁collection	-11.9541
▁maiden	-11.9541
▁Ski	-11.9541
▁team	-11.9541
▁Five	-11.9541
▁Pass	-11.9542
▁brimm	-11.9542
▁safely	-11.9542
▁Amram	-11.9543
▁discour	-11.9544
▁avenger	-11.9544
▁interpreter	-11.9545
▁forgiveness	-11.9545
▁sowest	-11.9545
▁boo	-11.9546
▁quietness	-11.9546
▁tamed	-11.9546
▁enlarged	-11.9546
▁knocketh	-11.9547
▁fervently	-11.9547
▁reflect	-11.9548
▁basin	-11.9548
▁drunkard	-11.9548
▁Away	-11.9548
▁Obed	-11.9549
▁plead	-11.9549
▁War	-11.9549
roughly	-11.9549
▁Horites	-11.955
▁mounds	-11.955
▁Ephesians	-11.955
▁buttocks	-11.955
▁malefactors	-11.955
▁ornaments	-11.955
▁uniforms	-11.955
▁blasphemeth	-11.955
▁passway	-11.955
▁prey	-11.9551
inter	-11.9551
▁carrie	-11.9552
makers	-11.9552
▁builders	-11.9552
▁confidently	-11.9553
▁quenched	-11.9553
▁confounded	-11.9553
▁plantation	-11.9553
▁uphill	-11.9554
▁hallowed	-11.9554
▁excited	-11.9555
▁fadeth	-11.9556
▁signifying	-11.9556
▁threshing	-11.9556
▁blackness	-11.9556
▁passion	-11.9556
▁mash	-11.9556
▁Roo	-11.9556
▁wedding	-11.9557
▁sup	-11.9557
▁faithfulness	-11.9557
▁sport	-11.9557
▁balloonist	-11.9558
ubtle	-11.9558
▁trout	-11.9559
▁workman	-11.9561
▁costly	-11.9563
▁fisherm	-11.9565
▁surprised	-11.9566
▁bruised	-11.9566
▁source	-11.9567
▁consideration	-11.9568
▁...”	-11.9569
▁contention	-11.9571
▁affirmed	-11.9572
▁buffeted	-11.9572
▁embarrassed	-11.9572
▁Ash	-11.9573
llaba	-11.9573
▁chastened	-11.9573
▁killer	-11.9573
▁outwardly	-11.9574
ium	-11.9574
▁uprightly	-11.9574
▁childless	-11.9575
▁fishers	-11.9576
▁confusing	-11.9576
▁clu	-11.9578
quet	-11.9581
▁eleventh	-11.9581
avan	-11.9583
▁sale	-11.9583
▁pleasantly	-11.9585
▁peaceable	-11.9585
band	-11.9586
▁memorialize	-11.9586
▁stubb	-11.9588
▁defilement	-11.9589
▁slipped	-11.9592
▁purifie	-11.9593
stance	-11.9593
▁unp	-11.9593
chant	-11.9593
▁gat	-11.9594
▁strands	-11.9595
▁feathers	-11.9595
▁features	-11.9595
▁spoons	-11.9595
▁anchors	-11.9595
▁basons	-11.9595
▁deacons	-11.9595
ament	-11.9595
▁None	-11.9596
▁Certainly	-11.9597
▁purifying	-11.9598
▁bidd	-11.96
▁preserved	-11.9601
▁provoked	-11.9602
▁dipper	-11.9604
▁army	-11.9605
▁patiently	-11.9606
▁tame	-11.9606
▁reapeth	-11.9609
▁borrowed	-11.9611
quil	-11.9612
▁threatening	-11.9613
▁moveth	-11.9616
ball	-11.9616
▁outhouse	-11.9618
▁destroyer	-11.962
▁Timna	-11.9621
oic	-11.9625
▁ruleth	-11.9625
▁stirr	-11.9625
▁cree	-11.9628
▁Rest	-11.9628
hair	-11.963
▁syc	-11.963
▁pals	-11.963
▁conce	-11.9634
▁Jet	-11.9634
oming	-11.9635
▁impen	-11.9635
ffer	-11.9636
▁gnawing	-11.964
▁wounding	-11.964
▁elbows	-11.9642
▁psalms	-11.9642
▁senators	-11.9642
▁sorcerers	-11.9642
▁Levites	-11.9642
▁lawless	-11.9642
▁eagles	-11.9642
▁sections	-11.9642
▁boiled	-11.9647
▁Hunt	-11.9647
dry	-11.9651
RE	-11.9651
ndered	-11.9652
▁twisted	-11.9652
▁fleeth	-11.9656
▁Sp	-11.9657
ways	-11.9661
▁twisting	-11.9663
bbed	-11.9664
▁scraping	-11.9665
icated	-11.9666
▁brightly	-11.967
▁agate	-11.9673
▁Please	-11.9674
▁possessor	-11.9676
▁attained	-11.9676
▁locks	-11.9679
▁slime	-11.9683
▁har	-11.9684
▁remarks	-11.9686
▁keys	-11.9688
▁objects	-11.9689
▁Pat	-11.9689
▁fewer	-11.9689
▁debtors	-11.9689
▁vows	-11.9689
▁meaneth	-11.9689
▁envying	-11.969
▁deceivers	-11.9691
oth	-11.9695
▁lowly	-11.9697
▁actor	-11.9699
▁brawle	-11.9704
traightway	-11.9706
▁falsely	-11.9708
▁stored	-11.9711
▁scal	-11.9711
ical	-11.9717
▁traveled	-11.9729
▁understandeth	-11.9731
▁bats	-11.9732
▁Days	-11.9736
▁handfuls	-11.9736
▁heels	-11.9737
▁loads	-11.9738
▁doubled	-11.974
▁ruled	-11.9741
▁patt	-11.9743
▁tools	-11.9743
▁planning	-11.9745
▁sour	-11.9751
▁pleasing	-11.9759
Egg	-11.976
▁bloo	-11.976
▁test	-11.9765
▁favored	-11.9765
▁plowing	-11.9767
▁doubting	-11.9767
▁fetched	-11.9768
▁laughing	-11.9769
▁handled	-11.9771
▁lu	-11.9774
rops	-11.9774
omp	-11.9779
▁seemly	-11.9781
▁sepulchres	-11.9783
▁scraps	-11.9784
▁swinging	-11.9788
▁Saying	-11.9789
▁burdened	-11.979
▁pans	-11.979
▁fastings	-11.9792
uci	-11.9795
▁flowed	-11.9807
▁deserted	-11.9811
▁happening	-11.9815
▁hum	-11.9817
▁wing	-11.9825
▁salted	-11.9828
▁blades	-11.9831
▁tales	-11.9832
killet	-11.9833
bar	-11.9833
ress	-11.9834
▁goal	-11.9835
▁livers	-11.9836
▁harps	-11.9846
umming	-11.9858
▁rate	-11.9864
▁nails	-11.9874
▁ringing	-11.9877
▁folds	-11.9878
▁traditions	-11.9879
▁jell	-11.9886
▁piti	-11.9904
▁inwards	-11.9904
▁daze	-11.9905
▁beg	-11.9907
▁outward	-11.9913
▁banks	-11.9928
lick	-11.9929
MO	-11.9941
▁Za	-11.9945
▁chal	-11.9953
ja	-11.9967
▁guides	-11.9972
▁figures	-11.9976
▁earthquakes	-11.9976
▁healings	-11.9979
bra	-11.9993
sters	-12.001
lax	-12.001
aimed	-12.0018
▁chambers	-12.0025
▁lions	-12.0027
▁fightings	-12.0029
changers	-12.003
▁careth	-12.004
▁multiplying	-12.0052
▁wil	-12.0064
uts	-12.0071
▁threads	-12.0074
stern	-12.0085
▁oppose	-12.0086
▁translat	-12.009
▁pal	-12.0094
▁departing	-12.01
—-	-12.0111
▁adventure	-12.0116
▁cases	-12.0125
sia	-12.0125
▁traps	-12.013
imate	-12.0143
▁revelations	-12.0173
ause	-12.0178
▁happens	-12.0179
▁Sea	-12.0185
▁girdles	-12.0224
▁deserts	-12.0226
▁slic	-12.0238
▁Jan	-12.0252
esis	-12.0263
▁cabins	-12.0273
ittle	-12.029
cked	-12.0292
▁oaths	-12.0323
AN	-12.0328
▁Herm	-12.0338
▁fla	-12.034
players	-12.0343
▁buying	-12.0345
raise	-12.0367
▁tribulations	-12.0374
▁wail	-12.0394
ust	-12.0396
▁occasional	-12.0415
her	-12.0421
▁afflictions	-12.0426
▁labors	-12.0428
▁bre	-12.0468
put	-12.0469
eleph	-12.0472
▁begins	-12.0477
tines	-12.0478
stable	-12.0501
▁rightly	-12.0505
▁perfecting	-12.051
▁shove	-12.0511
▁snows	-12.0528
cent	-12.0565
▁ropes	-12.0575
▁bottles	-12.0579
▁needles	-12.0597
spir	-12.0599
▁states	-12.0631
▁Med	-12.0632
oned	-12.0633
▁talks	-12.0641
wist	-12.0677
▁fr	-12.0695
▁justif	-12.0699
ye	-12.0706
eady	-12.0712
▁socia	-12.0714
▁skinn	-12.0738
hes	-12.0747
▁practic	-12.0761
▁allow	-12.0789
ese	-12.0791
▁dr	-12.0824
▁chop	-12.0832
▁Gre	-12.0851
▁Gat	-12.0859
▁persuad	-12.0864
ok	-12.0901
▁admire	-12.0903
▁snatch	-12.0918
yst	-12.0929
par	-12.0993
ui	-12.0994
ocked	-12.1007
▁inch	-12.1061
▁reform	-12.1067
lag	-12.1088
▁measur	-12.1089
▁blu	-12.113
▁Almo	-12.1159
eeches	-12.1185
claimed	-12.1211
Isn	-12.1239
▁rou	-12.1265
▁struggl	-12.1268
▁Ab	-12.1269
▁din	-12.1271
▁mon	-12.1275
▁Sta	-12.1289
▁crackl	-12.1296
ial	-12.1314
▁sy	-12.1319
amped	-12.1326
cakes	-12.1346
rated	-12.1353
▁Pra	-12.1375
▁gaze	-12.1402
onster	-12.144
▁weari	-12.1506
▁Pen	-12.1515
ander	-12.1529
opping	-12.1559
allowed	-12.1592
▁pat	-12.1606
▁elevate	-12.163
▁protecti	-12.1648
▁trace	-12.1661
oking	-12.1711
bach	-12.1803
empti	-12.1812
▁ta	-12.1887
▁Command	-12.1929
ize	-12.194
▁Jac	-12.1943
▁waxe	-12.1958
uddle	-12.1996
▁loft	-12.2001
lids	-12.2034
ache	-12.209
▁companion	-12.2101
hai	-12.2317
▁commo	-12.2352
▁Holi	-12.2398
▁dine	-12.2508
▁Jer	-12.2516
han	-12.2601
▁Mexic	-12.2608
▁Hol	-12.2616
tting	-12.2616
▁rehearse	-12.267
acle	-12.2711
▁curv	-12.2718
shell	-12.276
night	-12.2777
▁pr	-12.2781
▁constraine	-12.2796
▁practice	-12.28
▁tast	-12.2822
▁sacr	-12.2828
ieth	-12.284
▁cru	-12.2912
▁bro	-12.2937
hew	-12.2965
oved	-12.3008
▁slice	-12.3009
mbled	-12.3043
▁Po	-12.3092
oc	-12.3158
igure	-12.3172
ud	-12.3174
tening	-12.3177
▁chok	-12.3182
▁cas	-12.3228
skinned	-12.3267
▁Any	-12.3277
▁distribut	-12.3332
vious	-12.336
asty	-12.3386
nah	-12.3404
▁crop	-12.3466
ano	-12.3472
loo	-12.3484
rity	-12.3548
congratu	-12.3555
ado	-12.3562
rench	-12.3572
awfully	-12.3592
▁dodge	-12.3595
▁port	-12.3623
▁strok	-12.3642
▁Amon	-12.3658
▁Sett	-12.3661
▁stripe	-12.3752
To	-12.3754
▁considerabl	-12.3758
ace	-12.3783
zens	-12.3791
ana	-12.3793
▁troubl	-12.3799
▁actual	-12.3817
▁spat	-12.383
▁chang	-12.3834
oiled	-12.3852
laus	-12.3854
roth	-12.3931
▁divid	-12.3947
rgeon	-12.3964
rable	-12.3983
eez	-12.4001
asped	-12.4019
▁bathe	-12.4027
ench	-12.4028
rie	-12.4048
pecul	-12.4092
ole	-12.4093
ower	-12.4094
hod	-12.4096
ER	-12.4114
inch	-12.4124
▁Sanct	-12.4129
obably	-12.4129
giver	-12.4144
▁gi	-12.4174
ivity	-12.4187
husks	-12.42
▁Ro	-12.4214
▁blo	-12.4242
came	-12.4243
E	-12.4248
TH	-12.4248
move	-12.4253
eeze	-12.4258
amia	-12.4268
▁slim	-12.4269
▁Step	-12.4281
plosive	-12.4281
▁ston	-12.4288
▁slap	-12.4289
wish	-12.4298
acked	-12.4314
AR	-12.4322
▁magn	-12.4328
▁convi	-12.433
minate	-12.4333
itable	-12.4336
mobil	-12.4345
▁impe	-12.4346
▁la	-12.4349
rooms	-12.436
ounding	-12.4373
icles	-12.4374
never	-12.4385
struction	-12.4388
▁wrap	-12.4395
bb	-12.4402
▁expens	-12.4402
▁arch	-12.4405
▁speci	-12.4407
▁spoon	-12.4408
▁deacon	-12.4408
▁feather	-12.4408
▁anchor	-12.4408
▁feature	-12.4409
▁rip	-12.4409
▁Tim	-12.441
▁excus	-12.4412
▁pillow	-12.4413
▁bason	-12.4413
▁slope	-12.4413
▁complain	-12.4414
▁physician	-12.4414
▁strand	-12.4415
▁idolater	-12.4416
▁warrior	-12.4416
▁claw	-12.442
▁tithe	-12.4422
▁locust	-12.4422
▁selve	-12.4422
nigh	-12.4424
▁robber	-12.4425
▁tran	-12.4428
▁tare	-12.4429
▁gallo	-12.443
hereabouts	-12.4431
▁thorn	-12.4433
atch	-12.4433
ator	-12.4436
▁hop	-12.4439
▁revile	-12.4441
Che	-12.4443
Ju	-12.4444
jected	-12.4445
▁contr	-12.4445
worm	-12.4445
wailed	-12.4446
▁sigh	-12.4447
lene	-12.4447
▁observ	-12.4448
Hurry	-12.445
draft	-12.445
ex	-12.445
Wash	-12.4451
continu	-12.4453
▁impla	-12.4456
source	-12.4457
nails	-12.4457
handled	-12.4457
pathetic	-12.4459
coal	-12.446
citizen	-12.446
stalk	-12.446
float	-12.4461
block	-12.4461
Summ	-12.4462
glasses	-12.4462
Never	-12.4463
upper	-12.4463
May	-12.4463
stedfast	-12.4463
gird	-12.4463
search	-12.4464
Watch	-12.4464
cloth	-12.4464
Henry	-12.4465
Seven	-12.4465
box	-12.4465
keeper	-12.4465
bond	-12.4465
shekel	-12.4465
mock	-12.4465
Perhaps	-12.4465
soldier	-12.4465
None	-12.4465
kindness	-12.4465
condemned	-12.4466
▁persecut	-12.4466
Homer	-12.4466
fields	-12.4466
shot	-12.4466
please	-12.4466
uncle	-12.4466
portion	-12.4466
witnesses	-12.4466
pleasure	-12.4466
bush	-12.4466
generation	-12.4467
coat	-12.4467
horse	-12.4467
spread	-12.4467
spoke	-12.4467
green	-12.4467
burnt	-12.4467
Give	-12.4467
Get	-12.4467
turned	-12.4467
With	-12.4467
wild	-12.4467
myself	-12.4467
Lurvy	-12.4467
ounted	-12.4467
perfect	-12.4467
▁pierc	-12.4467
bade	-12.4467
flies	-12.4467
Jesus	-12.4467
wheel	-12.4468
knowledge	-12.4468
hole	-12.4468
nothing	-12.4468
▁wag	-12.4469
ertainly	-12.447
serve	-12.447
▁reject	-12.447
hide	-12.4471
push	-12.4471
One	-12.4471
▁dismiss	-12.4471
bak	-12.4471
▁thresh	-12.4472
sail	-12.4472
▁foam	-12.4474
pans	-12.4474
▁whistl	-12.4474
▁gainsay	-12.4475
▁confound	-12.4476
▁hallow	-12.4476
Does	-12.4476
▁sid	-12.4476
▁signify	-12.4477
▁edify	-12.4477
whe	-12.4477
▁scra	-12.4478
▁vanish	-12.4478
▁kno	-12.4478
▁laborer	-12.4478
▁chuckl	-12.4479
▁exceed	-12.4479
Say	-12.448
▁sniff	-12.448
▁vex	-12.448
well	-12.448
▁repeat	-12.448
▁explain	-12.448
See	-12.448
▁grabb	-12.4481
▁ordain	-12.4481
Put	-12.4482
▁amaz	-12.4483
▁threat	-12.4483
oasty	-12.4484
Ti	-12.4485
Hey	-12.4487
road	-12.4489
sterday	-12.449
lead	-12.449
▁App	-12.4492
▁flam	-12.4493
▁plea	-12.4494
▁boot	-12.4494
Wa	-12.4498
▁kin	-12.4501
▁mingle	-12.4504
▁testifie	-12.4504
▁boar	-12.4504
▁create	-12.4504
seeing	-12.4505
run	-12.4508
▁similar	-12.4509
made	-12.4509
cious	-12.4511
oving	-12.4511
▁mul	-12.4511
▁drag	-12.4512
ocia	-12.4512
▁flourish	-12.4512
ecting	-12.4512
▁continual	-12.4512
▁genealog	-12.4512
▁sudden	-12.4513
ufficien	-12.4513
birds	-12.4513
▁reconcile	-12.4514
▁dizz	-12.4514
hould	-12.4514
▁filth	-12.4514
trong	-12.4514
▁choos	-12.4514
▁snar	-12.4515
▁twent	-12.4515
▁communicat	-12.4516
sparag	-12.4516
An	-12.4517
dad	-12.4518
▁distinct	-12.4519
ification	-12.4519
phos	-12.4519
▁Amra	-12.4519
angel	-12.4521
rink	-12.4521
▁import	-12.4521
iving	-12.4521
▁sandwich	-12.4521
▁merci	-12.4521
ctures	-12.4522
▁mosquito	-12.4522
olved	-12.4522
▁persuasi	-12.4522
▁Mattha	-12.4522
▁appro	-12.4522
aughter	-12.4522
epart	-12.4522
aradise	-12.4522
▁attract	-12.4523
▁habit	-12.4523
▁subtil	-12.4523
▁situat	-12.4523
▁Govern	-12.4523
tinct	-12.4523
polis	-12.4523
ecomposers	-12.4523
▁blackberr	-12.4523
estroy	-12.4523
agger	-12.4523
agles	-12.4523
ilbur	-12.4523
ntreat	-12.4523
xcellent	-12.4523
ontinue	-12.4523
ontrary	-12.4523
venture	-12.4523
▁pouch	-12.4523
▁gloom	-12.4523
urmur	-12.4523
attering	-12.4523
▁assist	-12.4523
istened	-12.4523
scending	-12.4523
▁abomina	-12.4523
neys	-12.4523
▁Apoll	-12.4524
▁succ	-12.4524
▁excel	-12.4524
Crunchy	-12.4524
▁Phoeni	-12.4524
▁bureau	-12.4524
▁immutab	-12.4524
gullible	-12.4524
significan	-12.4524
▁Areopag	-12.4524
▁Girgas	-12.4524
▁Lyc	-12.4524
▁Mattath	-12.4524
▁Supreme	-12.4524
▁Tavern	-12.4524
▁absolute	-12.4524
▁copper	-12.4524
▁disannul	-12.4524
▁evangelist	-12.4524
▁inconvenient	-12.4524
▁influen	-12.4524
▁mattress	-12.4524
▁oink	-12.4524
▁presumptuous	-12.4524
▁promptly	-12.4524
▁rapid	-12.4524
▁renounce	-12.4524
▁revelling	-12.4524
▁scourging	-12.4524
▁slog	-12.4524
▁sumptuous	-12.4524
▁surmis	-12.4524
▁thirteen	-12.4524
▁traitor	-12.4524
▁victual	-12.4524
Phoebe	-12.4524
Slowly	-12.4524
bulus	-12.4524
consequen	-12.4524
continency	-12.4524
ietly	-12.4524
ilacs	-12.4524
languish	-12.4524
petitions	-12.4524
roduction	-12.4524
ssip	-12.4524
xtort	-12.4524
zzards	-12.4524
zziel	-12.4524
▁Agabus	-12.4524
▁Amoz	-12.4524
▁Ancih	-12.4524
▁Antipa	-12.4524
▁Assyria	-12.4524
▁Baalzephon	-12.4524
▁Babel	-12.4524
▁Baptizer	-12.4524
▁Beautiful	-12.4524
▁Beroea	-12.4524
▁Birds	-12.4524
▁Bithynia	-12.4524
▁Carmi	-12.4524
▁Carolina	-12.4524
▁Carry	-12.4524
▁Circumcision	-12.4524
▁Cotton	-12.4524
▁Cowee	-12.4524
▁Crispus	-12.4524
▁Crucify	-12.4524
▁December	-12.4524
▁Dorcas	-12.4524
▁Ellasar	-12.4524
▁Epaphroditus	-12.4524
▁Florida	-12.4524
▁Flowers	-12.4524
▁Frankl	-12.4524
▁Fulfil	-12.4524
▁Gabriel	-12.4524
▁Gerasenes	-12.4524
▁Gershom	-12.4524
▁Gethsemane	-12.4524
▁Hirah	-12.4524
▁Increase	-12.4524
▁Izhar	-12.4524
▁Jehoshaphat	-12.4524
▁Jenny	-12.4524
▁Joanna	-12.4524
▁Jokshan	-12.4524
▁Joram	-12.4524
▁Lebanon	-12.4524
▁Locust	-12.4524
▁Lydda	-12.4524
▁Lydia	-12.4524
▁Matthias	-12.4524
▁Mehujael	-12.4524
▁Melchi	-12.4524
▁Methusael	-12.4524
▁Millipede	-12.4524
▁Mountain	-12.4524
▁Nimrod	-12.4524
▁Nineveh	-12.4524
▁Onesiphorus	-12.4524
▁Pergamum	-12.4524
▁Pisidia	-12.4524
▁Potomac	-12.4524
▁Prophesy	-12.4524
▁Publius	-12.4524
▁Rabboni	-12.4524
▁Radiant	-12.4524
▁Rahab	-12.4524
▁Rameses	-12.4524
▁Rephaims	-12.4524
▁Rufus	-12.4524
▁Sabaoth	-12.4524
▁Sacrifice	-12.4524
▁Salome	-12.4524
▁Search	-12.4524
▁Seba	-12.4524
▁Secret	-12.4524
▁Shaveh	-12.4524
▁Siloam	-12.4524
▁Smyrna	-12.4524
▁Sosthenes	-12.4524
▁Theophilus	-12.4524
▁Thessalonians	-12.4524
▁Tubalcain	-12.4524
▁Zachariah	-12.4524
▁Zerubbabel	-12.4524
▁accommodat	-12.4524
▁acorns	-12.4524
▁acquired	-12.4524
▁alcohol	-12.4524
▁ammunition	-12.4524
▁apothecary	-12.4524
▁appeti	-12.4524
▁appetizing	-12.4524
▁apprehend	-12.4524
▁armpits	-12.4524
▁arrested	-12.4524
▁artific	-12.4524
▁assault	-12.4524
▁assumption	-12.4524
▁beefsteak	-12.4524
▁bicycle	-12.4524
▁bison	-12.4524
▁bomb	-12.4524
▁boulder	-12.4524
▁bounc	-12.4524
▁brilliant	-12.4524
▁britches	-12.4524
▁burial	-12.4524
▁busybodies	-12.4524
▁calico	-12.4524
▁chryso	-12.4524
▁clamor	-12.4524
▁companies	-12.4524
▁compound	-12.4524
▁consist	-12.4524
▁conspiracy	-12.4524
▁convocation	-12.4524
▁craftsmen	-12.4524
▁crawfish	-12.4524
▁cumber	-12.4524
▁dazzling	-12.4524
▁delud	-12.4524
▁delusion	-12.4524
▁denarius	-12.4524
▁detail	-12.4524
▁dictionary	-12.4524
▁discarded	-12.4524
▁display	-12.4524
▁divorcement	-12.4524
▁doorframes	-12.4524
▁drool	-12.4524
▁effectual	-12.4524
▁elaborate	-12.4524
▁eloquent	-12.4524
▁emperor	-12.4524
▁erased	-12.4524
▁executi	-12.4524
▁experiment	-12.4524
▁fatfleshed	-12.4524
▁fathoms	-12.4524
▁forefather	-12.4524
▁foreknew	-12.4524
▁frail	-12.4524
▁fullgrown	-12.4524
▁fumbling	-12.4524
▁futile	-12.4524
▁garner	-12.4524
▁gleam	-12.4524
▁goddess	-12.4524
▁grisled	-12.4524
▁gulped	-12.4524
▁gunpowder	-12.4524
▁gutted	-12.4524
▁gutters	-12.4524
▁happie	-12.4524
▁huckleberries	-12.4524
▁humiliation	-12.4524
▁humility	-12.4524
▁implements	-12.4524
▁infield	-12.4524
▁ingathering	-12.4524
▁interlude	-12.4524
▁kinswoman	-12.4524
▁kneadingtroughs	-12.4524
▁lacing	-12.4524
▁lamentation	-12.4524
▁lantern	-12.4524
▁leisure	-12.4524
▁linked	-12.4524
▁lintel	-12.4524
▁magnificen	-12.4524
▁mankind	-12.4524
▁millipedes	-12.4524
▁moccasins	-12.4524
▁muzzle	-12.4524
▁napkin	-12.4524
▁necktie	-12.4524
▁negotiat	-12.4524
▁nerve	-12.4524
▁nipple	-12.4524
▁oysters	-12.4524
▁pellets	-12.4524
▁penknife	-12.4524
▁phoe	-12.4524
▁pollut	-12.4524
▁popcorn	-12.4524
▁popover	-12.4524
▁portrait	-12.4524
▁preeminence	-12.4524
▁prejudice	-12.4524
▁preparing	-12.4524
▁provocation	-12.4524
▁rabble	-12.4524
▁religious	-12.4524
▁repair	-12.4524
▁restraineth	-12.4524
▁ribbon	-12.4524
▁ridiculous	-12.4524
▁scru	-12.4524
▁scruples	-12.4524
▁skelet	-12.4524
▁slamm	-12.4524
▁slothful	-12.4524
▁smiling	-12.4524
▁sobriety	-12.4524
▁soothsay	-12.4524
▁sorceries	-12.4524
▁sorcery	-12.4524
▁spark	-12.4524
▁squeal	-12.4524
▁stimulate	-12.4524
▁subdue	-12.4524
▁suffice	-12.4524
▁supreme	-12.4524
▁surpass	-12.4524
▁survival	-12.4524
▁terrestrial	-12.4524
▁theoretical	-12.4524
▁thereafter	-12.4524
▁thistledown	-12.4524
▁timbrel	-12.4524
▁traffic	-12.4524
▁trample	-12.4524
▁tremen	-12.4524
▁trinket	-12.4524
▁turnips	-12.4524
▁twelfth	-12.4524
▁twirl	-12.4524
▁unaccountabl	-12.4524
▁unfair	-12.4524
▁unruly	-12.4524
▁unsettle	-12.4524
▁unthankful	-12.4524
▁unwashen	-12.4524
▁vesture	-12.4524
▁vicinity	-12.4524
▁victim	-12.4524
▁walnut	-12.4524
▁watermelon	-12.4524
▁whippoorwill	-12.4524
▁woodpile	-12.4524
▁zero	-12.4524
▁alarm	-12.4524
▁mask	-12.4524
acinth	-12.4524
shrunk	-12.4524
▁Death	-12.4524
▁Friday	-12.4524
▁Lie	-12.4524
▁Malch	-12.4524
▁Mississippi	-12.4524
▁Nico	-12.4524
▁Pontiac	-12.4524
▁advise	-12.4524
▁altercat	-12.4524
▁applaud	-12.4524
▁cigarette	-12.4524
▁clutter	-12.4524
▁drowned	-12.4524
▁expanse	-12.4524
▁gabbl	-12.4524
▁lilies	-12.4524
▁mudflat	-12.4524
▁narrat	-12.4524
▁option	-12.4524
▁pastille	-12.4524
▁porcupine	-12.4524
▁problem	-12.4524
▁snuffdishes	-12.4524
▁stompground	-12.4524
▁stroll	-12.4524
▁whicker	-12.4524
olog	-12.4524
ummim	-12.4524
zzling	-12.4524
▁Ponti	-12.4524
▁clown	-12.4524
▁copy	-12.4524
▁crafty	-12.4524
▁enact	-12.4524
▁flags	-12.4524
▁lamented	-12.4524
▁nursing	-12.4524
▁plaster	-12.4524
▁terms	-12.4524
▁wobbl	-12.4524
mphas	-12.4524
▁Towers	-12.4524
▁butterfly	-12.4524
▁circuit	-12.4524
▁defende	-12.4524
▁expert	-12.4524
▁garnish	-12.4524
▁ignore	-12.4524
▁overflow	-12.4524
▁rescue	-12.4524
▁smack	-12.4524
▁suspicio	-12.4524
hawk	-12.4524
▁Baal	-12.4524
▁Galeed	-12.4524
▁aloft	-12.4524
▁calculat	-12.4524
▁eaves	-12.4524
▁fragran	-12.4524
▁lungs	-12.4524
▁Sabt	-12.4524
▁glid	-12.4524
▁peaks	-12.4524
▁Dalma	-12.4524
▁basketfuls	-12.4524
▁daddy	-12.4524
▁hobbl	-12.4524
▁balance	-12.4524
▁chicks	-12.4524
▁purification	-12.4524
▁waistcoat	-12.4524
▁cigar	-12.4524
▁glare	-12.4524
▁initial	-12.4524
▁opus	-12.4524
▁slats	-12.4524
▁superlative	-12.4524
spouts	-12.4524
▁approached	-12.4524
▁assessment	-12.4524
▁associat	-12.4524
▁globe	-12.4524
▁loathe	-12.4524
▁rude	-12.4524
▁runneth	-12.4524
versatile	-12.4524
▁Bigfish	-12.4524
▁coco	-12.4524
▁filthiness	-12.4524
▁salon	-12.4524
▁beho	-12.4524
▁councillor	-12.4524
▁grandson	-12.4524
▁hazard	-12.4524
▁lumber	-12.4524
▁peek	-12.4524
▁rigour	-12.4524
▁steer	-12.4524
▁numer	-12.4524
▁persistent	-12.4524
▁ivy	-12.4524
▁Josiah	-12.4524
pproximately	-12.4524
▁ambassage	-12.4524
▁balm	-12.4524
▁eventide	-12.4524
▁sentiment	-12.4524
▁North	-12.4524
▁caution	-12.4524
▁cinder	-12.4524
▁dragline	-12.4524
▁mir	-12.4524
▁Raamah	-12.4524
▁broom	-12.4524
▁stanched	-12.4524
▁crock	-12.4524
▁superfluity	-12.4524
voca	-12.4524
▁welfare	-12.4524
horus	-12.4524
▁cautiously	-12.4524
▁divinity	-12.4524
▁pride	-12.4524
▁enchant	-12.4524
▁Doctor	-12.4524
▁precede	-12.4524
▁stupor	-12.4524
▁Corinthians	-12.4524
sabba	-12.4524
▁babblings	-12.4524
arsely	-12.4524
▁June	-12.4524
▁barber	-12.4524
▁local	-12.4524
▁esp	-12.4524
▁reclin	-12.4524
▁bacteria	-12.4524
assover	-12.4524
▁ginger	-12.4524
▁leasing	-12.4524
▁befitting	-12.4524
▁pills	-12.4524
▁usury	-12.4524
▁furious	-12.4524
▁beaver	-12.4524
▁morals	-12.4524
▁univers	-12.4524
▁Febr	-12.4524
▁compare	-12.4524
▁dignities	-12.4524
▁trump	-12.4524
▁noisy	-12.4524
▁bob	-12.4524
▁guiltless	-12.4524
▁Bridge	-12.4524
▁billows	-12.4524
▁outfit	-12.4524
▁pulse	-12.4524
▁Gaza	-12.4524
▁fuss	-12.4524
substan	-12.4524
▁exhal	-12.4524
▁exploded	-12.4524
▁whale	-12.4524
▁Salem	-12.4524
▁drum	-12.4524
▁Mizraim	-12.4524
▁gallery	-12.4524
▁manger	-12.4524
▁gloomily	-12.4524
▁vaunt	-12.4524
▁Calah	-12.4524
▁acquaintance	-12.4524
▁allotted	-12.4524
iggled	-12.4524
▁flake	-12.4524
▁Spring	-12.4524
▁Zuck	-12.4524
▁droop	-12.4524
▁travers	-12.4524
▁enrolment	-12.4524
▁mower	-12.4524
▁kidding	-12.4524
▁chaise	-12.4524
▁Owl	-12.4524
ndron	-12.4524
▁enforc	-12.4524
▁partiality	-12.4524
NK	-12.4524
raggle	-12.4524
▁Rai	-12.4524
Nice	-12.4524
ausage	-12.4524
▁Claudius	-12.4524
▁Julius	-12.4524
▁welder	-12.4524
▁clash	-12.4524
▁mineral	-12.4524
▁Lud	-12.4524
▁policeman	-12.4524
tude	-12.4525
▁suet	-12.4525
▁spoonful	-12.4525
▁tube	-12.4525
▁Javan	-12.4525
▁Rhod	-12.4525
▁sift	-12.4525
▁streak	-12.4525
▁Cover	-12.4525
▁Tert	-12.4525
▁rhythmic	-12.4525
▁whittl	-12.4525
azin	-12.4525
▁legitima	-12.4525
▁stingy	-12.4525
▁subtilty	-12.4525
▁grove	-12.4525
▁motor	-12.4525
▁primar	-12.4525
▁loyal	-12.4525
▁poet	-12.4525
Meeting	-12.4525
▁edified	-12.4525
▁battle	-12.4525
▁shins	-12.4525
▁factious	-12.4525
▁concourse	-12.4525
▁hoot	-12.4525
▁earshot	-12.4525
▁Zac	-12.4525
eyond	-12.4525
▁Padanaram	-12.4525
▁Elisha	-12.4525
▁oilcloth	-12.4525
▁belonged	-12.4525
▁decade	-12.4525
▁anti	-12.4525
▁Naaman	-12.4525
▁Job	-12.4525
▁Poor	-12.4525
▁Dead	-12.4525
▁severity	-12.4525
▁Break	-12.4525
▁Kid	-12.4525
osity	-12.4525
▁railhead	-12.4525
▁Jeze	-12.4525
▁hencefor	-12.4525
▁leak	-12.4525
▁blunt	-12.4525
▁detest	-12.4525
▁embroiderer	-12.4525
▁sheath	-12.4526
▁suggestions	-12.4526
▁rick	-12.4526
siah	-12.4526
▁flute	-12.4526
▁groundhog	-12.4526
▁persuasive	-12.4526
▁foreship	-12.4526
▁scold	-12.4526
urvey	-12.4526
▁Massa	-12.4526
▁ancest	-12.4526
▁Beersheba	-12.4526
▁Edomites	-12.4526
▁thankfulness	-12.4526
▁trench	-12.4526
▁meditation	-12.4526
▁drear	-12.4526
▁sandwiches	-12.4526
▁tripod	-12.4526
▁instant	-12.4526
▁wavering	-12.4526
▁ownership	-12.4526
bula	-12.4526
▁Teach	-12.4526
▁speedily	-12.4526
▁shattered	-12.4526
▁grid	-12.4526
▁removal	-12.4526
▁Hermon	-12.4526
▁justifieth	-12.4526
ooper	-12.4527
enser	-12.4527
▁Irad	-12.4527
AT	-12.4527
odily	-12.4527
▁rig	-12.4527
▁missionar	-12.4527
▁expression	-12.4527
▁recall	-12.4527
▁horseback	-12.4527
▁cruelty	-12.4527
▁puddle	-12.4527
▁Merc	-12.4527
▁mites	-12.4527
▁tackl	-12.4527
jah	-12.4527
▁buff	-12.4527
▁Hori	-12.4527
cian	-12.4527
▁cookery	-12.4527
▁spectac	-12.4527
▁riotous	-12.4527
naim	-12.4527
▁stew	-12.4527
▁variance	-12.4527
▁wariness	-12.4527
▁beget	-12.4527
churn	-12.4528
▁risk	-12.4528
lets	-12.4528
actic	-12.4528
▁Kir	-12.4528
▁Hog	-12.4528
col	-12.4528
Easy	-12.4528
▁confirmation	-12.4528
▁unholy	-12.4528
▁unseemly	-12.4528
▁policy	-12.4528
cade	-12.4528
▁pomp	-12.4528
▁encourage	-12.4528
hites	-12.4528
▁calam	-12.4528
▁mush	-12.4528
▁alternate	-12.4528
▁Matthan	-12.4528
▁Beriah	-12.4528
▁wakeful	-12.4528
guiltiness	-12.4528
▁fuck	-12.4528
▁skirmish	-12.4528
▁gig	-12.4528
apolis	-12.4528
▁bump	-12.4528
escend	-12.4528
▁piss	-12.4528
▁magical	-12.4529
▁wavered	-12.4529
▁Aram	-12.4529
▁theatre	-12.4529
▁transit	-12.4529
▁Kar	-12.4529
▁Bow	-12.4529
▁doubleminded	-12.4529
▁bondmen	-12.4529
▁sparingly	-12.4529
▁history	-12.4529
▁politely	-12.4529
▁stinging	-12.4529
erceive	-12.4529
▁axle	-12.4529
▁suppertime	-12.4529
▁parings	-12.4529
▁thunderings	-12.4529
▁haircut	-12.4529
▁wrongfully	-12.4529
controlled	-12.4529
abies	-12.453
▁roadway	-12.453
▁grand	-12.453
egion	-12.453
▁Tryph	-12.453
▁hitherto	-12.453
▁partial	-12.453
▁Hadar	-12.4531
▁chaste	-12.4531
▁alongside	-12.4531
▁active	-12.4531
▁rocket	-12.4531
▁boyhood	-12.4531
bber	-12.4531
▁Night	-12.4531
riah	-12.4531
ddling	-12.4531
▁morter	-12.4531
eously	-12.4532
▁hump	-12.4532
ccent	-12.4532
▁gentleness	-12.4532
uda	-12.4532
xa	-12.4532
▁impu	-12.4532
▁acceptation	-12.4532
▁mockers	-12.4532
gage	-12.4532
▁rill	-12.4533
▁collapsed	-12.4533
▁disbelieved	-12.4533
▁wrinkled	-12.4533
▁fume	-12.4533
▁Onesi	-12.4533
▁Jah	-12.4533
▁attachment	-12.4533
crat	-12.4534
▁fitting	-12.4534
ilver	-12.4534
▁thankful	-12.4534
planted	-12.4534
▁Crow	-12.4534
▁cling	-12.4534
▁identi	-12.4535
▁attraction	-12.4535
▁shaven	-12.4535
▁genealogy	-12.4535
▁china	-12.4535
▁tighten	-12.4535
▁mire	-12.4535
▁honest	-12.4535
▁lam	-12.4535
▁Gomer	-12.4536
▁gorgeous	-12.4536
▁fearfulness	-12.4536
agic	-12.4536
▁omen	-12.4536
▁surre	-12.4536
▁agent	-12.4536
▁Tab	-12.4536
▁seduc	-12.4536
▁Shim	-12.4536
nnels	-12.4537
▁homeland	-12.4537
▁tablets	-12.4537
▁approvedness	-12.4537
▁earnestness	-12.4537
▁ditch	-12.4538
▁flourisheth	-12.4538
▁similarly	-12.4538
▁crunch	-12.4538
▁Obe	-12.4538
▁soberness	-12.4539
cientist	-12.4539
bia	-12.4539
▁lum	-12.4539
▁promi	-12.4539
▁crust	-12.454
ioch	-12.454
arden	-12.454
retty	-12.454
▁freeman	-12.454
▁normal	-12.4541
▁bedtime	-12.4541
rged	-12.4541
▁foes	-12.4541
▁pew	-12.4541
▁stru	-12.4541
▁dreamily	-12.4541
▁thump	-12.4542
▁wealth	-12.4542
▁backbone	-12.4542
▁Ken	-12.4542
▁butchered	-12.4543
▁embalmed	-12.4543
▁graduated	-12.4543
▁hesitated	-12.4543
▁yawned	-12.4543
▁Fight	-12.4543
▁underwear	-12.4543
▁sym	-12.4544
▁select	-12.4544
▁station	-12.4544
bsolution	-12.4545
▁memor	-12.4545
▁decaying	-12.4545
Goodness	-12.4545
▁laughter	-12.4545
▁chast	-12.4545
▁gloriest	-12.4545
▁--	-12.4547
pilled	-12.4547
▁chasteneth	-12.4547
▁ledge	-12.4547
▁cobbler	-12.4547
▁Near	-12.4548
▁delicately	-12.4548
▁meekly	-12.4548
▁flapped	-12.4548
▁incl	-12.4548
▁Mish	-12.4548
▁Apple	-12.4548
▁swamp	-12.4549
▁Jann	-12.4549
▁cult	-12.4549
path	-12.455
▁acquaint	-12.455
▁blaze	-12.4551
▁ordinary	-12.4551
▁wreck	-12.4551
▁familiar	-12.4551
▁tailor	-12.4551
▁lesson	-12.4551
▁scene	-12.4552
▁Majest	-12.4552
▁dealings	-12.4552
▁ramp	-12.4553
xi	-12.4553
▁firelight	-12.4554
amous	-12.4554
▁scabb	-12.4554
▁Elim	-12.4554
▁withdrawn	-12.4554
▁Mib	-12.4554
▁worshippeth	-12.4555
orci	-12.4555
key	-12.4556
Are	-12.4556
▁cure	-12.4556
allel	-12.4556
affl	-12.4557
anim	-12.4557
▁watchful	-12.4557
▁generally	-12.4557
ighteous	-12.4558
▁Alexandrian	-12.4559
▁scour	-12.4559
▁ruff	-12.456
▁reconcil	-12.456
▁joyfully	-12.456
blossom	-12.456
oose	-12.4561
▁striker	-12.4563
burger	-12.4563
▁unbeliever	-12.4563
educ	-12.4564
▁Wind	-12.4564
▁Slug	-12.4564
▁perfection	-12.4564
▁haul	-12.4565
▁sunris	-12.4566
▁bored	-12.4567
yway	-12.4567
▁dresses	-12.4567
▁plane	-12.4567
▁unity	-12.4567
▁frolic	-12.4568
▁na	-12.4568
▁dries	-12.4568
oon	-12.4569
▁carcase	-12.4569
▁thereupon	-12.457
Avery	-12.457
▁Mana	-12.4571
▁copies	-12.4571
▁palaces	-12.4571
▁centipedes	-12.4571
▁endeavors	-12.4571
▁grasshoppers	-12.4571
▁politics	-12.4571
▁proselytes	-12.4571
▁symbols	-12.4571
▁decrease	-12.4571
▁rambl	-12.4571
▁speeches	-12.4572
▁witch	-12.4572
▁meta	-12.4574
▁scattereth	-12.4575
▁assuredly	-12.4576
▁gloriously	-12.4576
rban	-12.4577
▁Boy	-12.4577
▁dismissed	-12.4577
▁lackest	-12.4577
▁complained	-12.4577
▁handsome	-12.4577
▁bewitch	-12.4577
▁Jay	-12.4579
luc	-12.4579
▁lightening	-12.458
esture	-12.4581
anging	-12.4581
▁foaming	-12.4581
▁baptizeth	-12.4581
▁complaining	-12.4582
kick	-12.4582
▁penny	-12.4583
▁overboard	-12.4586
▁project	-12.4586
evolution	-12.4587
▁Had	-12.4587
▁reviler	-12.4588
hepherd	-12.4589
▁plum	-12.4591
▁Rhe	-12.4591
▁mouthful	-12.4591
▁mom	-12.4592
tant	-12.4593
▁pyr	-12.4594
▁faileth	-12.4594
▁Joy	-12.4594
▁bo	-12.4595
▁becomingly	-12.4595
▁cau	-12.4595
rubs	-12.4596
destr	-12.4597
▁constant	-12.4597
▁pathetic	-12.4598
▁draft	-12.4598
▁quench	-12.4599
▁heartily	-12.46
▁Hurry	-12.4601
arvel	-12.4601
willing	-12.4601
▁contem	-12.4602
▁TH	-12.4604
▁Wash	-12.4605
▁wedge	-12.4605
▁earlie	-12.4605
quality	-12.4608
▁Gi	-12.4608
▁Ze	-12.4611
▁encountered	-12.4611
▁licked	-12.4611
▁lightened	-12.4612
▁Help	-12.4612
▁dar	-12.4613
▁splash	-12.4613
▁abhorre	-12.4615
▁shorter	-12.4616
ripe	-12.4616
composed	-12.4617
▁brightest	-12.4618
▁operating	-12.4619
▁thereabout	-12.462
▁lighten	-12.462
▁mansion	-12.4623
▁nicely	-12.4624
▁catcher	-12.4624
▁spy	-12.4624
olent	-12.4626
▁Phu	-12.4628
▁summ	-12.463
▁ruin	-12.4631
▁archer	-12.4631
▁excused	-12.4634
▁meowing	-12.4636
▁tract	-12.4637
lunchtime	-12.4637
▁compl	-12.4637
jack	-12.4638
▁fastness	-12.4639
ouching	-12.4639
lunta	-12.464
aa	-12.464
▁remarked	-12.4645
▁vowed	-12.4648
▁expense	-12.4648
▁Aren	-12.4648
▁hangeth	-12.465
▁ev	-12.4652
▁proudly	-12.4653
▁readest	-12.4653
▁stare	-12.4656
▁flashing	-12.4656
▁legion	-12.4656
mmon	-12.4656
▁despairing	-12.4657
▁inventing	-12.4657
▁sadly	-12.4658
▁Ach	-12.4659
nything	-12.4663
▁someday	-12.4666
▁admoni	-12.4667
▁graze	-12.467
non	-12.4671
▁uncover	-12.4673
▁Beor	-12.4674
▁awaked	-12.4679
▁warmer	-12.4679
▁outright	-12.4681
ymen	-12.4681
▁weakling	-12.4685
▁Bart	-12.4692
▁knocking	-12.4695
▁sling	-12.4697
mely	-12.4699
▁gear	-12.47
▁wickedly	-12.4701
arly	-12.4705
Alon	-12.4708
ffed	-12.4709
▁nast	-12.471
▁consol	-12.471
▁ballplayer	-12.4713
▁rattler	-12.4714
▁Phil	-12.4715
▁included	-12.4716
determin	-12.472
met	-12.4725
▁faster	-12.4728
▁decomposed	-12.4729
▁aboundeth	-12.4733
gation	-12.4734
▁dissipat	-12.4736
▁dispos	-12.4736
▁secretly	-12.474
TER	-12.4741
▁cries	-12.4742
uled	-12.4758
▁onions	-12.4761
▁repenteth	-12.477
▁departeth	-12.4773
▁sorely	-12.4778
▁reigneth	-12.4779
gen	-12.479
orehouses	-12.4796
▁Ked	-12.48
▁blasphemer	-12.48
▁grassy	-12.4801
▁sel	-12.4812
▁lawfully	-12.4814
▁weeds	-12.4853
attered	-12.4879
▁husk	-12.4886
▁fou	-12.4892
▁signal	-12.4906
▁dre	-12.4906
▁rouse	-12.4912
ughing	-12.4918
▁vig	-12.4918
fied	-12.4924
▁preferr	-12.4925
▁Arch	-12.4933
crackers	-12.4938
ssing	-12.4942
▁activit	-12.4951
▁Abia	-12.4959
attle	-12.4973
▁enjoin	-12.4982
▁twister	-12.4985
ulation	-12.4994
mping	-12.4994
▁kne	-12.5008
▁clapp	-12.5018
hopping	-12.5022
▁Hada	-12.5042
▁retain	-12.505
▁popula	-12.505
▁Shil	-12.5078
▁seedling	-12.5092
chem	-12.5097
▁Pau	-12.5128
cking	-12.515
tura	-12.5164
vity	-12.5174
year	-12.519
ngular	-12.5233
▁che	-12.524
arcel	-12.5268
▁dism	-12.5274
▁radian	-12.5288
▁attendan	-12.5303
nstead	-12.531
▁resu	-12.5377
porter	-12.539
▁Spid	-12.5397
shearer	-12.543
▁sanctifie	-12.5436
▁cu	-12.5447
▁grad	-12.5451
▁lengthen	-12.5515
witch	-12.5523
udg	-12.5531
▁blur	-12.5533
▁miser	-12.5569
▁weaken	-12.5577
La	-12.5587
gratulation	-12.5593
ope	-12.5598
rake	-12.56
▁mini	-12.5634
▁distresse	-12.564
fallen	-12.5666
ork	-12.567
consider	-12.5672
tac	-12.5686
nybody	-12.5725
clusive	-12.5756
▁agenc	-12.5772
verse	-12.5851
balanc	-12.5851
▁trou	-12.5853
AB	-12.5901
▁Mesh	-12.5906
cial	-12.5915
had	-12.5916
lative	-12.6018
▁finishe	-12.6023
twee	-12.605
resident	-12.6056
▁Mar	-12.6058
ailing	-12.6118
umbled	-12.6239
▁Alva	-12.627
ency	-12.6316
each	-12.6343
▁non	-12.6375
▁gar	-12.6395
▁quali	-12.6431
gin	-12.6457
▁watche	-12.6479
rich	-12.6507
G	-13.4427
D	-13.4468
Z	-13.447
q	-14.7896
“	-14.7897
J	-14.7898
