{
  "src_word2id": {
    "<pad>": 0,
    "<s>": 1,
    "</s>": 2,
    "<unk>": 3,
    ",": 4,
    ".": 5,
    "\u2581\u13a0\u13b4": 6,
    "\u2581\u13be\u13cd\u13a9": 7,
    ";": 8,
    "\u13c3": 9,
    "\u2581\u13af\u13a0": 10,
    "\u2581\u13a8\u13d2": 11,
    "\u2581": 12,
    "\u13a2": 13,
    "\u2581\u13a5\u13dd": 14,
    "\u2581\u13a8\u13d2\u13a2": 15,
    "\u13f0\u13c3": 16,
    "\u13a9": 17,
    "?": 18,
    "\u2581\u13a8\u13ce\u13cd\u13d7": 19,
    "\u2581\u13a4\u13c1\u13b3\u13c5\u13af": 20,
    "\u2581\u13a4": 21,
    "\u2581\u13c3\u13b4": 22,
    "\u13d7": 23,
    "\u2581\u13a0": 24,
    "\u2581\u13f4\u13eb": 25,
    "\u13c9": 26,
    "\u13af": 27,
    "\u2581\u13a9\u13b6": 28,
    "\u2581\u13a2\u13f3\u13cd\u13d7": 29,
    "\u2581\u13be\u13cd\u13c9": 30,
    "\u13ad": 31,
    "\u2581\u13be": 32,
    "\u2581\u13be\u13bf": 33,
    "\u2581\u13be\u13cd\u13a9\u13ef": 34,
    "\u2060": 35,
    "\u2581\u13a0\u13ce\u13c3": 36,
    "\u2581\u13a0\u13f4": 37,
    "\u2581\u13f1\u13a9": 38,
    "\u2581\u13a2\u13a6": 39,
    "\u2581\u13aa\u13b1\u13cd\u13d7": 40,
    "\u2581\u13e5\u13a9": 41,
    "-": 42,
    "\u2581\u13f1\u13b0\u13e9": 43,
    "\u2581\u13c2\u13a6\u13db": 44,
    "\u2581\u13c2\u13af": 45,
    "\u13be": 46,
    "\u2581\u13a4\u13ac\u13eb\u13f3\u13af": 47,
    "\u2581\u13c2\u13a8\u13d2\u13be": 48,
    "\u2581\u13e5\u13cc": 49,
    "\u13f1": 50,
    "\u13db": 51,
    "\u13cd\u13d7": 52,
    "\u2581\u201c": 53,
    "\u13cd\u13a9\u13c2": 54,
    "\u13d3": 55,
    "\u2581\u13e7": 56,
    "\u2581\u13a3\u13cd\u13db": 57,
    "\u2581\u13af\u13a0\u13c3": 58,
    "\u2581\u13d7": 59,
    "\u2581\u13a4\u13ea\u13e5": 60,
    "\u2581\u13a2\u13f3\u13c3": 61,
    "\u2581\u13be\u13cd\u13a9\u13c3": 62,
    "\u2581\u13e7\u13ea\u13e5": 63,
    "\u2581\u13a6\u13b6\u13c1\u13db": 64,
    "\u2581\u13e5": 65,
    "\u2581\u13a0\u13c2": 66,
    "\u13a6": 67,
    "\u2581\u13c4\u13ea\u13ce\u13a2": 68,
    "\u2581\u13de\u13cd\u13d7": 69,
    "\u2581\u13bf\u13c9": 70,
    "\u2581\u13a1\u13b6\u13af": 71,
    "\u2581\u13a8\u13cd\u13d7": 72,
    "\u2581\u13e3": 73,
    "\u2581\u13bf\u13c9\u13c3": 74,
    "\u2581\u13a4\u13f2": 75,
    "\u2581\u13da": 76,
    "\u13c5": 77,
    "\u2581\u13a6\u13d9": 78,
    "\u2581\u13a4\u13db\u13c1": 79,
    "\u2581\u13a4\u13e3\u13d8": 80,
    "\u2581\u13f1": 81,
    "\u2581\u13a0\u13cd\u13a6\u13ef": 82,
    "\u13c2": 83,
    "\u2581\u13a0\u13e5\u13b8": 84,
    "\u2581\u201d": 85,
    "\u2581\u13eb\u13b5\u13bb": 86,
    ",\u201d": 87,
    "\u2581\u13be\u13af\u13f3": 88,
    "\u2581\u13c2\u13a6\u13a5": 89,
    "\u2581\u13ac\u13c2\u13a8\u13d2": 90,
    "\u2581\u13a0\u13b9": 91,
    "\u2581\u13a6\u13b8\u13c9\u13d7\u13f3": 92,
    "\u2581\u13ac\u13c2\u13f3\u13c9": 93,
    "\u2581\u13c4\u13cd\u13db": 94,
    "\u13b8": 95,
    "\u2581\u13a1\u13af": 96,
    "\u2581\u13a6\u13b8\u13b3\u13d7": 97,
    "\u2581\u13a7\u13c3\u13ae\u13db": 98,
    "\u2581\u13a0\u13c1\u13af": 99,
    "\u2581\u13a4\u13e9\u13d2": 100,
    "\u2581\u13a0\u13f0\u13b5": 101,
    "\u13a8": 102,
    "\u2581\u13a0\u13d5\u13b8": 103,
    "\u13cf": 104,
    "\u2581\u13a4\u13e4\u13b5": 105,
    "\u2581\u13a8\u13ce\u13a2": 106,
    "\u13b5": 107,
    "\u2581\u13a0\u13ce": 108,
    "\u2581\u13a4\u13c2": 109,
    "\u2581\u13cc\u13c9": 110,
    "\u2581\u13f0\u13b5": 111,
    "\u2581\u13a4\u13e4\u13b5\u13a6": 112,
    "\u2581\u13a2\u13e3": 113,
    "\u2581\u13a2\u13f4\u13db": 114,
    "\u2581\u13aa\u13af": 115,
    "\u13d7\u13f1": 116,
    "\u13d2": 117,
    "\u13b4": 118,
    "\u2581\u13d3": 119,
    "\u13f3": 120,
    "\u2581\u13a6\u13d9\u13af": 121,
    "\u2581\u13d4\u13b5": 122,
    "\u2581\u13a4\u13cd\u13d7": 123,
    "\u2581\u13be\u13c2\u13a5": 124,
    "\u2581\u13a2": 125,
    "\u2581\u13a3\u13cf\u13f3": 126,
    "\u13b2": 127,
    "\u2581\u13a4\u13df": 128,
    "\u13a0": 129,
    "\u2581\u13af": 130,
    "\u2581\u13a2\u13cf\u13b5": 131,
    "\u2581\u13a3\u13cd\u13d3": 132,
    "\u13cd\u13aa": 133,
    "\u2581[": 134,
    "\u2581\u13d7\u13a7\u13bf\u13e9\u13db\u13cd\u13d7": 135,
    "\u2581\u13a6": 136,
    "\u2581\u13a0\u13d3\u13c5\u13d9": 137,
    "\u2581\u13a0\u13c2\u13cd\u13a6\u13ef": 138,
    "\u2581\u13a8\u13ce": 139,
    "\u2581\u13d4\u13b5\u13c1": 140,
    "\u2581\u13a2\u13e5\u13c8\u13f1": 141,
    ".\u201d": 142,
    "\u13cd\u13a9": 143,
    "\u13aa": 144,
    "\u2581\u13ac\u13e9": 145,
    "\u2581\u13bc\u13cf": 146,
    "\u2581\u13a2\u13f3": 147,
    "\u2581\u13a2\u13ac\u13f1": 148,
    "\u2581\u13a8\u13d2\u13a9": 149,
    "\u2581\u2060": 150,
    "\u13ac": 151,
    "\u2581\u13a1\u13b3\u13d7": 152,
    "!": 153,
    "\u2581\u13da\u13f3\u13aa\u13db": 154,
    "\u2581\u13e9\u13a6": 155,
    "\u2581\u13e4\u13a6\u13c8": 156,
    "\u2581\u13f3": 157,
    "\u2581\u13a0\u13eb": 158,
    "]": 159,
    "\u2581\u13a4\u13c2\u13e3\u13d8": 160,
    "\u13c1": 161,
    "\u13a8\u13cd\u13d7": 162,
    "\u2581\u13a4\u13be": 163,
    "\u2581\u13a1\u13c6\u13ad\u13bb": 164,
    "\u2581\u13a2\u13f3\u13b5\u13cd\u13d9\u13d7\u13f1": 165,
    "\u13d9\u13d7": 166,
    "\u13ef": 167,
    "\u2581\u13a6\u13d9\u13c3": 168,
    ":": 169,
    "\u13cd": 170,
    "\u2581\u13a2\u13d7\u13e2": 171,
    "\u2581\u13cf\u13c6": 172,
    "\u2581\u13c7\u13b5\u13f2": 173,
    "\u2581\u13be\u13a5": 174,
    "\u2581\u13f2\u13be": 175,
    "\u2581\u13eb": 176,
    "\u2581\u13a0\u13a8\u13f4": 177,
    "\u2581\u13ac\u13d7": 178,
    "\u2581\u13e6\u13e9": 179,
    "\u2581\u13a0\u13cf": 180,
    "\u2581\u13cc\u13b3\u13d3": 181,
    "\u2581\u13c5\u13a9": 182,
    "\u2581\u13e6\u13a2": 183,
    "\u2581\u13ed": 184,
    "!\u201d": 185,
    "\u2581\u13c4\u13ea\u13d2\u13a9": 186,
    "\u2581\u13c2\u13a6\u13d3": 187,
    "?\u201d": 188,
    "\u2581\u13c4\u13ea\u13ce\u13b4\u13a2": 189,
    "\u13b3": 190,
    "\u2581\u13c5\u13ef": 191,
    "\u13e5": 192,
    "\u2581\u13e7\u13d3\u13b4\u13c5\u13db": 193,
    "\u2581\u13a2\u13e5": 194,
    "\u2581\u13a0\u13d3": 195,
    "\u2581\u13a6\u13aa": 196,
    "\u2581\u13d0\u13c8\u13b5": 197,
    "\u2581\u13a6\u13da": 198,
    "\u2581\u13f1\u13a8\u13ce\u13cd\u13d7": 199,
    "\u2581\u13c2\u13aa\u13af\u13b8": 200,
    "\u2581\u13a4\u13d9\u13af\u13f3\u13af\u13ef": 201,
    "\u2581\u13e5\u13cc\u13c3": 202,
    "\u2581\u13ef": 203,
    "\u13ce": 204,
    "\u13ae": 205,
    "\u2581\u13c2": 206,
    "\u13cd\u13ac": 207,
    "\u2581\u13c2\u13da\u13ea\u13ce\u13b4\u13a2": 208,
    "\u2581\u13dd\u13cd\u13aa": 209,
    "\u2581\u13a0\u13c2\u13e7\u13cf": 210,
    "\u2581\u13e3\u13ac\u13eb\u13f3\u13af": 211,
    "\u2581\u13a4\u13ac\u13e9\u13b5": 212,
    "\u2581\u13a0\u13c6": 213,
    "\u2581\u13e7\u13e4\u13b5": 214,
    "\u2581\u13a6\u13b5\u13c9\u13a9": 215,
    "\u2581\u13d3\u13b6\u13c2\u13a8": 216,
    "\u2581\u13c4": 217,
    "\u2581\u13ac\u13e9\u13cd\u13d3\u13e9\u13d7\u13d9\u13af": 218,
    "\u2581\u13c4\u13ea\u13ce\u13b8\u13a9": 219,
    "\u2581\u13a6\u13d3": 220,
    "\u2581\u13a1\u13cd\u13a6": 221,
    "\u2581\u13c2\u13a6\u13d7\u13f3": 222,
    "\u2581\u13a2\u13e7\u13b3\u13ad": 223,
    "\u2581\u13a4\u13d9\u13d3": 224,
    "\u2581\u13f0\u13b5\u13c9": 225,
    "\u2581\u13ac": 226,
    "\u2581\u13a8": 227,
    "\u2581\u13a3\u13c2": 228,
    "\u13d8": 229,
    "\u2581\u13c8\u13d3": 230,
    "\u2581\u13d5": 231,
    "\u2581\u13aa\u13ea\u13b5": 232,
    "\u2581\u13da\u13c2": 233,
    "\u2581\u13c4\u13ea\u13ce\u13b4": 234,
    "\u2581\u13dd": 235,
    "\u2581\u13a4\u13e4\u13cd\u13d9": 236,
    "\u13f4": 237,
    "\u2581\u13a0\u13a9": 238,
    "\u2581\u13a2\u13f4": 239,
    "\u2581\u13a2\u13a9": 240,
    "\u2581\u13e3\u13c2": 241,
    "\u2581\u13e5\u13b7\u13cf\u13b5\u13bb": 242,
    "\u2581\u13a0\u13e7\u13e3": 243,
    "\u2581\u13c2\u13da\u13ea\u13ce\u13b8\u13a9": 244,
    "\u2581\u13a6\u13da\u13b2": 245,
    "\u2581\u13a0\u13cf\u13c9": 246,
    "\u2581\u13ac\u13c2": 247,
    "\u2581\u13c5\u13d7\u13a6\u13b5\u13cd\u13d9\u13d7\u13ad": 248,
    "\u2581\u13a0\u13c2\u13a8\u13f4": 249,
    "\u2581\u13a4\u13c5\u13d2": 250,
    "\u2581\u13f1\u13a8\u13ce": 251,
    "\u2581\u13c9\u13b3": 252,
    "\u2581\u13e7\u13be\u13d3\u13b4\u13c5\u13db": 253,
    "\u2581\u13a1\u13d9\u13d3": 254,
    "\u2581\u13a2\u13e4": 255,
    "\u2581\u13a2\u13ef\u13c2\u13db": 256,
    "\u2581\u13ac\u13c2\u13db": 257,
    "\u2581\u13cd\u13a9": 258,
    "\u2581\u13c4\u13ac\u13eb\u13f3\u13d2": 259,
    "\u2581\u13c2\u13ac\u13be\u13db": 260,
    "\u2581\u13a1": 261,
    "\u2581\u13a2\u13a6\u13a2": 262,
    "\u2581\u13be\u13cd\u13a9\u13ef\u13a2": 263,
    "\u2581\u13e3\u13b5": 264,
    "\u2581\u13d0\u13c9": 265,
    "\u2581\u13a0\u13c2\u13d4\u13b5": 266,
    "\u2581\u13aa\u13af\u13f3\u13d7": 267,
    "\u13b0": 268,
    "\u13e2": 269,
    "\u13d4\u13c5\u13af": 270,
    "\u2581\u13af\u13cd\u13a9": 271,
    "\u13cd\u13a8\u13cd\u13d7": 272,
    "\u2581\u13a1\u13b3\u13c2": 273,
    "\u2581\u13be\u13a5\u13c2": 274,
    "\u2581\u13c4\u13b5\u13cd\u13d4\u13c1\u13a2": 275,
    "\u2581\u13d1\u13be\u13b4": 276,
    "\u13a5": 277,
    "\u2581\u13a7": 278,
    "\u2581\u13a4\u13b5\u13c2\u13a9\u13db": 279,
    "\u2581\u13d9": 280,
    "\u2581\u13a4\u13d3\u13b5\u13a2": 281,
    "\u13b8\u13af": 282,
    "\u13cc": 283,
    "\u2581\u13a4\u13d9\u13af\u13f3\u13af": 284,
    "\u2581\u13a4\u13c1\u13e8": 285,
    "\u2581\u13e5\u13aa": 286,
    "\u2581\u13bc\u13cf\u13c3": 287,
    "\u2581\u13a0\u13e3\u13d7": 288,
    "\u2581\u13d7\u13a6\u13b3\u13eb\u13a2\u13cd\u13d7\u13f1": 289,
    "\u2581\u13ad": 290,
    "\u13b8\u13a9": 291,
    "\u2581\u13a2\u13a8\u13ce\u13cd\u13d7": 292,
    "\u2581\u13a2\u13ac\u13f1\u13d7\u13e2": 293,
    "\u2581\u13a4\u13d3\u13d9\u13b5\u13cd\u13d7": 294,
    "\u2581\u13c4\u13c2\u13ea\u13ce\u13a2": 295,
    "\u13ae\u13cd\u13d7": 296,
    "\u2581\u13e7\u13c2": 297,
    "\u13b4\u13a2": 298,
    "\u13e3": 299,
    "\u2581\u13a9\u13a6\u13a8": 300,
    "\u2581\u13a0\u13ef": 301,
    "\u13e8": 302,
    "\u2581\u13d7\u13a6\u13b8\u13eb\u13cd\u13d3\u13c1\u13d7": 303,
    "\u2581\u13a9\u13b3": 304,
    "\u2581\u13e7\u13be": 305,
    "\u2581\u13d7\u13a7\u13bf\u13e9\u13d7\u13d9\u13af": 306,
    "\u2581\u13a4\u13db\u13c5": 307,
    "\u13d4\u13c5": 308,
    "\u2581\u13a0\u13b5\u13cd\u13d3\u13f4\u13d7": 309,
    "\u2581\u13d7\u13e3": 310,
    "\u2581\u13a2\u13e7\u13b3": 311,
    "\u2581\u13cc\u13cc": 312,
    "\u13eb": 313,
    "\u13d9": 314,
    "\u13d5": 315,
    "\u2581\u13a1\u13cf\u13a9": 316,
    "\u2581\u13a4\u13d3": 317,
    "\u2581\u13a0\u13be\u13b5\u13c5\u13df": 318,
    "\u2581\u13ad\u13eb\u13c2": 319,
    "\u2581\u13d3\u13c6\u13b4\u13b3": 320,
    "\u2581\u13b0\u13bb": 321,
    "\u2581\u13a6\u13b6\u13af\u13cd\u13d7\u13f1": 322,
    "\u2581\u13c5\u13e9\u13d3\u13b4": 323,
    "\u2581\u13a2\u13be\u13a8": 324,
    "\u2581\u13a4\u13e9\u13cc": 325,
    "\u2581\u13d2\u13c3\u13f1": 326,
    "\u2581\u13a4\u13e5": 327,
    "\u2581\u13cd\u13a9\u13be\u13be": 328,
    "\u2581\u13e7\u13ac\u13e9\u13b6\u13d7": 329,
    "\u2581\u13a2\u13ac\u13f1\u13f1": 330,
    "\u2581\u13ac\u13e9\u13a6\u13d8\u13ef": 331,
    "\u2581\u13a4\u13c3\u13d5\u13be": 332,
    "\u2581\u13c5\u13d9": 333,
    "\u2581\u13a5": 334,
    "\u2581\u13d4\u13b3\u13da": 335,
    "\u2581\u13a2\u13b8\u13af\u13f3": 336,
    "\u2581\u13a3": 337,
    "\u2581\u13a6\u13b8\u13b6\u13a2": 338,
    "\u2581\u13da\u13d9\u13a5": 339,
    "\u2581\u13f1\u13a8\u13ce\u13a2": 340,
    "\u13cd\u13db": 341,
    "\u13d4": 342,
    "\u2581\u13a6\u13f2\u13df": 343,
    "\u2581\u13a4\u13be\u13e4\u13b5\u13a6": 344,
    "\u13d2\u13a2": 345,
    "\u13cd\u13a6": 346,
    "\u2581\u13e7\u13be\u13c1\u13b6\u13d7": 347,
    "\u2581\u13a0\u13cf\u13f4\u13eb": 348,
    "\u2581\u13da\u13be": 349,
    "\u2581\u13e5\u13f3": 350,
    "\u13c5\u13af": 351,
    "\u2581\u13c5\u13e9\u13d9\u13af\u13ef\u13db": 352,
    "\u2581\u13a6\u13f3\u13b3": 353,
    "\u2581\u13a3\u13a9": 354,
    "\u13c9\u13cd\u13a9\u13c2": 355,
    "\u2581\u13c4\u13b5\u13cd\u13d4\u13c5": 356,
    "\u2581\u13a2\u13d3\u13b5\u13c5\u13df": 357,
    "\u2581\u13a4\u13da\u13a9": 358,
    "\u2581\u13d7\u13a6": 359,
    "\u2581\u13e9": 360,
    "\u2581\u13f1\u13a8\u13d2\u13be": 361,
    "\u13cd\u13a9\u13c2\u13c3\u13c5": 362,
    "\u13cd\u13aa\u13a2": 363,
    "\u2581\u13a0\u13f0\u13b8": 364,
    "\u2581\u13a0\u13c6\u13e4\u13b5": 365,
    "\u2581\u13a4\u13cd\u13c6\u13c2\u13aa\u13d7": 366,
    "\u13c1\u13a2": 367,
    "\u2581\u13a6\u13d3\u13ad": 368,
    "\u2581\u13a1\u13c6": 369,
    "\u2581\u13d3\u13c2": 370,
    "\u2581\u13a2\u13aa\u13af\u13db": 371,
    "\u2581\u13a0\u13ac\u13f1": 372,
    "\u13ce\u13a2": 373,
    "\u2581\u13ad\u13eb\u13c2\u13d7\u13e2": 374,
    "\u2581\u13a0\u13c7\u13e5": 375,
    "\u2581\u13e7\u13e4\u13b5\u13a6": 376,
    "\u2581\u13a9\u13b3\u13c9": 377,
    "\u2581\u13c5\u13d3\u13f3\u13d3\u13b4\u13c5\u13af": 378,
    "\u2581\u13c2\u13e8\u13ea\u13ce\u13ad": 379,
    "\u2581\u13ad\u13e2": 380,
    "\u2581\u13c4\u13c2\u13ea\u13d2\u13a9": 381,
    "\u13b8\u13a2": 382,
    "\u2581\u13a4\u13c7\u13d3\u13b5": 383,
    "\u2581\u13a4\u13be\u13d3\u13c5\u13d8": 384,
    "\u2581\u13d0\u13a2": 385,
    "\u2581\u13a2\u13f3\u13e9\u13c2\u13cc\u13db": 386,
    "\u2581\u13a2\u13f3\u13f0\u13c3": 387,
    "\u2581\u13a2\u13d0": 388,
    "\u2581\u13af\u13b3": 389,
    "\u2581\u13e0\u13a8\u13cf": 390,
    "\u2581\u13a4\u13c1\u13b3\u13a9": 391,
    "\u2581\u13db": 392,
    "\u2581\u13c3\u13d7": 393,
    "\u2581\u13c4\u13cd\u13d7": 394,
    "\u2581\u13a2\u13ef\u13a6\u13f4\u13b5": 395,
    "\u2581\u13a4\u13d5\u13b5\u13db": 396,
    "\u2581\u13e7\u13d9\u13a2\u13db": 397,
    "\u2581\u13c4\u13ea\u13d2": 398,
    "\u2581\u13a2\u13a6\u13db": 399,
    "\u2581\u13a6\u13b5\u13e6\u13db": 400,
    "\u2581\u13a0\u13d3\u13c1\u13b8": 401,
    "\u13cd\u13d7\u13f1": 402,
    "\u2581\u13e7\u13cd\u13c6\u13f4\u13cd\u13d7": 403,
    "\u13b2\u13a2": 404,
    "\u2581\u13a4\u13db\u13db\u13c1": 405,
    "\u13b6": 406,
    "\u13c6": 407,
    "\u2581\u13cd\u13c9": 408,
    "\u2581\u13a2\u13f3\u13b5\u13cd\u13d9\u13d7": 409,
    "\u2581\u13c4\u13b5\u13cd\u13d4\u13c1": 410,
    "\u2581\u13d7\u13aa\u13e2\u13d4\u13c5\u13af": 411,
    "\u2581\u13a0\u13c1\u13b2": 412,
    "\u2581\u13a2\u13aa\u13af\u13d3": 413,
    "\u13d2\u13a9": 414,
    "\u2581\u13a0\u13c1\u13b2\u13a2": 415,
    "\u2581\u13c4\u13d3\u13b4\u13d2": 416,
    "\u2581\u13e6\u13a2\u13c1": 417,
    "\u13c5\u13a9": 418,
    "\u13aa\u13a2": 419,
    "\u2581\u13a0\u13cd\u13d3\u13ef": 420,
    "\u2581\u13a6\u13c1\u13b8": 421,
    "\u2581\u13a4\u13be\u13e4\u13b5": 422,
    "\u2581\u13e6": 423,
    "\u13a8\u13a2": 424,
    "\u2581\u13a0\u13be\u13d9\u13b4\u13b0\u13cd\u13a9": 425,
    "\u2581\u13cf": 426,
    "\u2581\u13c3\u13c9": 427,
    "\u2581\u13a0\u13cd\u13aa\u13af\u13e7\u13c8": 428,
    "\u2581\u13a9\u13ac": 429,
    "\u2581\u13e5\u13a8\u13d2": 430,
    "\u2581\u13d5\u13e5": 431,
    "\u13e4": 432,
    "\u2581\u13a1\u13b3\u13c6\u13d7": 433,
    "\u2581\u13a0\u13f2\u13b1\u13af\u13cd\u13d7": 434,
    "\u2581\u13e7\u13c5\u13cf\u13d3\u13cd\u13d7": 435,
    "\u13d9\u13d7\u13f1": 436,
    "\u2581\u13c4\u13b5\u13cd\u13d4\u13c5\u13a9": 437,
    "\u2581\u13d5\u13a6": 438,
    "\u2581\u13a0\u13a6\u13f4\u13b5\u13a8": 439,
    "\u2581\u13a4\u13d2": 440,
    "\u2581\u13cc\u13e9\u13c2": 441,
    "\u2581\u13a0\u13c2\u13c6\u13b5\u13cf": 442,
    "\u13ae\u13a2": 443,
    "\u2581\u13a7\u13c5\u13c2\u13cd\u13a9": 444,
    "\u13e9": 445,
    "\u2581\u13a4\u13c2\u13c3\u13d5\u13be": 446,
    "\u2581\u13e5\u13f3\u13af": 447,
    "\u2581\u13a4\u13c3\u13b4": 448,
    "\u2581\u13a4\u13c1\u13ac": 449,
    "\u2581\u13a4\u13d2\u13af": 450,
    "\u2581\u13a1\u13e3": 451,
    "\u2581\u13a0\u13cd\u13a6\u13c2": 452,
    "\u2581\u13c4\u13c2\u13ac\u13eb\u13f3\u13d2": 453,
    "\u2581\u13e7\u13d5\u13d8\u13f4\u13db": 454,
    "\u2581\u13a0\u13ba\u13c9\u13af": 455,
    "\u13ac\u13a2": 456,
    "\u2581\u13a0\u13cd\u13aa\u13b5": 457,
    "\u2581\u13d7\u13e5": 458,
    "\u13ca": 459,
    "\u2581\u13a4\u13c2\u13ac\u13eb\u13f3\u13af": 460,
    "\u2581\u13a1\u13e5": 461,
    "\u2581\u13a8\u13d0\u13a2": 462,
    "\u13cd\u13ac\u13a2": 463,
    "\u2581\u13a2\u13ef": 464,
    "\u2581\u13a2\u13a6\u13e4\u13b5": 465,
    "\u2581\u13a0\u13d9\u13b4\u13b0\u13cd\u13a9": 466,
    "\u13df": 467,
    "\u2581\u13c2\u13ac": 468,
    "\u13a4": 469,
    "\u13a7": 470,
    "\u2581\u13d7\u13c2\u13a7\u13bf\u13e9\u13d7\u13d9\u13af": 471,
    "\u2581\u13a4\u13ec\u13f0\u13c2": 472,
    "\u2581\u13e3\u13c4\u13cf": 473,
    "\u2581\u13c5\u13e9\u13be\u13d3\u13b4": 474,
    "\u2581\u13c2\u13af\u13cd\u13a9\u13c2": 475,
    "\u13f2": 476,
    "\u2581\u13a4\u13d3\u13c5\u13d8": 477,
    "\u13cd\u13d9\u13d7": 478,
    "\u13e7": 479,
    "\u2581\u13a8\u13d0": 480,
    "\u2581\u13a0\u13e5": 481,
    "\u2581\u13be\u13bf\u13c2": 482,
    "\u13a8\u13b6\u13af": 483,
    "\u2581\u13a2\u13d7": 484,
    "\u2581\u13d1\u13d3\u13b5": 485,
    "\u2581\u13e7\u13c2\u13cd\u13c6\u13c2\u13aa\u13d9\u13d7": 486,
    "\u2581\u13a5\u13a5": 487,
    "\u2581\u13c2\u13ac\u13c5": 488,
    "\u2581\u13d7\u13c2\u13f2\u13b5": 489,
    "\u2581\u13a2\u13e8": 490,
    "\u2581\u13a6\u13b8\u13b6": 491,
    "\u2581\u13a4\u13d9\u13af\u13f3": 492,
    "\u13a3": 493,
    "\u2581\u13a4\u13f4\u13cd\u13d7": 494,
    "\u2581\u13a0\u13f2\u13b5": 495,
    "\u2581\u13a1\u13c6\u13bb": 496,
    "\u13f0": 497,
    "\u2581\u13a4\u13b5\u13c2\u13a9\u13d7\u13f3": 498,
    "\u2581\u13a1\u13dd\u13ea\u13af": 499,
    "\u13c1\u13b8": 500,
    "\u2581\u13a0\u13a6\u13f4\u13b5\u13a8\u13a2": 501,
    "\u2581\u13e4\u13e5": 502,
    "\u2581\u13a6\u13b5\u13e6\u13d5": 503,
    "\u2581\u13a6\u13be\u13dd\u13a2": 504,
    "\u2581\u13aa\u13b0\u13cd\u13d7": 505,
    "\u2581\u13a0\u13c2\u13f4\u13eb\u13ef": 506,
    "\u2581\u13a4\u13b5\u13cf\u13a9": 507,
    "\u2581\u13e8\u13d2": 508,
    "\u2581\u13a2\u13e8\u13d2": 509,
    "\u2581\u13a4\u13c5\u13d7": 510,
    "\u2581\u13a3\u13d3\u13b8": 511,
    "\u2581\u13d4\u13b5\u13c1\u13c3": 512,
    "\u2581\u13d7\u13c2\u13f2\u13df": 513,
    "\u2581\u13a0\u13d3\u13a8\u13f3\u13d7": 514,
    "\u2581\u13a8\u13b5\u13b5": 515,
    "\u13a1": 516,
    "\u2581\u13a6\u13b8\u13c9\u13d7": 517,
    "\u2581\u13d8": 518,
    "\u2581\u13a4\u13c1\u13b3\u13c5\u13af\u13c3": 519,
    "\u13a6\u13b5": 520,
    "\u2581\u13e5\u13a8\u13d2\u13a9": 521,
    "\u2581\u13e5\u13a8\u13ce\u13a2": 522,
    "\u13a0\u13c1\u13b6\u13af": 523,
    "\u13c8": 524,
    "\u2581\u13a2\u13ef\u13a9\u13f3\u13cd\u13c8\u13db": 525,
    "\u2581\u13a0\u13cd\u13a9\u13be": 526,
    "\u2581\u13a4\u13e4\u13b5\u13aa\u13af": 527,
    "\u2581\u13aa\u13a2": 528,
    "\u2581\u13a0\u13a9\u13be": 529,
    "\u2581\u13ad\u13be": 530,
    "\u2581\u13c4\u13d3\u13b4": 531,
    "\u2581\u13a0\u13c4\u13ec": 532,
    "\u2581\u13d7\u13c3\u13ea\u13b5\u13cd\u13a9": 533,
    "\u2581\u13a4\u13c5\u13cf\u13d3\u13cd\u13d7": 534,
    "\u2581\u13d5\u13eb": 535,
    "\u2581\u13a7\u13c1\u13cc\u13a2": 536,
    "\u2581\u13a9\u13df": 537,
    "\u2581\u13a6\u13f0\u13aa\u13a9": 538,
    "\u2581\u13a6\u13da\u13b2\u13a2": 539,
    "\u2581\u13a0\u13be": 540,
    "\u2581\u13a0\u13a6\u13d4\u13b2\u13a2": 541,
    "\u2581\u13ad\u13c2": 542,
    "\u2581(": 543,
    "\u2581\u13a7\u13c1\u13cd\u13a6": 544,
    "\u2581\u13a0\u13c2\u13e7\u13e3": 545,
    "\u2581\u13a4\u13ac\u13eb\u13f3\u13cc\u13d5\u13a9": 546,
    "\u2581\u13a0\u13db": 547,
    "\u13dd": 548,
    "\u2581\u13eb\u13e5": 549,
    "\u2581\u13d7\u13c6\u13e4\u13b5": 550,
    "\u2581\u13b4\u13c6\u13c2": 551,
    "\u2581\u13a0\u13c3\u13af\u13f3\u13b2\u13cd\u13a9": 552,
    "\u2581\u13e5\u13cd\u13d5\u13e5": 553,
    "\u2581\u13a4\u13e3\u13d4\u13c5\u13af": 554,
    "\u2581\u13a0\u13f0\u13b3\u13cd\u13d7": 555,
    "\u2581\u13c4\u13cd\u13d5\u13cd\u13d7": 556,
    "\u2581\u13a4\u13db\u13a6\u13c5": 557,
    "\u2581\u13a2\u13a6\u13d3": 558,
    "\u2581\u13a4\u13f0\u13b8\u13d7": 559,
    "\u2581\u13e3\u13e4\u13b5": 560,
    "\u13cd\u13a8\u13a2": 561,
    "\u2581\u13a0\u13c2\u13cd\u13a9\u13be": 562,
    "\u2581\u13d7\u13a6\u13d9\u13b5": 563,
    "\u2581\u13d4\u13b7\u13a9\u13cd\u13a9": 564,
    "\u2581\u13c5": 565,
    "\u2581\u13a8\u13b3\u13cd\u13d7\u13f1": 566,
    "\u13cd\u13d3": 567,
    "\u13d4\u13c5\u13a9": 568,
    "\u13c1\u13d7\u13f1": 569,
    "\u2581\u13b1": 570,
    "\u2581\u13d5\u13e3": 571,
    "\u2581\u13a0\u13cc\u13bb\u13d3": 572,
    "\u2581\u13d7\u13be\u13d3\u13c5\u13df": 573,
    "\u2581\u13a8\u13e5\u13c5\u13cf\u13db": 574,
    "\u2581\u13ba\u13b5": 575,
    "\u2581\u13c5\u13f2\u13af": 576,
    "\u2581\u13e7\u13c1\u13e5": 577,
    "\u2581\u13a0\u13d7\u13be": 578,
    "\u2581\u13a0\u13c2\u13cf\u13f4\u13eb\u13ad": 579,
    "\u2581\u13a4\u13f2\u13b1\u13d2": 580,
    "\u2581\u13a2\u13a6\u13db\u13c3": 581,
    "\u2581\u13c2\u13a6": 582,
    "\u2581\u13a4\u13f0\u13b8\u13db": 583,
    "\u13cd\u13d4\u13c5": 584,
    "\u2581\u13a0\u13b2": 585,
    "\u13d4\u13c1": 586,
    "\u2581\u13a4\u13aa\u13b2": 587,
    "\u2581\u13f1\u13a6": 588,
    "\u2581\u13d7\u13e3\u13e4\u13b5": 589,
    "\u2581\u13f4": 590,
    "\u2581\u13a2\u13b8\u13af\u13e2": 591,
    "\u2581\u13a6\u13e9\u13d2\u13a9": 592,
    "\u2581\u13a2\u13f3\u13d5\u13d8\u13f4\u13db": 593,
    "\u2581\u13e7\u13c2\u13f2\u13b1\u13d2\u13af": 594,
    "\u2581\u13a4\u13d5\u13c1\u13b4\u13a2": 595,
    "\u2581\u13aa\u13e2\u13d4\u13c5\u13af": 596,
    "\u2581\u13b0\u13e9": 597,
    "o": 598,
    "\u2581\u13a0\u13a6\u13d9\u13a5\u13af\u13cd\u13d7": 599,
    "\u2581\u13a0\u13cd\u13aa\u13af": 600,
    "\u13e7\u13c8": 601,
    "\u2581\u13e5\u13a8\u13ce": 602,
    "\u2581\u13a2\u13f3\u13cd\u13a9\u13c2": 603,
    "\u2581\u13a6\u13cd\u13a9\u13b8": 604,
    "\u2581\u13a0\u13ce\u13c9": 605,
    "\u2581\u13ac\u13c5": 606,
    "\u2581\u13a4\u13c1": 607,
    "\u2581\u13b0": 608,
    "\u2581\u13c5\u13d3\u13ac\u13e9\u13d3\u13b4\u13c5\u13db": 609,
    "\u2581\u13e8": 610,
    "\u2581\u13c3\u13ef": 611,
    "\u2581\u13e3\u13c1\u13b3\u13c5\u13af": 612,
    "\u13cd\u13a8": 613,
    "\u2581\u13a4\u13e0\u13f1": 614,
    "\u2581\u13a2\u13f3\u13be\u13cd\u13d7": 615,
    "\u2581\u13c2\u13aa\u13af\u13b8\u13a2": 616,
    "\u13d7\u13ad": 617,
    "\u13d7\u13a6\u13b3\u13eb\u13a2\u13cd\u13d7\u13f1": 618,
    "\u2581\u13d3\u13d4\u13b4\u13d2": 619,
    "\u2581\u13a4\u13be\u13d3\u13e1\u13ac": 620,
    "\u2581\u13a7\u13c1\u13ac": 621,
    "\u13ac\u13be": 622,
    "\u2581\u13d7\u13d3\u13cd\u13da\u13d7\u13f1": 623,
    "\u2581\u13ad\u13eb\u13ef": 624,
    "\u13d0": 625,
    "\u2581\u13e5\u13a6\u13d4\u13ad": 626,
    "\u13d4\u13c1\u13a2": 627,
    "\u2581\u13a4\u13b7\u13e8": 628,
    "\u2581\u13c5\u13d7\u13a6\u13b5\u13cd\u13d9\u13d7\u13cd\u13a8": 629,
    "\u2581\u13c4\u13ea\u13ce": 630,
    "\u13b2\u13a9": 631,
    "\u2581\u13a8\u13f4": 632,
    "\u13ad\u13e9": 633,
    "\u2581\u13e5\u13da": 634,
    "\u13c5\u13a2": 635,
    "\u2581\u13d4\u13d5\u13f2\u13b2\u13cd\u13a9": 636,
    "\u2581\u13c6\u13b4\u13d7": 637,
    "\u2581\u13d7\u13e4\u13e5": 638,
    "\u2581\u13a5\u13e3\u13f1": 639,
    "\u2581\u13a4\u13be\u13e4\u13b5\u13aa\u13af": 640,
    "\u2581\u13e7\u13c2\u13b8\u13eb\u13cd\u13d3\u13c1\u13af": 641,
    "\u2581\u13d3\u13a6": 642,
    "\u2581\u13a4\u13d0\u13c5": 643,
    "\u2581\u13d7\u13c2": 644,
    "\u13ce\u13cd\u13d7": 645,
    "\u2581\u13a4\u13be\u13db\u13a6\u13c5": 646,
    "\u2581\u13a2\u13b8\u13cd\u13a9": 647,
    "\u2581\u13d2\u13a6\u13d4": 648,
    "\u2581\u13c5\u13a6\u13cd\u13aa\u13af": 649,
    "\u2581\u13a4\u13b5\u13ae\u13b5\u13cd\u13d7": 650,
    "\u2581\u13c5\u13d3\u13a6\u13b5\u13cd\u13d9\u13d7\u13cd\u13ac\u13a9": 651,
    "\u2581\u13a4\u13b4\u13c5\u13ae": 652,
    "\u2581\u13a4\u13f2\u13a2\u13f3": 653,
    "\u2581\u13a0\u13b3\u13c2": 654,
    "\u2581\u13ac\u13d8": 655,
    "\u2581\u13da\u13ec\u13a1\u13a2": 656,
    "\u2581\u13a1\u13b6\u13db": 657,
    "\u2581\u13a0\u13c2\u13ef\u13eb\u13cd\u13a9": 658,
    "\u2581\u13a0\u13c2\u13d0\u13a2": 659,
    "\u13b2\u13be": 660,
    "\u2581\u13c2\u13af\u13c3": 661,
    "\u2581-": 662,
    "\u2581\u13a6\u13c1\u13b8\u13a2": 663,
    "\u2581\u13e4": 664,
    "\u2581\u13be\u13cd\u13a9\u13cd\u13a9\u13c2": 665,
    "\u2581\u13a4\u13d9": 666,
    "\u2581\u13a6\u13b5\u13e6\u13db\u13a2": 667,
    "\u2581\u13a4\u13a7\u13db": 668,
    "\u2581\u13a6\u13cd\u13a9\u13b6": 669,
    "\u2581\u13d7\u13ac": 670,
    "\u2581\u13a2\u13ef\u13c2": 671,
    "\u2581\u13a0\u13b9\u13f1": 672,
    "\u2581\u13cc\u13c9\u13c9": 673,
    "\u2581\u13d7\u13c5\u13c3\u13db": 674,
    "\u2581\u13e5\u13cd\u13c6": 675,
    "\u2581\u13a1\u13ba\u13c5": 676,
    "\u2581\u13ac\u13e9\u13da\u13eb\u13db": 677,
    "\u2581\u13a9\u13b3\u13c8\u13f4": 678,
    "\u2581\u13a4\u13e3\u13b4\u13cd\u13d7": 679,
    "\u2581\u13a0\u13ac\u13f1\u13e3": 680,
    "\u2581\u13a3\u13af\u13cd\u13d9\u13d7": 681,
    "\u2581\u13ad\u13eb\u13c2\u13e3": 682,
    "\u2581\u13e3\u13b3\u13a9": 683,
    "\u2581\u13ac\u13d4\u13c5\u13af": 684,
    "\u2581\u13c2\u13e3": 685,
    "\u2581\u13ac\u13c2\u13a8": 686,
    "\u2581\u13a3\u13c2\u13c3": 687,
    "\u13be\u13cd\u13a9": 688,
    "\u2581\u13a4\u13be\u13d9\u13d3\u13c6\u13cd\u13ac": 689,
    "\u2581\u13c2\u13da\u13ea\u13ce\u13b4": 690,
    "\u2581\u13a4\u13d9\u13b4\u13b0\u13d2": 691,
    "\u2581\u13a4\u13d3\u13c5\u13d9": 692,
    "\u2581\u13d7\u13ac\u13e9": 693,
    "\u2581\u13b4\u13e5\u13b5": 694,
    "\u2581\u13a0\u13c2\u13f2\u13cd\u13a9": 695,
    "\u2581\u13a0\u13c2\u13e3\u13b3\u13a9": 696,
    "\u2581\u13a6\u13b8\u13b3\u13d7\u13e2": 697,
    "\u2581\u13a0\u13b5": 698,
    "\u2581\u13a4\u13c5": 699,
    "\u13b4\u13cd\u13d7": 700,
    "\u2581\u13a0\u13a6": 701,
    "\u13a8\u13b3\u13cd\u13d7\u13f1": 702,
    "\u2581\u13e5\u13a8\u13d0": 703,
    "\u2581\u13c2\u13e5\u13a5": 704,
    "\u2581\u13cd\u13a9\u13f4": 705,
    "\u2581\u13a4\u13b5": 706,
    "\u2581\u13d7\u13c4\u13ec": 707,
    "\u2581\u13aa": 708,
    "\u2581\u13eb\u13be\u13cd\u13db\u13be": 709,
    "\u2581\u13a1\u13c9\u13c2": 710,
    "\u2581\u13e7\u13d2\u13af\u13db": 711,
    "\u2581\u13ce\u13b5": 712,
    "\u2581\u13aa\u13a9": 713,
    "\u2581\u13e4\u13af": 714,
    "\u13d7\u13cd\u13a9": 715,
    "\u2581\u13c2\u13a6\u13ea\u13cd\u13ac": 716,
    "\u2581\u13a1\u13ad": 717,
    "\u2581\u13da\u13cf\u13b3\u13db": 718,
    "\u2581\u13c2\u13da": 719,
    "\u2581\u13d4": 720,
    "\u13b7": 721,
    "\u2581\u13a4\u13ea\u13d8": 722,
    "\u2581\u13ab\u13e9": 723,
    "\u2581\u13d6\u13b8\u13b3\u13d7": 724,
    "\u2581\u13c3\u13c8\u13cf": 725,
    "\u2581\u13a0\u13d5\u13b3": 726,
    "\u2581\u13be\u13c2\u13ea\u13cd\u13a8\u13a2": 727,
    "\u2581\u13a0\u13c6\u13e4\u13b5\u13a6": 728,
    "\u2581\u13a6\u13da\u13cf": 729,
    "\u13c1\u13b8\u13af": 730,
    "\u13d7\u13cd\u13ac": 731,
    "\u2581\u13e7\u13d7\u13f1": 732,
    "\u2581\u13a0\u13cb\u13d2": 733,
    "\u13bb": 734,
    "\u13ea": 735,
    "\u2581\u13a2\u13be\u13a8\u13a2": 736,
    "\u2581\u13d1\u13be\u13b4\u13a2": 737,
    "\u2581\u13a8\u13be\u13c2": 738,
    "\u2581\u13ab": 739,
    "\u2581\u13ed\u13d5\u13b5\u13ac": 740,
    "\u2581\u13a4\u13cf\u13d9\u13b5": 741,
    "\u2581\u13c2\u13ac\u13e9\u13ea\u13ce\u13b4\u13a2": 742,
    "\u2581\u13d5\u13af": 743,
    "\u2581\u13a2\u13f3\u13df\u13b6\u13db": 744,
    "\u2581\u13aa\u13f1\u13c1\u13a2": 745,
    "\u2581\u13d9\u13f1": 746,
    "\u2581\u13e4\u13cd\u13d7": 747,
    "\u2581\u13f1\u13da": 748,
    "\u13af\u13f3": 749,
    "\u2581\u13a0\u13c2\u13a6\u13d4\u13b2": 750,
    "\u2581\u13a4\u13b5\u13cf\u13ac": 751,
    "\u2581\u13a4\u13c1\u13e4": 752,
    "\u13d5\u13cd\u13d7": 753,
    "\u13c4": 754,
    "\u13db\u13be": 755,
    "\u2581\u13d7\u13e8\u13cd\u13d9\u13d7": 756,
    "\u2581\u13a6\u13b6\u13c7": 757,
    "\u2581\u13d1\u13be\u13d3\u13e1\u13a9": 758,
    "\u2581\u13a9\u13a6": 759,
    "\u2581\u13c3\u13ca": 760,
    "\u13d3\u13c1\u13d7": 761,
    "\u2581\u13a2\u13be\u13db": 762,
    "\u2581\u13c5\u13d7\u13a6\u13b5\u13cd\u13d9\u13d7\u13cd\u13a8\u13cd\u13d7": 763,
    "\u2581\u13f1\u13d3": 764,
    "\u13ac\u13a9": 765,
    "\u2581\u13a0\u13f4\u13c3": 766,
    "\u2581\u13a6\u13b5": 767,
    "\u2581\u13a6\u13b6\u13af\u13cd\u13d7": 768,
    "\u2581\u13e5\u13a8\u13d0\u13a2": 769,
    "\u13d2\u13be": 770,
    "\u2581\u13d7\u13ab\u13aa\u13d9\u13d7": 771,
    "\u2581\u13a4\u13ea\u13b5\u13ce": 772,
    "\u2581\u13c4\u13be\u13cd\u13db": 773,
    "\u2581\u13a1\u13af\u13cd\u13d7": 774,
    "\u2581\u13e1\u13ac": 775,
    "\u2581\u13a3\u13e5": 776,
    "\u2581\u13a4\u13c1\u13e4\u13b4": 777,
    "\u2581\u13a4\u13be\u13d3": 778,
    "\u2581\u13a3\u13ad\u13c1": 779,
    "\u2581\u13a8\u13e5": 780,
    "\u2581\u13a4\u13c1\u13b3\u13c5\u13af\u13cd\u13a9\u13c2": 781,
    "\u2581\u13a3\u13a6": 782,
    "\u2581\u13ac\u13c3\u13db": 783,
    "\u2581\u13e3\u13e5": 784,
    "\u2581\u13d7\u13b5\u13cd\u13d3\u13f4\u13d7\u13f1": 785,
    "\u2581\u13a0\u13e5\u13b8\u13c9\u13d7\u13f3": 786,
    "\u2581\u13a0\u13b0\u13b5": 787,
    "\u2581\u13eb\u13da": 788,
    "\u2581\u13a4\u13c1\u13a6": 789,
    "\u13d4\u13c2": 790,
    "\u2581\u13a4\u13ac\u13eb\u13f3": 791,
    "\u2581\u13a4\u13e9": 792,
    "\u13af\u13a0": 793,
    "\u2581\u13ac\u13c2\u13f3\u13c9\u13c3": 794,
    "\u2581\u13a4\u13cd\u13aa\u13b8": 795,
    "\u2581\u13a1\u13b6": 796,
    "\u2581\u13a4\u13ea\u13b7\u13c1": 797,
    "\u2581\u13c4\u13db\u13c1\u13b4": 798,
    "\u2581\u13f1\u13e3": 799,
    "\u2581\u13a4\u13da\u13b5\u13cd\u13ac": 800,
    "\u2581\u13a0\u13c6\u13d3\u13c5\u13d9": 801,
    "\u2581\u13a4\u13ea": 802,
    "\u2581\u13e7\u13be\u13e4\u13b5": 803,
    "\u2581\u13e7\u13ec\u13f0\u13c2": 804,
    "\u2581\u13c2\u13a6\u13ea\u13ad": 805,
    "\u2581\u13a5\u13de\u13cd\u13d7": 806,
    "\u2581\u13cd\u13d3\u13ef": 807,
    "\u2581\u13a4\u13c2\u13b7\u13e4": 808,
    "\u2581\u13e3\u13c1\u13ad": 809,
    "\u2581\u13a0\u13ce\u13c9\u13c9": 810,
    "\u2581\u13d3\u13f3": 811,
    "\u2581\u13a8\u13e3": 812,
    "\u2581\u13a2\u13c5": 813,
    "\u2581\u13ae\u13be": 814,
    "\u2581\u13a0\u13f0\u13b8\u13a2": 815,
    "\u2581\u13a0\u13d3\u13c5\u13d6\u13cd\u13ac": 816,
    "\u2581\u13ac\u13e9\u13c2": 817,
    "\u2581\u13a0\u13b5\u13cd\u13aa\u13b8\u13d9\u13d7": 818,
    "\u2581\u13d7\u13a7\u13b8\u13ac": 819,
    "\u2581\u13e7\u13c6\u13b6\u13a6": 820,
    "\u2581\u13e6\u13a0\u13cd\u13aa\u13af": 821,
    "\u13cd\u13d8": 822,
    "\u2581\u13a9\u13b6\u13cd\u13a9\u13c2": 823,
    "\u2581\u13c4\u13be": 824,
    "\u2581\u13a4\u13a9\u13ac": 825,
    "\u2581\u13d7\u13c2\u13b3\u13eb\u13a9": 826,
    "\u2581\u13c5\u13c3\u13af": 827,
    "\u2581\u13e7\u13be\u13e4\u13b5\u13a6": 828,
    "\u2581\u13a9\u13a6\u13a8\u13a2": 829,
    "\u2581\u13a4\u13e9\u13d2\u13c9": 830,
    "\u2581\u13d5\u13a4": 831,
    "\u13c1\u13e2\u13d4\u13c5\u13db": 832,
    "\u13d2\u13af": 833,
    "\u2581\u13c5\u13d7\u13a6\u13b5\u13cd\u13d9\u13d7\u13cd\u13ac": 834,
    "\u2581\u13a3\u13cf": 835,
    "\u2581\u13d3\u13be": 836,
    "\u2581\u13a2\u13e3\u13b5\u13cd\u13d3\u13c1\u13d7": 837,
    "\u2581\u13cd\u13a9\u13be": 838,
    "\u2581\u13e9\u13ad\u13ef": 839,
    "\u2581\u13d9\u13f1\u13d7\u13e2": 840,
    "\u13af\u13cd\u13d7": 841,
    "\u13da": 842,
    "\u2581\u13a4\u13cd\u13c6\u13c2\u13a9\u13d7": 843,
    "\u2581\u13a1\u13b6\u13d7": 844,
    "\u13d7\u13cd\u13a8\u13cd\u13d7": 845,
    "\u2581\u13a4\u13e0\u13f1\u13c9": 846,
    "\u13b0\u13a2": 847,
    "\u2581\u13e7\u13d3": 848,
    "\u2581\u13a4\u13a6\u13d4": 849,
    "\u2581\u13a0\u13d9\u13af": 850,
    "\u2581\u13db\u13a6": 851,
    "\u13d9\u13a2\u13f3\u13cd\u13d7": 852,
    "\u2581\u13ac\u13a9": 853,
    "\u2581\u13a4\u13e3\u13d8\u13c2": 854,
    "\u13c1\u13b4": 855,
    "\u13db\u13a2": 856,
    "\u2581\u13a2\u13f3\u13be\u13b5\u13cd\u13d3\u13c1\u13d7": 857,
    "\u2581\u13a2\u13f3\u13be\u13db\u13c1\u13d7": 858,
    "\u2581\u13af\u13cd\u13a6\u13cd\u13aa\u13af": 859,
    "\u2581\u13c2\u13da\u13f3\u13aa\u13db\u13be": 860,
    "\u2581\u13ce\u13d3\u13c2": 861,
    "\u2581\u13ce\u13b7": 862,
    "\u2581\u13e3\u13c1\u13e2\u13d4\u13c5\u13af": 863,
    "\u2581\u13e3\u13d9\u13d3": 864,
    "\u2581\u13a4\u13c2\u13d9\u13d3": 865,
    "\u2581\u13e9\u13cd\u13db": 866,
    "\u2581\u13f1\u13e5\u13a6\u13d4\u13ad": 867,
    "\u2581\u13a2\u13e4\u13b2": 868,
    "\u13a9\u13cd\u13d7": 869,
    "\u2581\u13e5\u13bb": 870,
    "\u13d6": 871,
    "\u2581\u13a0\u13d7\u13d4\u13cd\u13d7": 872,
    "\u2581\u13b6\u13d7": 873,
    "\u2581\u13be\u13a5\u13c2\u13a8": 874,
    "\u2581\u13a4\u13b5\u13cd\u13c6\u13b8\u13d7": 875,
    "\u2581\u13a0\u13c2\u13c5": 876,
    "\u13e1": 877,
    "\u2581\u13a4\u13d0\u13f1": 878,
    "\u2581\u13a4\u13ec\u13e2": 879,
    "\u2581\u13d3\u13e5": 880,
    "\u2581\u13a8\u13b5": 881,
    "\u2581\u13a4\u13b5\u13cd\u13d3\u13f4\u13d7": 882,
    "\u2581\u13f1\u13a6\u13b5\u13cd\u13d9\u13d3": 883,
    "\u2581\u13a0\u13e5\u13c5\u13cf\u13d3\u13cd\u13d7": 884,
    "\u2581\u13b5\u13a0": 885,
    "\u2581\u13a4\u13b5\u13cd\u13c8\u13d7": 886,
    "\u2581\u13a2\u13e5\u13cd\u13a6\u13ef": 887,
    "\u2581\u13da\u13be\u13d9\u13a5": 888,
    "--": 889,
    "\u2581\u13a0\u13a6\u13d4\u13b2": 890,
    "\u2581\u13a4\u13a7\u13b5\u13e8\u13af": 891,
    "\u2581\u13e7\u13d3\u13cf": 892,
    "\u2581\u13ce\u13a6": 893,
    "\u2581\u13a4\u13be\u13dd\u13a2": 894,
    "\u2581\u13aa\u13b3": 895,
    "\u2581\u13a4\u13cd\u13aa\u13cd": 896,
    "\u2581\u13c2\u13d7": 897,
    "\u2581\u13a2\u13e4\u13b2\u13a2": 898,
    "\u2581\u13a6\u13ec\u13c2\u13cd\u13ac": 899,
    "\u2581\u13c4\u13ea\u13ce\u13b8": 900,
    "\u2581\u13a0\u13f4\u13cd\u13a9\u13c2": 901,
    "\u2581\u13a1\u13b2": 902,
    "\u2581\u13a1\u13b5": 903,
    "\u2581\u13b5\u13c7\u13a9": 904,
    "\u2581\u13a8\u13bb\u13b5": 905,
    "\u2581\u13a4\u13a6\u13be\u13cd\u13db": 906,
    "\u2581\u13da\u13c5\u13d3\u13d2": 907,
    "\u2581\u13a0\u13c2\u13f4\u13eb": 908,
    "\u2581\u13a0\u13a8\u13f3\u13e3": 909,
    "\u2581\u13cf\u13cc": 910,
    "\u2581\u13a4\u13f2\u13b1\u13ce\u13a2": 911,
    "\u2581\u13e5\u13c4\u13cd\u13d7": 912,
    "\u2581\u13ac\u13d9\u13d7": 913,
    "\u2581\u13a6\u13c1\u13a6": 914,
    "\u2581\u13a4\u13b7\u13e4": 915,
    "\u13ec": 916,
    "\u2581\u13a6\u13b8\u13b3\u13d7\u13e3": 917,
    "\u13b8\u13ad": 918,
    "\u13d9\u13b8\u13a2": 919,
    "\u2581\u13c5\u13d3": 920,
    "\u13bf": 921,
    "\u2581\u13f2": 922,
    "\u2581\u13ac\u13c5\u13a2": 923,
    "\u2581\u13d3\u13a9": 924,
    "\u13c1\u13d7": 925,
    "\u2581\u13a2\u13ef\u13db\u13c1\u13d7": 926,
    "\u2581\u13e7\u13b8\u13eb\u13cd\u13d3\u13c1\u13af": 927,
    "\u2581\u13d4\u13b4\u13b2\u13a6": 928,
    "\u2581\u13a0\u13c2\u13f3\u13e9\u13c1\u13a6": 929,
    "\u2581\u13e7\u13d3\u13c6\u13d9\u13a9": 930,
    "\u2581\u13e5\u13aa\u13ea\u13b3": 931,
    "\u2581\u13d3\u13c6\u13b4\u13b7": 932,
    "\u2581\u13a2\u13ac\u13c1\u13b8\u13af": 933,
    "\u2581\u13a6\u13da\u13a2\u13e3": 934,
    "\u2581\u13a2\u13be\u13d3": 935,
    "\u13c1\u13ad": 936,
    "\u13c7": 937,
    "\u2581\u13ed\u13b7\u13e4": 938,
    "\u2581\u13a4\u13d5\u13ef\u13d9\u13d7": 939,
    "\u2581\u13a2\u13f3\u13b5\u13cd\u13d3\u13c1\u13d7": 940,
    "\u2581\u13a0\u13d7\u13ad": 941,
    "\u2581\u13a6\u13da\u13a2": 942,
    "\u2581\u13a4\u13be\u13b5": 943,
    "\u2581\u13a4\u13b6\u13a9\u13b8": 944,
    "\u13cf\u13f4\u13eb\u13ad": 945,
    "\u2581\u13a4\u13c2\u13cd\u13a6\u13c5\u13e8": 946,
    "\u13cd\u13aa\u13af": 947,
    "\u2581\u13ac\u13d7\u13cd\u13ac": 948,
    "\u2581\u13a4\u13db\u13a6\u13c1": 949,
    "\u2581\u13c4\u13b5\u13cd\u13d4\u13c2\u13d9\u13b8": 950,
    "\u2581\u13a4\u13c2\u13f2": 951,
    "\u13d7\u13cd\u13aa": 952,
    "\u2581\u13c8\u13b5\u13a9": 953,
    "\u2581\u13a6\u13b7\u13ef\u13cd\u13d7": 954,
    "\u2581\u13c5\u13d3\u13a6\u13b5\u13cd\u13d4\u13c2": 955,
    "\u2581\u13d4\u13b3\u13cd\u13aa\u13af": 956,
    "\u2581\u13a2\u13e3\u13b5\u13c5\u13df": 957,
    "\u2581\u13d5\u13e7\u13ac": 958,
    "\u2581\u13a4\u13be\u13d3\u13e4\u13b5\u13db": 959,
    "\u2581\u13a6\u13c5\u13cd\u13d9\u13d7": 960,
    "\u2581\u13a0\u13c2\u13a8\u13ef": 961,
    "\u2581\u13a2\u13e5\u13d9\u13d3": 962,
    "\u2581\u13af\u13c5\u13cf\u13d3\u13cd\u13d7": 963,
    "\u2581\u13e7\u13be\u13db\u13d0\u13c5\u13af": 964,
    "\u2581\u13a2\u13e3\u13db\u13c1\u13d7\u13f1": 965,
    "\u2581\u13ce\u13a6\u13e8": 966,
    "\u13cd\u13d4\u13c1\u13a2": 967,
    "\u2581\u13cd\u13aa\u13af": 968,
    "\u2581\u13a6\u13b5\u13c9\u13a9\u13c1": 969,
    "\u13db\u13a9": 970,
    "\u13ac\u13bf\u13a8": 971,
    "\u2581\u13a0\u13c2\u13d3": 972,
    "\u2581\u13e5\u13d3": 973,
    "\u13af\u13cd\u13d7\u13f1": 974,
    "\u2581\u13a4\u13c2\u13aa\u13b2": 975,
    "\u2581\u13c2\u13af\u13f0\u13c3": 976,
    "\u13a3\u13cd\u13d3": 977,
    "\u2581\u13a4\u13db\u13be": 978,
    "\u2581\u13d0\u13a3\u13c1\u13b3": 979,
    "\u2581\u13d3\u13bf\u13e9": 980,
    "\u2581\u13a4\u13a9\u13e8\u13db": 981,
    "\u2581\u13a2\u13ef\u13db\u13c1\u13af": 982,
    "\u2581\u13e5\u13c2\u13ac\u13c5": 983,
    "\u2581\u13a2\u13e8\u13a8\u13f3\u13a2": 984,
    "\u2581\u13c2\u13a6\u13b5\u13cd\u13d7\u13ad": 985,
    "\u2581\u13a6\u13b8\u13c9\u13d9\u13d7": 986,
    "\u2581\u13a4\u13b4\u13c2\u13d9\u13b4\u13a2": 987,
    "\u13d9\u13af": 988,
    "\u2581\u13ed\u13b6\u13ce\u13a2": 989,
    "\u2581\u13a2\u13ef\u13cd\u13d7": 990,
    "\u2581\u13a1\u13ae\u13a2": 991,
    "\u2581\u13be\u13af\u13f3\u13c9": 992,
    "\u2581\u13a4\u13aa\u13ae": 993,
    "\u2581\u13a4\u13b7\u13e8\u13a9": 994,
    "\u2581\u13a4\u13ea\u13c5\u13ce": 995,
    "\u2581\u13c2\u13a6\u13a5\u13c9": 996,
    "\u2581\u13a0\u13d3\u13c5\u13d3\u13d7\u13cd\u13d7": 997,
    "\u13a8\u13f3\u13af\u13f3": 998,
    "\u2581\u13a4\u13c1\u13e4\u13b8": 999,
    "\u2581\u13e9\u13ef": 1000,
    "\u13cd\u13ac\u13be": 1001,
    "\u13a0\u13d7\u13d4\u13cd\u13d7": 1002,
    "\u13d7\u13a6\u13c5\u13cc\u13d7": 1003,
    "\u2581\u13d7\u13a6\u13da\u13b2": 1004,
    "\u2581\u13d7\u13a8\u13d2": 1005,
    "\u2581\u13a4\u13b5\u13cd\u13c6\u13d7\u13cd\u13d7": 1006,
    "\u2581\u13e7\u13c2\u13be\u13eb": 1007,
    "\u2581\u13c2\u13ac\u13be\u13db\u13a2": 1008,
    "\u2581\u13a0\u13c2\u13cd\u13a6\u13be": 1009,
    "\u13a7\u13d4\u13ae\u13a2": 1010,
    "\u2581\u13a7\u13c3\u13af\u13f0\u13a9": 1011,
    "\u2581\u13a5\u13d3\u13b5": 1012,
    "\u2581\u13c5\u13ac\u13e9\u13ea\u13ce\u13b8\u13a9": 1013,
    "\u2581\u13a4\u13be\u13eb": 1014,
    "\u2581\u13a2\u13e5\u13a6\u13d4\u13ad": 1015,
    "\u2581\u13cf\u13d3\u13c1\u13b8\u13af": 1016,
    "\u2581\u13a4\u13df\u13af\u13f3": 1017,
    "\u2581\u13a0\u13c2\u13c3\u13af\u13b5\u13d9\u13af": 1018,
    "\u2581\u13a0\u13d3\u13c1\u13af": 1019,
    "\u2581\u13a6\u13db\u13a6": 1020,
    "\u2581\u13a0\u13e4\u13af": 1021,
    "\u2581\u13e4\u13ad": 1022,
    "\u2581\u13a2\u13ac\u13e9": 1023,
    "\u2581\u13aa\u13ea\u13b8\u13a2": 1024,
    "\u2581\u13a0\u13c2\u13a6\u13d4\u13b2\u13a2": 1025,
    "\u2581\u13c2\u13d3": 1026,
    "\u2581\u13e7\u13c2\u13cd\u13d7": 1027,
    "\u2581\u13e7\u13e9": 1028,
    "\u2581\u13a6\u13d3\u13c1": 1029,
    "\u2581\u13c5\u13e9\u13d3\u13b4\u13c3": 1030,
    "\u2581\u13aa\u13ea\u13b8": 1031,
    "\u2581\u13a0\u13ef\u13d9": 1032,
    "\u2581\u13f4\u13eb\u13c9": 1033,
    "\u2581\u13a4\u13bf": 1034,
    "\u2581\u13a4\u13d5\u13d8\u13f4\u13cc\u13d7\u13d2": 1035,
    "\u2581\u13a0\u13c2\u13ec\u13c2\u13cd\u13ac": 1036,
    "\u2581\u13c4\u13e9\u13c1\u13b4": 1037,
    "\u2581\u13a0\u13cd\u13db": 1038,
    "\u2581\u13c2\u13a6\u13b5\u13cd\u13d7\u13cd\u13ac": 1039,
    "\u2581\u13da\u13b4\u13c5": 1040,
    "\u13c5\u13d2": 1041,
    "\u2581\u13a6\u13c4\u13b8": 1042,
    "\u2581\u13a6\u13d9\u13ac": 1043,
    "\u2581\u13a0\u13e0\u13c1\u13d7": 1044,
    "\u2581\u13d7\u13c7\u13e5": 1045,
    "\u2581\u13c5\u13d3\u13f3\u13b6\u13d2\u13af": 1046,
    "\u2581\u13a1\u13c9\u13af\u13f3": 1047,
    "\u2581\u13a0\u13a6\u13d8\u13cf\u13d7\u13e2": 1048,
    "\u2581\u13a6\u13ec\u13c2\u13cd\u13a9": 1049,
    "\u2581\u13e7\u13f3\u13aa\u13d7": 1050,
    "\u2581\u13d7\u13f0\u13b8\u13af": 1051,
    "\u2581\u13e9\u13b6\u13cf": 1052,
    "\u2581\u13a4\u13d4\u13b3\u13ec\u13af\u13cd\u13d7": 1053,
    "\u2581\u13a6\u13b7\u13e8\u13ad": 1054,
    "\u2581\u13be\u13cd\u13a9\u13ef\u13c9": 1055,
    "\u2581\u13af\u13aa": 1056,
    "\u2581\u13a0\u13d3\u13eb": 1057,
    "\u2581\u13a0\u13c6\u13db\u13c5": 1058,
    "\u2581\u13a0\u13b9\u13df": 1059,
    "\u2581\u13a6\u13b8": 1060,
    "\u13c5\u13be": 1061,
    "\u13b2\u13a6": 1062,
    "\u2581\u13d7\u13be": 1063,
    "\u13c1\u13b3": 1064,
    "\u13db\u13c1\u13d7": 1065,
    "\u2581\u13e5\u13e3": 1066,
    "\u2581\u13a8\u13a6": 1067,
    "\u2581\u13a0\u13a6\u13d7": 1068,
    "\u13a7\u13c2": 1069,
    "\u13d5\u13be": 1070,
    "\u2581\u13a4\u13c1\u13e8\u13a9": 1071,
    "\u2581\u13c4\u13db\u13c1\u13b8": 1072,
    "---": 1073,
    "\u2581\u13a6\u13d9\u13a8": 1074,
    "\u2581\u13d9\u13db": 1075,
    "\u2581\u13c4\u13cd\u13d5": 1076,
    "\u2581\u13d5\u13a4\u13d9\u13a5": 1077,
    "\u2581\u13d3\u13f3\u13d3\u13b4\u13c5": 1078,
    "\u13a8\u13d2": 1079,
    "\u2581\u13a0\u13c6\u13da\u13b5": 1080,
    "\u2581\u13e7\u13b8\u13eb\u13cd\u13d3\u13c1\u13d7": 1081,
    "\u2581\u13a0\u13a6\u13f4\u13b5": 1082,
    "\u2581\u13d7\u13cf\u13d3\u13b5": 1083,
    "\u2581\u13a3\u13e3\u13b5\u13c5\u13df": 1084,
    "\u2581\u13e4\u13a9\u13cf\u13c2": 1085,
    "\u2581\u13af\u13b8\u13a2\u13f4": 1086,
    "\u2581\u13c6\u13c2\u13c6": 1087,
    "\u2581\u13a2\u13d3\u13d3\u13c5\u13df": 1088,
    "\u2581\u13a8\u13e5\u13b8\u13c9\u13d7": 1089,
    "\u2581\u13d7\u13a8\u13a6\u13c1\u13b6\u13d7": 1090,
    "\u2581\u13a0\u13c8\u13bb\u13b4\u13a9": 1091,
    "\u2581\u13d3\u13a6\u13b7\u13e5": 1092,
    "\u2581\u13d7\u13a8\u13eb": 1093,
    "\u2581\u13a4\u13a6\u13b5\u13cd\u13d7": 1094,
    "\u2581\u13a0\u13c1\u13d9\u13af": 1095,
    "\u2581\u13ac\u13e9\u13d5\u13c1\u13b4\u13a2": 1096,
    "\u2581\u13be\u13a9\u13ea\u13ce\u13b8\u13a9": 1097,
    "\u2581\u13d5\u13e3\u13d3\u13c5\u13db\u13a2": 1098,
    "\u2581\u13e6\u13f0\u13c2": 1099,
    "\u2581\u13a2\u13ac": 1100,
    "\u2581\u13a4\u13d4\u13be": 1101,
    "\u2581\u13a0\u13c2\u13aa\u13a2": 1102,
    "\u13f1\u13a9": 1103,
    "\u2581\u13f4\u13a9": 1104,
    "\u13a2\u13f3\u13cd\u13d7": 1105,
    "\u2581\u13d7\u13a9": 1106,
    "\u2581\u13a6\u13f0": 1107,
    "\u201d": 1108,
    "\u2581\u13a3\u13d3\u13b8\u13a2": 1109,
    "\u2581\u13e7\u13ac": 1110,
    "\u2581\u13d3\u13c6": 1111,
    "\u2581\u13aa\u13ea\u13b5\u13af": 1112,
    "\u13e8\u13a9": 1113,
    "\u2581\u13aa\u13af\u13d3": 1114,
    "\u13d1": 1115,
    "e": 1116,
    "\u2581\u13c4\u13b5\u13cd\u13d4\u13c5\u13a2": 1117,
    "\u2581\u13d5\u13e3\u13d9\u13a5": 1118,
    "\u13c5\u13cf\u13db": 1119,
    "\u2581\u13a0\u13b5\u13cd\u13da\u13b6": 1120,
    "\u2581\u13a5\u13a9": 1121,
    "\u2581\u13a0\u13e4": 1122,
    "\u2581\u13f1\u13d7": 1123,
    "\u13cd\u13d9": 1124,
    "\u2581\u13c4\u13e9\u13c1\u13b8": 1125,
    "\u2581\u13a6\u13a8": 1126,
    "\u2581\u13e5\u13d5": 1127,
    "\u2581\u13a2\u13e3\u13e4\u13b5": 1128,
    "\u2581\u13aa\u13cd\u13da": 1129,
    "\u2581\u13d8\u13c5\u13cf\u13d3\u13cd\u13d7": 1130,
    "\u2581\u13c4\u13c2\u13ac\u13eb\u13f3\u13cc\u13d5\u13a9": 1131,
    "\u2581\u13d7\u13d3\u13c5\u13d9": 1132,
    "\u2581\u13a2\u13b3\u13ef": 1133,
    "\u2581\u13a4\u13be\u13b5\u13cd\u13d5\u13b8\u13d9\u13d7": 1134,
    "\u2581\u13a4\u13d7\u13b4\u13a9": 1135,
    "\u2581\u13d7\u13d8\u13c2\u13d9\u13af": 1136,
    "\u2581\u13d0\u13b3": 1137,
    "\u2581\u13d7\u13dc": 1138,
    "\u2581\u13a4\u13cd\u13a6\u13c3\u13b5": 1139,
    "\u2581\u13a0\u13cd\u13d3\u13f1": 1140,
    "\u2581\u13a4\u13e9\u13d2\u13af\u13f3": 1141,
    "\u13c1\u13b5": 1142,
    "\u2581\u13d7\u13e3\u13e4\u13b5\u13a6": 1143,
    "\u2581\u13d1": 1144,
    "\u2581\u13a0\u13c6\u13da\u13b5\u13ad": 1145,
    "\u2581\u13a4\u13d5\u13c5\u13af": 1146,
    "\u2581\u13a4\u13d9\u13af\u13f3\u13d2": 1147,
    "\u2581\u13ac\u13d7\u13cd\u13a9": 1148,
    "\u2581\u13d9\u13f3": 1149,
    "\u2581\u13ef\u13c6": 1150,
    "\u13a2\u13cd\u13d7\u13f1": 1151,
    "\u2581\u13de\u13a6": 1152,
    "\u2581\u13d5\u13a8": 1153,
    "\u13a6\u13c5\u13af\u13db": 1154,
    "\u2581\u13d7\u13a8": 1155,
    "\u13cd\u13c6": 1156,
    "\u2581\u13d3\u13ac": 1157,
    "t": 1158,
    "\u2581\u13a5\u13cd\u13a9": 1159,
    "\u2581\u13af\u13ef": 1160,
    "\u2581\u13a9": 1161,
    "\u2581\u13e7\u13c2\u13e2\u13a9": 1162,
    "\u13e0": 1163,
    "\u2581\u13ed\u13c2": 1164,
    "\u2581\u13a0\u13e5\u13b8\u13f1": 1165,
    "\u2581\u13e5\u13c8": 1166,
    "\u2581\u13a4\u13b6\u13d0\u13c5": 1167,
    "\u2581\u13be\u13c3": 1168,
    "\u13a5\u13a2": 1169,
    "\u13d5\u13a2": 1170,
    "\u2581\u13a0\u13a7\u13b5\u13a2": 1171,
    "\u2581\u13a0\u13f0\u13d9\u13b3\u13db\u13d7": 1172,
    "\u2581\u13d3\u13cf\u13b3\u13db": 1173,
    "\u2581\u13e9\u13cf\u13d3\u13c2": 1174,
    "\u2581\u13a0\u13cd\u13c6\u13a8\u13c2": 1175,
    "\u2581\u13e9\u13da\u13b5\u13cf": 1176,
    "\u2581\u13e7\u13d5\u13d8\u13f4\u13d3": 1177,
    "\u2581\u13da\u13ec\u13e2\u13d4\u13c5\u13a9": 1178,
    "\u13a0\u13c2\u13b3\u13cd\u13d3\u13b8": 1179,
    "\u2581\u13e5\u13d4\u13a6": 1180,
    "\u2581\u13e7\u13ef\u13d6\u13be": 1181,
    "\u2581\u13a4\u13ec\u13da\u13af": 1182,
    "\u2581\u13a7\u13c3\u13ae\u13cd\u13a9": 1183,
    "\u2581\u13a4\u13c5\u13cc": 1184,
    "\u2581\u13f1\u13c4\u13cd\u13d7": 1185,
    "\u2581\u13e7\u13c2\u13b8\u13eb\u13cd\u13d3\u13c1\u13d7\u13f1": 1186,
    "\u2581\u13a0\u13b9\u13f0\u13b5": 1187,
    "\u2581\u13f1\u13e5": 1188,
    "\u2581\u13e5\u13c1\u13ac\u13a2": 1189,
    "\u2581\u13f1\u13d7\u13e5": 1190,
    "\u13b5\u13cd\u13d7": 1191,
    "\u2581\u13a4\u13f2\u13b1\u13d2\u13af": 1192,
    "\u2581\u13a4\u13b5\u13cd\u13d7": 1193,
    "\u2581\u13a8\u13c2": 1194,
    "\u2581\u13ab\u13e2\u13d7": 1195,
    "\u13cc\u13db": 1196,
    "\u2581\u13ae": 1197,
    "\u13db\u13a6": 1198,
    "\u2581\u13a7\u13c1\u13ac\u13a2": 1199,
    "\u2581\u13d7\u13a6\u13b8\u13c9\u13d7": 1200,
    "\u2581\u13da\u13c1\u13e4\u13b4": 1201,
    "\u2581\u13a0\u13cd\u13a6\u13be": 1202,
    "\u2581\u13a4\u13c2\u13e5": 1203,
    "\u2581\u13d7\u13c6": 1204,
    "\u2581\u13be\u13c2\u13a5\u13c9": 1205,
    "\u2581\u13d9\u13af": 1206,
    "\u13af\u13cd\u13d9\u13d7": 1207,
    "\u2581\u13c2\u13e5": 1208,
    "\u2581\u13a0\u13d4\u13b4\u13d2": 1209,
    "\u2581\u13a0\u13b2\u13a2": 1210,
    "\u2581\u13e6\u13a9": 1211,
    "\u2581\u13da\u13d9\u13a5\u13a2": 1212,
    "\u2581\u13e7\u13ea\u13c5\u13d2": 1213,
    "\u2581\u13d7\u13d3\u13b4\u13c2\u13cd\u13ac": 1214,
    "\u2581\u13a0\u13e6\u13f4": 1215,
    "\u2581\u13a6\u13e5": 1216,
    "\u2581\u13c2\u13d5": 1217,
    "\u2581\u13a4\u13ec\u13b8": 1218,
    "\u2581\u13d7\u13a6\u13ab\u13cd\u13db\u13d7": 1219,
    "\u2581\u13cd\u13c8\u13cd\u13d3": 1220,
    "\u2581\u13b5\u13eb": 1221,
    "\u2581\u13a8\u13e5\u13c5\u13cf\u13d3\u13cd\u13d7": 1222,
    "\u2581\u13cc\u13ca": 1223,
    "\u2581\u13cc\u13aa\u13c2\u13a8": 1224,
    "\u2581\u13a7\u13c2\u13a9\u13d3": 1225,
    "\u2581\u13a4\u13a6\u13be\u13cd\u13d3": 1226,
    "\u2581\u13da\u13ec\u13e2\u13c5\u13a9": 1227,
    "\u2581\u13a6\u13b6\u13d9\u13d7": 1228,
    "\u2581\u13a2\u13a9\u13d9\u13d3": 1229,
    "\u2581\u13be\u13cd\u13a6\u13c5\u13be": 1230,
    "\u2581\u13a0\u13c2\u13a9\u13cf": 1231,
    "\u2581\u13cd\u13d4\u13ef": 1232,
    "\u2581\u13a4\u13ec\u13d7\u13a8": 1233,
    "\u2581\u13a4\u13be\u13c1\u13b3\u13a9": 1234,
    "\u2581\u13ab\u13ab": 1235,
    "\u2581\u13a0\u13e2\u13d7\u13f1": 1236,
    "\u2581\u13a4\u13d3\u13c5\u13d8\u13f3": 1237,
    "\u2581\u13a0\u13f2\u13a9": 1238,
    "\u2581\u13a0\u13a9\u13cf": 1239,
    "\u2581\u13a4\u13c5\u13df": 1240,
    "\u13d0\u13a2": 1241,
    "\u2581\u13da\u13b8\u13eb\u13cd\u13d3\u13c1\u13b2\u13a2": 1242,
    "\u2581\u13a2\u13f3\u13cd\u13d7\u13c9": 1243,
    "\u2581\u13a6\u13c5\u13af\u13db": 1244,
    "\u2581\u13a4\u13be\u13b5\u13a2": 1245,
    "\u2581\u13a4\u13d3\u13c5\u13d6": 1246,
    "\u2581\u13c1": 1247,
    "\u2581\u13a1\u13b2\u13a2": 1248,
    "\u2581\u13a2\u13a6\u13d8": 1249,
    "\u13a1\u13a2": 1250,
    "\u13a2\u13cd\u13d7": 1251,
    "\u13cd\u13a6\u13c5\u13a2\u13cd\u13d7": 1252,
    "\u2581\u13eb\u13a6": 1253,
    "\u2581\u13a4\u13b8\u13c9\u13d7": 1254,
    "\u2581\u13c5\u13a9\u13c1": 1255,
    "\u2581\u13be\u13a5\u13a2": 1256,
    "\u13e4\u13cd\u13d7": 1257,
    "\u2581\u13d3\u13d3\u13bf\u13e9\u13cd\u13db": 1258,
    "\u2581\u13d3\u13c6\u13d9\u13a5": 1259,
    "\u2581\u13c2\u13da\u13a9\u13e8\u13c2\u13d2": 1260,
    "\u2581\u13a4\u13c2\u13e3\u13d6": 1261,
    "\u2581\u13a4\u13c3\u13f4\u13ac": 1262,
    "\u13a0\u13b4": 1263,
    "\u2581\u13cd\u13c6": 1264,
    "\u2581\u13a2\u13a6\u13a6\u13db": 1265,
    "\u2581\u13e7\u13be\u13cd\u13d7": 1266,
    "\u2581\u13a2\u13be": 1267,
    "\u13cd\u13ac\u13a9": 1268,
    "\u13b2\u13cf": 1269,
    "\u2581\u13d7\u13a7\u13c3\u13d7": 1270,
    "\u2581\u13a0\u13a6\u13d8\u13cf": 1271,
    "\u2581\u13d7\u13d6\u13b5\u13d9": 1272,
    "\u2581\u13e7\u13c3\u13f0\u13c2": 1273,
    "\u2581\u13a4\u13cd\u13a6\u13ce\u13d7": 1274,
    "\u2581\u13c5\u13db\u13a9\u13c5\u13cf\u13db": 1275,
    "\u2581\u13c2\u13a6\u13ea\u13cd\u13a8\u13a2": 1276,
    "\u2581\u13d7\u13c2\u13a6\u13d9\u13b5": 1277,
    "\u2581\u13be\u13ce\u13b5\u13d7": 1278,
    "\u2581\u13a0\u13a9\u13c5\u13cf\u13d9\u13af": 1279,
    "\u2581\u13a0\u13c2\u13aa\u13d5\u13cd\u13a9": 1280,
    "\u2581\u13af\u13b8\u13af\u13f3": 1281,
    "\u2581\u13ac\u13c2\u13d7\u13f3": 1282,
    "\u2581\u13e6\u13b3\u13c2": 1283,
    "\u2581\u13a4\u13cd\u13c6\u13b8\u13b2": 1284,
    "\u2581\u13e5\u13a6": 1285,
    "\u2581\u13d7\u13a7\u13c3\u13d7\u13f1": 1286,
    "\u2581\u13da\u13aa\u13ae": 1287,
    "\u2581\u13c5\u13d7\u13a6\u13b5\u13cd\u13d9\u13d7\u13cd\u13aa": 1288,
    "\u2581\u13a4\u13c2\u13b7\u13e8\u13a9": 1289,
    "\u2581\u13a6\u13ec\u13c2\u13af\u13cd\u13d7": 1290,
    "\u13b4\u13af\u13d0\u13d7": 1291,
    "\u2581\u13ad\u13be\u13be": 1292,
    "\u2581\u13d9\u13d3": 1293,
    "\u2581\u13d7\u13e4": 1294,
    "\u2581\u13eb\u13e3": 1295,
    "\u2581\u13a0\u13bc": 1296,
    "\u13d2\u13ad": 1297,
    "\u2581\u13a4\u13e5\u13b8\u13a2": 1298,
    "\u13a1\u13b5": 1299,
    "\u2581\u13a4\u13ea\u13bf\u13a2": 1300,
    "\u13da\u13b5\u13cd\u13ac\u13be": 1301,
    "\u2581\u13ed\u13b7\u13e4\u13a2": 1302,
    "\u2581\u13e7\u13cd\u13d7": 1303,
    "\u13a6\u13d4\u13b2\u13be": 1304,
    "\u2581\u13a4\u13d2\u13a2": 1305,
    "\u2581\u13a2\u13ac\u13c1\u13d7": 1306,
    "\u13a0\u13cb\u13cc": 1307,
    "\u13c2\u13cf": 1308,
    "\u13c1\u13b2": 1309,
    "\u13cd\u13d4": 1310,
    "\u13c1\u13b3\u13c5\u13af": 1311,
    "\u2581\u13d7\u13a6\u13d3": 1312,
    "\u2581\u13a0\u13ac": 1313,
    "\u13e4\u13a2": 1314,
    "\u13b9": 1315,
    "\u2581\u13ac\u13e9\u13be": 1316,
    "\u2581\u13c5\u13db": 1317,
    "\u2581\u13a4\u13cd\u13a6\u13c5\u13e8": 1318,
    "\u2581\u13a6\u13db\u13ac": 1319,
    "\u2581\u13a6\u13b3\u13a8\u13f4": 1320,
    "\u2581\u13d5\u13a6\u13da\u13b2": 1321,
    "\u2581\u13d7\u13a9\u13a6\u13f4\u13b5\u13a8": 1322,
    "\u2581\u13c2\u13e3\u13db\u13c1\u13b8": 1323,
    "\u13a9\u13ce": 1324,
    ",]": 1325,
    "\u2581\u13da\u13c2\u13b8\u13eb\u13cd\u13d3\u13c1\u13b2": 1326,
    "\u2581\u13a6\u13d3\u13c5\u13d6\u13cd\u13ac": 1327,
    "\u2581\u13da\u13be\u13d3\u13c5\u13db": 1328,
    "\u2581\u13a6\u13c5\u13c5": 1329,
    "\u2581\u13a4\u13d5\u13c5": 1330,
    "\u13c1\u13b4\u13a2": 1331,
    "\u2581\u13da\u13ef": 1332,
    "\u2581\u13c7\u13c2": 1333,
    "\u2581\u13a2\u13e4\u13be": 1334,
    "\u2581\u13a4\u13c2\u13ec\u13c2\u13af\u13cd\u13d7": 1335,
    "\u2581\u13a4\u13be\u13b5\u13cd\u13d3\u13f4\u13d7": 1336,
    "\u2581\u13a4\u13c2\u13f4\u13cd\u13d7": 1337,
    "c": 1338,
    "\u2581\u13a2\u13e5\u13c8": 1339,
    "\u2581\u13a2\u13f3\u13e9\u13ab\u13d7": 1340,
    "\u2581\u13c4\u13c3\u13af\u13f3\u13d2\u13be": 1341,
    "\u2581\u13d2\u13a7\u13d4": 1342,
    "\u2581\u13a2\u13f3\u13d3\u13b4\u13a9": 1343,
    "\u2581\u13a2\u13e5\u13e1\u13f1": 1344,
    "\u2581\u13da\u13d9\u13a1\u13a2": 1345,
    "\u2581\u13a2\u13f3\u13e9\u13c2\u13b8": 1346,
    "\u2581\u13a6\u13b5\u13c6\u13cd\u13aa\u13af": 1347,
    "\u2581\u13d9\u13b4\u13db": 1348,
    "\u2581\u13eb\u13e5\u13a2\u13a6": 1349,
    "\u2581\u13ea\u13cc": 1350,
    "\u2581\u13a2\u13e4\u13ef\u13d4\u13ae\u13cd\u13d7": 1351,
    "\u2581\u13a6\u13c3\u13b8\u13a5\u13cd\u13ac": 1352,
    "\u2581\u13a2\u13cc\u13ef": 1353,
    "\u2581\u13a2\u13d7\u13a6\u13d4\u13ad": 1354,
    "\u2581\u13c5\u13d3\u13f3\u13b5\u13cd\u13d9\u13d4\u13c5\u13a9": 1355,
    "\u2581\u13c4\u13ac\u13eb\u13f3\u13cc\u13d5\u13a9": 1356,
    "\u2581\u13a2\u13e8\u13f2\u13ce\u13ad": 1357,
    "\u2581\u13d7\u13b9\u13d7": 1358,
    "\u2581\u13e7\u13d9\u13d3\u13c6\u13d3": 1359,
    "\u2581\u13e5\u13cd\u13da": 1360,
    "\u2581\u13a4\u13af\u13d0\u13d7": 1361,
    "\u2581\u13a4\u13b5\u13d1\u13eb\u13d3": 1362,
    "\u2581\u13a0\u13cf\u13be\u13cc\u13c2": 1363,
    "\u2581\u13a4\u13f2\u13e8": 1364,
    "\u2581\u13d3\u13ef\u13a2": 1365,
    "\u2581\u13a0\u13ab\u13f4\u13d9\u13d7": 1366,
    "\u2581\u13d7\u13a6\u13aa\u13d7\u13f1": 1367,
    "\u13aa\u13af": 1368,
    "\u2581\u13a6\u13be\u13f0\u13af\u13cd\u13d7": 1369,
    "\u2581\u13a4\u13be\u13eb\u13f1": 1370,
    "\u2581\u13a4\u13be\u13c4\u13aa\u13eb\u13d2\u13af": 1371,
    "\u2581\u13d7\u13e6\u13e2\u13d7": 1372,
    "\u2581\u13a0\u13b4\u13ec": 1373,
    "\u2581\u13c9\u13b3\u13c3": 1374,
    "\u2581\u13a0\u13c6\u13db\u13a6\u13c5\u13a9": 1375,
    "\u13cd\u13d4\u13c2": 1376,
    "\u2581\u13ed\u13f4\u13b4\u13a2": 1377,
    "\u2581\u13c1\u13b3": 1378,
    "\u2581\u13e9\u13cd\u13d7": 1379,
    "\u2581\u13be\u13c2\u13a5\u13a2": 1380,
    "\u13b2\u13cd\u13a9": 1381,
    "\u2581\u13e7\u13ea": 1382,
    "\u2581\u13a0\u13a9\u13cd\u13d7": 1383,
    "\u13a9\u13b6": 1384,
    "\u2581\u13a2\u13e4\u13af": 1385,
    "\u2581\u13eb\u13d3": 1386,
    "\u13c1\u13b8\u13a9": 1387,
    "\u2581\u13a1\u13d8": 1388,
    "\u13c1\u13ae\u13cd\u13d7": 1389,
    "\u2581\u13a4\u13f2\u13a2": 1390,
    "\u13b6\u13d7": 1391,
    "\u2581\u13a0\u13d3\u13c1\u13b8\u13a2": 1392,
    "\u13d1\u13f4\u13be": 1393,
    "\u2581\u13f3\u13be": 1394,
    "\u2581\u13c4\u13cd\u13db\u13a2": 1395,
    "\u13aa\u13d7": 1396,
    "\u13be\u13dd\u13a2": 1397,
    "\u13ee": 1398,
    "\u13d4\u13c5\u13ad": 1399,
    "\u13a6\u13d8": 1400,
    "\u2581\u13a0\u13c2\u13c3\u13ae\u13cd\u13ac": 1401,
    "\u13a4\u13c1\u13b3\u13c5\u13af": 1402,
    "\u2581\u13a0\u13aa": 1403,
    "\u2581\u13d3\u13d3\u13c1\u13b8": 1404,
    "\u2581\u13ed\u13b6\u13d2": 1405,
    "\u2581\u13af\u13b8": 1406,
    "\u2581\u13be\u13cd\u13a9\u13c9": 1407,
    "\u2581\u13e3\u13be": 1408,
    "\u13e5\u13cc": 1409,
    "\u13db\u13ac\u13a6": 1410,
    "\u2581\u13a1\u13c9\u13d7": 1411,
    "\u2581\u13a2\u13f3\u13be\u13db\u13bf\u13d5\u13a9": 1412,
    "\u2581Cr": 1413,
    "\u2581\u13cd\u13a6\u13da\u13a9": 1414,
    "\u2581\u13c2\u13e5\u13ea\u13ad": 1415,
    "\u2581\u13ce\u13a9\u13b5": 1416,
    "\u2581\u13d7\u13c2\u13ad\u13c4\u13b8\u13af": 1417,
    "\u2581\u13e7\u13d3\u13d5\u13d2\u13db": 1418,
    "\u2581\u13a1\u13c8\u13cc": 1419,
    "\u2581\u13a0\u13e6\u13ad\u13f4": 1420,
    "\u2581\u13a4\u13aa\u13cf\u13d3": 1421,
    "\u2581\u13a0\u13a9\u13b5\u13ef": 1422,
    "\u2581\u13d4\u13b7\u13e3": 1423,
    "\u2581\u13cd\u13a9\u13c3\u13b2\u13cf": 1424,
    "\u2581\u13a4\u13e9\u13d9\u13af\u13f4\u13d3": 1425,
    "\u2581\u13a2\u13f3\u13d3\u13b4\u13c5\u13db": 1426,
    "\u2581\u13a2\u13b3\u13aa": 1427,
    "\u2581\u13a4\u13c2\u13ac\u13eb\u13f3\u13cc\u13d5\u13a9": 1428,
    "\u2581\u13a2\u13f3\u13e9\u13c2\u13d0\u13d7\u13f1": 1429,
    "\u2581\u13a2\u13f3\u13e9\u13c1\u13d7\u13f1": 1430,
    "\u2581\u13d7\u13aa\u13ea\u13b5\u13cd\u13a9": 1431,
    "\u2581\u13d3\u13e3": 1432,
    "\u2581\u13d9\u13f0": 1433,
    "\u13c1\u13af": 1434,
    "\u2581\u13d2\u13ae\u13f1\u13e3": 1435,
    "\u2581\u13a2\u13ac\u13c1\u13af": 1436,
    "\u2581\u13a1\u13d3": 1437,
    "\u2581\u13a0\u13b5\u13cd\u13d5\u13b8\u13d9\u13d7": 1438,
    "\u2581\u13a4\u13f0\u13af": 1439,
    "\u2581\u13db\u13be": 1440,
    "\u2581\u13f1\u13c2": 1441,
    ")": 1442,
    "\u2581\u13e3\u13c1\u13b3": 1443,
    "\u2581\u13c6": 1444,
    "\u13d9\u13a9": 1445,
    "\u2581\u13a1\u13b5\u13cd\u13d7": 1446,
    "\u2581\u13da\u13be\u13d3\u13c5\u13db\u13a2": 1447,
    "\u2581\u13a7\u13b8\u13a2": 1448,
    "\u2581\u13ed\u13be": 1449,
    "\u2581\u13d7\u13aa\u13ea\u13b6\u13d7": 1450,
    "\u2581\u13a4\u13be\u13b5\u13aa": 1451,
    "\u2581\u13c4\u13db\u13c1\u13b4\u13a2": 1452,
    "\u2581\u13a6\u13b8\u13b3\u13d7\u13f3": 1453,
    "\u2581\u13a0\u13d9": 1454,
    "\u2581\u13e3\u13e4\u13b5\u13a6": 1455,
    "\u2581\u13a2\u13ef\u13c2\u13a2": 1456,
    "\u2581\u13f1\u13e8": 1457,
    "\u13c9\u13c3": 1458,
    "\u2581\u13a4\u13be\u13d3\u13e1\u13ac\u13a2": 1459,
    "\u2581\u13d7\u13e6": 1460,
    "\u2581\u13a4\u13c2\u13b8\u13c9\u13d7": 1461,
    "\u2581\u13d3\u13be\u13d3": 1462,
    "\u2581\u13c2\u13a6\u13d7": 1463,
    "\u2581\u13a4\u13e5\u13b8": 1464,
    "\u13db\u13af": 1465,
    "\u2581\u13d7\u13a7\u13bf\u13e9\u13db\u13cd\u13d7\u13f1": 1466,
    "\u2581\u13a4\u13d3\u13c5\u13d6\u13d7": 1467,
    "\u13b5\u13cd\u13d9\u13d7": 1468,
    "\u13c5\u13d3": 1469,
    "\u2581\u13c4\u13ea\u13d2\u13a2": 1470,
    "\u2581\u13f0": 1471,
    "\u2581\u13d7\u13d7": 1472,
    "\u2581\u13c3\u13e5": 1473,
    "\u13a6\u13d4\u13ad": 1474,
    "\u2581\u13a4\u13a8\u13d3\u13b5\u13f4": 1475,
    "\u2581\u13a7\u13b3\u13e9\u13d7\u13d2": 1476,
    "\u2581\u13a4\u13c5\u13cf\u13f4": 1477,
    "\u2581\u13a2\u13e6\u13af\u13f3\u13d2": 1478,
    "\u2581\u13a0\u13e4\u13b5\u13cd\u13db": 1479,
    "\u2581\u13a0\u13c3": 1480,
    "\u13c2\u13b8": 1481,
    "\u2581\u13be\u13c2": 1482,
    "\u2581\u13a8\u13b3": 1483,
    "\u2581\u13d5\u13a9": 1484,
    "\u2581\u13a6\u13c1\u13cc\u13a2": 1485,
    "\u2581\u13a4\u13c5\u13d2\u13c9": 1486,
    "\u2581\u13e8\u13d7\u13d3\u13b4\u13b2\u13cd\u13a6": 1487,
    "\u2581\u13a0\u13d9\u13b3\u13c5\u13cd\u13d7": 1488,
    "\u2581\u13a5\u13f3\u13a9": 1489,
    "\u2581\u13d7\u13df\u13b6\u13cd\u13d4\u13c5\u13af": 1490,
    "\u2581\u13e6\u13d3\u13c2": 1491,
    "\u2581\u13a0\u13c2\u13eb\u13c5": 1492,
    "\u2581\u13a4\u13a9\u13e8\u13d3": 1493,
    "\u2581\u13f1\u13c5\u13d7\u13a6\u13b5\u13cd\u13d9\u13d7\u13ad": 1494,
    "\u2581\u13a2\u13f3\u13be\u13b5\u13cd\u13d9\u13d7\u13f1": 1495,
    "\u2581\u13d7\u13d3\u13d8\u13c2\u13d9\u13af": 1496,
    "\u2581\u13a1\u13b5\u13ca": 1497,
    "\u2581\u13a2\u13ef\u13be\u13db\u13c1\u13af": 1498,
    "\u2581\u13ac\u13e9\u13df\u13cd\u13d7": 1499,
    "\u2581\u13e7\u13aa\u13b3": 1500,
    "\u2581\u13a0\u13df\u13b6\u13cd\u13d7": 1501,
    "\u2581\u13aa\u13af\u13d7\u13f3": 1502,
    "\u2581\u13a8\u13b5\u13cd\u13ac": 1503,
    "\u2581\u13e7\u13d3\u13b4\u13c5\u13d3": 1504,
    "\u2581\u13a0\u13e5\u13cd\u13db": 1505,
    "\u2581\u13aa\u13a8\u13f1": 1506,
    "\u2581\u13ae\u13a6": 1507,
    "\u2581\u13a4\u13da\u13b5\u13cd\u13a8\u13cd\u13d7": 1508,
    "\u2581\u13a4\u13da\u13b8\u13d7": 1509,
    "\u2581\u13a2\u13e3\u13e4\u13b5\u13a6": 1510,
    "\u2581\u13a2\u13a6\u13a6\u13d8": 1511,
    "\u13cd\u13d5\u13b8\u13d7": 1512,
    "\u2581\u13be\u13cd\u13a9\u13f4": 1513,
    "\u2581\u13d7\u13c6\u13e4\u13b5\u13a6": 1514,
    "\u2581\u13a4\u13da\u13b5\u13ad": 1515,
    "\u13d5\u13b5": 1516,
    "\u2581\u13a0\u13c1\u13ad": 1517,
    "\u2581\u13af\u13a0\u13cd\u13a9\u13c2": 1518,
    "\u2581\u13a6\u13c2": 1519,
    "\u2581\u13a4\u13d5": 1520,
    "\u2581\u13e7\u13d3\u13c3": 1521,
    "\u2581\u13a4\u13c2\u13e3\u13d4": 1522,
    "\u2581\u13a3\u13c2\u13f1": 1523,
    "\u13c2\u13d7\u13f3": 1524,
    "\u13b6\u13af": 1525,
    "\u2581\u13a4\u13b5\u13ec\u13e8": 1526,
    "\u13b8\u13d7": 1527,
    "\u13b7\u13a6": 1528,
    "\u2581\u13c1\u13b3\u13a9": 1529,
    "\u2581\u13a4\u13da\u13b5": 1530,
    "\u13a1\u13d7\u13f1": 1531,
    "\u2581\u13ef\u13a9": 1532,
    "\u2581\u13c4\u13c2": 1533,
    "\u2581\u13a2\u13a8": 1534,
    "\u2581\u13be\u13be\u13db\u13c1\u13b2": 1535,
    "\u13aa\u13cd\u13d3\u13f1": 1536,
    "\u2581\u13a1\u13d9\u13b2": 1537,
    "\u13be\u13cf": 1538,
    "\u2581\u13f1\u13ac": 1539,
    "\u2581\u13a4\u13ea\u13b5\u13af\u13cd\u13d7": 1540,
    "\u2581\u13da\u13b3\u13cd\u13ac": 1541,
    "\u13f0\u13b5": 1542,
    "\u2581\u13ed\u13ef\u13c5\u13ae": 1543,
    "\u2581\u13a0\u13be\u13a2\u13d2": 1544,
    "\u2581\u13d5\u13e1\u13ac": 1545,
    "\u2581\u13a4\u13c2\u13b7\u13e8": 1546,
    "\u2581\u13d5\u13ad\u13b7\u13a8": 1547,
    "\u2581\u13c4\u13be\u13db\u13c5": 1548,
    "\u2581\u13a0\u13c6\u13da\u13b5\u13cd\u13ac": 1549,
    "\u2581\u13a4\u13c1\u13e8\u13a2": 1550,
    "\u2581\u13ed\u13b7\u13e8": 1551,
    "\u2581\u13d0\u13d3\u13bb": 1552,
    "\u2581\u13d7\u13e5\u13be\u13eb": 1553,
    "\u13b8\u13be": 1554,
    "\u13b6\u13db": 1555,
    "\u13ab": 1556,
    "\u2581\u13a4\u13b7\u13af\u13cd\u13d7": 1557,
    "\u13da\u13d3\u13b4\u13cd\u13d9\u13d7": 1558,
    "\u2581Perry": 1559,
    "\u2581\u13c5\u13ec\u13d8": 1560,
    "\u2581\u13a0\u13b5\u13cd\u13d4\u13f4\u13d7": 1561,
    "\u2581\u13e7\u13a6\u13be\u13ee": 1562,
    "\u2581\u13a4\u13cf\u13e9": 1563,
    "\u2581\u13d7\u13d5\u13f2\u13d7": 1564,
    "\u2581\u13a7\u13c2\u13a9\u13db": 1565,
    "\u2581\u13a4\u13c2\u13a9\u13ac": 1566,
    "\u2581\u13a4\u13eb\u13ef": 1567,
    "\u2581\u13e7\u13be\u13a9\u13b8\u13d7": 1568,
    "\u2581\u13a4\u13be\u13f0\u13af\u13cd\u13d7": 1569,
    "\u2581\u13a4\u13ec\u13e2\u13d4\u13c5\u13a9": 1570,
    "\u2581\u13a4\u13c1\u13ab\u13e5\u13db": 1571,
    "\u2581\u13a0\u13c6\u13c1\u13b3\u13c5\u13af": 1572,
    "\u2581\u13a0\u13b5\u13cd\u13aa\u13b8\u13d4\u13c5\u13af": 1573,
    "\u2581\u13f3\u13da\u13b5\u13cd\u13a8": 1574,
    "\u2581\u13a7\u13b8": 1575,
    "\u2581\u13a4\u13b6\u13d2\u13cd\u13d7": 1576,
    "\u2581\u13a4\u13e2\u13a9": 1577,
    "\u2581\u13c2\u13d7\u13a5": 1578,
    "\u2581\u13c2\u13a6\u13b5\u13cd\u13d3": 1579,
    "\u13cc\u13b3\u13d3": 1580,
    "\u2581\u13da\u13d3\u13d8\u13be\u13a5\u13a2": 1581,
    "\u2581\u13a4\u13c2\u13cd\u13c6\u13c2\u13aa\u13ce\u13a2": 1582,
    "\u2581\u13a0\u13cd\u13da\u13d7": 1583,
    "\u2581\u13a2\u13f3\u13be\u13db\u13c1\u13d7\u13f1": 1584,
    "\u13a4\u13c5": 1585,
    "\u2581\u13a4\u13cd\u13c6\u13c2\u13aa\u13d7\u13f3": 1586,
    "\u2581\u13c4\u13db\u13c1\u13b8\u13a9": 1587,
    "\u2581\u13a4\u13ad": 1588,
    "\u2581\u13d0\u13a2\u13f1": 1589,
    "\u2581\u13a3\u13cf\u13c9": 1590,
    "\u2581\u13d7\u13a8\u13d2\u13a2": 1591,
    "\u2581\u13f4\u13ac": 1592,
    "\u2581\u13a6\u13c5": 1593,
    "\u2581\u13f3\u13c2": 1594,
    "\u13d6\u13cd\u13d7": 1595,
    "\u2581\u13a0\u13d7": 1596,
    "\u2581\u13a4\u13c1\u13b8": 1597,
    "\u2581\u13a4\u13c1\u13e8\u13af": 1598,
    "\u2581\u13e1\u13ac\u13a2": 1599,
    "\u2581\u13a0\u13eb\u13c5": 1600,
    "\u2581\u13c2\u13a6\u13ea\u13cd\u13ac\u13a2": 1601,
    "\u2581\u13d3\u13e8": 1602,
    "\u2581\u13a2\u13e7": 1603,
    "\u2581\u13a4\u13b8": 1604,
    "\u13a6\u13db": 1605,
    "\u2581\u13c1\u13b0": 1606,
    "\u2581\u13a0\u13cf\u13f4\u13eb\u13c3": 1607,
    "\u2581\u13a4\u13ec\u13b5": 1608,
    "\u13a1\u13af": 1609,
    "\u2581\u13eb\u13ac\u13e9": 1610,
    "\u13b5\u13a6": 1611,
    "\u13e0\u13be\u13cd\u13d7": 1612,
    "\u2581\u13a0\u13dc": 1613,
    "\u13cd\u13ca": 1614,
    "\u13a5\u13cd\u13ac": 1615,
    "n": 1616,
    "\u2581\u13da\u13f3\u13aa\u13db\u13a2": 1617,
    "\u13cd\u13c9": 1618,
    "\u2581\u13d7\u13d3": 1619,
    "\u2581\u13a0\u13ce\u13a9": 1620,
    "\u2581\u13a4\u13d5\u13c1\u13b8": 1621,
    "\u2581\u13a0\u13f0\u13d9\u13b3\u13db": 1622,
    "\u2581\u13a0\u13be\u13d3": 1623,
    "\u2581\u13a2\u13f3\u13a2": 1624,
    "\u2581\u13d4\u13b5\u13ad": 1625,
    "\u2581\u13a4\u13d3\u13c2\u13b5\u13a8": 1626,
    "\u2581\u13d7\u13aa": 1627,
    "\u2581\u13a0\u13be\u13db": 1628,
    "\u2581\u13a4\u13b5\u13c1\u13e8": 1629,
    "\u2581\u13d3\u13c1\u13e9\u13d7\u13d2": 1630,
    "\u2581\u13d5\u13a8\u13cc\u13d7\u13d2": 1631,
    "\u2581\u13a4\u13d3\u13c5\u13d6\u13b4": 1632,
    "\u2581\u13a4\u13ec": 1633,
    "\u13f2\u13af": 1634,
    "\u13a0\u13ef": 1635,
    "\u2581\u13f1\u13a8": 1636,
    "\u2581\u13a4\u13cd\u13aa\u13b5": 1637,
    "\u2581\u13ef\u13be": 1638,
    "\u2581\u13a1\u13dd\u13ea": 1639,
    "\u2581\u13a4\u13d3\u13f4\u13cd\u13d7": 1640,
    "\u2581\u13aa\u13ea\u13b3": 1641,
    "\u2581\u13d5\u13a6\u13b6\u13d7": 1642,
    "\u13f4\u13eb": 1643,
    "\u2581\u13a4\u13d5\u13b0\u13af\u13cd\u13d7": 1644,
    "\u2581\u13a1\u13d7": 1645,
    "\u2581\u13b7\u13c8\u13c2": 1646,
    "\u2581\u13d7\u13c2\u13b5\u13a0\u13c5\u13af\u13db": 1647,
    "\u2581\u13f1\u13c4\u13b5\u13cd\u13d4\u13be": 1648,
    "\u2581\u13a2\u13c8\u13ac\u13a2": 1649,
    "\u2581\u13a4\u13b5\u13aa\u13b2\u13cd\u13d7": 1650,
    "\u2581\u13e7\u13a6\u13d2\u13cd\u13d7": 1651,
    "\u2581\u13cd\u13c6\u13de\u13cd\u13d7": 1652,
    "\u2581\u13b9\u13cf\u13d9\u13c2": 1653,
    "\u2581\u13a0\u13be\u13d3\u13c5\u13df": 1654,
    "\u2581\u13ac\u13d4\u13c2\u13d3\u13cd\u13d7": 1655,
    "\u2581\u13de\u13a9\u13f3": 1656,
    "\u2581\u13a0\u13aa\u13c4": 1657,
    "\u2581\u13d7\u13cd\u13d3\u13d3\u13c5\u13df": 1658,
    "\u13a8\u13f3\u13ce\u13cd\u13d7": 1659,
    "\u2581\u13cc\u13ba\u13b5\u13f1": 1660,
    "\u2581\u13e7\u13b3\u13cf\u13d5\u13c2": 1661,
    "\u2581\u13a0\u13eb\u13c4\u13e3": 1662,
    "\u2581\u13d7\u13a6\u13c5\u13d9\u13d7": 1663,
    "\u2581\u13a2\u13e8\u13d7\u13cd\u13a8\u13cd\u13d7": 1664,
    "\u2581\u13a2\u13f3\u13ea\u13c5\u13cd\u13d7": 1665,
    "\u2581\u13e7\u13cd\u13c6\u13c5\u13be": 1666,
    "\u2581\u13a0\u13c2\u13a6\u13d3\u13ad": 1667,
    "\u2581\u13a1\u13cf\u13f1": 1668,
    "\u2581\u13a0\u13e5\u13be\u13dd\u13a2": 1669,
    "\u2581\u13a4\u13ec\u13da\u13af\u13f3": 1670,
    "\u2581\u13a4\u13ec\u13da\u13e8": 1671,
    "\u2581\u13ce\u13b3\u13f1": 1672,
    "\u2581\u13c1\u13b2\u13be": 1673,
    "\u2581\u13ab\u13b4": 1674,
    "\u2581\u13e5\u13e5": 1675,
    "\u2581\u13d4\u13b5\u13e7\u13c8": 1676,
    "\u2581\u13e7\u13be\u13d3": 1677,
    "\u2581\u13a4\u13c2\u13f4\u13cd\u13d7\u13f1": 1678,
    "\u2581\u13a0\u13aa\u13e9\u13db\u13d7": 1679,
    "\u2581\u13a4\u13df\u13cd\u13d3": 1680,
    "\u13e9\u13db\u13b2": 1681,
    "\u2581\u13f1\u13a8\u13d0\u13a2": 1682,
    "\u2581\u13e4\u13ae\u13a2": 1683,
    "\u2581\u13a3\u13c1": 1684,
    "\u2581\u13a0\u13c1\u13ae\u13a2": 1685,
    "\u13e8\u13af": 1686,
    "\u2581\u13da\u13b4\u13c1\u13a2": 1687,
    "\u2581\u13a4\u13b4": 1688,
    "\u2581\u13f0\u13ad": 1689,
    "\u2581\u13a0\u13d3\u13c1\u13d7": 1690,
    "\u13e9\u13db\u13d7": 1691,
    "\u13c5\u13df": 1692,
    "\u2581\u13a0\u13d3\u13af": 1693,
    "\u13eb\u13d2": 1694,
    "\u13b8\u13c9\u13d9\u13d7": 1695,
    "\u13e2\u13d9\u13d7": 1696,
    "\u2581\u13a0\u13e5\u13b8\u13c9\u13d7": 1697,
    "\u2581\u13e5\u13ef": 1698,
    "\u2581\u13a2\u13f3\u13be": 1699,
    "\u2581\u13d2\u13af": 1700,
    "\u13ef\u13c5\u13db": 1701,
    "\u2581\u13a6\u13cd\u13a9\u13b8\u13a2": 1702,
    "\u2581\u13d9\u13af\u13f1": 1703,
    "\u2581\u13a4\u13a8\u13f3\u13af": 1704,
    "\u13b4\u13c2": 1705,
    "\u13db\u13ad": 1706,
    "\u2581\u13da\u13b4\u13c1": 1707,
    "\u2581\u13a4\u13c2\u13e0\u13f1": 1708,
    "\u2581\u13a4\u13c1\u13c5\u13ce": 1709,
    "\u2581\u13da\u13be\u13d3": 1710,
    "\u13c9\u13f0\u13c3": 1711,
    "a": 1712,
    "\u2581\u13e8\u13cd\u13a9\u13c3": 1713,
    "\u2581\u13a4\u13e3": 1714,
    "\u2581\u13a0\u13c2\u13d9\u13be\u13a5": 1715,
    "\u2581\u13c5\u13d3\u13f3": 1716,
    "\u13a1\u13ad": 1717,
    "\u13b3\u13c5\u13af": 1718,
    "\u2581\u13a6\u13c1\u13b2": 1719,
    "\u13a2\u13f3": 1720,
    "\u13b1": 1721,
    "\u13c5\u13d2\u13a9": 1722,
    "\u2581\u13d7\u13e3\u13d3\u13c5\u13d9": 1723,
    "\u13db\u13d7": 1724,
    "\u13b3\u13d7": 1725,
    "\u13d7\u13cd\u13a8": 1726,
    "\u2581\u13a4\u13f0\u13e4": 1727,
    "\u2581\u13a0\u13c6\u13a7\u13db": 1728,
    "\u2581\u13a0\u13c6\u13db\u13a6\u13c5": 1729,
    "\u2581\u13d3\u13e0\u13af\u13cd\u13db": 1730,
    "\u2581\u13a0\u13c1\u13d9\u13b2": 1731,
    "\u2581\u13ed\u13b6\u13ce": 1732,
    "\u2581\u13d9\u13a9": 1733,
    "\u2581\u13d9\u13d3\u13b8": 1734,
    "\u2581\u13a4\u13d3\u13c5\u13ce": 1735,
    "\u2581\u13a0\u13f4\u13eb\u13ef": 1736,
    "\u2581\u13cf\u13a9\u13bb": 1737,
    "\u2581\u13a0\u13e5\u13a6\u13d8\u13d7\u13cd\u13d7": 1738,
    "\u13da\u13a6": 1739,
    "\u2581\u13ac\u13c6": 1740,
    "\u2581\u13a2\u13f3\u13df\u13b6": 1741,
    "\u2581\u13d4\u13b5\u13c1\u13a2": 1742,
    "\u2581\u13a4\u13d3\u13b5": 1743,
    "\u2581\u13a2\u13f3\u13db\u13c1\u13d7": 1744,
    "y": 1745,
    "\u2581\u13a6\u13b7\u13ef\u13cd\u13d8": 1746,
    "\u2581\u13ac\u13e9\u13cd\u13d3\u13e9\u13db\u13ce\u13a2": 1747,
    "\u2581\u13a2\u13cf\u13ba\u13b5": 1748,
    "\u2581\u13a4\u13b5\u13d7\u13e8": 1749,
    "ett": 1750,
    "\u2581\u13c5\u13d3\u13f3\u13c2\u13b6\u13d2\u13af": 1751,
    "\u2581\u13d7\u13f0\u13d9\u13b3\u13db\u13d7": 1752,
    "\u2581\u13d7\u13ac\u13d4\u13c2\u13d3\u13cd\u13d7": 1753,
    "\u2581\u13d1\u13be\u13d9\u13d3\u13c6\u13cd\u13d7": 1754,
    "\u2581\u13c2\u13ac\u13e9\u13ea\u13ce\u13b8\u13a9": 1755,
    "\u2581\u13a2\u13ef\u13c5\u13d9": 1756,
    "\u2581\u13a0\u13d6\u13b5\u13d9": 1757,
    "\u2581\u13a4\u13b4\u13c2\u13d9\u13b8": 1758,
    "\u2581\u13a2\u13a6\u13ea\u13cd\u13d7": 1759,
    "\u2581\u13ad\u13e9\u13e7": 1760,
    "\u2581\u13da\u13d8\u13c5\u13ce": 1761,
    "\u2581\u13a0\u13a6\u13b5\u13cd\u13ac": 1762,
    "\u2581\u13a2\u13d3": 1763,
    "\u2581\u13a2\u13f3\u13d3\u13c5\u13af\u13d3": 1764,
    "\u2581\u13d5\u13b9\u13cd\u13a6": 1765,
    "\u2581\u13a0\u13c2\u13a8\u13be\u13c2": 1766,
    "\u2581\u13a0\u13eb\u13d2\u13d7\u13f1": 1767,
    "\u2581\u13d7\u13b3\u13d1\u13b6": 1768,
    "\u2581\u13a6\u13c2\u13a6\u13d4": 1769,
    "\u13e9\u13ac\u13d8": 1770,
    "\u2581\u13e3\u13d3\u13b5\u13a2": 1771,
    "\u2581\u13cc\u13be\u13f1": 1772,
    "\u2581\u13e5\u13da\u13d9\u13a5": 1773,
    "\u2581\u13a4\u13c1\u13b5\u13e4\u13a2": 1774,
    "\u2581\u13a0\u13aa\u13d9\u13d7": 1775,
    "\u2581\u13a4\u13be\u13c1\u13b3\u13c5\u13af": 1776,
    "\u2581\u13ce\u13bb": 1777,
    "\u2581\u13a0\u13a9\u13b5\u13f2\u13a2\u13cd\u13d7": 1778,
    "\u2581\u13a7\u13c3\u13ae\u13d3": 1779,
    "\u2581\u13a4\u13be\u13f0\u13af\u13cd\u13d7\u13f3": 1780,
    "\u2581\u13d7\u13e6\u13e2\u13d9\u13d7": 1781,
    "\u2581\u13a4\u13be\u13e0\u13be\u13cd\u13d7": 1782,
    "\u2581\u13d9\u13f1\u13e8": 1783,
    "\u2581\u13a0\u13f0\u13df": 1784,
    "\u13d9\u13d3": 1785,
    "\u2581\u13f1\u13c2\u13a6\u13b5\u13cd\u13d3": 1786,
    "\u2581\u13cf\u13f2": 1787,
    "\u2581\u13a4\u13c2\u13af\u13cd\u13d7\u13f1": 1788,
    "\u2581\u13a0\u13a9\u13f0\u13b8\u13ad": 1789,
    "\u2581\u13c8\u13b3": 1790,
    "\u2581\u13a4\u13b7\u13af\u13cd\u13d7\u13f1": 1791,
    "\u2581\u13a0\u13cd\u13aa\u13af\u13c1": 1792,
    "\u2581\u13e7\u13d2\u13af": 1793,
    "\u2581\u13be\u13c2\u13ea\u13cd\u13ac\u13a9": 1794,
    "\u2581\u13a2\u13ac\u13d3": 1795,
    "\u2581\u13da\u13b8\u13eb\u13cd\u13d3\u13c1\u13b2": 1796,
    "\u2581\u13a0\u13b1\u13cd\u13d5": 1797,
    "\u2581\u13a4\u13f4": 1798,
    "\u2581\u13d7\u13c2\u13c5\u13cc\u13d7": 1799,
    "\u2581\u13a0\u13c1\u13a9": 1800,
    "\u2581\u13d5\u13ac": 1801,
    "\u2581\u13a2\u13ac\u13d2": 1802,
    "\u2581\u13a8\u13b5\u13a0": 1803,
    "\u2581\u13d3\u13c1\u13e9\u13d7\u13d2\u13a2": 1804,
    "\u2581\u13c4\u13be\u13db\u13c5\u13a2": 1805,
    "\u2581\u13d5\u13ad\u13b7\u13a8\u13a2": 1806,
    "\u13b8\u13c9\u13d7\u13f3": 1807,
    "\u2581\u13a4\u13d3\u13c5": 1808,
    "\u2581\u13a0\u13bf\u13ec": 1809,
    "\u2581\u13d7\u13a8\u13e5": 1810,
    "\u13b8\u13c9\u13d7": 1811,
    "\u2581\u13d3\u13d3": 1812,
    "\u13d4\u13c5\u13a2": 1813,
    "\u2581\u13d5\u13a6\u13db": 1814,
    "\u13ad\u13c2": 1815,
    "\u2581\u13e3\u13c9": 1816,
    "\u13c3\u13ae\u13ad": 1817,
    "\u2581\u13a8\u13f4\u13a2": 1818,
    "\u2581\u13f4\u13a6": 1819,
    "\u13aa\u13b5\u13f0\u13cd\u13a9": 1820,
    ",)": 1821,
    "\u13b5\u13cf": 1822,
    "\u2581\u13e5\u13d3\u13c2": 1823,
    "\u2581\u13a4\u13c2\u13c1": 1824,
    "\u2581\u13a4\u13be\u13d9\u13b4\u13b0\u13d2": 1825,
    "\u2581\u13f3\u13e9": 1826,
    "\u2581\u13a4\u13c7\u13d3\u13b8": 1827,
    "\u13b5\u13cd\u13a6\u13cd\u13d9\u13db": 1828,
    "\u2581\u13e9\u13a9": 1829,
    "\u13d7\u13cd\u13a8\u13a2": 1830,
    "\u2581\u13e4\u13e3": 1831,
    "\u13a6\u13c5\u13af\u13d3": 1832,
    "\u2581\u13da\u13b8\u13eb\u13cd\u13d3\u13c1\u13b8": 1833,
    "\u13b5\u13cd\u13c6\u13d7\u13cd\u13a9": 1834,
    "\u2581\u13c4\u13db\u13c5": 1835,
    "\u2581\u13d0": 1836,
    "\u2581\u13a4\u13da\u13b5\u13cd\u13a8": 1837,
    "\u2581\u13e5\u13ac": 1838,
    "\u13b5\u13f1": 1839,
    "\u2581\u13ce\u13b3": 1840,
    "\u13cd\u13d7\u13cd\u13ac": 1841,
    "\u13e3\u13d3": 1842,
    "\u2581\u13e2": 1843,
    "\u2581\u13d5\u13e5\u13b8\u13eb\u13cd\u13d3\u13c1\u13b2": 1844,
    "\u2581\u13ed\u13f4\u13b4": 1845,
    "\u2581\u13c5\u13d7\u13a6\u13b5\u13cd\u13d9\u13d7": 1846,
    "\u2581\u13a1\u13ae": 1847,
    "\u2581\u13eb\u13da\u13c2": 1848,
    "\u2581\u13d7\u13c1\u13b2": 1849,
    "\u2581\u13a4\u13ea\u13d9\u13b8": 1850,
    "\u2581\u13d7\u13a7\u13c3\u13a9\u13cd\u13d7": 1851,
    "\u2581\u13a4\u13ea\u13c5\u13cd\u13d7": 1852,
    "\u13f4\u13d3": 1853,
    "\u13f2\u13af\u13cd\u13d7": 1854,
    "\u2581\u13a0\u13be\u13d3\u13be\u13cf\u13c2\u13d9\u13af": 1855,
    "\u2581\u13a0\u13d7\u13c6\u13b8\u13d5\u13f2": 1856,
    "\u2581\u13a0\u13b5\u13f0\u13be": 1857,
    "\u2581\u13a6\u13e3\u13c4\u13b3": 1858,
    "\u2581\u13cc\u13b6\u13b5": 1859,
    "\u2581\u13a0\u13e8\u13cd\u13d9\u13d7": 1860,
    "\u2581\u13d7\u13e5\u13f2\u13b5": 1861,
    "\u2581\u13a2\u13ac\u13e9\u13b5\u13cd\u13d9\u13d7": 1862,
    "\u2581\u13a2\u13e3\u13b5\u13cd\u13d9\u13d7\u13f1": 1863,
    "\u2581\u13a0\u13d2\u13ac": 1864,
    "\u2581\u13e5\u13c4\u13ea\u13ce\u13a2": 1865,
    "\u2581\u13d7\u13c2\u13cf\u13d7": 1866,
    "\u2581\u13a0\u13e4\u13b7\u13a9": 1867,
    "\u2581\u13a0\u13c2\u13a9\u13b7\u13eb": 1868,
    "\u2581\u13a4\u13b5\u13cd\u13a8\u13db": 1869,
    "\u13b5\u13f0\u13a2\u13b6\u13af\u13cd\u13d7": 1870,
    "\u2581\u13eb\u13a6\u13b7\u13a9": 1871,
    "\u2581\u13eb\u13b6\u13af": 1872,
    "\u2581\u13d7\u13c2\u13f0\u13b8": 1873,
    "\u2581\u13a4\u13be\u13b3\u13c5\u13af": 1874,
    "\u2581\u13c4\u13be\u13d3\u13b4\u13d2": 1875,
    "\u2581\u13a4\u13f2\u13b1\u13af\u13cd\u13d7\u13f1": 1876,
    "\u2581\u13a4\u13b4\u13eb\u13cd\u13d4\u13c5": 1877,
    "\u2581\u13a0\u13e5\u13b3": 1878,
    "\u2581\u13ad\u13eb\u13c2\u13e8": 1879,
    "\u2581\u13a7\u13eb": 1880,
    "\u2581\u13a2\u13f3\u13cd\u13d8": 1881,
    "\u2581\u13a0\u13be\u13d3\u13c5\u13d6\u13cd\u13ac": 1882,
    "\u2581\u13a4\u13df\u13c2\u13a9\u13d3": 1883,
    "\u2581\u13a7\u13c3\u13ae\u13d7": 1884,
    "\u2581\u13ef\u13a6\u13d4\u13ae": 1885,
    "\u2581\u13a4\u13c2\u13e3\u13db\u13a9": 1886,
    "\u2581\u13ed\u13c2\u13b6\u13ce\u13a2": 1887,
    "\u2581\u13d7\u13a9\u13cf": 1888,
    "\u2581\u13a1\u13a9": 1889,
    "\u13c4\u13a6": 1890,
    "\u13a6\u13d9\u13c3": 1891,
    "\u2581\u13c2\u13aa\u13af\u13b8\u13be\u13c9": 1892,
    "\u2581\u13e5\u13a8\u13f3\u13a2": 1893,
    "\u2581\u13a4\u13f4\u13dc": 1894,
    "\u2581\u13a6\u13e5\u13ef": 1895,
    "\u2581\u13a0\u13a2\u13d2\u13a2": 1896,
    "\u2581\u13a1\u13ae\u13cd\u13d7": 1897,
    "\u13ef\u13d6\u13c5": 1898,
    "\u2581\u13c2\u13a6\u13b5\u13cd\u13d9\u13d7": 1899,
    "\u2581\u13da\u13b8\u13eb\u13cd\u13d3\u13c1\u13b8\u13a2": 1900,
    "\u2581\u13a0\u13c1\u13d9\u13b2\u13a2": 1901,
    "\u2581\u13a2\u13a6\u13e4\u13b5\u13a6": 1902,
    "\u2581\u13aa\u13a8": 1903,
    "\u2581\u13d7\u13c1\u13b2\u13a2": 1904,
    "\u2581\u13a1\u13d9\u13b2\u13a2": 1905,
    "\u2581\u13a4\u13d3\u13c5\u13c5": 1906,
    "\u2581\u13cd\u13a9\u13ef": 1907,
    "\u13f0\u13af": 1908,
    "\u2581\u13d9\u13a6": 1909,
    "\u2581\u13d1\u13d3\u13b5\u13c1": 1910,
    "\u2581\u13a4\u13db\u13c1\u13a2": 1911,
    "\u2581\u13a1\u13be": 1912,
    "\u2581\u13f1\u13d7\u13e3": 1913,
    "\u13b3\u13bb": 1914,
    "\u2581\u13a2\u13c5\u13af": 1915,
    "\u2581\u13e9\u13c1": 1916,
    "\u13cd\u13d7\u13cd\u13a8\u13cd\u13d7": 1917,
    ";]": 1918,
    "\u2581\u13c2\u13d9\u13d3\u13f3": 1919,
    "\u2581\u13a4\u13c2\u13b7\u13e4\u13a2": 1920,
    "\u2581\u13c2\u13e5\u13a5\u13a2": 1921,
    "\u2581\u13a0\u13c2\u13d0": 1922,
    "\u13e4\u13b8": 1923,
    "\u2581\u13c2\u13aa\u13af\u13b8\u13be": 1924,
    "\u13c3\u13b2\u13cf": 1925,
    "\u13aa\u13e9\u13db\u13d7": 1926,
    "\u2581\u13a0\u13d3\u13f0\u13cd": 1927,
    "\u2581\u13a0\u13a9\u13ad": 1928,
    "\u13cd\u13d4\u13c5\u13a9": 1929,
    "\u2581\u13a0\u13cb\u13d2\u13c9": 1930,
    "\u2581\u13e7\u13c5": 1931,
    "\u2581\u13d5\u13e3\u13d3": 1932,
    "\u13b5\u13d7": 1933,
    "\u2581\u13a6\u13e8": 1934,
    "\u2581\u13d9\u13d3\u13a6": 1935,
    "\u2581\u13a4\u13db": 1936,
    "\u13b2\u13cd\u13a8\u13cd\u13d7": 1937,
    "\u2581\u13cc": 1938,
    "\u13d7\u13cd\u13aa\u13a2": 1939,
    "\u2581\u13e3\u13da": 1940,
    "\u2581\u13aa\u13af\u13cd\u13a9\u13c2": 1941,
    "\u2581\u13f1\u13ac\u13e9": 1942,
    "\u2581\u13a4\u13a6": 1943,
    "\u13d9\u13b4\u13b0\u13af\u13cd\u13d7": 1944,
    "\u13e7\u13c8\u13cd\u13d7": 1945,
    "\u2581\u13c4\u13d3": 1946,
    "\u2581\u13a6\u13db": 1947,
    "\u2581\u13a6\u13c1": 1948,
    "\u13c5\u13d7": 1949,
    "\u13d9\u13a5": 1950,
    "\u2581\u13a2\u13f3\u13ea": 1951,
    "\u2581\u13a2\u13cd\u13d7": 1952,
    "\u2581\u13e7\u13be\u13c4\u13ec": 1953,
    "\u2581\u13a4\u13cd\u13a6": 1954,
    "\u2581\u13a4\u13ec\u13e2\u13c5": 1955,
    "\u13a6\u13b6\u13c1\u13db": 1956,
    "\u2581\u13a1\u13b3\u13ea": 1957,
    "\u2581\u13d3\u13eb\u13d2": 1958,
    "\u2581\u13a0\u13e8\u13ef": 1959,
    "\u2581\u13ed\u13c2\u13b7\u13e8": 1960,
    "\u2581\u13a0\u13f0": 1961,
    "\u2581\u13da\u13c1\u13b4": 1962,
    "\u13aa\u13e9\u13d8\u13ad": 1963,
    "\u2581\u13ce": 1964,
    "\u2581\u13e7\u13b5": 1965,
    "\u13d3\u13b5": 1966,
    "\u2581\u13a4\u13d3\u13c5\u13db": 1967,
    "\u2581\u13e4\u13c8": 1968,
    "\u2581\u13a0\u13db\u13aa\u13d7": 1969,
    "\u2581\u13d7\u13aa\u13ea\u13b5": 1970,
    "\u2581\u13a4\u13e9\u13db\u13b2": 1971,
    "\u2581\u13a0\u13c2\u13cc\u13da\u13cf": 1972,
    "\u2581\u13a6\u13b6\u13c4\u13ae": 1973,
    "\u2581\u13ac\u13cd\u13a6\u13a2\u13cd\u13d3\u13a9": 1974,
    "\u2581\u13c2\u13a6\u13c5\u13af\u13ce\u13cd\u13d7": 1975,
    "\u2581\u13cc\u13ef\u13c2": 1976,
    "\u2581\u13d1\u13d3\u13b4\u13a9": 1977,
    "\u2581\u13c4\u13dc\u13cf\u13db\u13d2\u13be": 1978,
    "\u2581\u13d7\u13c1\u13b6\u13d9\u13d7": 1979,
    "\u2581\u13e7\u13c3\u13d1\u13b6\u13e8\u13af": 1980,
    "\u2581\u13e2\u13d3\u13e5": 1981,
    "\u2581\u13a4\u13b6\u13d2\u13cd\u13d4\u13c5\u13af": 1982,
    "\u2581\u13a2\u13e8\u13d4\u13f2\u13ce\u13ad": 1983,
    "\u2581\u13e7\u13be\u13b3\u13cf\u13d5\u13c2": 1984,
    "\u2581\u13e7\u13be\u13e6\u13af\u13cd\u13d7": 1985,
    "\u2581\u13a2\u13f3\u13d3\u13a8\u13db": 1986,
    "\u2581\u13b3\u13cf\u13b3": 1987,
    "\u2581\u13a2\u13a9\u13cd\u13d5\u13b5\u13cd\u13a9": 1988,
    "\u2581\u13a2\u13e3\u13d3\u13d9\u13b5\u13cd\u13d7\u13cd\u13a8\u13cd\u13d7": 1989,
    "\u2581\u13a4\u13da\u13eb\u13db": 1990,
    "\u2581\u13eb\u13c2\u13a6\u13b5\u13cd\u13d3": 1991,
    "\u2581\u13eb\u13c4\u13d2\u13b8": 1992,
    "\u2581\u13a6\u13c3\u13cd\u13a9\u13cd\u13a9": 1993,
    "\u2581\u13a3\u13cc\u13c2": 1994,
    "\u2581\u13a3\u13a6\u13c1\u13b3\u13c5\u13af": 1995,
    "\u2581\u13a6\u13f0\u13cc\u13d7": 1996,
    "\u2581\u13be\u13db\u13c1\u13ae\u13cd\u13d7": 1997,
    "\u2581\u13a4\u13f4\u13e3": 1998,
    "\u2581\u13a0\u13a6\u13d8\u13ef": 1999,
    "\u2581\u13a4\u13be\u13b4\u13c5\u13ae": 2000,
    "\u2581\u13a0\u13c2\u13a6\u13d4\u13bf\u13a2": 2001,
    "\u2581\u13ac\u13aa\u13e9\u13db\u13d7": 2002,
    "\u2581\u13da\u13a6\u13d2\u13cd\u13db": 2003,
    "\u2581\u13a0\u13b5\u13ae\u13b5\u13cd\u13d7": 2004,
    "\u2581\u13a2\u13a6\u13ea\u13db": 2005,
    "\u2581\u13d7\u13ef\u13d6\u13be": 2006,
    "\u2581\u13a4\u13a6\u13c3\u13e9": 2007,
    "\u2581\u13a4\u13b5\u13cd\u13a8\u13d3": 2008,
    "\u2581\u13c2\u13a6\u13da": 2009,
    "\u2581\u13e7\u13be\u13d3\u13b5\u13a2": 2010,
    "\u2581\u13a2\u13f3\u13c5\u13c1\u13d7\u13f1": 2011,
    "\u13db\u13f3\u13a8\u13d7": 2012,
    "\u2581\u13a0\u13d3\u13c5\u13d6\u13d7": 2013,
    "\u2581\u13a4\u13e4": 2014,
    "\u13d4\u13f2\u13ce\u13b4": 2015,
    "\u2581\u13e3\u13c1\u13ae\u13a2": 2016,
    "\u2581\u13a6\u13c1\u13b3": 2017,
    "\u2581\u13a0\u13c2\u13c1\u13b5": 2018,
    "\u2581\u13ec": 2019,
    "\u2581\u13a4\u13ec\u13e2\u13c5\u13af": 2020,
    "\u13cd\u13d7\u13cd\u13a9": 2021,
    "\u2581\u13e7\u13b8\u13eb\u13cd\u13d3\u13c1\u13d7\u13f1": 2022,
    "\u2581\u13d7\u13a6\u13b5\u13a0\u13c5\u13af\u13db": 2023,
    "\u2581\u13c4\u13be\u13db\u13c1\u13b8\u13a9": 2024,
    "\u2581\u13a0\u13e5\u13b8\u13a0\u13c1\u13b6\u13af": 2025,
    "\u2581\u13da\u13f3\u13aa\u13d7": 2026,
    "\u2581\u13a4\u13be\u13c4\u13aa\u13eb\u13ce\u13a2": 2027,
    "\u2581\u13a4\u13d4\u13b7\u13a9\u13cd\u13a9": 2028,
    "\u2581\u13ef\u13c6\u13da\u13b5": 2029,
    "\u2581\u13d3\u13ac\u13be": 2030,
    "\u2581\u13ed\u13b6\u13d2\u13a9": 2031,
    "\u2581\u13ef\u13c2": 2032,
    "\u2581\u13ac\u13e9\u13db\u13db\u13c1": 2033,
    "\u2581\u13a0\u13a6\u13d4\u13ad": 2034,
    "\u2581\u13be\u13a5\u13c2\u13f3": 2035,
    "\u2581\u13ad\u13d3\u13c5\u13d6\u13cd\u13ac": 2036,
    "\u2581\u13d3\u13e0\u13af\u13cd\u13db\u13a2": 2037,
    "\u13c3\u13af\u13ce\u13b8": 2038,
    "\u2581\u13d5\u13ac\u13e9": 2039,
    "\u2581\u13e7\u13b5\u13a2": 2040,
    "\u13b8\u13cc\u13db": 2041,
    "\u2581\u13d5\u13a8\u13cc\u13d7\u13d2\u13a2": 2042,
    "\u13ce\u13b8": 2043,
    "\u2581\u13a4\u13c1\u13e4\u13b8\u13a9": 2044,
    "\u13b7\u13e5\u13cf": 2045,
    "\u2581\u13da\u13ea": 2046,
    "an": 2047,
    "\u2581\u13a0\u13d4\u13b4\u13d2\u13a2": 2048,
    "\u13cc\u13d8": 2049,
    "\u13cd\u13d5": 2050,
    "\u2581\u13e7\u13ea\u13d8": 2051,
    "\u2581\u13a4\u13e3\u13db": 2052,
    "\u13b2\u13cd\u13ac": 2053,
    "\u13d5\u13a9": 2054,
    "\u2581\u13ac\u13d7\u13cd\u13ac\u13a2": 2055,
    "\u2581\u13a4\u13ef": 2056,
    "\u13cd\u13db\u13be": 2057,
    "\u2581\u13a4\u13b4\u13c5": 2058,
    "\u2581\u13a0\u13f0\u13b8\u13d7": 2059,
    "\u2581\u13a4\u13f0\u13b8\u13db\u13a2": 2060,
    "\u2581\u13a4\u13c2\u13b5": 2061,
    "\u13c1\u13e5": 2062,
    "\u2581\u13cd\u13a9\u13c3": 2063,
    "\u13cd\u13d4\u13c1": 2064,
    "\u2581\u13e4\u13a9": 2065,
    "\u2581\u13a4\u13f2\u13c9": 2066,
    "\u13af\u13ad": 2067,
    "\u2581\u13d7\u13e3\u13d3": 2068,
    "\u13b5\u13d3\u13cd\u13d7": 2069,
    "\u2581\u13a0\u13d3\u13c5\u13d9\u13cd\u13a9\u13c2": 2070,
    "\u2581\u13c2\u13d9": 2071,
    "\u13d3\u13e1\u13ac": 2072,
    "\u2581\u13e5\u13a8\u13d2\u13a2": 2073,
    "\u13e2\u13a2": 2074,
    "\u2581\u13af\u13a6\u13d4\u13ad": 2075,
    "\u13a2\u13cd": 2076,
    "\u13ad\u13d7": 2077,
    "\u2581\u13aa\u13af\u13db": 2078,
    "\u2581\u13a0\u13cd\u13d3": 2079,
    "\u13b4\u13ad": 2080,
    "\u2581\u13a4\u13c4\u13ec": 2081,
    "\u13a6\u13d8\u13cd\u13d9\u13d7": 2082,
    "\u2581\u13a4\u13e6": 2083,
    "\u2581\u13e5\u13c5\u13cf\u13d3\u13cd\u13d7": 2084,
    "\u2581\u13a7\u13b5": 2085,
    "\u2581\u13a4\u13ab\u13f4\u13d7": 2086,
    "\u2581\u13c4\u13cd\u13db\u13be": 2087,
    "\u13c1\u13b2\u13a2": 2088,
    "\u13e4\u13b5": 2089,
    "\u2581\u13a0\u13c1\u13d9\u13ae": 2090,
    "\u2581\u13d5\u13a8\u13f4": 2091,
    "\u2581\u13d3\u13c5\u13c5": 2092,
    "\u2581---": 2093,
    "\u2581\u13d7\u13d3\u13c1\u13b8": 2094,
    "\u2581\u13da\u13be\u13d3\u13e1\u13e9\u13d7\u13d2": 2095,
    "\u2581\u13d1\u13be\u13b4\u13c3": 2096,
    "\u2581\u13a0\u13a6\u13cd\u13a6\u13c2": 2097,
    "\u2581\u13a4\u13c4\u13aa\u13e8": 2098,
    "\u2581\u13eb\u13ac": 2099,
    "\u2581\u13c5\u13c3": 2100,
    "\u2581\u13da\u13c5": 2101,
    "\u2581\u13a4\u13db\u13d0\u13c5": 2102,
    "\u2581\u13a3\u13e3": 2103,
    "\u2581\u13a0\u13c2\u13c3\u13af\u13b5\u13d9": 2104,
    "\u2581\u13a6\u13c5\u13ac": 2105,
    "\u2581\u13da\u13aa\u13b2": 2106,
    "\u2581\u13d7\u13a6\u13aa\u13d7": 2107,
    "\u2581\u13a0\u13d2\u13a8": 2108,
    "\u13c5\u13c5": 2109,
    "\u2581\u13a9\u13b6\u13a2": 2110,
    "\u2581\u13af\u13c6": 2111,
    "\u2581\u13a4\u13f2\u13b1\u13af\u13cd\u13d7": 2112,
    "\u13aa\u13e3\u13b4\u13db": 2113,
    "\u2581\u13a4\u13d3\u13c5\u13d6\u13b8": 2114,
    "\u2581\u13a4\u13aa": 2115,
    "\u2581\u13cd\u13cf\u13c9\u13ef": 2116,
    "\u2581\u13d7\u13a6\u13d9\u13cc\u13d7\u13cd\u13d7\u13f1": 2117,
    "\u2581\u13d7\u13c2\u13a8\u13eb": 2118,
    "\u2581\u13da\u13d1\u13ac": 2119,
    "\u2581\u13c0\u13be": 2120,
    "\u2581\u13cc\u13d9\u13c2": 2121,
    "\u2581\u13e7\u13be\u13e6\u13f4\u13cd\u13d7": 2122,
    "\u2581\u13ae\u13b3\u13c2": 2123,
    "\u2581\u13be\u13a6\u13a5": 2124,
    "\u2581\u13d7\u13aa\u13d2\u13d4\u13c5": 2125,
    "\u2581\u13ac\u13a9\u13cd\u13a6\u13a9": 2126,
    "\u2581\u13a8\u13e3\u13cd\u13a6\u13a9": 2127,
    "\u2581\u13a0\u13c9\u13f0\u13c2": 2128,
    "\u2581\u13a6\u13da\u13a2\u13d7\u13e2": 2129,
    "\u2581\u13d7\u13c2\u13b0\u13b5": 2130,
    "\u2581\u13a6\u13c2\u13d3\u13db": 2131,
    "\u2581\u13a8\u13a6\u13d1\u13f0\u13db": 2132,
    "\u2581\u13c1\u13c2\u13cf": 2133,
    "\u2581\u13c7\u13cd\u13d3": 2134,
    "\u2581\u13cd\u13d7\u13eb": 2135,
    "\u2581\u13a0\u13c2\u13a6\u13d4\u13be\u13a2": 2136,
    "\u2581\u13d7\u13cd\u13c6\u13be\u13b3\u13d7\u13cd\u13d7": 2137,
    "\u2581\u13c4\u13cd\u13d7\u13d3\u13c5": 2138,
    "\u2581\u13a2\u13f3\u13d5\u13d8\u13f4\u13d3": 2139,
    "\u2581\u13a3\u13e5\u13a6\u13d4\u13ad": 2140,
    "\u2581\u13a4\u13d5\u13b6\u13b0\u13ce": 2141,
    "\u2581\u13d3\u13a8\u13cf": 2142,
    "\u2581\u13a4\u13a7\u13f2\u13db\u13af": 2143,
    ".]": 2144,
    "\u2581\u13a3\u13ad\u13c2": 2145,
    "\u2581\u13e9\u13db\u13ac\u13a6": 2146,
    "\u2581\u13a2\u13e5\u13ef\u13eb\u13cd\u13a8\u13cd\u13d7": 2147,
    "\u2581\u13a0\u13a6\u13ef\u13b7\u13d7": 2148,
    "\u2581\u13a0\u13c2\u13a9\u13cf\u13d9\u13af": 2149,
    "\u2581\u13a0\u13be\u13a6\u13b5\u13cd\u13a9": 2150,
    "\u2581\u13d7\u13e5\u13b6\u13cd\u13d4\u13c5": 2151,
    "\u2581\u13a0\u13c2\u13a6\u13d4\u13af": 2152,
    "\u2581\u13e5\u13ae\u13be": 2153,
    "\u2581\u13a8\u13c6\u13c2": 2154,
    "\u2581\u13a2\u13e5\u13c5\u13df": 2155,
    "\u2581\u13a0\u13cd\u13a6\u13f0\u13ac\u13cd\u13d4": 2156,
    "\u2581\u13a6\u13be\u13cd\u13d3": 2157,
    "\u2581\u13a6\u13d0\u13af": 2158,
    "\u2581\u13d5\u13aa": 2159,
    "\u2581\u13a4\u13d9\u13b4\u13b0\u13ce": 2160,
    "\u2581\u13a4\u13ea\u13b7\u13c5\u13a9": 2161,
    "\u13d9\u13b3": 2162,
    "\u2581\u13c4\u13d5\u13d8\u13f4\u13ae\u13a2": 2163,
    "\u2581\u13d3\u13f3\u13b6\u13d2": 2164,
    "\u2581\u13a0\u13a6\u13d4\u13bf\u13a2": 2165,
    "\u2581\u13a2\u13d5\u13be": 2166,
    "\u2581\u13da\u13a7\u13be\u13c1": 2167,
    "\u13ef\u13a0": 2168,
    "\u2581\u13a4\u13c1\u13b7\u13c1\u13a2": 2169,
    "\u2581\u13a2\u13e5\u13cd\u13a6\u13c5\u13e8\u13a2": 2170,
    "\u2581\u13a4\u13c1\u13b3\u13c5\u13af\u13f1": 2171,
    "\u2581\u13aa\u13e2\u13c5\u13af": 2172,
    "\u2581\u13a4\u13c2\u13a9\u13cd\u13d7": 2173,
    "\u2581\u13a4\u13d3\u13c5\u13d2\u13a9": 2174,
    "\u2581\u13a8\u13d9\u13b2": 2175,
    "\u2581\u13a4\u13db\u13d0\u13c5\u13af": 2176,
    "\u2581\u13a4\u13b5\u13cd\u13d5\u13b8\u13d9\u13d7": 2177,
    "\u2581\u13a0\u13e7\u13cf": 2178,
    "\u13a0\u13ce\u13c3": 2179,
    "\u2581\u13a4\u13be\u13db\u13c1\u13a2": 2180,
    "\u2581\u13a4\u13d3\u13d4\u13c5\u13af": 2181,
    "\u2581\u13d5\u13a6\u13b6\u13d7\u13af": 2182,
    "\u2581\u13a4\u13be\u13d3\u13d1\u13f4": 2183,
    "\u13e3\u13d8": 2184,
    "\u2581\u13a0\u13a9\u13aa\u13b2\u13a9": 2185,
    "\u2581\u13ac\u13e9\u13b7\u13e4\u13b8\u13a9": 2186,
    "\u2581\u13d3\u13a7\u13c5\u13a2": 2187,
    "\u2581\u13d5\u13ad": 2188,
    "\u2581\u13ac\u13e9\u13aa\u13b2": 2189,
    "\u2581\u13a4\u13c4\u13aa\u13e4": 2190,
    "\u2581\u13a2\u13e7\u13e9\u13c1": 2191,
    "\u2581\u13a1\u13d9\u13af": 2192,
    "\u2581\u13a0\u13e5\u13b8\u13a8\u13b6\u13af": 2193,
    "\u2581\u13a1\u13b3\u13d7\u13e3": 2194,
    "\u2581\u13aa\u13e2\u13d2\u13a2": 2195,
    "\u2581\u13a8\u13be\u13c2\u13f1": 2196,
    "\u2581\u13e3\u13c2\u13c3": 2197,
    "\u2581\u13da\u13be\u13d3\u13e1\u13e9\u13d7\u13d2\u13a2": 2198,
    "\u2581\u13a0\u13a9\u13be\u13eb": 2199,
    "\u2581\u13a4\u13c2\u13cd\u13a6\u13c5\u13e8\u13af": 2200,
    "\u13b4\u13c5": 2201,
    "\u2581\u13a4\u13cd\u13d8\u13f0\u13ac": 2202,
    "\u2581\u13aa\u13e3\u13b4\u13db": 2203,
    "\u13c5\u13ce": 2204,
    "\u2581\u13a0\u13c1\u13b3": 2205,
    "\u2581\u13ae\u13d7": 2206,
    "\u13d6\u13b8\u13d7": 2207,
    "\u2581\u13e5\u13aa\u13a8": 2208,
    "\u2581\u13a6\u13c5\u13af\u13d3": 2209,
    "\u2581\u13a4\u13aa\u13d7": 2210,
    "\u2581\u13a0\u13c1": 2211,
    "\u13a6\u13d7\u13d3": 2212,
    "\u2581\u13da\u13c2\u13b8\u13eb\u13cd\u13d3\u13c1\u13b2\u13a2": 2213,
    "\u2581\u13c2\u13a6\u13ea\u13cd\u13ac\u13a9": 2214,
    "\u2581\u13d7\u13be\u13d3": 2215,
    "\u13d9\u13e2\u13c5": 2216,
    "\u2581\u13a4\u13aa\u13ae\u13a2": 2217,
    "\u2581\u13d7\u13ac\u13e9\u13c2": 2218,
    "\u2581\u13a4\u13b4\u13c5\u13b2": 2219,
    "\u2581\u13f1\u13a6\u13a9": 2220,
    "\u2581\u13a4\u13b2": 2221,
    "\u2581\u13a6\u13ec\u13c2\u13cd\u13ac\u13a2": 2222,
    "\u13d3\u13cf": 2223,
    "\u2581\u13a4\u13e9\u13c5": 2224,
    "\u13e9\u13db": 2225,
    "\u2581\u13ee": 2226,
    "\u2581\u13a6\u13be": 2227,
    "\u2581\u13eb\u13a9": 2228,
    "\u13b5\u13cd\u13aa\u13b8\u13d3\u13c1\u13b8\u13af": 2229,
    "\u2581\u13a4\u13f2\u13b1\u13d2\u13a2": 2230,
    "\u2581\u13a1\u13b3": 2231,
    ";)": 2232,
    "\u2581\u13a4\u13bf\u13e5": 2233,
    "\u13d2\u13c5": 2234,
    "\u2581\u13e5\u13d9": 2235,
    "\u13b7\u13e4\u13d7\u13f1": 2236,
    "\u13c5\u13ad": 2237,
    "\u13a6\u13d4": 2238,
    "\u2581\u13d9\u13d7": 2239,
    "\u2581\u13a2\u13f3\u13e9": 2240,
    "\u2581\u13bb": 2241,
    "\u2581\u13a7\u13c1\u13a2\u13cd\u13d7": 2242,
    "\u2581\u13a0\u13c2\u13c2": 2243,
    "\u13ab\u13f4\u13d9\u13d7": 2244,
    "\u13cd\u13d5\u13cd\u13d7": 2245,
    "\u2581\u13be\u13d1\u13f4": 2246,
    "\u13b6\u13a2": 2247,
    "\u2581\u13a4\u13e9\u13db\u13d7": 2248,
    "\u13cd\u13d4\u13c5\u13af": 2249,
    "\u2581\u13e9\u13e5": 2250,
    "\u2581\u13a0\u13a6\u13d4": 2251,
    "\u2581\u13a0\u13be\u13b5": 2252,
    "\u2581\u13a4\u13c2\u13c1\u13e8": 2253,
    "\u13a5\u13be": 2254,
    "\u2581\u13af\u13cd\u13a9\u13c1": 2255,
    "\u13d3\u13c2\u13b8\u13e8\u13af": 2256,
    "\u2581\u13aa\u13af\u13f3\u13d7\u13cd\u13a9": 2257,
    "\u2581\u13a0\u13af\u13d7": 2258,
    "\u2581\u13cf\u13bb\u13ef\u13c2": 2259,
    "\u13d3\u13d1\u13ef": 2260,
    "\u2581\u13a3\u13a6\u13e4\u13b5": 2261,
    "\u2581\u13a8\u13d3\u13b5": 2262,
    "\u2581\u13a7\u13c3\u13ae\u13cd\u13ac": 2263,
    "\u2581\u13c4\u13be\u13db\u13c1\u13b8": 2264,
    "\u13c1\u13e4\u13d7": 2265,
    "\u2581\u13eb\u13a6\u13c5\u13c5": 2266,
    "\u2581\u13a0\u13c2\u13e8\u13ef": 2267,
    "\u2581\u13a0\u13c5\u13d7\u13cd\u13ac": 2268,
    "\u2581\u13a4\u13dc\u13c5\u13db": 2269,
    "\u2581\u13d5\u13a6\u13c5\u13c5": 2270,
    "\u2581\u13a0\u13c7": 2271,
    "\u2581\u13eb\u13da\u13ef\u13c5\u13ae": 2272,
    "\u2581\u13aa\u13f1\u13c1": 2273,
    "\u2581\u13a0\u13c2\u13c1\u13ac": 2274,
    "\u2581\u13e5\u13d9\u13ac": 2275,
    "\u2581\u13c2\u13ac\u13c1": 2276,
    "\u2581\u13a4\u13c2\u13a9\u13ce": 2277,
    "\u2581\u13a0\u13c7\u13b5\u13d2": 2278,
    "\u2581\u13a4\u13be\u13da\u13b5\u13cd\u13ac": 2279,
    "\u2581\u13da\u13b8\u13cc\u13db": 2280,
    "\u13d9\u13b5": 2281,
    "\u2581\u13c2\u13da\u13e9\u13c1\u13b8": 2282,
    "\u2581\u13a0\u13c1\u13b5\u13cd\u13a8": 2283,
    "\u2581\u13ad\u13b5": 2284,
    "\u13a5\u13af\u13cd\u13d7": 2285,
    "\u13d3\u13c5": 2286,
    "\u2581\u13e5\u13c1\u13ac": 2287,
    "\u2581\u13a4\u13ea\u13c5\u13d2": 2288,
    "\u2581\u13e3\u13da\u13b5": 2289,
    "\u13d7\u13e3": 2290,
    "\u2581\u13f1\u13e5\u13a6\u13d4": 2291,
    "\u13c4\u13ec": 2292,
    "\u13e2\u13d7": 2293,
    "\u2581\u13a2\u13ef\u13c6\u13db\u13c1\u13d7": 2294,
    "\u2581\u13a4\u13c1\u13d3\u13cd\u13d7": 2295,
    "\u2581\u13a6\u13b4\u13c2": 2296,
    "\u2581\u13c2\u13e8\u13c1\u13b8": 2297,
    "\u2581\u13a1\u13b3\u13c2\u13ac": 2298,
    "\u2581\u13a0\u13c2\u13c3\u13cd\u13a9\u13cd\u13a9": 2299,
    "\u2581\u13a0\u13c2\u13e9\u13e5\u13c2": 2300,
    "\u2581\u13a6\u13b3\u13b1\u13c2": 2301,
    "\u2581\u13d5\u13a6\u13b3\u13eb\u13a5": 2302,
    "\u2581\u13d7\u13d3\u13ec\u13cd\u13a9": 2303,
    "\u2581\u13e7\u13d3\u13bf\u13e9\u13db": 2304,
    "\u2581\u13e7\u13d9\u13d3\u13cb\u13d3": 2305,
    "\u2581\u13be\u13aa\u13d4\u13c5\u13be": 2306,
    "\u2581\u13a2\u13c6\u13b6\u13c2": 2307,
    "\u2581\u13da\u13be\u13a7\u13db": 2308,
    "\u2581\u13a4\u13cd\u13da\u13a2\u13d2": 2309,
    "\u2581\u13a4\u13d9\u13b4\u13b0\u13af\u13cd\u13d7\u13f1": 2310,
    "\u2581\u13c4\u13d3\u13b5\u13d3\u13cd\u13db\u13be": 2311,
    "\u2581\u13d7\u13c2\u13ec\u13c2\u13cd\u13a9": 2312,
    "\u2581\u13da\u13c3\u13e2\u13d4\u13c5\u13a9": 2313,
    "\u2581\u13d7\u13a8\u13e5\u13a4\u13cd\u13d5\u13ce\u13b8\u13af": 2314,
    "\u2581\u13a2\u13d5\u13af": 2315,
    "\u2581\u13a0\u13d3\u13ea\u13b3\u13a9\u13cd\u13a9": 2316,
    "\u2581\u13c5\u13d3\u13a6\u13b5\u13cd\u13d9\u13d4\u13c2": 2317,
    "\u2581\u13c5\u13d3\u13a6\u13b5\u13cd\u13d9\u13d3": 2318,
    "\u2581\u13d7\u13c2\u13cd\u13aa\u13b5": 2319,
    "\u2581\u13c2\u13a6\u13b5\u13cd\u13d4\u13c2\u13d9\u13b2": 2320,
    "\u2581\u13e3\u13d4\u13a6": 2321,
    "\u2581\u13e7\u13c6\u13b6\u13ac": 2322,
    "\u2581\u13c4\u13b5\u13cd\u13d4\u13be": 2323,
    "\u2581\u13a2\u13e5\u13f0\u13b8\u13ce\u13cd\u13d7": 2324,
    "\u2581\u13c2\u13e3\u13db\u13c1\u13ae\u13cd\u13d7": 2325,
    "\u2581\u13be\u13b5\u13cd\u13c6\u13d7\u13cd\u13ac\u13be": 2326,
    "\u2581\u13a2\u13e3\u13c5\u13d6\u13cd\u13d7": 2327,
    "\u2581\u13a5\u13a9\u13c5\u13cf\u13db": 2328,
    "\u2581\u13a4\u13ec\u13d1\u13b6\u13e8\u13af": 2329,
    "\u2581\u13da\u13be\u13b4\u13c1": 2330,
    "\u2581\u13e6\u13e2\u13d7": 2331,
    "\u2581\u13a2\u13e5\u13a6\u13d4\u13ae\u13cd\u13d7": 2332,
    "\u2581\u13a2\u13e7\u13b3\u13d7\u13e2": 2333,
    "\u2581\u13af\u13cd\u13a6\u13ef": 2334,
    "\u2581\u13c2\u13da\u13be\u13d3\u13ea\u13ce\u13b4\u13a2": 2335,
    "\u2581\u13a1\u13c2\u13d7": 2336,
    "\u2581\u13a0\u13cc\u13c5\u13d9\u13d7": 2337,
    "\u2581\u13a3\u13c2\u13d7\u13e2": 2338,
    "\u2581\u13d7\u13d1\u13e2\u13db": 2339,
    "\u2581\u13a0\u13b5\u13e5\u13d9\u13b2\u13cd\u13a9": 2340,
    "\u2581\u13a2\u13e5\u13a6\u13d9\u13a5\u13af\u13cd\u13d7\u13f1": 2341,
    "\u2581\u13a1\u13c8\u13b5": 2342,
    "\u2581\u13e7\u13be\u13b5\u13c2\u13a9\u13db": 2343,
    "\u2581\u13a0\u13e5\u13a4\u13cd\u13d5\u13ce\u13b8\u13af": 2344,
    "\u2581\u13aa\u13af\u13f3\u13b2\u13cd\u13a9": 2345,
    "\u2581\u13a2\u13ef\u13cd\u13d8": 2346,
    "\u2581\u13c2\u13ac\u13ea\u13ce\u13ad": 2347,
    "\u2581\u13e7\u13cd\u13aa\u13b5": 2348,
    "\u2581\u13a0\u13d3\u13cd\u13d3\u13f4\u13d7": 2349,
    "\u2581\u13e3\u13d3\u13c5\u13d9": 2350,
    "\u2581\u13a4\u13db\u13a6\u13be": 2351,
    "\u2581\u13c5\u13e7\u13b5\u13cd\u13d9\u13d4\u13c5": 2352,
    "\u2581\u13cd\u13a9\u13d9\u13b5\u13a9": 2353,
    "\u2581\u13cd\u13aa\u13ef": 2354,
    "\u2581\u13c2\u13a6\u13b5\u13cd\u13d4\u13c5\u13ad": 2355,
    "\u2581\u13a0\u13c2\u13c5\u13a2": 2356,
    "\u2581\u13e7\u13c2\u13b3\u13eb\u13a2\u13cd\u13d7\u13f1": 2357,
    "\u2581\u13a4\u13b5\u13cd\u13d7\u13f3": 2358,
    "\u2581\u13a2\u13f3\u13b5\u13cd\u13d4\u13c5\u13af": 2359,
    "\u2581\u13ad\u13bb": 2360,
    "\u2581\u13c4\u13e9\u13c5": 2361,
    "\u13f4\u13d7": 2362,
    "\u2581\u13a4\u13d5\u13b5\u13d2": 2363,
    "\u2581\u13a2\u13e8\u13ef": 2364,
    "\u2581\u13da\u13e0\u13f1\u13b4\u13a2": 2365,
    "\u2581\u13a0\u13c6\u13b5\u13cf": 2366,
    "\u2581\u13a2\u13ef\u13c6\u13db\u13c1\u13d7\u13f1": 2367,
    "\u2581\u13e6\u13b3": 2368,
    "\u2581\u13d3\u13d3\u13cf": 2369,
    "\u13ce\u13d7": 2370,
    "\u2581\u13a2\u13d3\u13b5": 2371,
    "\u2581\u13e5\u13aa\u13e9\u13d8\u13ad": 2372,
    "\u2581\u13b9\u13d7": 2373,
    "\u2581\u13a4\u13ea\u13d7\u13f1": 2374,
    "\u13cc\u13c2": 2375,
    "\u2581\u13a4\u13cd\u13c6\u13db": 2376,
    "\u2581\u13a4\u13e3\u13d6": 2377,
    "\u2581\u13a8\u13a5\u13a2": 2378,
    "\u13c3\u13c1\u13b8\u13a9": 2379,
    "\u2581\u13a1\u13d8\u13f4": 2380,
    "\u2581\u13a4\u13c2\u13a9\u13d2\u13a9": 2381,
    "\u2581\u13a7\u13c5\u13d1\u13b8": 2382,
    "\u2581\u13d8\u13b5": 2383,
    "\u2581\u13d3\u13ac\u13e9": 2384,
    "\u2581\u13f1\u13d9": 2385,
    "\u2581\u13c2\u13da\u13e9\u13c1\u13b8\u13a9": 2386,
    "\u2581\u13e7\u13c2\u13be\u13eb\u13f1": 2387,
    "\u2581\u13b9\u13a9": 2388,
    "\u2581\u13e7\u13d3\u13c5\u13db\u13a2": 2389,
    "\u2581\u13cc\u13da": 2390,
    "\u2581\u13e7\u13ec\u13da\u13af": 2391,
    "\u2581\u13ed\u13c2\u13b7\u13e4\u13a2": 2392,
    "\u2581\u13be\u13c6": 2393,
    "\u2581\u13c4\u13be\u13cd\u13d7": 2394,
    "\u2581\u13d7\u13e8": 2395,
    "\u2581\u13a8\u13c2\u13d7": 2396,
    "\u13cf\u13d7\u13d2": 2397,
    "\u2581\u13a4\u13c4\u13e2": 2398,
    "\u2581\u13a0\u13ad": 2399,
    "\u13b5\u13cd\u13d4\u13c5": 2400,
    "\u13d7\u13d2": 2401,
    "\u13d0\u13c5": 2402,
    "\u2581\u13c8": 2403,
    "\u2581\u13c2\u13eb": 2404,
    "\u2581\u13f1\u13da\u13c2": 2405,
    "\u2581\u13a0\u13c6\u13b5": 2406,
    "\u2581\u13d2": 2407,
    "\u2581\u13f1\u13b0": 2408,
    "\u2581\u13a6\u13db\u13ac\u13a2": 2409,
    "\u2581\u13a4\u13aa\u13b2\u13af": 2410,
    "\u13cd\u13c6\u13c2\u13aa\u13d7": 2411,
    "\u13c1\u13ac": 2412,
    "\u2581\u13c4\u13db\u13c1\u13b8\u13a2": 2413,
    "\u13ea\u13e8\u13af": 2414,
    "\u13cd\u13d4\u13c5\u13a2": 2415,
    "\u2581\u13da\u13e9": 2416,
    "\u2581\u13a4\u13c1\u13a2\u13cd\u13d7": 2417,
    "\u13d8\u13d7": 2418,
    "\u2581\u13a0\u13a9\u13aa\u13b2": 2419,
    "\u13a6\u13b8": 2420,
    "\u2581\u13d7\u13ac\u13d9\u13d7": 2421,
    "\u13f4\u13ad": 2422,
    "\u2581\u13a4\u13be\u13d5": 2423,
    "\u13dc": 2424,
    "\u2581\u13a4\u13ad\u13a8": 2425,
    "\u2581\u13eb\u13d7": 2426,
    "\u2581\u13d3\u13e5\u13ef": 2427,
    "\u2581\u13e5\u13f4": 2428,
    "\u13cd\u13d3\u13f4": 2429,
    "\u13c1\u13ae": 2430,
    "\u2581\u13af\u13be": 2431,
    "\u13c2\u13d2": 2432,
    "\u13e7\u13cf": 2433,
    "\u2581\u13a0\u13a6\u13db": 2434,
    "\u2581\u13a4\u13d9\u13d3\u13c3": 2435,
    "\u2581\u13a4\u13d4\u13c5": 2436,
    "\u2581\u13a0\u13cf\u13b3\u13db": 2437,
    "\u2581\u13da\u13a6": 2438,
    "\u13a1\u13cd\u13d7": 2439,
    "\u2581\u13e7\u13d9": 2440,
    "\u13c5\u13cf\u13d9\u13af": 2441,
    "\u13a0\u13ef\u13d7": 2442,
    "\u2581\u13af\u13b8\u13af": 2443,
    "\u13a9\u13d3": 2444,
    "\u2581\u13a0\u13f2": 2445,
    "\u2581\u13a4\u13b6\u13d2": 2446,
    "\u13d9\u13ae\u13cd\u13d7": 2447,
    "\u2581\u13a4\u13cd\u13c6": 2448,
    "\u2581\u13a8\u13b6\u13af": 2449,
    "\u2581\u13a4\u13db\u13c5\u13a9": 2450,
    "\u13b6\u13d2": 2451,
    "\u13d7\u13f3": 2452,
    "\u2581\u13c2\u13e3\u13db\u13c5\u13a2": 2453,
    "\u13c1\u13b8\u13d4\u13c5": 2454,
    "\u13cd\u13aa\u13c3": 2455,
    "\u13ea\u13b3": 2456,
    "\u2581\u13ed\u13c2\u13b7\u13e4": 2457,
    "\u13a9\u13cd\u13a8\u13cd\u13d7": 2458,
    "\u13d9\u13b5\u13cd\u13d7": 2459,
    "\u2581\u13a4\u13e9\u13a8\u13eb": 2460,
    "\u13a7\u13b5\u13a2": 2461,
    "\u13c9\u13d7": 2462,
    "\u13aa\u13a9": 2463,
    "\u2581\u13a2\u13cd": 2464,
    "\u13a4\u13d9\u13af\u13f3": 2465,
    "\u13ef\u13c5": 2466,
    "\u13a9\u13b3": 2467,
    "\u2581\u13a0\u13c2\u13c1": 2468,
    "\u2581\u13a0\u13a2\u13d2": 2469,
    "\u2581\u13e5\u13be": 2470,
    "\u13e8\u13a2": 2471,
    "\u13d3\u13c1\u13b8": 2472,
    "\u13ec\u13c2\u13af\u13cd\u13d7": 2473,
    "\u13f0\u13b8": 2474,
    "\u2581\u13a0\u13cd\u13a6": 2475,
    "\u2581\u13a0\u13cd\u13da\u13b2": 2476,
    "\u2581\u13e3\u13a9": 2477,
    "\u2581\u13ac\u13ef": 2478,
    "\u2581\u13a2\u13e3\u13d3": 2479,
    "\u2581\u13ad\u13b4": 2480,
    "\u2581\u13a0\u13cd\u13a6\u13c5\u13e8": 2481,
    "\u13c5\u13d3\u13d7\u13cd\u13d9\u13d7": 2482,
    "\u13b4\u13c5\u13af": 2483,
    "\u13a5\u13cf": 2484,
    "\u13d3\u13b6\u13c2\u13a8": 2485,
    "\u2581\u13be\u13c6\u13db\u13c1\u13b8": 2486,
    "\u2581\u13a0\u13d3\u13d9\u13b5\u13cd\u13d7": 2487,
    "\u2581\u13aa\u13e2\u13d2": 2488,
    "\u13b5\u13aa": 2489,
    "\u13d4\u13b7\u13a9\u13cd\u13a9": 2490,
    "\u2581\u13be\u13c2\u13ea\u13cd\u13ac": 2491,
    "\u13a8\u13b3\u13cd\u13d7": 2492,
    "\u2581\u13c2\u13aa": 2493,
    "\u2581\u13a0\u13a9\u13c1\u13e8": 2494,
    "\u2581\u13a0\u13d3\u13c5\u13d6\u13cd\u13a8": 2495,
    "\u2581\u13a1\u13b5\u13cd\u13a8": 2496,
    "\u2581\u13a5\u13d3\u13b8": 2497,
    "\u2581\u13a4\u13a9\u13e8\u13c5": 2498,
    "\u2581\u13a4\u13b5\u13c2\u13ac\u13ac": 2499,
    "\u2581\u13a0\u13f2\u13df": 2500,
    "\u13c5\u13a6": 2501,
    "\u13a2\u13f3\u13be\u13cd\u13d7": 2502,
    "\u2581\u13ac\u13e9\u13b7\u13e4\u13b4": 2503,
    "\u2581\u13e3\u13a7\u13db": 2504,
    "\u2581\u13d7\u13e4\u13b2": 2505,
    "\u2581\u13a4\u13c2\u13c3\u13ae\u13b8": 2506,
    "\u2581\u13a6\u13f0\u13cc\u13db": 2507,
    "\u2581\u13c2\u13e3\u13db\u13c5": 2508,
    "\u13c6\u13b5": 2509,
    "\u2581\u13a4\u13bf\u13a5": 2510,
    "\u2581\u13a4\u13f0\u13b8\u13c1": 2511,
    "\u2581\u13a0\u13d3\u13ef": 2512,
    "\u2581\u13eb\u13cd\u13a9": 2513,
    "\u2581\u13d7\u13e5\u13f0\u13b8": 2514,
    "\u2581\u13eb\u13da\u13ef\u13c5\u13b2": 2515,
    "\u2581\u13ac\u13e9\u13b7\u13e4\u13b8": 2516,
    "\u2581\u13a4\u13a6\u13d4\u13b2\u13d2": 2517,
    "\u2581\u13be\u13db\u13c1\u13b2": 2518,
    "\u13cd\u13da": 2519,
    "\u2581\u13a0\u13c1\u13b5\u13cd\u13ac": 2520,
    "\u2581\u13d7\u13c4\u13aa\u13d7\u13cd\u13a9": 2521,
    "\u2581\u13a2\u13ac\u13e9\u13c1\u13d7": 2522,
    "\u2581\u13a0\u13e5\u13a2\u13cd\u13d7": 2523,
    "\u13a5\u13dd": 2524,
    "\u13c7\u13d3\u13b5": 2525,
    "\u13d9\u13a2": 2526,
    "\u2581\u13da\u13c5\u13ce": 2527,
    "\u2581\u13aa\u13e2\u13d7": 2528,
    "\u2581Chap": 2529,
    "\u2581\u13c2\u13d3\u13aa\u13d4\u13c5\u13be": 2530,
    "\u2581\u13a0\u13f0\u13b3\u13cd\u13d8": 2531,
    "\u2581\u13a1\u13a9\u13b5\u13c8": 2532,
    "\u2581\u13a2\u13d7\u13cd\u13d3\u13d3\u13b3": 2533,
    "\u2581\u13a6\u13cc\u13c6\u13b8": 2534,
    "\u2581\u13cc\u13ec\u13da": 2535,
    "\u2581\u13a2\u13ef\u13ac\u13c1\u13b8\u13af": 2536,
    "\u2581\u13a0\u13c2\u13c8\u13b5\u13cd\u13d7": 2537,
    "\u2581\u13cc\u13f1\u13b3": 2538,
    "\u2581\u13e3\u13a6\u13df\u13b6\u13cd\u13d4\u13c5\u13af": 2539,
    "\u2581\u13a7\u13c1\u13cd\u13aa": 2540,
    "\u2581\u13da\u13a7\u13d4\u13cd\u13d4\u13c1\u13a2": 2541,
    "\u2581\u13e5\u13cd\u13aa\u13f4": 2542,
    "\u2581\u13e7\u13d3\u13d5\u13cd\u13d7\u13f1": 2543,
    "\u2581\u13c5\u13d3\u13a6\u13e5\u13f4\u13c1\u13b5": 2544,
    "\u2581\u13a4\u13f2\u13cd\u13db\u13c9": 2545,
    "\u2581\u13ae\u13bc": 2546,
    "\u2581\u13a0\u13d5\u13d2\u13b2\u13cd\u13a9": 2547,
    "\u2581\u13a2\u13c6\u13bb": 2548,
    "\u2581\u13a2\u13f3\u13db\u13c1\u13b8\u13af": 2549,
    "\u2581\u13a0\u13d7\u13d2\u13cd\u13d7": 2550,
    "\u2581\u13d7\u13e5\u13a6\u13d9\u13b5": 2551,
    "\u2581\u13e5\u13c2\u13e3\u13db\u13c5": 2552,
    "\u2581\u13e7\u13be\u13d3\u13c5\u13d9": 2553,
    "\u2581\u13a4\u13c2\u13c1\u13ab\u13e5\u13db": 2554,
    "\u2581\u13a6\u13cc\u13be\u13b5": 2555,
    "\u2581\u13a4\u13a9\u13d3\u13df\u13c5\u13ef": 2556,
    "\u2581\u13a4\u13b3\u13a8\u13ef\u13db\u13e4\u13a2": 2557,
    "\u2581\u13d7\u13bf\u13ec": 2558,
    "\u2581\u13a4\u13b4\u13f4\u13d2": 2559,
    "\u2581\u13c7": 2560,
    "\u2581\u13f1\u13e5\u13cd\u13a6\u13a2\u13ae\u13cd\u13d7": 2561,
    "\u2581\u13a0\u13b9\u13f3\u13b8\u13d3": 2562,
    "\u2581\u13a7\u13f4\u13d0\u13b5": 2563,
    "\u2581\u13a0\u13a9\u13ac\u13eb\u13f3\u13af": 2564,
    "\u2581\u13e3\u13e4\u13b5\u13aa\u13af": 2565,
    "\u2581\u13cf\u13b5\u13f1": 2566,
    "\u2581\u13e5\u13f2\u13ce\u13b8": 2567,
    "\u2581\u13a6\u13ab\u13cd\u13db\u13d7": 2568,
    "\u2581\u13d0\u13c1\u13b3": 2569,
    "\u2581\u13a0\u13c2\u13c3\u13ae\u13cd\u13a9": 2570,
    "\u2581\u13c7\u13d5\u13b5": 2571,
    "\u2581\u13d7\u13a8\u13e5\u13be\u13cc\u13a2": 2572,
    "\u2581\u13ed\u13b7\u13e3": 2573,
    "\u2581\u13a0\u13f0\u13b2": 2574,
    "\u2581\u13a0\u13a6\u13d4\u13be\u13a2": 2575,
    "\u2581\u13a4\u13e3\u13d4": 2576,
    "\u2581\u13a4\u13be\u13d7\u13cd\u13a6\u13b6\u13d7": 2577,
    "\u2581\u13d3\u13ac\u13d4\u13c2": 2578,
    "\u2581\u13ac\u13e9\u13cd\u13d3\u13e9\u13db\u13d2\u13a9": 2579,
    "\u2581\u13ac\u13b5\u13cd\u13c6\u13d7\u13cd\u13a9": 2580,
    "\u2581\u13a0\u13c9\u13b3": 2581,
    "\u2581\u13a2\u13f3\u13e9\u13c1\u13af": 2582,
    "\u2581\u13a0\u13b5\u13cd\u13aa\u13b8\u13d3\u13c1\u13d7": 2583,
    "\u2581\u13e5\u13e5\u13a6\u13d4\u13ad": 2584,
    "\u2581\u13d7\u13ac\u13e9\u13b8\u13cc\u13db": 2585,
    "\u2581\u13ef\u13a6\u13d4\u13ad": 2586,
    "\u2581\u13a3\u13a9\u13d9\u13d3": 2587,
    "\u2581\u13da\u13c3\u13a1\u13a2": 2588,
    "\u2581\u13e4\u13d9\u13b2": 2589,
    "\u2581\u13a0\u13c3\u13cd\u13db": 2590,
    "\u2581\u13a4\u13c1\u13e2\u13d4\u13c5\u13af": 2591,
    "\u2581\u13d7\u13a6\u13c5\u13cd\u13a8\u13c2": 2592,
    "\u2581\u13be\u13e5\u13be\u13dd\u13a5\u13be": 2593,
    "\u2581\u13e7\u13c2\u13a6\u13f4\u13b5\u13a8": 2594,
    "\u2581\u13f3\u13e9\u13c1\u13a6": 2595,
    "\u2581\u13cf\u13c5\u13d3": 2596,
    "\u2581\u13a2\u13e3\u13e0\u13be\u13cd\u13d7": 2597,
    "\u2581\u13ed\u13b6\u13af\u13cd\u13d7\u13f1": 2598,
    "\u2581\u13aa\u13ea\u13b3\u13c5\u13af": 2599,
    "\u2581\u13a0\u13a8\u13ef": 2600,
    "\u2581\u13e6\u13c8": 2601,
    "\u2581\u13ac\u13c2\u13a8\u13d2\u13a2\u13f3": 2602,
    "\u2581\u13a4\u13c1\u13cd\u13d3\u13b3": 2603,
    "\u2581\u13e5\u13c2\u13a6\u13ea\u13ad": 2604,
    "\u13ac\u13eb\u13f3\u13d2": 2605,
    "\u2581\u13aa\u13e2\u13c5": 2606,
    "\u2581\u13a0\u13e5\u13c3\u13ae\u13cd\u13ac\u13a2": 2607,
    "\u2581\u13e7\u13c1\u13ac": 2608,
    "\u2581\u13c2\u13a6\u13c5\u13af\u13d2\u13a9": 2609,
    "\u2581\u13a4\u13a6\u13b9": 2610,
    "\u2581\u13a4\u13aa\u13e9\u13db\u13d7": 2611,
    "\u2581\u13c2\u13da\u13cd\u13db": 2612,
    "\u2581\u13a1\u13c9\u13d7\u13f1": 2613,
    "\u2581\u13a4\u13c5\u13cf\u13d9\u13af": 2614,
    "\u2581\u13a4\u13d3\u13c5\u13d6\u13b8\u13af": 2615,
    "\u2581\u13a3\u13a9\u13be\u13b5\u13a2": 2616,
    "\u2581\u13a4\u13d5\u13c1\u13b8\u13af": 2617,
    "\u13be\u13f0\u13cd\u13ac\u13be": 2618,
    "\u2581\u13be\u13a6\u13d4\u13b2\u13be": 2619,
    "\u13a9\u13cd\u13aa": 2620,
    "\u2581\u13a0\u13c1\u13b0": 2621,
    "\u2581\u13d3\u13d5\u13f2\u13b2\u13cd\u13ac\u13a2": 2622,
    "\u2581\u13a4\u13ec\u13e2\u13c5\u13a9": 2623,
    "\u2581\u13d3\u13c2\u13c1\u13b8\u13a2": 2624,
    "\u2581\u13a0\u13ad\u13c2": 2625,
    "\u13c2\u13d3\u13cd\u13d7\u13f1": 2626,
    "\u2581\u13ac\u13c2\u13f3": 2627,
    "\u2581\u13a4\u13cd\u13a6\u13c5\u13e8\u13af": 2628,
    "\u2581\u13a1\u13b3\u13d7\u13e2": 2629,
    "\u13da\u13b5\u13ad": 2630,
    "\u2581\u13e5\u13a8": 2631,
    "\u13c2\u13a9\u13db": 2632,
    "\u2581\u13e5\u13c4": 2633,
    "\u2581\u13a8\u13b3\u13cd\u13d7": 2634,
    "\u13a1\u13d7": 2635,
    "\u2581\u13a4\u13bf\u13a5\u13a2": 2636,
    "\u2581\u13a0\u13a9\u13cd\u13d7\u13f1": 2637,
    "\u2581\u13f1\u13d5": 2638,
    "\u2581\u13e4\u13c6": 2639,
    "\u2581\u13cc\u13b5": 2640,
    "\u2581\u13a0\u13cd\u13d8": 2641,
    "\u2581\u13d5\u13e1\u13ac\u13a2": 2642,
    "\u13c8\u13cd\u13d7": 2643,
    "\u2581\u13a4\u13be\u13db\u13a6\u13c5\u13af": 2644,
    "\u13b5\u13ef": 2645,
    "\u2581\u13be\u13a8": 2646,
    "\u13d1\u13f0\u13db": 2647,
    "\u2581\u13a0\u13a9\u13f0\u13b8": 2648,
    "\u2581\u13a0\u13c6\u13d3\u13c5\u13d9\u13a9": 2649,
    "\u2581\u13d5\u13c2": 2650,
    "\u13a8\u13f3\u13d7": 2651,
    "\u2581\u13f3\u13da\u13b5": 2652,
    "\u2581\u13a6\u13d9\u13ac\u13a9": 2653,
    "\u2581\u13c2\u13ac\u13c1\u13b2": 2654,
    "\u13c4\u13aa\u13eb\u13d2\u13a9": 2655,
    "\u13c1\u13b0\u13a2": 2656,
    "\u2581\u13c4\u13b5\u13cd\u13d4\u13c2\u13d9\u13b8\u13a2": 2657,
    "\u2581\u13a4\u13c2\u13cd\u13a6\u13c5\u13e8\u13a2": 2658,
    "\u13d5\u13b6\u13b0\u13af\u13cd\u13d7": 2659,
    "\u13f3\u13af": 2660,
    "\u2581\u13a6\u13b8\u13c9": 2661,
    "\u13a9\u13af": 2662,
    "\u2581\u13a4\u13b7\u13e4\u13a2": 2663,
    "\u2581\u13a4\u13d7\u13d4\u13cd\u13d7": 2664,
    "\u2581\u13c5\u13d7\u13a6\u13b5\u13cd\u13d9\u13d7\u13cd\u13ac\u13a2": 2665,
    "\u2581\u13e6\u13af\u13f3\u13d2": 2666,
    "\u2581\u13a0\u13ab": 2667,
    "\u2581\u13a0\u13d2\u13a9": 2668,
    "\u13d3\u13c5\u13a6\u13b8\u13db": 2669,
    "\u13cf\u13c1": 2670,
    "\u13d4\u13f2\u13cf": 2671,
    "id": 2672,
    "\u2581\u13a4\u13a7\u13db\u13a2": 2673,
    "\u2581\u13a2\u13e5\u13f0\u13b8": 2674,
    "\u2581\u13d5\u13cd\u13a9": 2675,
    "\u2581\u13a8\u13db": 2676,
    "\u13a8\u13c2": 2677,
    "\u2581\u13a4\u13be\u13db": 2678,
    "\u13d4\u13be": 2679,
    "\u13d9\u13b4\u13b0\u13cf": 2680,
    "\u13c1\u13e4\u13b4": 2681,
    "\u2581\u13a2\u13d2": 2682,
    "\u2581\u13a4\u13c2\u13b2": 2683,
    "\u2581\u13ad\u13e9": 2684,
    "\u13c1\u13cd\u13d7": 2685,
    "\u13b7\u13e3": 2686,
    "\u2581\u13a6\u13f2\u13b5": 2687,
    "\u13d7\u13cd\u13ac\u13a2": 2688,
    "\u13a6\u13d9": 2689,
    "l": 2690,
    "\u2581\u13be\u13a9": 2691,
    "\u13b5\u13cd\u13d7\u13f1": 2692,
    "\u13a1\u13b8\u13a9": 2693,
    "\u2581\u13c4\u13ea": 2694,
    "\u13b5\u13cf\u13f1": 2695,
    "\u2581\u13e6\u13a2\u13ad": 2696,
    "\u2581\u13a9\u13b5": 2697,
    "\u13a6\u13d4\u13b0": 2698,
    "\u13af\u13af": 2699,
    "\u2581\u13a4\u13c2\u13f0": 2700,
    "\u2581\u13a2\u13cf\u13b5\u13f1": 2701,
    "\u2581\u13da\u13c1\u13b8": 2702,
    "\u13c5\u13d3\u13d3": 2703,
    "\u13d3\u13cd\u13d7": 2704,
    "\u2581\u13a0\u13c2\u13eb\u13be": 2705,
    "\u13d5\u13c5": 2706,
    "\u2581\u13da\u13c2\u13f2": 2707,
    "\u2581\u13d3\u13f0": 2708,
    "\u13da\u13b5": 2709,
    "\u13e0\u13f1": 2710,
    "\u2581\u13a0\u13c2\u13d0\u13a2\u13c3": 2711,
    "\u13c5\u13cf\u13d3\u13cd\u13d7": 2712,
    "\u13a5\u13a9": 2713,
    "\u13f0\u13a2": 2714,
    "\u13b6\u13e8": 2715,
    "\u13c1\u13b8\u13a2": 2716,
    "\u13c1\u13e4\u13b8\u13af": 2717,
    "\u2581\u13af\u13a6\u13d8\u13cf": 2718,
    "\u2581\u13a3\u13a9\u13be": 2719,
    "\u13ce\u13b4": 2720,
    "\u13be\u13a5": 2721,
    "\u2581\u13aa\u13a6": 2722,
    "\u2581\u13e3\u13d3": 2723,
    "\u13df\u13cd\u13d7": 2724,
    "\u2581\u13a4\u13ec\u13c2\u13d2": 2725,
    "\u2581\u13a0\u13c9": 2726,
    "\u2581\u13a4\u13c2\u13e3\u13db": 2727,
    "\u2581\u13a2\u13b3": 2728,
    "\u13be\u13c4\u13aa\u13eb\u13cf": 2729,
    "\u13e9\u13db\u13ae": 2730,
    "\u13ef\u13c5\u13b2": 2731,
    "\u2581\u13da\u13a7\u13bf\u13c5": 2732,
    "\u2581\u13d7\u13a6\u13c5": 2733,
    "\u13a1\u13b8\u13af": 2734,
    "\u2581\u13c2\u13a8": 2735,
    "\u2581\u13a0\u13d4\u13b4\u13a6\u13d2": 2736,
    "\u2581\u13a4\u13c3\u13c1\u13b4": 2737,
    "\u2581\u13c4\u13c5": 2738,
    "\u2581\u13d5\u13a6\u13da\u13e9\u13d7\u13d2": 2739,
    "\u2581\u13e9\u13be": 2740,
    "\u2581\u13e7\u13e9\u13ab\u13d4\u13c5\u13d2": 2741,
    "\u2581\u13a4\u13cd\u13d3\u13a6\u13b8": 2742,
    "\u2581\u13d3\u13d5\u13f2\u13b2\u13cd\u13ac": 2743,
    "\u13d4\u13c5\u13be": 2744,
    "\u2581\u13f1\u13a8\u13d0": 2745,
    "\u13aa\u13b1\u13cd\u13d7": 2746,
    "\u2581\u13a0\u13da\u13a2\u13cd\u13db": 2747,
    "\u2581\u13a3\u13b5\u13e9": 2748,
    "\u2581\u13da\u13ec\u13a1": 2749,
    "\u2581\u13a4\u13c2\u13b7\u13e4\u13d7": 2750,
    "\u2581\u13a4\u13f0\u13b8\u13c5": 2751,
    "\u2581\u13d7\u13ab": 2752,
    "\u2581\u13d3\u13c2\u13c1\u13b8": 2753,
    "\u13d7\u13e2": 2754,
    "\u2581\u13a4\u13da": 2755,
    "\u2581\u13a4\u13b7\u13e4\u13b4": 2756,
    "\u2581\u13e4\u13ae": 2757,
    "\u2581\u13a4\u13ec\u13da": 2758,
    "\u2581\u13d5\u13aa\u13ea\u13b8": 2759,
    "\u2581\u13a4\u13c1\u13a6\u13b8": 2760,
    "\u13cd\u13a6\u13a2\u13b2\u13be": 2761,
    "\u13e3\u13db\u13c1\u13af": 2762,
    "\u13e5\u13f2\u13cf": 2763,
    "\u2581\u13a4\u13c5\u13ce": 2764,
    "rs": 2765,
    "\u2581\u13a1\u13c2\u13be\u13ef": 2766,
    "\u2581\u13a5\u13d8\u13a3\u13a9": 2767,
    "\u2581\u13d1\u13d3\u13b3\u13cd\u13aa\u13af": 2768,
    "\u2581\u13d7\u13ab\u13d3\u13b8\u13d7\u13f1": 2769,
    "\u2581\u13e4\u13a6\u13b3\u13ef": 2770,
    "\u13b0\u13b2\u13cd\u13d7": 2771,
    "\u2581\u13a1\u13b9\u13c2\u13d3": 2772,
    "\u2581\u13a2\u13cd\u13a6\u13b3\u13d7": 2773,
    "\u2581\u13e7\u13a6\u13c3\u13ee": 2774,
    "\u2581\u13e7\u13ef\u13d6\u13c3\u13af": 2775,
    "\u2581\u13a4\u13b5\u13cd\u13d4\u13f4\u13d7": 2776,
    "\u2581\u13a4\u13c2\u13c3\u13ae\u13b4": 2777,
    "\u2581\u13eb\u13da\u13a7\u13bf\u13c1": 2778,
    "\u2581\u13d7\u13a7\u13be\u13e9\u13db\u13cd\u13d7": 2779,
    "\u2581\u13ef\u13c3\u13a9\u13f3": 2780,
    "\u13d4\u13ec\u13cd\u13d4\u13c5": 2781,
    "\u2581\u13a4\u13be\u13e2\u13c9\u13d7": 2782,
    "\u2581\u13d7\u13c7\u13c5\u13d2": 2783,
    "\u2581\u13d7\u13be\u13d3\u13c2\u13f1\u13cd\u13a9": 2784,
    "\u2581\u13a4\u13ef\u13d6\u13c3\u13af": 2785,
    "\u2581\u13a2\u13e4\u13b3\u13d7\u13d9\u13ae\u13cd\u13d7": 2786,
    "\u2581\u13d3\u13d3\u13b6\u13c2": 2787,
    "\u2581\u13ac\u13c9\u13ce\u13b0": 2788,
    "\u2581\u13d7\u13cd\u13c6\u13a8\u13c2": 2789,
    "\u2581\u13d5\u13a8\u13e5\u13f0\u13b8\u13d4\u13c5\u13a9": 2790,
    "\u2581\u13e6\u13cd\u13d3\u13d3\u13c5\u13df": 2791,
    "\u2581\u13bb\u13be\u13cc": 2792,
    "\u2581\u13a2\u13f3\u13e9\u13c2\u13cc\u13c5\u13af": 2793,
    "\u2581\u13d1\u13be\u13d3\u13b4\u13a9": 2794,
    "\u2581\u13a6\u13b6\u13af\u13cd\u13d7\u13f3\u13b6\u13d7": 2795,
    "\u2581\u13a1\u13e5\u13b8\u13c9\u13d3": 2796,
    "\u2581\u13c5\u13d3\u13f3\u13b5\u13cd\u13d9\u13d7\u13f1": 2797,
    "\u2581\u13a8\u13e3\u13cd\u13d3\u13e9\u13d7\u13d9\u13af": 2798,
    "\u2581\u13c2\u13e3\u13ea\u13d2": 2799,
    "\u2581\u13d5\u13aa\u13ea\u13b5\u13cd\u13ac": 2800,
    "\u2581\u13f1\u13c5\u13a6\u13b5\u13cd\u13d3": 2801,
    "\u2581\u13c5\u13d3\u13ac\u13c1\u13b5": 2802,
    "\u2581\u13cd\u13a9\u13c4\u13cd\u13db": 2803,
    "\u2581\u13aa\u13cc\u13c2": 2804,
    "\u2581\u13a0\u13c2\u13c8\u13b7": 2805,
    "\u2581\u13a2\u13f2\u13cd\u13db": 2806,
    "\u2581\u13a4\u13f0\u13b8\u13ae": 2807,
    "\u2581\u13af\u13a8\u13f4": 2808,
    "\u2581\u13c2\u13e3\u13db\u13a6": 2809,
    "\u2581\u13e7\u13b3\u13cd\u13a9": 2810,
    "\u2581\u13d7\u13d3\u13b4\u13b2\u13cd\u13a6": 2811,
    "\u2581\u13a2\u13f3\u13db\u13bf\u13d5\u13a9": 2812,
    "\u2581\u13a2\u13a7\u13c1\u13e8\u13af": 2813,
    "\u2581\u13a0\u13d3\u13e0\u13cd\u13d7": 2814,
    "\u2581\u13eb\u13e8\u13b7\u13e4\u13d7\u13f1": 2815,
    "\u2581\u13a4\u13c2\u13b7\u13af\u13cd\u13d7\u13f1": 2816,
    "\u13b8\u13c9\u13d5\u13cd\u13d7": 2817,
    "\u2581\u13a4\u13b5\u13e0\u13ef\u13cd\u13d5\u13cd\u13d7": 2818,
    "\u2581\u13db\u13cd\u13c6\u13b8\u13af": 2819,
    "\u2581\u13a0\u13c2\u13e6\u13a2": 2820,
    "\u2581\u13d7\u13d3\u13c2\u13d0\u13d7\u13f1": 2821,
    "\u2581\u13d1\u13d5\u13d8\u13f4\u13db": 2822,
    "\u2581\u13a2\u13e3\u13b5\u13cd\u13d5\u13b8\u13d9\u13d7": 2823,
    "\u2581\u13a2\u13e3\u13db\u13a6\u13c5\u13af": 2824,
    "\u2581\u13a4\u13b6": 2825,
    "\u2581\u13a0\u13d9\u13b4\u13b0\u13af\u13cd\u13d9\u13d7": 2826,
    "\u2581\u13d7\u13a6\u13b4\u13c2": 2827,
    "\u2581\u13a4\u13db\u13aa\u13d7\u13f1": 2828,
    "\u2581\u13ed\u13c2\u13b6\u13af\u13cd\u13d7\u13f1": 2829,
    "\u2581\u13a2\u13f3\u13e9\u13c1\u13b8\u13af": 2830,
    "\u2581\u13a0\u13a9\u13c5\u13cf\u13db": 2831,
    "\u2581\u13ed\u13f4\u13b8": 2832,
    "\u2581\u13a4\u13d3\u13d9\u13b5\u13cd\u13d3\u13c1\u13b4\u13a2": 2833,
    "\u2581\u13a4\u13c1\u13b7\u13c5\u13a9": 2834,
    "\u2581\u13be\u13c2\u13a6\u13d4\u13b2\u13be": 2835,
    "\u2581\u13a4\u13ea\u13b5\u13cd\u13d7": 2836,
    "\u2581\u13e9\u13a9\u13b7\u13e8": 2837,
    "\u2581\u13a4\u13d3\u13d9\u13b5\u13e3\u13d8\u13f3": 2838,
    "\u2581\u13e6\u13d3\u13b8": 2839,
    "\u2581\u13c1\u13b5\u13cd\u13ac": 2840,
    "\u13b8\u13d3": 2841,
    "\u2581\u13a0\u13c7\u13c5\u13cd\u13d7": 2842,
    "\u2581\u13a4\u13ea\u13d9\u13b5\u13cd\u13d7": 2843,
    "\u13a6\u13da": 2844,
    "\u2581\u13be\u13c2\u13a0": 2845,
    "\u2581\u13a2\u13a8\u13ac\u13c1\u13d7": 2846,
    "\u13c2\u13cc\u13c1": 2847,
    "\u2581\u13ac\u13e9\u13d4\u13f2\u13ce\u13b4": 2848,
    "\u2581\u13f4\u13a8\u13e5": 2849,
    "\u2581\u13a4\u13c2\u13c7\u13d3\u13b8\u13a2": 2850,
    "\u2581\u13c2\u13a6\u13b5\u13cd\u13d7\u13cd\u13a8\u13cd\u13d7": 2851,
    "\u2581\u13d9\u13d3\u13f3": 2852,
    "\u2581\u13be\u13a9\u13ea\u13d2\u13a9": 2853,
    "\u2581\u13a0\u13a6\u13cd\u13ac": 2854,
    "\u2581\u13a4\u13cc\u13b3\u13d3\u13c5": 2855,
    "\u13a6\u13f4\u13b5\u13a8": 2856,
    "\u2581\u13a4\u13c2\u13c1\u13ab": 2857,
    "\u2581\u13d7\u13a6\u13b6\u13d7": 2858,
    "\u2581\u13e5\u13cd\u13c6\u13ef": 2859,
    "\u2581\u13a4\u13be\u13d5\u13c5\u13af": 2860,
    "\u2581\u13a4\u13c2\u13c3\u13ae\u13b8\u13af": 2861,
    "\u2581\u13da\u13c2\u13c5\u13ce": 2862,
    "\u2581\u13a4\u13e9\u13c2": 2863,
    "\u2581\u13e4\u13b2\u13a9": 2864,
    "\u2581\u13c2\u13ac\u13c1\u13ad": 2865,
    "\u2581\u13da\u13c1\u13e4\u13b8\u13a9": 2866,
    "\u2581\u13a2\u13f3\u13db\u13c1\u13d7\u13f1": 2867,
    "\u2581\u13a4\u13f0\u13b8\u13af": 2868,
    "\u2581\u13d9\u13e7\u13be\u13d3\u13c5\u13db\u13a2": 2869,
    "\u13a6\u13d4\u13af": 2870,
    "\u2581\u13a4\u13ea\u13c5\u13cd\u13d7\u13f1": 2871,
    "\u2581\u13a4\u13d3\u13d1\u13ef": 2872,
    "\u2581\u13a4\u13be\u13b5\u13cd\u13d3\u13f4\u13d7\u13f1": 2873,
    "\u2581\u13c4\u13be\u13db\u13c1\u13b4\u13a2": 2874,
    "\u2581\u13a3\u13ac\u13d2": 2875,
    "\u13f2\u13a2\u13f4": 2876,
    "\u2581\u13eb\u13da\u13ef\u13c5\u13b2\u13a9": 2877,
    "\u2581\u13a0\u13c6\u13d3\u13c5\u13db": 2878,
    "\u2581\u13a4\u13d3\u13b4\u13c5\u13db": 2879,
    "\u13f0\u13ad": 2880,
    "\u2581\u13c5\u13d3\u13ac": 2881,
    "\u2581\u13a4\u13b5\u13ec\u13e8\u13af": 2882,
    "\u2581\u13a4\u13ea\u13c5\u13d2\u13a9": 2883,
    "\u2581\u13da\u13cc\u13b3\u13d3\u13c1": 2884,
    "\u2581\u13a0\u13e5\u13b8\u13a8\u13b3\u13cd\u13d7\u13f1": 2885,
    "\u13db\u13c5": 2886,
    "\u2581\u13e5\u13cd": 2887,
    "\u13d7\u13cf": 2888,
    "\u2581\u13a4\u13ea\u13d9\u13b8\u13a9": 2889,
    "\u2581\u13a4\u13a9\u13b8": 2890,
    "\u2581\u13a4\u13c4\u13aa\u13e8\u13a9": 2891,
    "\u2581\u13a8\u13a6\u13ab\u13f4\u13a1": 2892,
    "\u2581\u13be\u13c2\u13ea\u13cd\u13ac\u13a2": 2893,
    "\u2581\u13a0\u13ce\u13cd\u13a9\u13c2\u13c3\u13c5": 2894,
    "\u2581\u13a4\u13f0\u13b8\u13c1\u13a2": 2895,
    "\u2581\u13d9\u13ef": 2896,
    "\u2581\u13a0\u13e8\u13ef\u13a2": 2897,
    "\u2581\u13d5\u13b3": 2898,
    "\u2581\u13a2\u13be\u13a9": 2899,
    "\u2581\u13a4\u13c2\u13f0\u13b8\u13c1": 2900,
    "\u13c4\u13aa\u13e9": 2901,
    "\u13a7\u13c1": 2902,
    "\u2581\u13a7\u13c1\u13c9": 2903,
    "\u2581\u13f2\u13a9": 2904,
    "\u13db\u13c2": 2905,
    "\u13e9\u13d2": 2906,
    "\u2581\u13a2\u13f3\u13d3\u13b5": 2907,
    "\u2581\u13a0\u13e4\u13b5\u13cd\u13db\u13a2": 2908,
    "\u2581\u13a0\u13eb\u13cd\u13a9": 2909,
    "\u2581\u13a4\u13c2\u13ac": 2910,
    "\u2581\u13a7\u13aa": 2911,
    "\u13d3\u13f1\u13b5": 2912,
    "\u13f2\u13af\u13cd\u13d4\u13c5": 2913,
    "\u13b2\u13cd\u13a6": 2914,
    "\u2581\u13d4\u13b5\u13cd\u13aa": 2915,
    "\u2581\u13c4\u13e9\u13c1\u13b4\u13a2": 2916,
    "\u2581\u13f4\u13d3": 2917,
    "\u2581\u13d7\u13a6\u13da\u13b2\u13a2": 2918,
    "\u2581\u13a4\u13b6\u13a9\u13b8\u13a2": 2919,
    "\u13af\u13d3": 2920,
    "\u2581\u13d7\u13a6\u13c5\u13cc\u13d7": 2921,
    "\u2581\u13eb\u13d7\u13a6": 2922,
    "\u13b5\u13cd\u13d5\u13b8\u13d9\u13d7": 2923,
    "\u2581\u13be\u13cb\u13c1\u13b8": 2924,
    "\u13c1\u13b8\u13be": 2925,
    "\u2581\u13ac\u13be": 2926,
    "\u13de": 2927,
    "\u13d3\u13b4\u13c5\u13db": 2928,
    "\u2581\u13db\u13c2": 2929,
    "\u2581\u13a4\u13ac": 2930,
    "\u13d9\u13b8": 2931,
    "\u2581\u13f1\u13cf": 2932,
    "\u2581\u13d9\u13a9\u13be": 2933,
    "\u13c5\u13d4": 2934,
    "\u13b8\u13c9\u13d9\u13d7\u13f1": 2935,
    "\u2581\u13a0\u13cb\u13ad": 2936,
    "\u2581\u13a4\u13b4\u13c1": 2937,
    "\u13b0\u13b5": 2938,
    "\u2581\u13a0\u13df": 2939,
    "\u13e5\u13aa\u13e9\u13db": 2940,
    "\u2581\u13c2\u13d5\u13ac\u13c1": 2941,
    "\u13b2\u13cd\u13aa\u13a2": 2942,
    "\u13e4\u13b5\u13a6": 2943,
    "\u2581\u13e5\u13aa\u13a5": 2944,
    "\u2581\u13a4\u13e5\u13b8\u13d2": 2945,
    "\u2581\u13e3\u13c1": 2946,
    "\u2581\u13c4\u13b5\u13cd\u13d4\u13c1\u13ae": 2947,
    "\u13c1\u13c3": 2948,
    "\u2581\u13a4\u13b2\u13a2": 2949,
    "\u2581\u13f0\u13b5\u13cd\u13a8": 2950,
    "\u2581\u13e7\u13ec": 2951,
    "\u13cd\u13c6\u13d9\u13c5": 2952,
    "\u13db\u13d9\u13d7": 2953,
    "\u2581\u13a0\u13eb\u13be": 2954,
    "\u13b1\u13cd\u13d7": 2955,
    "\u2581\u13a2\u13af": 2956,
    "\u13cd\u13d4\u13be": 2957,
    "\u2581\u13a2\u13e3\u13d3\u13c5\u13d8": 2958,
    "\u13c1\u13ae\u13a2": 2959,
    "\u2581\u13ad\u13d3": 2960,
    "\u13a0\u13c8": 2961,
    "\u2581\u13a3\u13a9\u13c2": 2962,
    "\u13a6\u13b3": 2963,
    "\u2581\u13f1\u13d9\u13a6": 2964,
    "\u2581\u13c2\u13ac\u13e9": 2965,
    "\u13b3\u13d3": 2966,
    "\u2581\u13a3\u13ac": 2967,
    "\u13d2\u13cd\u13d7": 2968,
    "\u13cd\u13d5\u13b5\u13ad": 2969,
    "\u13d7\u13cd\u13ac\u13be": 2970,
    "\u13d3\u13c2": 2971,
    "\u13d2\u13c3": 2972,
    "\u2581\u13a2\u13ac\u13c1": 2973,
    "\u13d3\u13c5\u13d6\u13d7": 2974,
    "\u13cd\u13d3\u13e9\u13d7\u13d9\u13af": 2975,
    "\u13be\u13c4\u13aa\u13e8\u13af": 2976,
    "\u13a7\u13c5": 2977,
    "\u2581\u13a1\u13a6": 2978,
    "\u2581\u13d3\u13f2": 2979,
    "\u2581\u13a4\u13be\u13db\u13a6\u13c1": 2980,
    "\u13cf\u13c6": 2981,
    "\u13af\u13ef": 2982,
    "\u13c9\u13cd\u13aa": 2983,
    "\u13c5\u13b5": 2984,
    "\u2581\u13a6\u13f0\u13e5": 2985,
    "\u13c7\u13c5": 2986,
    "\u13c2\u13d7": 2987,
    "\u2581\u13a9\u13b3\u13af": 2988,
    "\u13cb": 2989,
    "\u13f0\u13cc\u13db": 2990,
    "\u13aa\u13b5\u13f0": 2991,
    "\u2581\u13f1\u13cd\u13a9": 2992,
    "\u2581\u13b9": 2993,
    "\u13d5\u13d7": 2994,
    "\u2581\u13f1\u13d7\u13a6": 2995,
    "\u2581\u13a4\u13cd": 2996,
    "\u2581\u13a1\u13e5\u13c1\u13d7": 2997,
    "\u13e0\u13cd\u13d7": 2998,
    "\u2581\u13e5\u13c2\u13a6\u13ea": 2999,
    "\u13cd\u13d4\u13f1": 3000,
    "\u13b5\u13a2": 3001,
    "\u13e6\u13c5": 3002,
    "\u13aa\u13b5\u13f0\u13d7": 3003,
    "\u13e5\u13e9\u13db\u13b2": 3004,
    "\u2581\u13be\u13bf\u13c9": 3005,
    "\u2581\u13a0\u13d3\u13c5\u13d6\u13b5\u13d9": 3006,
    "\u2581\u13a0\u13cd\u13aa\u13af\u13c3": 3007,
    "\u13a6\u13d3\u13c1": 3008,
    "\u13e2\u13c5": 3009,
    "\u2581\u13e7\u13be\u13b4\u13af\u13d0": 3010,
    "h": 3011,
    "\u13be\u13c4\u13aa\u13eb\u13d2\u13af": 3012,
    "\u13a0\u13ce": 3013,
    "\u2581\u13c4\u13c2\u13ea\u13d2": 3014,
    "\u13a2\u13d2": 3015,
    "\u2581\u13f1\u13d3\u13c2": 3016,
    "\u2581\u13a4\u13c2\u13a9\u13d2": 3017,
    "\u2581\u13eb\u13d3\u13c2": 3018,
    "\u2581\u13be\u13ac\u13c1\u13b8": 3019,
    "\u2581\u13af\u13f0\u13b8": 3020,
    "\u2581\u13d3\u13c8": 3021,
    "\u13cd\u13c6\u13c2\u13aa\u13d9\u13d7\u13f1": 3022,
    "\u13af\u13eb": 3023,
    "\u2581\u13c2\u13a6\u13b5\u13cd\u13d7\u13cd\u13a8": 3024,
    "\u2581\u13a3\u13d3\u13c5\u13db": 3025,
    "\u2581\u13a4\u13f2\u13af\u13cd\u13d4\u13c1": 3026,
    "\u13d7\u13c2\u13c5\u13cc\u13d7": 3027,
    "\u13ad\u13d5\u13ec": 3028,
    "\u2581\u13e7\u13f4\u13e2": 3029,
    "\u2581\u13a2\u13e3\u13d3\u13e1\u13ac": 3030,
    "\u2581\u13a4\u13be\u13b5\u13ae\u13b5\u13e4": 3031,
    "on": 3032,
    "\u13a8\u13b5\u13a0": 3033,
    "\u2581\u13e5\u13c2": 3034,
    "\u13a0\u13a9\u13be": 3035,
    "\u13a6\u13b8\u13b3\u13d7": 3036,
    "\u13a0\u13d5\u13b8": 3037,
    "\u2581\u13a1\u13d9\u13ae": 3038,
    "\u2581\u13d5\u13a4\u13b4\u13d4\u13c5": 3039,
    "\u13cd\u13a6\u13a9": 3040,
    "\u13ad\u13f2\u13b2": 3041,
    "\u13d7\u13a6\u13d8\u13ef": 3042,
    "\u2581\u13e7\u13d3\u13c5\u13db": 3043,
    "\u2581\u13e5\u13c1": 3044,
    "\u13a6\u13d4\u13b2": 3045,
    "\u13be\u13c4\u13aa\u13a2\u13cd\u13d7": 3046,
    "\u13a7\u13b5\u13e8\u13af": 3047,
    "\u2581\u13a4\u13ea\u13f4": 3048,
    "\u13e0\u13a0\u13cf": 3049,
    "\u13f2\u13af\u13ce\u13b8\u13a9": 3050,
    "\u2581\u13a0\u13d3\u13c1\u13e3\u13cd\u13da\u13b6": 3051,
    "\u2581\u13da\u13c2\u13b8\u13eb\u13cd\u13d3\u13c1\u13b8": 3052,
    "\u2581\u13a4\u13d7\u13de": 3053,
    "\u2581\u13a2\u13d9\u13bb": 3054,
    "\u2581\u13cf\u13d3\u13c1\u13b8": 3055,
    "\u2581\u13e7\u13c2\u13b3\u13eb\u13a2\u13cd\u13d7": 3056,
    "\u2581\u13a0\u13f2\u13b1\u13d2": 3057,
    "\u2581\u13c5\u13f2": 3058,
    "\u2581\u13a0\u13e5\u13cd\u13d5\u13b8\u13d7": 3059,
    "\u2581\u13e3\u13be\u13eb": 3060,
    "\u2581\u13d9\u13e7": 3061,
    "\u2581\u13ae\u13b5\u13a0": 3062,
    "\u2581\u13a4\u13be\u13d5\u13c5": 3063,
    "\u2581\u13e5\u13f0": 3064,
    "\u13ad\u13c4\u13b8\u13af": 3065,
    "\u2581Philadelphia": 3066,
    "\u2581\u13d0\u13b5\u13b9\u13c5": 3067,
    "\u2581\u13d5\u13a8\u13a6\u13e8\u13cd\u13d7\u13cd\u13ac": 3068,
    "\u2581\u13d5\u13e6\u13af\u13f3\u13ce\u13cd\u13d7": 3069,
    "\u2581\u13da\u13cd\u13c6\u13b8\u13d4\u13c1": 3070,
    "\u2581\u13ac\u13e9\u13e0\u13ef\u13cd\u13d7": 3071,
    "\u2581\u13c6\u13b3\u13c6": 3072,
    "\u2581\u13d7\u13a6\u13d2\u13cd\u13d4\u13c5": 3073,
    "\u2581\u13a2\u13e6\u13af\u13f3\u13af": 3074,
    "\u2581\u13da\u13e9\u13c2\u13a6\u13e2": 3075,
    "\u2581\u13a4\u13d2\u13af\u13f0\u13f1": 3076,
    "\u2581\u13c0\u13a2\u13f3": 3077,
    "\u2581\u13c7\u13da\u13a1\u13b5": 3078,
    "\u2581\u13a4\u13e3\u13b4\u13d3": 3079,
    "\u2581\u13d7\u13be\u13d5\u13f2\u13b2\u13cd\u13a9": 3080,
    "\u2581\u13e7\u13b4\u13af\u13cc\u13c5\u13af": 3081,
    "\u2581\u13a8\u13c5\u13a2\u13cd\u13d7": 3082,
    "\u2581\u13a4\u13d7\u13d4\u13b2": 3083,
    "\u2581\u13da\u13a7\u13bf\u13c1": 3084,
    "\u2581\u13a7\u13c2\u13b5\u13ef": 3085,
    "\u2581\u13e7\u13f4\u13e8": 3086,
    "\u2581\u13a4\u13ec\u13d3\u13b8": 3087,
    "\u2581\u13d3\u13f3\u13c2\u13b6\u13d2": 3088,
    "\u2581\u13e7\u13d9\u13a2\u13d3": 3089,
    "\u2581\u13a6\u13e3\u13c3\u13cd": 3090,
    "\u2581\u13d7\u13a6\u13b8\u13eb\u13cd\u13d3\u13c1\u13b8\u13af": 3091,
    "\u2581\u13a2\u13e7\u13be\u13d3\u13b3": 3092,
    "\u2581\u13c5\u13e9\u13d9\u13af": 3093,
    "\u2581\u13a4\u13c4\u13aa\u13a2\u13cd\u13d7": 3094,
    "\u2581\u13a1\u13c5\u13cd\u13d7": 3095,
    "\u2581\u13a0\u13da\u13b8\u13d7": 3096,
    "\u2581\u13e7\u13e3\u13f2\u13cd": 3097,
    "\u2581\u13a2\u13e5\u13c6\u13b5\u13cf": 3098,
    "\u2581\u13f1\u13e3\u13d3\u13c5\u13d6\u13d7\u13cd\u13a8\u13cd\u13d7": 3099,
    "\u2581\u13da\u13c3\u13e2\u13c5\u13a9": 3100,
    "\u2581\u13a4\u13d3\u13d1\u13f1": 3101,
    "\u2581\u13d7\u13e5\u13b8\u13eb\u13cd\u13d3\u13c1\u13d7\u13f1": 3102,
    "\u2581\u13a4\u13d3\u13c5\u13b5\u13f0\u13a5": 3103,
    "\u2581\u13da\u13db\u13db\u13c1": 3104,
    "\u2581\u13a1\u13e3\u13c2\u13b5": 3105,
    "\u2581\u13d3\u13b5\u13c6": 3106,
    "\u2581\u13a2\u13d7\u13c5\u13c1": 3107,
    "\u2581\u13d7\u13a8\u13e5\u13be\u13dd\u13a2": 3108,
    "\u2581\u13a6\u13d3\u13b7\u13ef\u13db": 3109,
    "\u2581\u13a0\u13be\u13db\u13a9\u13cd\u13a9": 3110,
    "\u2581\u13a0\u13a9\u13b7\u13e5\u13b8": 3111,
    "\u2581\u13d7\u13ac\u13aa\u13e9\u13db\u13d7": 3112,
    "\u2581\u13a0\u13c2\u13b4\u13f4\u13cd\u13a9": 3113,
    "\u2581\u13a0\u13cd\u13c6\u13da\u13b8": 3114,
    "\u2581\u13a4\u13b5\u13ac\u13ad\u13b7\u13f4": 3115,
    "\u13be\u13d9\u13d3\u13c6\u13cd\u13d7": 3116,
    "\u2581\u13f1\u13aa\u13b5\u13a6": 3117,
    "\u2581\u13a4\u13be\u13d3\u13d3\u13cd\u13ac": 3118,
    "\u2581\u13d7\u13db\u13d3\u13c5\u13af": 3119,
    "\u2581\u13a2\u13a0": 3120,
    "\u2581\u13d7\u13aa\u13d1\u13b4\u13d7\u13f1": 3121,
    "\u2581\u13be\u13ef\u13db\u13a1\u13cd\u13d7": 3122,
    "\u2581\u13e7\u13b4\u13d4\u13c5\u13af": 3123,
    "\u2581\u13ac\u13e9\u13f2\u13b1\u13af\u13cd\u13d7": 3124,
    "\u2581\u13e7\u13d3\u13b4\u13c5\u13b2": 3125,
    "\u2581\u13ac\u13c6\u13db\u13c1\u13d7\u13f1": 3126,
    "\u2581\u13e5\u13a3\u13b5": 3127,
    "\u2581\u13a0\u13c4\u13a6\u13b8": 3128,
    "\u2581\u13c2\u13e5\u13a6\u13d4\u13b2\u13be": 3129,
    "\u2581\u13a5\u13e5\u13aa\u13a5\u13a9": 3130,
    "\u2581\u13aa\u13cd\u13d7": 3131,
    "\u2581\u13a0\u13d3\u13cd\u13d3\u13e9\u13d7\u13d9\u13af": 3132,
    "\u13db\u13c5\u13a2\u13cd\u13d9\u13d7\u13f1": 3133,
    "\u2581\u13a4\u13d5\u13c1\u13a2": 3134,
    "\u2581\u13a4\u13d3\u13b4\u13e8": 3135,
    "\u2581\u13a4\u13be\u13b5\u13d7\u13a9\u13db": 3136,
    "\u2581\u13a4\u13ec\u13ea\u13b3\u13c5\u13af": 3137,
    "\u2581\u13a0\u13d3\u13ea\u13b3\u13a9\u13cd\u13ac": 3138,
    "\u13b3\u13cf\u13d5\u13be": 3139,
    "\u2581\u13a0\u13b9\u13b4\u13a9": 3140,
    "\u13a4\u13c5\u13d3\u13d5": 3141,
    "\u2581\u13da\u13b7\u13eb\u13cd\u13d4\u13c1\u13b2": 3142,
    "\u2581\u13a4\u13c2\u13aa\u13ae": 3143,
    "\u2581\u13a2\u13a9\u13c5\u13df": 3144,
    "\u2581\u13cd\u13a9\u13be\u13dd\u13a2": 3145,
    "\u2581\u13a4\u13b5\u13e8\u13d3\u13c6\u13d3": 3146,
    "\u2581\u13a2\u13e7\u13d5\u13d8\u13f4\u13db": 3147,
    "\u2581\u13a4\u13ac\u13eb\u13f3\u13ce\u13cd\u13d7": 3148,
    "\u2581\u13d4\u13b8\u13d7": 3149,
    "\u2581\u13a4\u13b6\u13af\u13cd\u13d7": 3150,
    "\u2581\u13e7\u13be\u13c4\u13e9\u13a2": 3151,
    "\u2581\u13be\u13c1\u13b2\u13be": 3152,
    "\u2581\u13a0\u13b5\u13ae\u13b5\u13ac": 3153,
    "\u2581\u13a0\u13c1\u13d9\u13ad": 3154,
    "\u2581\u13a4\u13a7\u13ad\u13db": 3155,
    "\u2581\u13a0\u13a9\u13f0\u13b8\u13b2": 3156,
    "\u2581\u13a0\u13e8\u13cd\u13db": 3157,
    "\u2581\u13a4\u13b4\u13eb\u13cd\u13d4\u13c1": 3158,
    "\u2581\u13ed\u13c2\u13f4\u13b4\u13a2": 3159,
    "\u2581\u13a0\u13b5\u13e5\u13d9\u13b2\u13cd\u13a8": 3160,
    "\u2581\u13a4\u13c2\u13f0\u13b8\u13d2\u13a9": 3161,
    "\u13e5\u13af\u13cd\u13d7": 3162,
    "\u2581\u13a6\u13c5\u13d9\u13d7": 3163,
    "\u2581\u13a1\u13d9\u13ad": 3164,
    "\u2581\u13e7\u13ec\u13b8": 3165,
    "\u2581\u13a0\u13f4\u13e4\u13c2": 3166,
    "\u2581\u13a8\u13e5\u13c1\u13b8\u13af": 3167,
    "\u13f2\u13ad": 3168,
    "\u2581\u13a7\u13c3\u13a9\u13cd\u13d7": 3169,
    "\u2581\u13a5\u13a9\u13d9\u13c9": 3170,
    "\u13a6\u13c3\u13b1\u13a9\u13cd\u13ac": 3171,
    "\u2581\u13a4\u13be\u13d7\u13c5\u13d7": 3172,
    "\u2581\u13a4\u13c5\u13d9\u13d7\u13f1": 3173,
    "\u2581\u13ed\u13c2\u13b6\u13d2\u13a9": 3174,
    "\u2581\u13a4\u13ea\u13a7\u13c5\u13a9": 3175,
    "\u2581\u13d7\u13c2\u13a6\u13d8\u13ef": 3176,
    "\u2581\u13e5\u13cd\u13aa\u13b5": 3177,
    "\u2581\u13c4\u13c2\u13ea\u13ce\u13b8\u13a9": 3178,
    "\u2581\u13a2\u13f3\u13d3\u13b5\u13ad": 3179,
    "\u2581\u13ef\u13d7\u13ad": 3180,
    "\u2581\u13be\u13cd\u13a6\u13a2\u13b2\u13be": 3181,
    "\u2581\u13be\u13c2\u13a1\u13a2": 3182,
    "\u2581\u13a0\u13a7\u13b5\u13ec\u13af": 3183,
    "\u2581\u13a4\u13e8\u13c9\u13d7": 3184,
    "\u2581\u13a4\u13d9\u13d3\u13c6\u13d3": 3185,
    "\u13a9\u13a1\u13b8": 3186,
    "\u2581\u13a0\u13d3\u13b4\u13c2\u13cd\u13ac": 3187,
    "\u2581\u13d7\u13a6\u13b5\u13cd\u13d9\u13d7\u13ad": 3188,
    "\u2581\u13a0\u13df\u13cd\u13db\u13a2": 3189,
    "\u2581\u13a4\u13d5\u13d7\u13f1": 3190,
    "\u2581\u13a4\u13ef\u13c5\u13af": 3191,
    "\u13a1\u13b4\u13a2": 3192,
    "\u2581\u13a1\u13ae\u13be": 3193,
    "\u2581\u13d7\u13df\u13cd\u13d7": 3194,
    "\u2581\u13d0\u13d3\u13bb\u13f1": 3195,
    "\u2581\u13a4\u13ea\u13c1\u13a2": 3196,
    "\u2581\u13a0\u13ef\u13a5": 3197,
    "\u2581\u13a2\u13a9\u13c1\u13b8\u13af": 3198,
    "\u13b6\u13af\u13cd\u13d7\u13f1": 3199,
    "\u2581\u13a4\u13f0\u13b8\u13ad": 3200,
    "\u2581\u13d7\u13d0\u13a2": 3201,
    "\u2581\u13eb\u13a6\u13b6\u13af\u13cd\u13d7": 3202,
    "\u2581\u13e3\u13da\u13b5\u13ad": 3203,
    "\u2581\u13ef\u13a9\u13ad": 3204,
    "\u2581\u13cd\u13d3\u13f1": 3205,
    "\u2581\u13cd\u13a9\u13a8\u13f3": 3206,
    "\u13f0\u13c2": 3207,
    "\u2581\u13e7\u13c1\u13b3": 3208,
    "\u2581\u13a2\u13a6\u13c1\u13b3\u13c5\u13af": 3209,
    "\u2581\u13d3\u13f3\u13d3\u13b4\u13c5\u13d3": 3210,
    "\u2581\u13f1\u13be": 3211,
    "\u2581\u13a6\u13d7": 3212,
    "\u2581\u13a6\u13c1\u13cc\u13a2\u13af": 3213,
    "\u2581\u13d9\u13e5": 3214,
    "\u13d7\u13cd\u13aa\u13c2\u13af": 3215,
    "\u13c5\u13cd\u13d7\u13f1": 3216,
    "\u2581\u13da\u13c2\u13b8\u13eb\u13cd\u13d3\u13c1\u13b8\u13a2": 3217,
    "\u2581\u13a1\u13d9\u13ae\u13a2": 3218,
    "\u2581\u13a4\u13b5\u13cf\u13c2": 3219,
    "\u2581\u13e5\u13a8\u13e5": 3220,
    "\u2581\u13ad\u13be\u13c2": 3221,
    "\u2581\u13a2\u13ef\u13ac\u13c1\u13d7": 3222,
    "\u2581\u13a4\u13be\u13db\u13a6\u13c1\u13a2": 3223,
    "\u2581\u13a4\u13e9\u13db\u13ae\u13a2": 3224,
    "\u2581\u13a2\u13d7\u13a6\u13ea\u13cd": 3225,
    "\u2581\u13a4\u13ce\u13b5\u13d4\u13c5": 3226,
    "\u2581\u13ed\u13b7\u13e8\u13a9": 3227,
    "\u2581\u13a0\u13d2\u13ad": 3228,
    "\u2581\u13e7\u13c2\u13b5": 3229,
    "\u2581\u13a1\u13b5\u13cd\u13a8\u13a2": 3230,
    "\u2581\u13a6\u13c4\u13b8\u13d2": 3231,
    "\u13c1\u13b6\u13d7": 3232,
    "\u2581\u13cd": 3233,
    "\u2581\u13a5\u13b5": 3234,
    "\u2581\u13ac\u13d9\u13d7\u13f1": 3235,
    "\u2581\u13a4\u13d3\u13c5\u13d6\u13b8\u13a2": 3236,
    "\u2581\u13a4\u13cd\u13c9\u13df": 3237,
    "\u2581\u13a4\u13c3\u13ae\u13b4": 3238,
    "\u2581\u13a4\u13ef\u13a2": 3239,
    "\u2581\u13cf\u13a6": 3240,
    "\u2581\u13a2\u13cc": 3241,
    "\u2581\u13d5\u13e5\u13b8\u13eb\u13cd\u13d3\u13c1\u13b2\u13a2": 3242,
    "\u13cd\u13d5\u13b5\u13cd\u13ac": 3243,
    "\u13cd\u13d5\u13b8\u13af": 3244,
    "\u2581\u13a4\u13d3\u13c5\u13db\u13a2": 3245,
    "\u2581\u13c4\u13b3": 3246,
    "\u2581\u13a2\u13e6": 3247,
    "\u2581\u13a0\u13d1": 3248,
    "\u2581\u13a4\u13d3\u13c5\u13ce\u13a2": 3249,
    "\u13a5\u13cd\u13a8\u13cd\u13d7": 3250,
    "\u2581\u13da\u13c1\u13b4\u13a2": 3251,
    "\u2581\u13be\u13be\u13db\u13c1\u13b2\u13a2": 3252,
    "\u2581\u13d7\u13df": 3253,
    "\u13b3\u13c5": 3254,
    "\u2581\u13a2\u13e6\u13af\u13f3\u13d2\u13a2": 3255,
    "\u2581\u13a1\u13b5\u13a9": 3256,
    "\u2581\u13a4\u13ef\u13c5\u13d2": 3257,
    "\u2581\u13a6\u13d3\u13c5\u13d6\u13cd\u13ac\u13a2": 3258,
    "\u2581\u13d7\u13ac\u13d7": 3259,
    "\u2581\u13e6\u13be": 3260,
    "\u2581\u13e7\u13b5\u13cf": 3261,
    "\u2581\u13d7\u13ac\u13e9\u13d3\u13c2\u13b8\u13a2\u13cd": 3262,
    "\u2581\u13d7\u13cd\u13a9": 3263,
    "\u2581\u13a1\u13b2\u13a9": 3264,
    "\u2581\u13a0\u13cd\u13a6\u13be\u13a2": 3265,
    "\u2581\u13a4\u13f2\u13b4": 3266,
    "\u2581\u13e5\u13c1\u13b8": 3267,
    "\u2581\u13da\u13c1\u13e4\u13b4\u13a2": 3268,
    "\u13b3\u13c1\u13a2": 3269,
    "\u13cd\u13db\u13f1": 3270,
    "\u13a6\u13e8": 3271,
    "\u2581\u13a0\u13a6\u13d8\u13f0": 3272,
    "\u2581\u13c5\u13d7": 3273,
    "\u2581\u13a6\u13ef": 3274,
    "\u13aa\u13b5\u13f0\u13a1": 3275,
    "\u2581\u13a0\u13be\u13d7\u13cd\u13aa": 3276,
    "\u2581\u13b2": 3277,
    "\u2581\u13a4\u13ea\u13c5\u13ce\u13a2": 3278,
    "\u2581\u13c5\u13d3\u13f3\u13be\u13b5\u13cd\u13aa\u13b8\u13d4": 3279,
    "\u2581\u13e7\u13be\u13c4\u13aa\u13eb\u13ce\u13d7": 3280,
    "\u2581\u13a0\u13cd\u13db\u13a2": 3281,
    "\u2581\u13aa\u13cd\u13d4": 3282,
    "\u2581\u13a4\u13aa\u13b2\u13a9": 3283,
    "\u2581\u13d7\u13c2\u13e9\u13be\u13a6\u13b3": 3284,
    "\u2581\u13a4\u13be\u13c4\u13aa\u13eb\u13d2": 3285,
    "\u2581\u13a4\u13c1\u13b3": 3286,
    "\u13c1\u13e4\u13b5": 3287,
    "\u2581\u13a0\u13d3\u13c5\u13d6\u13cd\u13ac\u13a2": 3288,
    "\u13a2\u13a6": 3289,
    "\u2581\u13a4\u13c5\u13c5": 3290,
    "\u2581\u13a4\u13ea\u13b7\u13c1\u13a2": 3291,
    "\u2581\u13a4\u13b5\u13cd\u13da\u13a2": 3292,
    "\u2581\u13c7\u13b5\u13e5": 3293,
    "\u13f2\u13b0\u13ce\u13b8": 3294,
    "\u2581\u13d7\u13c2\u13c3": 3295,
    "\u2581\u13a0\u13f2\u13b1\u13cd": 3296,
    "\u2581\u13a4\u13be\u13d9\u13d3\u13c6\u13cd\u13ac\u13a2": 3297,
    "\u2581\u13a4\u13cd\u13aa": 3298,
    "\u2581\u13a0\u13c2\u13e4": 3299,
    "\u13c2\u13eb": 3300,
    "\u2581\u13a4\u13be\u13a9\u13b8": 3301,
    "\u2581\u13a0\u13c6\u13d3\u13c5\u13d6\u13d7": 3302,
    "\u13ec\u13a5": 3303,
    "\u2581\u13c5\u13d7\u13a6\u13b5\u13cd\u13d9\u13d7\u13cd\u13a8\u13a2": 3304,
    "\u2581\u13a0\u13e5\u13c1\u13b8": 3305,
    "\u2581\u13a6\u13da\u13f1": 3306,
    "\u13a5\u13a6": 3307,
    "\u2581\u13a0\u13cb": 3308,
    "\u2581\u13a4\u13c2\u13f4": 3309,
    "\u13d3\u13c1\u13df\u13f4\u13db": 3310,
    "\u2581\u13a4\u13c2\u13e9\u13db\u13d7": 3311,
    "\u2581\u13a2\u13e3\u13b5": 3312,
    "\u13cd\u13db\u13a2": 3313,
    "\u2581\u13d7\u13b2": 3314,
    "\u13a6\u13d9\u13a5\u13af\u13cd\u13d7\u13f1": 3315,
    "\u2581\u13d9\u13d8": 3316,
    "\u13da\u13d3": 3317,
    "\u13a3\u13a2": 3318,
    "\u13cd\u13c6\u13c2\u13aa\u13d5\u13cd\u13d7": 3319,
    "\u2581\u13c2\u13a6\u13b5\u13cd\u13d9\u13d7\u13cd\u13a8": 3320,
    "\u13b3\u13d7\u13cd\u13d7": 3321,
    "\u2581\u13a4\u13be\u13c4\u13aa\u13eb\u13ce": 3322,
    "\u2581\u13da\u13d3": 3323,
    "\u13c3\u13ae\u13cd\u13ac\u13a2": 3324,
    "\u13c2\u13ef": 3325,
    "\u2581\u13a0\u13a6\u13d5": 3326,
    "\u13b7\u13a9": 3327,
    "\u13c5\u13d3\u13db": 3328,
    "\u13c2\u13d9\u13af": 3329,
    "\u2581\u13d5\u13ab": 3330,
    "\u2581\u13a4\u13b5\u13ae\u13b5\u13e4": 3331,
    "\u2581\u13ea": 3332,
    "\u2581\u13e7\u13b4": 3333,
    "\u13db\u13d4\u13c2": 3334,
    "\u13b3\u13cf": 3335,
    "\u2581\u13a0\u13a8": 3336,
    "\u2581\u13a2\u13e5\u13a9\u13cd\u13d7": 3337,
    "\u13a2\u13f4": 3338,
    "\u13df\u13b6\u13cd\u13d9\u13d7": 3339,
    "\u13db\u13c1\u13d7\u13f1": 3340,
    "\u2581\u13be\u13a6\u13db": 3341,
    "\u2581\u13c2\u13e8": 3342,
    "\u2581\u13d9\u13af\u13f3": 3343,
    "\u13a8\u13db": 3344,
    "\u2581\u13ac\u13d7\u13ad": 3345,
    "\u2581\u13db\u13a9": 3346,
    "\u13b5\u13cd\u13ac": 3347,
    "\u2581\u13a4\u13e5\u13c3": 3348,
    "\u13cd\u13a6\u13f0\u13ac\u13cd\u13d3": 3349,
    "\u2581\u13a1\u13e3\u13ab\u13f4": 3350,
    "\u13ce\u13b8\u13a9": 3351,
    "\u13ed": 3352,
    "\u2581\u13d9\u13d3\u13e3": 3353,
    "\u2581\u13f2\u13a6": 3354,
    "\u2581\u13d7\u13e8\u13c2\u13d7": 3355,
    "\u13d3\u13b3": 3356,
    "\u13db\u13c1\u13b5": 3357,
    "\u2581\u13bf": 3358,
    "\u13cd\u13d6": 3359,
    "\u13ae\u13c3": 3360,
    "\u2581\u13a2\u13e5\u13b2": 3361,
    "\u2581\u13da\u13ef\u13ea": 3362,
    "\u13b4\u13c5\u13db": 3363,
    "\u2581\u13c2\u13db": 3364,
    "\u13d9\u13b4": 3365,
    "\u2581\u13a4\u13c1\u13b4": 3366,
    "\u2581\u13a1\u13b3\u13ea\u13f1": 3367,
    "\u13be\u13dd\u13a0": 3368,
    "\u2581\u13a2\u13cd\u13d3": 3369,
    "\u2581\u13a6\u13c5\u13a8": 3370,
    "\u13ea\u13d2": 3371,
    "\u2581\u13f1\u13eb": 3372,
    "\u13a8\u13cd\u13d7\u13d7": 3373,
    "\u13e3\u13b5": 3374,
    "\u2581\u13d5\u13e8": 3375,
    "\u2581\u13da\u13d9": 3376,
    "\u13c5\u13d6": 3377,
    "\u13f2\u13b5": 3378,
    "\u2581\u13a4\u13c2\u13a6\u13d9\u13a5\u13d2": 3379,
    "\u2581\u13e6\u13e5": 3380,
    "\u2581\u13de": 3381,
    "\u2581\u13a0\u13e2": 3382,
    "\u2581\u13a0\u13d7\u13cd\u13ac": 3383,
    "\u2581\u13c2\u13af\u13be": 3384,
    "\u2581\u13a4\u13a7\u13d4": 3385,
    "\u13d8\u13f0": 3386,
    "\u13ac\u13eb\u13f3\u13af": 3387,
    "\u2581\u13e8\u13d7": 3388,
    "\u13d9\u13b5\u13e8": 3389,
    "\u13d8\u13f2\u13cd\u13d7": 3390,
    "\u2581\u13c2\u13af\u13cd\u13aa": 3391,
    "\u2581\u13e3\u13c6": 3392,
    "\u2581\u13a4\u13a6\u13db": 3393,
    "\u2581\u13a6\u13e3\u13c4\u13b5": 3394,
    "\u13ef\u13a5\u13a2": 3395,
    "\u2581\u13a2\u13e3\u13da\u13b5": 3396,
    "\u13c1\u13ce\u13a2": 3397,
    "\u13cd\u13d4\u13c5\u13ad": 3398,
    "\u2581\u13d5\u13e3\u13a7": 3399,
    "\u13e0\u13e8": 3400,
    "\u2581\u13c2\u13da\u13ea\u13ce\u13b8": 3401,
    "\u2581\u13a6\u13b6": 3402,
    "\u2581\u13e7\u13b3\u13d1\u13b6": 3403,
    "\u13f2\u13aa": 3404,
    "\u13d9\u13ac": 3405,
    "\u13e6\u13c1": 3406,
    "\u2581\u13d3\u13b5\u13cd\u13d7\u13b3\u13c1\u13ac": 3407,
    "\u2581\u13d9\u13d3\u13c6\u13cd\u13ac": 3408,
    "\u2581\u13a4\u13c1\u13b5\u13ce": 3409,
    "\u2581\u13d7\u13a6\u13c5\u13ec": 3410,
    "\u2581\u13a4\u13ec\u13b4": 3411,
    "\u2581\u13a2\u13d5\u13b2": 3412,
    "\u2581\u13d3\u13c2\u13b3\u13eb\u13a5": 3413,
    "\u2581\u13d7\u13e5\u13a6\u13f4\u13b5\u13a8": 3414,
    "\u2581\u13d3\u13df\u13b6\u13cd\u13db": 3415,
    "\u2581\u13a7\u13b8\u13ac": 3416,
    "\u13b6\u13d0\u13c5": 3417,
    "\u2581\u13a4\u13d7\u13db\u13ae": 3418,
    "\u2581\u13a2\u13a9\u13cd\u13a6\u13c5\u13e8": 3419,
    "\u2581\u13a4\u13ec\u13ce\u13b4": 3420,
    "\u2581\u13f3\u13eb": 3421,
    "\u2581\u13af\u13a0\u13c9": 3422,
    "r": 3423,
    "\u13f4\u13b5": 3424,
    "\u2581\u13a0\u13c2\u13d9\u13be\u13a1": 3425,
    "\u2581\u13a4\u13da\u13a2\u13cd\u13d4\u13c5": 3426,
    "\u2581\u13da\u13b4\u13af\u13cc\u13c5": 3427,
    "\u13c1\u13e8": 3428,
    "\u2581\u13a4\u13ea\u13a7\u13c1\u13b4": 3429,
    "\u13e5\u13a8\u13f3\u13a2": 3430,
    "\u13d5\u13ac": 3431,
    "\u2581\u13a0\u13c2\u13a6\u13f4\u13b5\u13a8": 3432,
    "\u2581\u13d3\u13c2\u13a7\u13c5": 3433,
    "\u2581\u13e7\u13a6\u13f4\u13b5\u13a8": 3434,
    "\u13a0\u13b9": 3435,
    "\u2581\u13a1\u13b5\u13cd\u13ac": 3436,
    "\u13b5\u13ec\u13e8": 3437,
    "\u13ac\u13eb\u13f3\u13cc\u13d5\u13a9": 3438,
    "\u2581\u13a6\u13a2\u13d2": 3439,
    "\u13be\u13c9": 3440,
    "\u2581\u13ad\u13d7": 3441,
    "\u13df\u13c2\u13a9\u13d3": 3442,
    "\u13a4\u13cd\u13c6\u13c2\u13a9\u13d7": 3443,
    "\u2581\u13da\u13c1\u13e4\u13b8": 3444,
    "\u2581\u13a6\u13c6\u13d8": 3445,
    "\u13a7\u13b5\u13ec\u13af": 3446,
    "\u13db\u13c1\u13b2": 3447,
    "\u13a4\u13d9\u13af\u13f3\u13af": 3448,
    "\u2581\u13a0\u13c1\u13ae": 3449,
    "\u2581\u13aa\u13e2\u13d4\u13c5": 3450,
    "\u13c5\u13aa\u13e4": 3451,
    "\u2581\u13a0\u13d5": 3452,
    "\u2581\u13e4\u13c5\u13cd\u13d7": 3453,
    "\u2581\u13a4\u13e9\u13db\u13ae": 3454,
    "\u2581\u13da\u13b7\u13eb\u13cd\u13d4\u13c1": 3455,
    "\u13c2\u13a6\u13d3": 3456,
    "\u2581\u13a4\u13c2\u13cd\u13c6\u13c2\u13aa\u13d9\u13d7": 3457,
    "\u2581\u13a4\u13c2\u13d7": 3458,
    "\u2581\u13aa\u13b9\u13b5": 3459,
    "\u13b8\u13eb\u13cd\u13d3\u13c1\u13d7": 3460,
    "\u2581\u13a2\u13e5\u13cd\u13c6\u13c2\u13aa\u13d9\u13d7": 3461,
    "\u2581\u13aa\u13cd\u13d3": 3462,
    "\u13d4\u13f2\u13ce\u13b8\u13a9": 3463,
    "\u2581\u13a0\u13d3\u13a8\u13d7": 3464,
    "\u13b4\u13af\u13cc\u13c5": 3465,
    "\u2581\u13a2\u13f3\u13c5\u13c1\u13d7": 3466,
    "\u2581\u13a8\u13e5\u13c1\u13d7": 3467,
    "\u2581\u13a4\u13be\u13c5\u13d7": 3468,
    "\u2581\u13a4\u13f0\u13b8\u13ce": 3469,
    "\u13f4\u13d0\u13b5": 3470,
    "\u13be\u13d3\u13b4\u13a9": 3471,
    "\u2581\u13a1\u13c9\u13c4\u13b6\u13d7": 3472,
    "\u2581\u13a4\u13c2\u13da\u13ef\u13cd\u13d7": 3473,
    "\u2581\u13a4\u13d3\u13cf\u13c2\u13d5\u13be": 3474,
    "\u2581\u13a4\u13ea\u13f2\u13d3\u13db": 3475,
    "\u2581\u13be\u13c2\u13b3\u13cd\u13d3\u13b8": 3476,
    "\u2581\u13c5\u13d3\u13ac\u13f4\u13c1\u13b5": 3477,
    "\u2581\u13c8\u13ef\u13cf\u13c6": 3478,
    "\u2581\u13d7\u13be\u13d9\u13c2\u13cd\u13a9": 3479,
    "\u2581\u13e6\u13a9\u13b8\u13eb\u13cd\u13d3\u13c1\u13af": 3480,
    "\u13a6\u13cc\u13ef\u13cd\u13d5\u13cd\u13d7": 3481,
    "\u2581\u13a0\u13e3\u13ea\u13d0\u13b8\u13cd\u13d9\u13d7\u13f1": 3482,
    "\u2581\u13a6\u13b5\u13e6\u13d9\u13d9\u13d7": 3483,
    "\u2581\u13c6\u13bb\u13c6\u13c2": 3484,
    "\u2581\u13a2\u13f0\u13c6": 3485,
    "\u2581\u13d7\u13a7\u13c1\u13a2\u13cd\u13d7": 3486,
    "\u2581\u13af\u13a6\u13d9\u13b5": 3487,
    "\u2581\u13af\u13a7\u13c5\u13ad": 3488,
    "\u2581\u13c2\u13da\u13be\u13d3\u13ea\u13ce\u13b8\u13a9": 3489,
    "\u2581\u13eb\u13c2\u13a6\u13b5\u13cd\u13d9\u13d3": 3490,
    "\u2581\u13a4\u13d3\u13db\u13db\u13c1": 3491,
    "\u2581\u13a6\u13c5\u13c3\u13e9": 3492,
    "\u2581\u13d7\u13c9\u13f0\u13c2": 3493,
    "\u2581\u13a0\u13c2\u13d9\u13be\u13a2": 3494,
    "\u2581\u13e7\u13c1\u13bf\u13a2": 3495,
    "\u2581\u13e7\u13e9\u13c2\u13a6\u13dd\u13c5": 3496,
    "\u2581\u13c4\u13ec\u13af\u13f3\u13d2\u13be": 3497,
    "\u2581\u13e7\u13c3\u13da\u13af": 3498,
    "\u2581\u13d7\u13c6\u13b3\u13cf\u13d5\u13c2": 3499,
    "\u2581\u13c5\u13d3\u13aa\u13af\u13e5": 3500,
    "\u2581\u13a4\u13e2\u13c9\u13d7": 3501,
    "\u2581\u13c5\u13c3\u13b1\u13b6\u13d7": 3502,
    "\u2581\u13a2\u13b3\u13cf\u13d7": 3503,
    "\u2581\u13e7\u13be\u13d3\u13cd\u13da\u13d7": 3504,
    "\u2581\u13ac\u13e9\u13d5\u13c1\u13b8\u13af": 3505,
    "\u2581\u13d5\u13e5\u13f2\u13b5\u13b8\u13ad": 3506,
    "\u2581\u13a6\u13e3\u13c4\u13b8": 3507,
    "\u2581\u13d7\u13a6\u13c3\u13e3\u13df": 3508,
    "\u2581\u13a4\u13ea\u13da\u13b2": 3509,
    "\u2581\u13a4\u13ec\u13de": 3510,
    "\u2581\u13aa\u13d2\u13d4\u13c5": 3511,
    "\u2581\u13f1\u13c4\u13b5\u13cd\u13d4\u13c5": 3512,
    "\u2581\u13a4\u13c2\u13b8\u13c9\u13d4\u13c1": 3513,
    "\u2581\u13a4\u13c2\u13ac\u13a5\u13cd\u13a9": 3514,
    "\u2581\u13c5\u13d3\u13f3\u13d3\u13b4\u13c5\u13db": 3515,
    "\u2581\u13f1\u13e4\u13b5\u13af\u13cd\u13a8\u13cd\u13d7": 3516,
    "\u13cd\u13a6\u13a3\u13c5": 3517,
    "\u2581\u13b0\u13ea\u13b8\u13a6": 3518,
    "\u2581\u13d3\u13a9\u13ef\u13ea\u13a6": 3519,
    "\u2581\u13e7\u13d3\u13d8\u13be\u13a2": 3520,
    "\u2581\u13a6\u13ef\u13b4\u13cd\u13d7": 3521,
    "\u2581\u13d7\u13a7\u13c2\u13a8": 3522,
    "\u2581\u13a4\u13be\u13d3\u13d1\u13f0\u13db": 3523,
    "\u2581\u13a2\u13e8\u13cd\u13d7\u13f0\u13d7\u13ad": 3524,
    "\u2581\u13a5\u13a9\u13c5\u13df": 3525,
    "\u2581\u13a2\u13ac\u13ea\u13c5\u13db": 3526,
    "\u2581\u13c2\u13da\u13c5\u13cf\u13f4": 3527,
    "\u2581\u13e7\u13c3\u13e9": 3528,
    "\u2581\u13ac\u13e9\u13d3\u13cd\u13d5\u13b8\u13d7": 3529,
    "\u2581\u13d5\u13aa\u13e2\u13e9\u13d7\u13d2": 3530,
    "\u2581\u13d7\u13c1\u13d9\u13b2": 3531,
    "\u2581\u13c4\u13e0\u13be\u13cd\u13db\u13be": 3532,
    "\u2581\u13a0\u13c2\u13be\u13c1\u13cd\u13ac": 3533,
    "\u2581\u13a2\u13a7\u13c1\u13a2\u13cd\u13d7": 3534,
    "\u2581\u13d7\u13a9\u13c5\u13d2": 3535,
    "\u2581\u13a0\u13c6\u13d3\u13b5\u13a2": 3536,
    "\u13c3\u13b4": 3537,
    "\u2581\u13c4\u13c2\u13b2\u13be": 3538,
    "\u2581\u13a0\u13c2\u13ef\u13a2": 3539,
    "\u2581\u13cc\u13c8": 3540,
    "\u2581\u13a4\u13c2\u13d1\u13b8\u13d3": 3541,
    "\u2581\u13b2\u13d7\u13cd\u13a8\u13cd\u13d7": 3542,
    "\u2581\u13bf\u13db\u13a6": 3543,
    "\u2581\u13a6\u13cc\u13b4\u13c2": 3544,
    "\u2581\u13a1\u13e3\u13b8\u13c9\u13d7\u13f3": 3545,
    "\u2581\u13a4\u13cd\u13d7\u13a9\u13db": 3546,
    "\u2581\u13a2\u13e5\u13ea\u13cd\u13d7\u13f1": 3547,
    "\u2581\u13da\u13a6\u13cc\u13db": 3548,
    "\u2581\u13a0\u13c6\u13b5\u13cd\u13d3\u13f4\u13d7": 3549,
    "\u2581\u13a0\u13b9\u13f3\u13b6\u13d7": 3550,
    "\u2581\u13a4\u13d5\u13b6\u13b0\u13d2": 3551,
    "\u2581\u13d7\u13ab\u13aa\u13d7\u13cd\u13a9": 3552,
    "\u13d5\u13a6": 3553,
    "\u2581\u13a0\u13c1\u13e2\u13d4\u13c5\u13af": 3554,
    "\u2581\u13d9\u13d7\u13e3\u13d3\u13c5\u13db\u13a2": 3555,
    "\u2581\u13eb\u13a8\u13e5\u13f2\u13b5\u13ad": 3556,
    "\u2581\u13d3\u13ad\u13c3\u13eb": 3557,
    "\u2581\u13a1\u13c3\u13f1": 3558,
    "\u2581\u13da\u13e6\u13af\u13cd\u13db": 3559,
    "\u13b3\u13a9\u13d2": 3560,
    "\u2581\u13a0\u13be\u13d3\u13d9\u13b5\u13cd\u13d3\u13c1\u13af": 3561,
    "\u2581\u13ac\u13c1\u13cd\u13d7": 3562,
    "\u2581\u13a4\u13a9\u13b5\u13f2\u13e8": 3563,
    "\u2581\u13a6\u13b5\u13a1\u13b5\u13a6": 3564,
    "\u2581\u13e7\u13d9\u13d3\u13c6\u13db": 3565,
    "\u13bf\u13d5\u13a9": 3566,
    "\u2581\u13a0\u13ac\u13d3\u13a8\u13c2": 3567,
    "\u2581\u13af\u13ec\u13c2\u13cd\u13ac": 3568,
    "\u2581\u13d7\u13d3\u13ec\u13cd\u13d7": 3569,
    "\u2581\u13a0\u13ef\u13d6\u13be": 3570,
    "\u2581\u13a4\u13c3\u13cd\u13db": 3571,
    "\u2581\u13da\u13ed": 3572,
    "\u2581\u13a4\u13c2\u13b5\u13e6\u13e9\u13db": 3573,
    "\u2581\u13a0\u13ac\u13ad\u13b8\u13db": 3574,
    "\u2581\u13f1\u13cd\u13a6\u13a2\u13ae\u13cd\u13d7": 3575,
    "\u2581\u13d3\u13ac\u13c1\u13b5": 3576,
    "\u2581\u13a4\u13c2\u13cd\u13c6\u13c2\u13aa\u13d2\u13a9": 3577,
    "\u2581\u13a4\u13be\u13db\u13c1\u13b8\u13d7": 3578,
    "\u2581\u13e5\u13c5\u13d7\u13a6\u13b5\u13cd\u13d9\u13d7\u13ad": 3579,
    "\u2581\u13a4\u13db\u13c5\u13a2\u13cd\u13d4\u13c1": 3580,
    "\u2581\u13a4\u13ad\u13b8\u13c2\u13af": 3581,
    "\u2581\u13a4\u13d8\u13f4\u13af": 3582,
    "\u2581\u13a0\u13a6\u13d9\u13b5": 3583,
    "\u2581\u13a0\u13a6\u13b8\u13d3": 3584,
    "\u2581\u13ac\u13e9\u13c3\u13c1\u13b4": 3585,
    "\u2581\u13a0\u13c2\u13e5\u13b8\u13cd\u13a9": 3586,
    "\u2581\u13a0\u13aa\u13ce\u13ae\u13cd\u13d7": 3587,
    "\u2581\u13a2\u13aa\u13af": 3588,
    "\u2581\u13eb\u13da\u13be": 3589,
    "\u2581\u13b9\u13be": 3590,
    "\u2581\u13a9\u13be\u13b5\u13a2": 3591,
    "\u2581\u13c5\u13d3\u13f0": 3592,
    "\u2581\u13d3\u13c6\u13a7\u13be\u13c5": 3593,
    "\u2581\u13a6\u13df\u13d3": 3594,
    "\u2581\u13ae\u13c2\u13b5": 3595,
    "\u2581\u13a0\u13aa\u13d4\u13c5\u13af": 3596,
    "\u2581\u13a0\u13d3\u13f0\u13a8\u13cd\u13d7": 3597,
    "\u2581\u13c2\u13e8\u13a6": 3598,
    "\u2581\u13a2\u13e5\u13c1\u13cd\u13d7": 3599,
    "\u2581\u13a4\u13c3\u13af\u13f3\u13d7\u13f1": 3600,
    "\u2581\u13a0\u13e5\u13c5\u13cf\u13db": 3601,
    "\u2581\u13d5\u13ac\u13d7\u13cd\u13ac": 3602,
    "\u2581\u13a0\u13b4\u13c2\u13cd\u13a9": 3603,
    "\u2581\u13e7\u13be\u13c4\u13aa\u13eb\u13d2\u13af": 3604,
    "\u2581\u13ad\u13c2\u13e3": 3605,
    "\u13b3\u13da": 3606,
    "\u2581\u13a4\u13c2\u13e9\u13db\u13ae": 3607,
    "\u13ef\u13c5\u13b2\u13a9": 3608,
    "\u2581\u13a0\u13c2\u13f4\u13a9": 3609,
    "\u2581\u13a4\u13f0\u13e8": 3610,
    "\u2581\u13c4\u13be\u13b5\u13cd\u13d3\u13c1\u13b8": 3611,
    "\u13b2\u13cd\u13ac\u13be": 3612,
    "\u2581\u13d5\u13a7\u13c1\u13e4": 3613,
    "\u2581\u13a4\u13be\u13a6\u13d9\u13cd\u13d5\u13a2": 3614,
    "\u2581\u13a4\u13c2\u13c1\u13ac": 3615,
    "\u2581\u13a9\u13b3\u13ca": 3616,
    "\u2581\u13d7\u13b5\u13cd\u13aa\u13b8\u13d3\u13c1\u13b8\u13af": 3617,
    "\u13f0\u13a2\u13b5\u13d3\u13cd\u13d7": 3618,
    "\u2581\u13a0\u13f2\u13d9\u13d7": 3619,
    ".)": 3620,
    "\u2581\u13a4\u13be\u13d5\u13d7\u13f1": 3621,
    "\u2581\u13a0\u13c2\u13af\u13d7": 3622,
    "\u2581\u13e3\u13a8": 3623,
    "\u2581\u13c4\u13db\u13c5\u13a2": 3624,
    "\u2581\u13ec\u13a9\u13b7\u13e8\u13a9": 3625,
    "\u13cd\u13da\u13d7": 3626,
    "\u2581\u13a4\u13e1\u13d7\u13cd\u13a9": 3627,
    "\u2581\u13a4\u13d7\u13d7\u13e2": 3628,
    "\u2581\u13a0\u13aa\u13b5\u13f0\u13d7": 3629,
    "\u2581\u13a4\u13c2\u13a9\u13cd\u13d7\u13f1": 3630,
    "\u2581\u13a0\u13ac\u13d7\u13cd\u13ac\u13a2": 3631,
    "\u2581\u13ee\u13db": 3632,
    "\u2581\u13d7\u13e5\u13be\u13eb\u13f1": 3633,
    "\u2581\u13a6\u13df\u13ae": 3634,
    "\u2581\u13a4\u13ea\u13c5\u13a9": 3635,
    "\u13ce\u13ad": 3636,
    "\u2581\u13e7\u13c1\u13e4\u13a2": 3637,
    "\u2581\u13d7\u13e7": 3638,
    "\u13f2\u13be": 3639,
    "\u2581\u13a4\u13b5\u13cd\u13c6": 3640,
    "\u2581\u13a0\u13af\u13d3": 3641,
    "\u13ef\u13d4\u13ae\u13cd\u13d7": 3642,
    "\u2581\u13d9\u13d3\u13a8": 3643,
    "\u2581\u13d7\u13c1\u13af": 3644,
    "\u2581\u13a0\u13c2\u13a9\u13cd\u13ac": 3645,
    "\u2581\u13ce\u13c9": 3646,
    "\u2581\u13a4\u13be\u13c5\u13c5": 3647,
    "\u2581\u13a4\u13b5\u13cd\u13c6\u13db": 3648,
    "\u2581\u13a4\u13cc\u13af\u13b8\u13a2": 3649,
    "\u2581\u13d3\u13cd\u13db\u13a2": 3650,
    "\u13c1\u13c6": 3651,
    "\u2581\u13a0\u13b5\u13ae\u13b5\u13a8": 3652,
    "\u2581\u13a4\u13c2\u13c1\u13e8\u13a9": 3653,
    "\u2581\u13a2\u13a9\u13cd\u13a6\u13c5\u13e8\u13a2": 3654,
    "\u2581\u13d5\u13e5\u13c1\u13b8": 3655,
    "\u2581\u13a4\u13be\u13d3\u13c5\u13ce": 3656,
    "\u13a7\u13ad": 3657,
    "\u2581\u13be\u13c6\u13cd\u13db": 3658,
    "\u13a4\u13f2": 3659,
    "\u2581\u13a6\u13d3\u13cd\u13ac\u13a2": 3660,
    "\u2581\u13a4\u13b4\u13c5\u13a9": 3661,
    "\u2581\u13d7\u13a8\u13e3": 3662,
    "\u2581\u13d7\u13aa\u13e2": 3663,
    "\u2581\u13a0\u13d3\u13af\u13af": 3664,
    "\u13a6\u13ef": 3665,
    "\u2581\u13a6\u13c1\u13df\u13f4\u13cd\u13d7": 3666,
    "\u2581\u13a0\u13e5\u13db\u13d9\u13d7": 3667,
    "\u2581\u13da\u13e9\u13db\u13ae": 3668,
    "\u2581\u13a4\u13ec\u13af\u13f3": 3669,
    "\u2581\u13aa\u13db": 3670,
    "\u2581\u13c5\u13b5\u13cc\u13b5\u13c9": 3671,
    "\u2581\u13ae\u13d3": 3672,
    "\u2581\u13a4\u13e4\u13b8": 3673,
    "\u2581\u13a4\u13c2\u13a9\u13ce\u13a2": 3674,
    "\u13b4\u13be": 3675,
    "\u2581\u13a6\u13f0\u13eb\u13cd": 3676,
    "\u2581\u13a4\u13da\u13b8\u13b2": 3677,
    "\u2581\u13ac\u13a8\u13f3\u13a2": 3678,
    "\u2581\u13d3\u13e4\u13b8": 3679,
    "\u13d5\u13ef\u13d9\u13d4\u13c5\u13a9": 3680,
    "\u2581\u13a4\u13c2\u13aa\u13b2\u13af": 3681,
    "\u2581\u13a3\u13d2": 3682,
    "\u2581\u13a4\u13ec\u13e2\u13c5\u13a2": 3683,
    "\u13b8\u13c9\u13db\u13be": 3684,
    "\u2581\u13f1\u13c2\u13ac": 3685,
    "\u2581\u13cf\u13b3": 3686,
    "\u2581\u13ee\u13d3": 3687,
    "\u13d4\u13f2\u13cd\u13d7": 3688,
    "\u13c7\u13b5": 3689,
    "\u13a1\u13b5\u13cd\u13d7": 3690,
    "\u13d0\u13c9": 3691,
    "\u2581\u13aa\u13ea\u13b8\u13a9": 3692,
    "\u2581\u13e3\u13aa": 3693,
    "\u13bf\u13a2": 3694,
    "\u2581\u13e5\u13b3": 3695,
    "\u13c4\u13aa": 3696,
    "\u2581\u13dd\u13a8": 3697,
    "\u2581\u13a6\u13ac\u13e9": 3698,
    "\u13c1\u13b0": 3699,
    "\u13de\u13cd\u13d7": 3700,
    "\u2581\u13a6\u13c5\u13c5\u13a2": 3701,
    "\u2581\u13c2\u13da\u13a9\u13e8\u13c2\u13d2\u13a2": 3702,
    "\u2581\u13f4\u13a6\u13a6": 3703,
    "\u13a0\u13c6": 3704,
    "\u2581\u13a4\u13e9\u13d4\u13c5": 3705,
    "\u2581\u13c4\u13d3\u13b4\u13af": 3706,
    "\u2581\u13a4\u13ec\u13b8\u13a2": 3707,
    "\u13a9\u13cd\u13ac": 3708,
    "\u2581\u13a1\u13cd\u13a6\u13c2": 3709,
    "\u13eb\u13cd\u13a9": 3710,
    "\u13d4\u13c2\u13d3": 3711,
    "\u13cd\u13ac\u13cf": 3712,
    "\u13c3\u13ae\u13b8": 3713,
    "\u13d9\u13b5\u13a9": 3714,
    "\u2581\u13a0\u13d3\u13d9\u13b5\u13cd\u13d9\u13d7": 3715,
    "\u2581\u13a0\u13b5\u13cd\u13c6\u13d7\u13cd": 3716,
    "\u2581\u13b5\u13cf": 3717,
    "\u13f4\u13a9": 3718,
    "\u13ce\u13b8\u13af": 3719,
    "\u2581\u13a4\u13cd\u13c6\u13b8": 3720,
    "\u2581\u13a0\u13c2\u13cd\u13a6\u13be\u13a2": 3721,
    "\u2581\u13c4\u13cd\u13d5\u13a2": 3722,
    "\u2581\u13cd\u13a9\u13cd\u13d5\u13b8": 3723,
    "\u2581\u13ae\u13af": 3724,
    "\u13cd\u13d9\u13d7\u13f1": 3725,
    "\u13a9\u13cd\u13d7\u13f1": 3726,
    "\u13d3\u13f4\u13b3\u13db": 3727,
    "\u13e6\u13f0\u13c2": 3728,
    "\u13ab\u13e9": 3729,
    "\u2581\u13c5\u13e9\u13cd\u13db": 3730,
    "\u2581\u13a4\u13a6\u13c3": 3731,
    "\u2581\u13a4\u13c1\u13e4\u13b8\u13a2": 3732,
    "\u2581\u13be\u13cd": 3733,
    "\u13a6\u13b9": 3734,
    "\u2581\u13a5\u13e3": 3735,
    "\u2581\u13a4\u13be\u13db\u13a6\u13c5\u13a9": 3736,
    "\u2581\u13b2\u13a6": 3737,
    "\u2581\u13d3\u13b6\u13c2\u13a8\u13a2": 3738,
    "\u2581\u13e5\u13c5": 3739,
    "\u2581\u13d5\u13a8\u13e5": 3740,
    "\u13cd\u13da\u13a2\u13d2": 3741,
    "ss": 3742,
    "\u13a7\u13cf": 3743,
    "\u2581\u13d3\u13a6\u13e5": 3744,
    "\u2581\u13da\u13ec": 3745,
    "\u13b7\u13e4": 3746,
    "\u2581\u13a0\u13a9\u13b8\u13c9\u13d7": 3747,
    "\u13e3\u13c1": 3748,
    "\u2581\u13a4\u13c1\u13d2": 3749,
    "\u2581\u13a2\u13e5\u13a9": 3750,
    "\u13e6\u13e9\u13db": 3751,
    "\u2581\u13a2\u13e3\u13df\u13c2\u13ac\u13c1": 3752,
    "\u2581\u13a4\u13d9\u13f3": 3753,
    "\u2581\u13a0\u13a6\u13c5": 3754,
    "\u13d2\u13b2\u13cd\u13d7": 3755,
    "\u13ea\u13ce\u13d7": 3756,
    "\u13b5\u13cd\u13d4\u13c1": 3757,
    "\u13ac\u13be\u13a8": 3758,
    "\u2581\u13c6\u13be": 3759,
    "\u2581\u13a4\u13e9\u13c1": 3760,
    "\u2581\u13d9\u13d3\u13ac": 3761,
    "\u2581\u13ac\u13e9\u13cd\u13d3\u13e9\u13d7": 3762,
    "\u2581...": 3763,
    "\u13e2\u13c5\u13af": 3764,
    "\u13f3\u13cd\u13d7": 3765,
    "\u2581\u13a0\u13a6\u13d9": 3766,
    "\u2581\u13a2\u13b8": 3767,
    "\u2581\u13a0\u13c2\u13d4\u13b5\u13ad": 3768,
    "\u2581\u13be\u13d5\u13d8\u13f4": 3769,
    "\u13e5\u13b6\u13cf": 3770,
    "\u13b5\u13d3": 3771,
    "\u13cf\u13d7": 3772,
    "\u13b6\u13cf": 3773,
    "\u13c2\u13f4": 3774,
    "\u13c1\u13b2\u13a9": 3775,
    "\u2581\u13a4\u13c2\u13b7\u13e4\u13b8": 3776,
    "\u13b4\u13c3": 3777,
    "\u13d8\u13c3\u13ae\u13b8\u13a9": 3778,
    "\u2581\u13a4\u13ec\u13c2\u13af\u13cd\u13d7": 3779,
    "\u13be\u13b5": 3780,
    "\u2581\u13af\u13c1\u13b8": 3781,
    "\u2581\u13d9\u13c9": 3782,
    "\u13d3\u13c1\u13ae\u13cd\u13d7": 3783,
    "\u13d3\u13c5\u13d6\u13b4": 3784,
    "\u13e5\u13c3\u13ae\u13cd\u13a9": 3785,
    "\u2581\u13a0\u13a9\u13f0\u13b8\u13c5": 3786,
    "\u2581\u13d3\u13c2\u13b8": 3787,
    "\u13cd\u13d3\u13c1": 3788,
    "\u13d7\u13cd\u13d4\u13c1": 3789,
    "\u13be\u13e9": 3790,
    "\u2581\u13f2\u13e5": 3791,
    "\u13cf\u13be\u13cc\u13c2": 3792,
    "\u13e6\u13e2\u13d9\u13d7": 3793,
    "\u13da\u13ac": 3794,
    "\u13ec\u13c2\u13cd\u13ac": 3795,
    "\u13c1\u13c5": 3796,
    "\u13d7\u13ef": 3797,
    "\u13b5\u13b9": 3798,
    "\u2581\u13a4\u13ea\u13c5\u13ce\u13c3": 3799,
    "\u2581\u13a8\u13a2": 3800,
    "\u2581\u13a0\u13cc": 3801,
    "\u13af\u13f3\u13b2\u13cd\u13a6": 3802,
    "\u2581\u13e5\u13d5\u13a6": 3803,
    "\u13b5\u13cd\u13d9": 3804,
    "\u2581\u13a8\u13a9": 3805,
    "\u2581\u13a0\u13a6\u13d4\u13ae": 3806,
    "\u2581\u13a0\u13c1\u13b6\u13af": 3807,
    "\u2581\u13a4\u13c5\u13e3": 3808,
    "\u2581\u13ac\u13d2": 3809,
    "\u2581\u13a0\u13e5\u13f0": 3810,
    "\u13aa\u13b2": 3811,
    "\u2581\u13a4\u13a9\u13cd\u13d7": 3812,
    "\u2581\u13ac\u13e9\u13aa\u13e9\u13db": 3813,
    "\u2581\u13d7\u13c5": 3814,
    "\u13a9\u13cd\u13d9\u13d7": 3815,
    "\u2581\u13d1\u13be\u13b4\u13c9": 3816,
    "\u13f0\u13b8\u13b2": 3817,
    "\u2581\u13e7\u13c4\u13ec": 3818,
    "\u13a2\u13cd\u13d4\u13c2": 3819,
    "\u2581\u13f3\u13d3": 3820,
    "\u13b5\u13e8": 3821,
    "\u2581\u13d7\u13a7": 3822,
    "\u2581\u13a4\u13ed": 3823,
    "\u2581\u13a2\u13e3\u13b5\u13ae\u13b5": 3824,
    "\u13f0\u13b8\u13d7": 3825,
    "\u13cf\u13f3": 3826,
    "\u2581\u13c4\u13ec": 3827,
    "\u2581\u13f3\u13ea": 3828,
    "\u2581\u13a2\u13aa": 3829,
    "\u13d3\u13f1": 3830,
    "\u2581\u13d7\u13a9\u13a6": 3831,
    "\u2581\u13a2\u13d7\u13a6\u13d8": 3832,
    "\u13b3\u13db": 3833,
    "\u2581\u13e5\u13f3\u13aa": 3834,
    "\u13e3\u13c5\u13a9": 3835,
    "\u13cd\u13a6\u13c3\u13b3": 3836,
    "\u13be\u13c4\u13aa\u13e9": 3837,
    "\u2581\u13a0\u13d8": 3838,
    "\u13e5\u13aa\u13e9\u13db\u13d7\u13f1": 3839,
    "\u13cf\u13b3": 3840,
    "\u13b7\u13e4\u13b8": 3841,
    "\u2581\u13da\u13aa": 3842,
    "\u13f4\u13b5\u13b8": 3843,
    "\u13c5\u13aa\u13a2\u13cd\u13d7": 3844,
    "\u2581\u13d3\u13ac\u13a9": 3845,
    "\u13c5\u13d3\u13d7\u13cd\u13d7": 3846,
    "\u2581\u13d7\u13a9\u13f2\u13af": 3847,
    "\u2581\u13af\u13cd\u13a9\u13a6\u13da": 3848,
    "\u2581\u13a6\u13d9\u13a6": 3849,
    "\u2581\u13e6\u13a6": 3850,
    "\u2581\u13f1\u13e3\u13d3": 3851,
    "\u13d1\u13f0\u13d2": 3852,
    "\u13c1\u13c9\u13e5": 3853,
    "\u13be\u13c4\u13aa\u13eb\u13ce\u13b8": 3854,
    "\u2581\u13da\u13c3": 3855,
    "\u2581\u13a4\u13e9\u13d2\u13cd\u13a9\u13c2": 3856,
    "\u13c1\u13df\u13f4\u13be": 3857,
    "\u13b7\u13af\u13cd\u13d7": 3858,
    "\u13eb\u13ce\u13b4\u13a2": 3859,
    "\u2581\u13a4\u13c2\u13b6\u13d2": 3860,
    "\u13d3\u13c1\u13ae": 3861,
    "\u2581\u13a4\u13cd\u13c6\u13c2\u13aa\u13d9\u13d7": 3862,
    "\u13d5\u13b6\u13c6\u13cd\u13d7": 3863,
    "\u13a4\u13cd\u13d7": 3864,
    "\u13a1\u13b8": 3865,
    "\u2581\u13d5\u13c5": 3866,
    "\u2581\u13e5\u13c2\u13ac": 3867,
    "\u2581\u13a6\u13c2\u13cf": 3868,
    "\u2581\u13a4\u13c1\u13c5": 3869,
    "\u2581\u13eb\u13e8\u13f2\u13ea\u13b3": 3870,
    "\u13d8\u13c3\u13b8": 3871,
    "\u13f2\u13cd\u13d9\u13d7": 3872,
    "\u13b7\u13e8": 3873,
    "\u2581\u13f1\u13d3\u13a9": 3874,
    "\u13f0\u13b8\u13ad": 3875,
    "\u2581\u13d4\u13b5\u13da": 3876,
    "\u2581\u13e3\u13da\u13b5\u13cd\u13ac": 3877,
    "\u2581\u13c2\u13a6\u13a5\u13a9": 3878,
    "\u2581\u13a6\u13ec\u13c2": 3879,
    "\u2581\u13a4\u13f0": 3880,
    "\u2581\u13a4\u13a7": 3881,
    "\u2581\u13d7\u13a8\u13a6": 3882,
    "\u2581\u13d3\u13a8\u13e3": 3883,
    "\u13aa\u13e9\u13db": 3884,
    "\u13e6": 3885,
    "\u2581\u13a4\u13c3\u13f4": 3886,
    "\u2581\u13e7\u13a6": 3887,
    "\u13a9\u13ef": 3888,
    "\u13e4\u13ad": 3889,
    "\u13ef\u13c2\u13cd\u13ac": 3890,
    "\u2581\u13c8\u13b5": 3891,
    "\u2581\u13da\u13c2\u13a7\u13b5": 3892,
    "\u13b6\u13af\u13cd\u13d7": 3893,
    "\u13b5\u13d9\u13b4": 3894,
    "\u13a6\u13c5\u13a6": 3895,
    "\u13bc": 3896,
    "\u13aa\u13db": 3897,
    "\u2581\u13e5\u13da\u13c2": 3898,
    "\u2581\u13a4\u13c3\u13ae\u13b8": 3899,
    "\u13cd\u13a6\u13c3\u13b5": 3900,
    "\u2581\u13a4\u13b5\u13ae\u13b5\u13e8": 3901,
    "\u2581\u13c2\u13e3\u13db\u13c1\u13b2": 3902,
    "\u2581\u13a4\u13c2\u13d9": 3903,
    "\u13b4\u13a3": 3904,
    "\u2581\u13d5\u13a6\u13b3\u13c5\u13db": 3905,
    "\u2581\u13da\u13be\u13c4\u13aa\u13eb\u13ce\u13b4": 3906,
    "\u2581\u13a6\u13a6\u13b6": 3907,
    "\u2581\u13a0\u13d0\u13f4": 3908,
    "\u2581\u13d3\u13c2\u13d9\u13a8": 3909,
    "d": 3910,
    "\u2581\u13d5\u13a6\u13b6\u13a8\u13d2": 3911,
    "\u2581\u13a6\u13c3": 3912,
    "\u13e7\u13cd\u13c6\u13f4\u13cd\u13d7": 3913,
    "\u2581\u13a4\u13e6\u13f1\u13b4": 3914,
    "\u13d7\u13a6\u13b5\u13a0\u13c5\u13af\u13db": 3915,
    "\u2581\u13ed\u13c2\u13b6\u13ce": 3916,
    "\u2581\u13e4\u13b2": 3917,
    "\u2581\u13a4\u13cc\u13af\u13b8": 3918,
    "\u13cd\u13c6\u13c2\u13aa\u13d4\u13c2": 3919,
    "\u2581\u13d5\u13e3\u13d3\u13c5\u13db": 3920,
    "\u13c2\u13d9\u13b8": 3921,
    "\u13d1\u13be\u13b4": 3922,
    "\u2581\u13a7\u13c1\u13cc": 3923,
    "\u2581\u13a0\u13cd\u13c6\u13b5\u13cd\u13ac": 3924,
    "\u13ac\u13c2\u13a8": 3925,
    "\u2581\u13a4\u13d3\u13d1\u13f4": 3926,
    "\u2581\u13a4\u13be\u13c4\u13aa\u13eb\u13ce\u13b4": 3927,
    "\u2581\u13c2\u13a8\u13ce": 3928,
    "\u2581\u13c4\u13be\u13db\u13c1\u13b4": 3929,
    "\u2581\u13a0\u13c2\u13cd\u13a6\u13a2\u13b2": 3930,
    "\u13b8\u13cd\u13d4\u13c5": 3931,
    "\u2581\u13a0\u13e9\u13db\u13d7": 3932,
    "\u13b3\u13c1": 3933,
    "\u13d3\u13b4\u13c2\u13cd\u13ac": 3934,
    "\u13cd\u13c8\u13ef": 3935,
    "\u2581\u13ec\u13a9\u13b7\u13e8": 3936,
    "\u2581\u13c2\u13a6\u13c5\u13af\u13d2": 3937,
    "\u2581\u13a0\u13cd": 3938,
    "\u2581\u13c4\u13be\u13b5\u13cd\u13d4\u13c1": 3939,
    "\u2581\u13a0\u13c6\u13e3": 3940,
    "\u2581\u13a4\u13c2\u13f4\u13ae": 3941,
    "\u2581\u13be\u13ef\u13db\u13a5": 3942,
    "\u2581\u13a2\u13e5\u13e0": 3943,
    "\u2581\u13da\u13b8": 3944,
    "\u2581\u13d3\u13a9\u13b8\u13eb\u13cd\u13d3\u13c1\u13b2": 3945,
    "\u13c6\u13cf": 3946,
    "\u2581\u13da\u13e9\u13c2\u13a6\u13b8": 3947,
    "\u2581\u13a4\u13c1\u13dd\u13c5": 3948,
    "\u2581\u13d7\u13d8\u13f2\u13af": 3949,
    "\u2581\u13e7\u13ed\u13aa\u13d9\u13d7": 3950,
    "\u2581\u13c2\u13a6\u13b5\u13cd\u13d4\u13c5": 3951,
    "\u2581\u13a4\u13c1\u13a2\u13cd\u13d4\u13c5": 3952,
    "\u2581\u13d1\u13df\u13b6": 3953,
    "\u2581\u13a4\u13ea\u13d3\u13cd\u13d7": 3954,
    "\u2581\u13a4\u13be\u13c2\u13a9\u13d2": 3955,
    "\u2581\u13c2\u13a6\u13db\u13c1\u13b2": 3956,
    "\u13a2\u13cd\u13d9\u13d7": 3957,
    "\u2581\u13a5\u13de": 3958,
    "\u2581\u13a4\u13be\u13db\u13aa\u13d7": 3959,
    "\u13d9\u13d3\u13c6\u13d3": 3960,
    "\u13a6\u13d8\u13d5\u13af": 3961,
    "\u2581\u13ed\u13e9": 3962,
    "\u2581\u13a7\u13c3\u13ae": 3963,
    "\u2581\u13a0\u13e9\u13be\u13a6\u13b3": 3964,
    "\u2581\u13a4\u13c1\u13c9\u13e8": 3965,
    "\u2581\u13aa\u13b5\u13cd\u13d7": 3966,
    "\u2581\u13e5\u13a6\u13d8\u13cf": 3967,
    "\u2581\u13a0\u13b5\u13cf\u13be\u13af\u13cd\u13d4\u13c5\u13af": 3968,
    "\u2581\u13a0\u13f2\u13d3\u13cc\u13b2": 3969,
    "\u2581\u13a4\u13da\u13d3\u13b4\u13db": 3970,
    "\u2581\u13a4\u13e9\u13ad\u13c2\u13b4": 3971,
    "\u2581\u13c2\u13a9\u13ea\u13ce\u13b8\u13ad": 3972,
    "\u2581\u13c5\u13db\u13c6\u13d3\u13b4\u13c5\u13af": 3973,
    "\u2581\u13c5\u13e7\u13d3\u13b4\u13c5\u13b2\u13be": 3974,
    "\u2581\u13e6\u13d1\u13eb": 3975,
    "\u2581\u13a0\u13d3\u13c5\u13d6\u13cd\u13aa": 3976,
    "\u2581\u13a4\u13be\u13d7\u13cd\u13a6\u13df": 3977,
    "\u2581\u13a8\u13b4\u13cf\u13f1": 3978,
    "\u2581\u13d7\u13e6\u13ea\u13b5\u13cd\u13a9": 3979,
    "\u2581\u13da\u13a8\u13d3\u13b5\u13f4": 3980,
    "\u2581\u13a0\u13d0\u13a5\u13cd\u13d9\u13d7": 3981,
    "\u2581\u13a4\u13c2\u13a9\u13b5\u13f2\u13a2\u13cd\u13d7": 3982,
    "\u2581\u13cf\u13b5\u13c6": 3983,
    "\u2581\u13c5\u13e5\u13ea\u13ce\u13b8\u13a9": 3984,
    "\u2581\u13a0\u13be\u13d3\u13cd\u13a6\u13b6\u13a9": 3985,
    "\u2581\u13a4\u13aa\u13b5\u13f0\u13a5": 3986,
    "\u2581\u13c4\u13be\u13d3\u13a1\u13cd\u13d7": 3987,
    "\u2581\u13e3\u13d3\u13f2\u13c1\u13b8\u13a9": 3988,
    "\u2581\u13a4\u13db\u13b4\u13ae": 3989,
    "\u2581\u13a0\u13c2\u13f0\u13aa\u13a9": 3990,
    "\u2581\u13a0\u13d3\u13ea\u13af": 3991,
    "\u2581\u13a4\u13ea\u13d0\u13c5\u13f4": 3992,
    "\u2581\u13a2\u13e3\u13db\u13d3\u13cd\u13d3": 3993,
    "\u2581\u13d5\u13a6\u13c5\u13d9\u13ac": 3994,
    "\u2581\u13a2\u13b3\u13a9\u13f3": 3995,
    "\u2581\u13e4\u13c6\u13b3\u13c2": 3996,
    "\u2581\u13a7\u13c4\u13a6\u13df": 3997,
    "\u2581\u13a0\u13aa\u13d5\u13cd\u13a9": 3998,
    "\u2581\u13a2\u13aa\u13ea\u13b3": 3999,
    "\u2581\u13a0\u13cd\u13a9\u13d3\u13cd\u13ac": 4000,
    "\u2581\u13a4\u13ed\u13e2\u13d4\u13c5\u13a9": 4001,
    "\u2581\u13a6\u13d7\u13a8\u13c2": 4002,
    "\u2581\u13a4\u13b5\u13cf\u13c2\u13d5\u13c5": 4003,
    "\u2581\u13a4\u13b5\u13f2\u13d7": 4004,
    "\u2581\u13e7\u13c1\u13b5\u13c1": 4005,
    "\u2581\u13b6\u13bb": 4006,
    "\u13a6\u13b5\u13b7\u13a8\u13cd\u13d7": 4007,
    "\u2581\u13d7\u13a7\u13c3\u13a9\u13cd\u13d9\u13d7": 4008,
    "\u2581\u13d5\u13e5\u13c3\u13a9\u13cd\u13a8\u13cd\u13d7": 4009,
    "\u2581\u13be\u13a8\u13a2\u13f4": 4010,
    "\u2581\u13a0\u13be\u13d3\u13cd\u13d3\u13e9\u13d7\u13d9\u13af": 4011,
    "\u2581\u13e9\u13a9\u13b7\u13e3": 4012,
    "\u2581\u13ad\u13f0\u13b5\u13cd\u13d7": 4013,
    "\u2581\u13d3\u13f2\u13e4\u13cf": 4014,
    "\u2581\u13a0\u13be\u13b5\u13cd\u13d5\u13b5\u13cd\u13a9": 4015,
    "\u2581\u13c2\u13a9\u13ea\u13cf": 4016,
    "\u2581\u13a0\u13be\u13d3\u13e4\u13b5": 4017,
    "\u2581\u13f1\u13c2\u13ac\u13c1\u13ad": 4018,
    "\u2581\u13d5\u13e5\u13a7\u13bf\u13e9\u13d7\u13d9\u13ae\u13cd\u13d7": 4019,
    "\u2581\u13eb\u13d7\u13b6\u13af": 4020,
    "\u2581\u13d4\u13d8\u13c4\u13a6": 4021,
    "\u2581\u13a0\u13e6\u13b3\u13c5": 4022,
    "\u2581\u13da\u13ad\u13c4\u13ee": 4023,
    "\u2581\u13d7\u13a6\u13b6\u13d4\u13c5": 4024,
    "\u2581\u13a0\u13d3\u13f2\u13c1\u13ae\u13cd\u13d7": 4025,
    "\u2581\u13da\u13cd\u13d3\u13a6\u13b8": 4026,
    "\u2581\u13d5\u13aa\u13ea\u13b4\u13cd\u13d7": 4027,
    "\u2581\u13a2\u13e6\u13af\u13f3\u13d7\u13f1": 4028,
    "\u2581\u13a4\u13db\u13a6\u13cd\u13d5": 4029,
    "\u2581\u13d3\u13a6\u13db\u13c1\u13b5": 4030,
    "\u2581\u13e7\u13c2\u13c1\u13df\u13f4\u13cd\u13d7": 4031,
    "\u13d8\u13ef\u13cd\u13d3\u13c1": 4032,
    "\u2581\u13c4\u13ea\u13b2\u13be": 4033,
    "\u2581\u13d3\u13f1\u13be": 4034,
    "\u2581\u13e7\u13be\u13ac\u13e9\u13b6\u13d7": 4035,
    "\u2581\u13d7\u13e3\u13b4\u13b2\u13a6": 4036,
    "\u2581\u13a1\u13e5\u13c5\u13cf\u13d3\u13cd\u13d7": 4037,
    "\u2581\u13e5\u13da\u13f3\u13aa\u13d7": 4038,
    "\u2581\u13a2\u13ac\u13db\u13c1\u13d7": 4039,
    "\u2581\u13d7\u13be\u13a2\u13d2": 4040,
    "\u2581\u13a8\u13e5\u13cd\u13d5\u13b8\u13d7": 4041,
    "\u2581\u13e7\u13c2\u13b6\u13b8\u13d7": 4042,
    "\u2581\u13a6\u13c2\u13a9\u13b8": 4043,
    "\u2581\u13a0\u13ab\u13e9\u13cc": 4044,
    "\u13cd\u13d7\u13cd\u13a8": 4045,
    "\u2581\u13a0\u13c2\u13aa\u13b2\u13ad": 4046,
    "\u2581\u13a4\u13ac\u13a5\u13cd\u13a9": 4047,
    "\u2581\u13a2\u13ef\u13e5\u13b8\u13c9\u13d7": 4048,
    "\u13a7\u13c1\u13b8": 4049,
    "\u2581\u13d7\u13aa\u13e2\u13c5\u13af": 4050,
    "\u2581\u13ac\u13ec\u13af\u13f3\u13c5\u13a9": 4051,
    "\u2581\u13a3\u13a6\u13da\u13b5\u13ad": 4052,
    "\u2581\u13a2\u13f3\u13ea\u13ce\u13b8\u13af": 4053,
    "\u2581\u13cd\u13a9\u13cd\u13d3\u13e9\u13da\u13a6": 4054,
    "\u2581\u13aa\u13b0\u13cd": 4055,
    "\u2581\u13a4\u13c2\u13aa\u13e9\u13db\u13d7\u13f1": 4056,
    "\u2581\u13a0\u13cd\u13d5\u13ef\u13d3": 4057,
    "\u2581\u13af\u13b8\u13c9\u13d3": 4058,
    "\u2581\u13e3\u13a6\u13e8\u13cd": 4059,
    "\u2581\u13a0\u13c2\u13a8\u13f3\u13e3": 4060,
    "\u2581\u13e5\u13e3\u13db\u13a9\u13ad": 4061,
    "\u2581\u13c2\u13e3\u13db\u13bf\u13d5\u13ac\u13a2": 4062,
    "\u2581\u13a2\u13e3\u13da\u13b5\u13cd\u13a8\u13cd\u13d7": 4063,
    "\u2581\u13a2\u13e5\u13ef\u13a1\u13cd\u13d7": 4064,
    "\u2581\u13d3\u13ad\u13cf": 4065,
    "\u2581\u13af\u13cd\u13aa\u13b5": 4066,
    "\u2581\u13ad\u13d3\u13c5\u13be": 4067,
    "\u2581\u13a0\u13cd\u13a9\u13d7\u13cd\u13a8\u13a2": 4068,
    "\u2581\u13e3\u13d9\u13b3\u13c5\u13cd\u13d7": 4069,
    "\u2581\u13cd\u13c8\u13cd\u13d4": 4070,
    "\u2581\u13d7\u13a6\u13b6\u13a9\u13cd\u13a9": 4071,
    "\u2581\u13d7\u13e3\u13a7\u13c5\u13a6": 4072,
    "\u2581\u13a0\u13e0\u13d7\u13f1": 4073,
    "\u2581\u13c2\u13f4\u13c1\u13b8": 4074,
    "\u2581\u13a2\u13e3\u13b5\u13ae\u13b5\u13a8\u13cd\u13d7": 4075,
    "\u2581\u13a8\u13e5\u13c5\u13d2\u13af": 4076,
    "\u2581\u13c7\u13d7\u13c2\u13f1": 4077,
    "\u2581\u13d7\u13a9\u13b8\u13eb\u13cd\u13d3\u13c1\u13d7\u13f1": 4078,
    "\u2581\u13eb\u13e5\u13b7\u13e8\u13ad": 4079,
    "\u2581\u13a4\u13b6\u13d7\u13e2": 4080,
    "\u2581\u13a4\u13be\u13db\u13c5\u13a9": 4081,
    "\u2581\u13d1\u13d3\u13b5\u13cd\u13aa\u13af": 4082,
    "\u2581\u13ed\u13d5\u13b5\u13e8": 4083,
    "\u2581\u13dd\u13ec\u13da": 4084,
    "\u2581\u13e7\u13c2\u13b8\u13eb\u13cd\u13d3\u13c1\u13d7": 4085,
    "\u2581\u13a0\u13c2\u13a6\u13f2\u13df": 4086,
    "\u2581\u13a1\u13e5\u13ef\u13c5\u13db": 4087,
    "\u2581\u13a2\u13ef\u13d3\u13c5\u13d6\u13d7": 4088,
    "\u13cd\u13d3\u13f1": 4089,
    "\u2581\u13ce\u13d8": 4090,
    "\u2581\u13f0\u13d9\u13ad": 4091,
    "\u2581\u13d7\u13e3\u13d3\u13b4\u13c5\u13db": 4092,
    "\u2581\u13e7\u13b7\u13eb\u13cd\u13d4\u13c1\u13d7": 4093,
    "\u2581\u13a0\u13a9\u13b5\u13a8\u13c2": 4094,
    "\u2581\u13c8\u13b5\u13cf": 4095,
    "\u2581\u13a4\u13bf\u13b7\u13d2\u13a9": 4096,
    "\u2581\u13cd\u13aa\u13c1": 4097,
    "\u2581\u13a6\u13c3\u13d9\u13d7\u13f1": 4098,
    "\u2581\u13a4\u13be\u13d3\u13d9\u13b5\u13cd\u13d3\u13c1\u13b8\u13a9": 4099,
    "\u2581\u13da\u13ef\u13ea\u13a8": 4100,
    "\u13eb\u13db\u13b2": 4101,
    "\u13f2\u13d2\u13a9": 4102,
    "\u2581\u13aa\u13af\u13a2\u13f4": 4103,
    "\u13d2\u13d7": 4104,
    "\u2581\u13a2\u13a6\u13b5\u13cd\u13d9\u13d7\u13f1": 4105,
    "\u2581\u13a2\u13e8\u13c3\u13ae\u13ae\u13b8": 4106,
    "\u2581\u13da\u13c3\u13b8": 4107,
    "\u13c4\u13cd\u13d7": 4108,
    "\u2581\u13c3\u13a9\u13ea\u13ce\u13b8": 4109,
    "\u2581\u13a4\u13d3\u13d9\u13b5\u13e3\u13db": 4110,
    "\u13df\u13cc\u13c2": 4111,
    "\u2581\u13a4\u13a6\u13d4\u13d4\u13c5\u13af": 4112,
    "\u2581\u13d3\u13be\u13d5\u13f2\u13b2\u13cd\u13ac": 4113,
    "\u13f2\u13cd\u13d4\u13c2": 4114,
    "\u2581\u13b9\u13a6": 4115,
    "\u2581\u13c4\u13e9\u13c1\u13b0": 4116,
    "\u2581\u13a4\u13c3\u13af\u13f3\u13c5\u13af": 4117,
    "\u2581\u13a0\u13d3\u13c1\u13e3\u13cd\u13da\u13b6\u13a9\u13af": 4118,
    "\u2581\u13ef\u13c2\u13a6\u13d4\u13ae": 4119,
    "\u2581\u13a0\u13cd\u13ab\u13d5\u13cd\u13d7\u13f1": 4120,
    "\u13d7\u13d4\u13af": 4121,
    "\u2581\u13a4\u13db\u13d2\u13af": 4122,
    "\u2581\u13a2\u13a6\u13a6\u13d3": 4123,
    "\u2581\u13b2\u13d3": 4124,
    "\u2581\u13a2\u13cd\u13d5\u13be": 4125,
    "\u2581\u13a0\u13a6\u13d4\u13af\u13f3": 4126,
    "\u2581\u13ac\u13e9\u13db\u13d7": 4127,
    "\u2581\u13a4\u13b3\u13cf\u13d5\u13c2": 4128,
    "\u2581\u13a4\u13d3\u13f4\u13ce\u13a2": 4129,
    "\u2581\u13a4\u13cd\u13d3\u13f1\u13d5": 4130,
    "\u2581\u13d3\u13a7\u13c5": 4131,
    "\u2581\u13e5\u13c1\u13a6": 4132,
    "\u2581\u13a4\u13c1\u13c9\u13e8\u13af": 4133,
    "\u2581\u13aa\u13ea\u13b4": 4134,
    "\u2581\u13a4\u13c1\u13dd\u13c5\u13af": 4135,
    "\u2581\u13a4\u13ea\u13a7\u13c1\u13a2": 4136,
    "\u2581\u13a4\u13be\u13c4\u13aa\u13a2\u13cd\u13d7": 4137,
    "\u2581\u13a4\u13c3\u13af\u13f3\u13c5\u13a9": 4138,
    "\u2581\u13af\u13f2\u13b5": 4139,
    "\u2581\u13d3\u13e8\u13c1\u13b5": 4140,
    "\u2581\u13a9\u13b3\u13af\u13f3": 4141,
    "\u2581\u13c7\u13b5\u13a9": 4142,
    "\u2581\u13a2\u13ab\u13e9": 4143,
    "\u2581\u13c4\u13be\u13b5\u13cd\u13d4\u13c5": 4144,
    "\u2581\u13e5\u13d9\u13a6": 4145,
    "\u2581\u13a0\u13c2\u13c3\u13ae\u13ad": 4146,
    "\u13e9\u13d4": 4147,
    "\u13e8\u13d7": 4148,
    "\u2581\u13a4\u13be\u13db\u13aa\u13d7\u13f1": 4149,
    "\u2581\u13a4\u13e6\u13cd\u13d7": 4150,
    "\u2581\u13d7\u13a6\u13e5": 4151,
    "\u2581\u13a2\u13f3\u13d2\u13af": 4152,
    "\u2581\u13a4\u13ea\u13cd\u13a9\u13b8\u13a2": 4153,
    "\u2581\u13eb\u13e5\u13a6\u13db\u13a2": 4154,
    "\u2581\u13a4\u13aa\u13e9\u13db\u13d7\u13f1": 4155,
    "\u2581\u13d7\u13aa\u13e9\u13db\u13d7": 4156,
    "\u2581\u13e5\u13ef\u13b5\u13a1\u13b5\u13e4": 4157,
    "\u2581\u13a8\u13b5\u13cd\u13a9": 4158,
    "\u2581\u13c2\u13da\u13e9\u13c1\u13b4\u13a2": 4159,
    "\u2581\u13e7\u13d3\u13b5\u13a2": 4160,
    "\u2581\u13e5\u13aa\u13e9\u13d8\u13cd\u13ac": 4161,
    "\u2581\u13bb\u13b3": 4162,
    "\u2581\u13a1\u13d3\u13cd\u13d7": 4163,
    "\u2581\u13be\u13ef\u13db\u13a5\u13a9": 4164,
    "\u2581\u13f1\u13c5": 4165,
    "\u2581\u13a4\u13a9\u13d2\u13a9": 4166,
    "\u2581\u13a4\u13be\u13c2\u13a9\u13d2\u13a9": 4167,
    "\u2581\u13a4\u13d3\u13d9\u13b5\u13cd\u13d4\u13c1\u13a2": 4168,
    "\u13c5\u13ec\u13d7\u13f1": 4169,
    "\u2581\u13d7\u13be\u13d3\u13aa\u13be\u13d7\u13cd\u13ac\u13a2": 4170,
    "\u2581\u13a4\u13cd\u13c6\u13c2\u13aa\u13db": 4171,
    "\u2581\u13a0\u13be\u13d3\u13aa\u13be\u13d7\u13cd\u13ac\u13a2": 4172,
    "\u2581\u13a6\u13d3\u13d9\u13b5\u13cd\u13d7\u13cd\u13ac\u13a2": 4173,
    "\u13a1\u13b2": 4174,
    "\u2581\u13a4\u13be\u13d3\u13c5\u13d6\u13b4": 4175,
    "\u2581\u13a2\u13a6\u13b5\u13a2": 4176,
    "\u2581\u13a4\u13c1\u13af": 4177,
    "\u2581\u13e5\u13ac\u13e9": 4178,
    "\u2581\u13a4\u13be\u13d5\u13d7": 4179,
    "\u2581\u13a0\u13a6\u13cd\u13a9": 4180,
    "\u2581\u13a4\u13e9\u13d4\u13c5\u13a9": 4181,
    "\u13c2\u13cd\u13d7": 4182,
    "\u2581\u13a4\u13be\u13c2\u13a9\u13ce\u13a2": 4183,
    "\u13d9\u13b2\u13a2": 4184,
    "\u2581\u13a4\u13c7\u13d3\u13b5\u13c9": 4185,
    "\u13b4\u13c5\u13b2": 4186,
    "\u2581\u13e5\u13f0\u13b8\u13a2": 4187,
    "\u13db\u13c1\u13b8": 4188,
    "\u2581\u13a0\u13aa\u13be": 4189,
    "\u2581\u13a4\u13c2\u13e3\u13d6\u13cd\u13d7": 4190,
    "\u2581\u13a4\u13be\u13d3\u13c5\u13d6\u13b8": 4191,
    "\u2581\u13e5\u13c4\u13cd\u13d5": 4192,
    "\u2581\u13da\u13e9\u13c2\u13a6\u13b8\u13a2": 4193,
    "\u2581\u13a4\u13e6\u13f1\u13b4\u13a2": 4194,
    "\u13e3\u13b5\u13cd\u13d9": 4195,
    "\u13d3\u13db\u13cd\u13a9": 4196,
    "\u2581\u13a6\u13ef\u13b8": 4197,
    "\u2581\u13a4\u13a9\u13ce\u13a2": 4198,
    "\u13b6\u13b8\u13d7": 4199,
    "\u2581\u13a0\u13a2\u13d2\u13a9": 4200,
    "\u2581\u13a6\u13df": 4201,
    "\u13d3\u13c1\u13af": 4202,
    "\u13f4\u13ae\u13a2": 4203,
    "\u2581\u13a4\u13d7\u13db\u13ae\u13a2": 4204,
    "\u2581\u13a3\u13a9\u13be\u13b5\u13aa": 4205,
    "\u2581\u13a4\u13f2\u13a2\u13f4": 4206,
    "\u2581\u13a3\u13b5\u13e9\u13f2": 4207,
    "\u13cf\u13d4\u13db": 4208,
    "\u13b2\u13ce": 4209,
    "\u2581\u13a6\u13f2\u13df\u13a8": 4210,
    "\u2581\u13a0\u13df\u13cd\u13d7": 4211,
    "\u2581\u13ed\u13c2\u13b7\u13e8\u13a9": 4212,
    "\u2581\u13a4\u13ea\u13f4\u13a2": 4213,
    "\u13c2\u13a6": 4214,
    "\u13cd\u13a6\u13ce\u13d7": 4215,
    "\u13c5\u13c3": 4216,
    "\u2581\u13eb\u13a6\u13b7\u13ac": 4217,
    "\u2581\u13a4\u13a9\u13d2": 4218,
    "\u2581\u13a2\u13e3\u13d3\u13c5\u13d6\u13cd\u13ac": 4219,
    "\u2581\u13e6\u13a8": 4220,
    "\u13d7\u13c2\u13cd\u13aa\u13c2\u13af": 4221,
    "\u13da\u13a2\u13cd\u13d3\u13c1\u13b4": 4222,
    "\u13d5\u13b6\u13b0\u13cc": 4223,
    "\u2581\u13a2\u13d7\u13ac\u13c1": 4224,
    "\u2581\u13ae\u13b5": 4225,
    "\u2581\u13e3\u13d7\u13ad": 4226,
    "\u2581\u13d5\u13a6\u13a7\u13b2": 4227,
    "\u2581\u13e7\u13c1\u13a6": 4228,
    "\u2581\u13a4\u13cd\u13aa\u13d2": 4229,
    "\u13a4\u13e9\u13c2\u13a6\u13b8": 4230,
    "\u2581\u13a2\u13e8\u13d7\u13cd\u13ac": 4231,
    "\u2581\u13a0\u13a9\u13c1\u13e8\u13a2": 4232,
    "\u13c3\u13af\u13ce\u13b4": 4233,
    "\u2581\u13e5\u13eb": 4234,
    "\u2581\u13a4\u13c2\u13be\u13eb": 4235,
    "\u2581\u13ab\u13a6": 4236,
    "\u2581\u13d7\u13d0\u13f4": 4237,
    "\u2581\u13c2\u13d5\u13ac\u13c1\u13b2": 4238,
    "\u2581\u13dc": 4239,
    "\u2581\u13eb\u13da\u13ef\u13c5\u13ae\u13a2": 4240,
    "\u2581\u13a0\u13e5\u13be": 4241,
    "\u2581\u13af\u13a6\u13d4\u13b2": 4242,
    "\u2581\u13a4\u13c4\u13aa\u13e4\u13a2": 4243,
    "\u2581\u13a4\u13c5\u13ce\u13a2": 4244,
    "\u2581\u13a0\u13be\u13b5\u13ae\u13b5\u13a8": 4245,
    "\u2581\u13a2\u13d4": 4246,
    "\u2581\u13a0\u13c1\u13ae\u13cd\u13d7": 4247,
    "\u2581\u13be\u13db\u13c1\u13b2\u13a2": 4248,
    "\u2581\u13a4\u13c1\u13cd\u13a9\u13b8": 4249,
    "\u13b5\u13cd\u13aa\u13b8\u13d3\u13c1\u13d7\u13f1": 4250,
    "\u2581\u13a4\u13b7\u13e4\u13b4\u13a2": 4251,
    "\u2581\u13a4\u13c1\u13cd\u13d4": 4252,
    "\u2581\u13a4\u13e9\u13d4\u13c1": 4253,
    "\u2581\u13e5\u13d5\u13e3": 4254,
    "\u13e3\u13d7": 4255,
    "\u2581\u13e7\u13c1\u13d7\u13f1": 4256,
    "\u2581\u13da\u13d9\u13cd\u13db": 4257,
    "\u13c8\u13f1": 4258,
    "\u2581\u13a1\u13be\u13a2": 4259,
    "\u2581\u13a4\u13ec\u13e8": 4260,
    "\u13d9\u13ad": 4261,
    "\u2581\u13c2\u13e5\u13ea\u13ce\u13b8": 4262,
    "\u13db\u13a6\u13c5": 4263,
    "\u2581\u13a4\u13ea\u13ad": 4264,
    "\u13d4\u13c1\u13cd\u13d7": 4265,
    "\u2581\u13c4\u13e9\u13c1\u13b8\u13a9": 4266,
    "\u2581\u13a4\u13ec\u13c2\u13ce": 4267,
    "\u13e7\u13c2\u13f2\u13af\u13cd\u13d7\u13f1": 4268,
    "\u13a8\u13ce\u13a2": 4269,
    "\u13aa\u13b5\u13ef": 4270,
    "\u2581\u13e7\u13c1\u13e4\u13b4": 4271,
    "\u2581\u13a4\u13c2\u13c5": 4272,
    "\u13d9\u13b5\u13a6": 4273,
    "\u2581\u13f1\u13e5\u13f0\u13b8": 4274,
    "\u13cc\u13db\u13d7": 4275,
    "\u2581\u13a4\u13d5\u13b8": 4276,
    "\u2581\u13a4\u13c2\u13aa\u13b2\u13a9": 4277,
    "\u2581\u13e7\u13be\u13e6": 4278,
    "\u2581\u13d7\u13a9\u13a6\u13f4\u13b5\u13a8\u13a2": 4279,
    "\u2581\u13a4\u13e9\u13c2\u13b8": 4280,
    "\u2581\u13a2\u13a9\u13c1\u13b8": 4281,
    "\u2581\u13c3\u13f3": 4282,
    "\u13d0\u13d7": 4283,
    "\u13e0\u13d2": 4284,
    "\u13c4\u13aa\u13eb\u13cf": 4285,
    "\u2581\u13a2\u13e3\u13d3\u13c5\u13d6": 4286,
    "\u2581\u13e7\u13ea\u13c5\u13d2\u13a2": 4287,
    "\u2581\u13a0\u13e6\u13f4\u13a2": 4288,
    "\u2581\u13be\u13cf": 4289,
    "\u2581\u13a4\u13cd\u13a6\u13c5\u13e8\u13a2": 4290,
    "\u2581\u13da\u13c2\u13b8": 4291,
    "\u13cf\u13d0\u13d7": 4292,
    "\u2581\u13a4\u13c3\u13e2\u13c5": 4293,
    "\u2581\u13a4\u13d3\u13c5\u13d9\u13a9": 4294,
    "\u13e2\u13be\u13c1\u13d7": 4295,
    "\u2581\u13d5\u13e3\u13d9\u13a5\u13a2": 4296,
    "\u2581\u13c3\u13a9": 4297,
    "\u2581\u13a4\u13cd\u13d7\u13c9": 4298,
    "\u13f2\u13cd\u13d7\u13cd\u13ac": 4299,
    "\u13d6\u13b5": 4300,
    "\u2581\u13a4\u13a7\u13b5\u13b8": 4301,
    "\u2581\u13c3\u13d2": 4302,
    "\u13df\u13b6": 4303,
    "\u2581\u13d8\u13c5": 4304,
    "\u13aa\u13b3": 4305,
    "\u2581\u13e7\u13f2": 4306,
    "\u2581\u13a4\u13b5\u13cd\u13c6\u13d5": 4307,
    "\u13c5\u13a6\u13b8\u13db": 4308,
    "\u2581\u13a2\u13e8\u13f2\u13ea\u13b3": 4309,
    "\u13a7\u13be": 4310,
    "\u13c5\u13d7\u13cd\u13a8\u13cd\u13d7": 4311,
    "\u13c1\u13a2\u13cd\u13d3\u13c1\u13d7": 4312,
    "\u2581\u13e5\u13d7": 4313,
    "\u2581\u13a0\u13c3\u13b5": 4314,
    "\u2581\u13c2\u13ac\u13c1\u13b8": 4315,
    "\u2581\u13be\u13e5": 4316,
    "\u13f2\u13a6": 4317,
    "\u2581\u13a0\u13c5": 4318,
    "\u13c9\u13af": 4319,
    "\u2581\u13ea\u13d9": 4320,
    "\u13f2\u13af\u13b2": 4321,
    "\u2581\u13a4\u13c1\u13c5\u13cd\u13d7": 4322,
    "\u2581\u13d7\u13cd\u13c6": 4323,
    "\u2581\u13a3\u13cd": 4324,
    "\u2581\u13a4\u13d3\u13c5\u13d2": 4325,
    "\u2581\u13c4\u13ea\u13ce\u13b8\u13a2": 4326,
    "\u2581\u13a2\u13f2": 4327,
    "\u13cc\u13b3\u13d3\u13c1": 4328,
    "\u2581\u13a4\u13c1\u13c5\u13ce\u13c3": 4329,
    "\u13c2\u13ac\u13a6": 4330,
    "\u13cd\u13a6\u13a2\u13ae\u13cd\u13d7": 4331,
    "\u2581\u13d5\u13a0": 4332,
    "\u2581\u13a4\u13d9\u13af\u13f3\u13ad": 4333,
    "\u13e5\u13c1\u13b8": 4334,
    "\u2581\u13a0\u13c9\u13e2": 4335,
    "\u2581\u13a0\u13c2\u13b8\u13c9\u13d7\u13cd\u13a8": 4336,
    "\u13c2\u13cc\u13c2": 4337,
    "\u13a6\u13d9\u13a5\u13ce": 4338,
    "\u13c1\u13cd\u13a8": 4339,
    "\u2581\u13a4\u13a7\u13b5": 4340,
    "\u2581\u13e6\u13cf": 4341,
    "\u2581\u13e4\u13b3\u13d7": 4342,
    "\u2581\u13d7\u13ac\u13e9\u13be": 4343,
    "\u13f0\u13b2": 4344,
    "\u13b5\u13cd\u13d3\u13f4\u13d7": 4345,
    "\u13a4\u13cd\u13d3\u13a6\u13f4\u13af\u13d3": 4346,
    "\u2581\u13e6\u13d2": 4347,
    "\u2581\u13a4\u13c1\u13e4\u13a2": 4348,
    "\u2581\u13a0\u13f0\u13b5\u13d2": 4349,
    "\u2581\u13e7\u13d3\u13b4": 4350,
    "\u13df\u13ef": 4351,
    "\u2581\u13a4\u13c1\u13e4\u13b4\u13a2": 4352,
    "\u2581\u13af\u13c3": 4353,
    "\u2581\u13be\u13c2\u13a5\u13a9": 4354,
    "s": 4355,
    "\u13ab\u13f4": 4356,
    "\u2581\u13ac\u13e9\u13db\u13db": 4357,
    "\u2581\u13a4\u13d9\u13af": 4358,
    "\u13aa\u13b5\u13c2\u13d7": 4359,
    "\u2581\u13a2\u13a4": 4360,
    "\u2581\u13ad\u13d7\u13d4": 4361,
    "\u2581\u13a8\u13cd": 4362,
    "\u13d3\u13c2\u13b8\u13a9": 4363,
    "\u2581\u13a4\u13b3": 4364,
    "\u13e1\u13d7\u13cd\u13a9": 4365,
    "\u2581\u13a0\u13e3": 4366,
    "\u2581\u13d3\u13d4\u13b4\u13d2\u13a2": 4367,
    "\u13d5\u13ad": 4368,
    "\u13d3\u13c1\u13d7\u13f1": 4369,
    "\u2581\u13a6\u13f2\u13a6": 4370,
    "\u13db\u13aa\u13d7": 4371,
    "\u13b6\u13d3": 4372,
    "\u2581\u13da\u13c1\u13e4\u13b4\u13c3": 4373,
    "\u2581\u13eb\u13c2": 4374,
    "\u13cd\u13d3\u13e9\u13d5\u13a9": 4375,
    "\u2581\u13a1\u13cd\u13d7": 4376,
    "\u2581\u13a4\u13bf\u13b8": 4377,
    "\u2581\u13d3\u13e5\u13f2": 4378,
    "\u2581\u13a2\u13ac\u13f1\u13f1\u13c9": 4379,
    "\u13c2\u13cd\u13d9\u13d7": 4380,
    "\u2581\u13a2\u13f3\u13c2": 4381,
    "\u2581\u13a2\u13f3\u13cd\u13a9\u13c2\u13c3": 4382,
    "\u13ef\u13d9": 4383,
    "\u2581\u13a0\u13a9\u13cd\u13a6\u13c5\u13e8": 4384,
    "\u13a7\u13b8": 4385,
    "\u13b4\u13d2": 4386,
    "\u13d7\u13d4\u13cd\u13ac": 4387,
    "\u13a6\u13db\u13a6": 4388,
    "\u2581\u13be\u13d3": 4389,
    "\u13eb\u13db": 4390,
    "\u2581\u13a0\u13b9\u13c2": 4391,
    "\u13aa\u13d5\u13cd\u13d7": 4392,
    "\u13e9\u13db\u13af": 4393,
    "\u2581\u13a4\u13c2\u13f4\u13b8": 4394,
    "\u2581\u13ef\u13d3\u13c5\u13d6": 4395,
    "\u13e5\u13e7\u13e3": 4396,
    "\u2581\u13a0\u13a9\u13b2": 4397,
    "\u2581\u13a4\u13cd\u13db": 4398,
    "\u2581\u13a0\u13be\u13d7\u13cd\u13a8": 4399,
    "\u2581\u13a0\u13ab\u13f4\u13d7": 4400,
    "\u13a8\u13f3\u13ad": 4401,
    "\u2581\u13f0\u13e3": 4402,
    "\u2581\u13da\u13c1": 4403,
    "\u13aa\u13c5": 4404,
    "\u13cd\u13d7\u13cd\u13a8\u13a2": 4405,
    "\u13b7\u13e5": 4406,
    "\u2581\u13be\u13af\u13f3\u13a2": 4407,
    "\u2581\u13e5\u13f2": 4408,
    "\u2581\u13a0\u13d3\u13c5": 4409,
    "\u13c2\u13c6\u13d8\u13af": 4410,
    "\u2581\u13a4\u13c2\u13c4\u13aa\u13e8": 4411,
    "\u13a9\u13cc": 4412,
    "\u2581\u13f0\u13b5\u13a6": 4413,
    "\u13cd\u13c6\u13b5": 4414,
    "\u2581\u13a6\u13be\u13c4\u13aa": 4415,
    "\u13ea\u13ce\u13b4\u13a2": 4416,
    "\u2581\u13ea\u13e3": 4417,
    "\u2581\u13d9\u13e3": 4418,
    "\u2581\u13a4\u13c2\u13cf\u13d7": 4419,
    "\u2581\u13ef\u13db\u13c5": 4420,
    "\u13d3\u13c5\u13af\u13d3": 4421,
    "\u2581\u13a4\u13e3\u13c5": 4422,
    "\u2581\u13a4\u13ea\u13f0": 4423,
    "\u2581\u13a4\u13b5\u13cd\u13c6\u13b8\u13d7\u13c3": 4424,
    "\u13a6\u13ce\u13cd\u13d5\u13cd\u13d7": 4425,
    "\u13b8\u13ae": 4426,
    "\u2581\u13d3\u13cd\u13a9": 4427,
    "\u13e1\u13d7\u13cd\u13ac\u13a2": 4428,
    "\u13f0\u13db": 4429,
    "\u13c2\u13a9\u13cd\u13ac": 4430,
    "\u2581\u13a4\u13c3\u13f4\u13b5": 4431,
    "\u2581\u13a0\u13a9\u13c1": 4432,
    "\u2581\u13e5\u13a6\u13d4": 4433,
    "\u2581\u13ac\u13be\u13ec": 4434,
    "\u13a6\u13cd\u13aa": 4435,
    "\u2581\u13a0\u13cd\u13a9": 4436,
    "\u2581\u13d7\u13e3\u13c1\u13b6": 4437,
    "\u13d4\u13b5": 4438,
    "\u13d8\u13be\u13eb\u13db\u13b2\u13a9": 4439,
    "\u13cc\u13d5": 4440,
    "\u2581\u13f1\u13e3\u13d3\u13c5\u13d6": 4441,
    "\u13b3\u13d7\u13cd\u13ac": 4442,
    "\u13e2\u13d7\u13f1": 4443,
    "...\u201d": 4444,
    "\u13a6\u13c1\u13b6\u13d7": 4445,
    "\u2581\u13da\u13f2\u13ce": 4446,
    "\u2581\u13d7\u13a6\u13b4\u13c5": 4447,
    "\u2581\u13a0\u13e9\u13db": 4448,
    "\u13be\u13d4": 4449,
    "\u2581\u13a9\u13ef": 4450,
    "al": 4451,
    "\u13cd\u13d3\u13e9\u13db\u13d2\u13a9": 4452,
    "\u2581\u13a6\u13ac": 4453,
    "\u2581\u13a6\u13b5\u13e6": 4454,
    "\u13b5\u13f3": 4455,
    "\u13c5\u13c1": 4456,
    "\u13e5\u13c6": 4457,
    "\u13d3\u13c1\u13b2": 4458,
    "\u13c7\u13d3": 4459,
    "\u2581\u13a4\u13b5\u13cf": 4460,
    "\u13d8\u13cd\u13d7\u13cd\u13a9": 4461,
    "\u2581\u13a0\u13c2\u13c1\u13b8": 4462,
    "\u2581\u13e7\u13c1": 4463,
    "\u2581\u13a5\u13e5": 4464,
    "\u2581\u13c2\u13a9": 4465,
    "\u13b3\u13d1\u13e2": 4466,
    "\u2581\u13a0\u13b5\u13f0\u13a2\u13b5": 4467,
    "\u13c5\u13d7\u13f1": 4468,
    "\u2581\u13a0\u13cd\u13c6\u13c2\u13aa\u13d9\u13d7": 4469,
    "\u13e5\u13a9": 4470,
    "\u2581\u13c4\u13cd\u13db\u13a9": 4471,
    "\u13c1\u13b8\u13ad": 4472,
    "\u13a6\u13d8\u13f4": 4473,
    "\u2581\u13af\u13f4": 4474,
    "\u13d3\u13ce\u13aa\u13a9\u13cd": 4475,
    "\u13d3\u13d1\u13f0\u13cd\u13d7": 4476,
    "\u13a6\u13d3": 4477,
    "\u2581\u13d9\u13db\u13c2": 4478,
    "\u13ce\u13ae": 4479,
    "\u13db\u13c3\u13af": 4480,
    "\u13f0\u13d7": 4481,
    "\u2581\u13d3\u13f3\u13c2": 4482,
    "\u13f4\u13cd\u13d7": 4483,
    "\u2581\u13d5\u13a6\u13c5": 4484,
    "\u13cd\u13a6\u13e8\u13af": 4485,
    "\u2581\u13a0\u13e5\u13b8\u13f3": 4486,
    "\u2581\u13c2\u13a6\u13a5\u13a2": 4487,
    "\u2581\u13d3\u13cc": 4488,
    "\u2581\u13a0\u13c6\u13d3": 4489,
    "\u2581\u13d4\u13ef": 4490,
    "\u13d8\u13c3\u13af\u13cd\u13d7\u13f1": 4491,
    "\u2581\u13a4\u13c5\u13c1": 4492,
    "\u13cd\u13d5\u13b8\u13d7\u13f1": 4493,
    "\u2581\u13c5\u13d3\u13ac\u13e9": 4494,
    "\u2581\u13d7\u13a9\u13cd\u13d7": 4495,
    "\u2581\u13e7\u13ac\u13e9": 4496,
    "\u2581\u13e3\u13db": 4497,
    "\u13cd\u13d3\u13e9\u13d7\u13d2": 4498,
    "\u2581\u13f1\u13a8\u13e5": 4499,
    "\u13e8\u13be": 4500,
    "\u13c5\u13db": 4501,
    "\u13e3\u13db": 4502,
    "\u2581\u13c2\u13ef": 4503,
    "\u2581\u13da\u13f3": 4504,
    "\u13a7\u13af\u13ef\u13cd\u13d7": 4505,
    "\u2581\u13a4\u13c2\u13cd\u13c6\u13c2\u13aa\u13ce": 4506,
    "\u13f2\u13cf": 4507,
    "\u2581\u13ac\u13f0\u13b8": 4508,
    "\u13e5\u13cd\u13a6\u13ef": 4509,
    "\u2581\u13a4\u13be\u13db\u13c1": 4510,
    "\u2581\u13c2\u13d5\u13a6": 4511,
    "\u13c2\u13aa\u13b2": 4512,
    "\u2581\u13f3\u13ec\u13af\u13f3": 4513,
    "\u13e9\u13d5\u13ac": 4514,
    "\u13cd\u13a6\u13b3\u13c1\u13b8": 4515,
    "\u2581\u13a4\u13cd\u13c6\u13b8\u13af\u13d7": 4516,
    "\u2581\u13a8\u13cd\u13d7\u13d7": 4517,
    "\u13b4\u13d9\u13d7": 4518,
    "\u13bf\u13a5\u13a2": 4519,
    "\u2581\u13cd\u13a6": 4520,
    "\u13ec\u13a2": 4521,
    "\u2581\u13a2\u13cd\u13db": 4522,
    "\u2581\u13a4\u13c4\u13ea": 4523,
    "\u13d3\u13c2\u13b8\u13e4\u13a2": 4524,
    "\u2581\u13c4\u13c2\u13ea\u13ce": 4525,
    "\u13ac\u13c1\u13b5": 4526,
    "\u13cf\u13c2": 4527,
    "\u2581\u13a0\u13da\u13d3\u13b4\u13cd\u13d7": 4528,
    "\u13c2\u13b4": 4529,
    "\u13b3\u13c2": 4530,
    "\u2581\u13e7\u13c1\u13e8": 4531,
    "\u13e2\u13db": 4532,
    "\u2581\u13d5\u13a6\u13c4\u13aa\u13eb\u13cd": 4533,
    "\u13ea\u13b6\u13d7": 4534,
    "\u13d9\u13a0": 4535,
    "\u2581\u13a4\u13c2\u13c3": 4536,
    "\u13ce\u13ae\u13cd\u13d7": 4537,
    "\u2581\u13a4\u13c1\u13b7\u13ac": 4538,
    "\u13be\u13db\u13a6": 4539,
    "\u2581\u13e3\u13a6": 4540,
    "\u2581\u13d9\u13d3\u13e5": 4541,
    "\u13aa\u13b5\u13f0\u13a5\u13af": 4542,
    "\u2581\u13c4\u13db\u13c1": 4543,
    "\u2581\u13eb\u13a6\u13b6\u13af": 4544,
    "\u2581\u13a0\u13cd\u13aa": 4545,
    "\u13be\u13d7": 4546,
    "\u13c2\u13d9\u13b2": 4547,
    "\u13b5\u13cd\u13d3\u13f4": 4548,
    "\u2581\u13a2\u13a9\u13f0\u13b8": 4549,
    "\u2581\u13f1\u13ac\u13a9": 4550,
    "\u2581\u13a0\u13c2\u13cd\u13a6": 4551,
    "\u2581\u13d5\u13a6\u13c4\u13aa\u13ac": 4552,
    "\u2581\u13a4\u13cd\u13c6\u13c2\u13aa\u13ce": 4553,
    "\u13ac\u13c5": 4554,
    "\u13d8\u13c4\u13a6": 4555,
    "\u2581\u13a0\u13d3\u13ea\u13b5\u13a9\u13cd\u13ac": 4556,
    "\u2581\u13a3\u13a6\u13db\u13a6\u13c5": 4557,
    "\u2581\u13a0\u13a9\u13c7\u13d3\u13b8": 4558,
    "\u2581\u13a2\u13e3\u13d3\u13d9\u13b5\u13cd\u13d7\u13cd\u13ac": 4559,
    "\u2581\u13d5\u13a6\u13cd\u13a9\u13b8": 4560,
    "\u13d7\u13a6\u13db\u13af": 4561,
    "\u2581\u13a4\u13be\u13c2\u13a9\u13ce": 4562,
    "\u2581\u13a4\u13b5\u13f0\u13d4\u13c1": 4563,
    "\u2581\u13d9\u13e7\u13be\u13d3\u13c5\u13db": 4564,
    "\u13eb\u13b5\u13bb": 4565,
    "\u13c4\u13d3\u13b4": 4566,
    "\u2581\u13a4\u13b6\u13a8\u13d2": 4567,
    "\u2581\u13f1\u13e5\u13a6\u13d4\u13ae": 4568,
    "\u2581\u13c2\u13a6\u13b5\u13cd\u13d7\u13cd\u13aa": 4569,
    "\u2581\u13c4\u13c2\u13ea\u13ce\u13b4": 4570,
    "\u2581\u13a2\u13e3\u13b5\u13ae\u13b5\u13ac": 4571,
    "\u2581\u13a6\u13c1\u13e5": 4572,
    "\u2581\u13da\u13d3\u13d8\u13be\u13a5": 4573,
    "\u2581\u13a4\u13ec\u13af\u13f3\u13d2": 4574,
    "\u2581\u13f1\u13c4\u13cd\u13d5": 4575,
    "\u2581\u13c8\u13ac": 4576,
    "\u2581\u13a4\u13c4\u13e9\u13a5": 4577,
    "\u2581\u13d7\u13a6\u13c1\u13b8": 4578,
    "\u2581\u13a4\u13ee\u13d4\u13c5": 4579,
    "\u2581\u13f1\u13ac\u13c6": 4580,
    "\u13be\u13c4\u13aa\u13eb\u13ce": 4581,
    "\u2581\u13d5\u13a6\u13ec\u13c1\u13d7\u13cd\u13ac": 4582,
    "\u2581\u13a0\u13c7\u13c5\u13d2": 4583,
    "\u2581\u13be\u13a9\u13ea\u13ce\u13b8": 4584,
    "\u2581\u13ed\u13ef\u13c5\u13b2": 4585,
    "\u13aa\u13b2\u13cd\u13d9\u13d7": 4586,
    "\u13af\u13cd\u13d4\u13c2": 4587,
    "\u13d3\u13d9\u13b5\u13cd\u13d7\u13cd\u13ac": 4588,
    "\u2581\u13a0\u13a9\u13e9\u13db\u13b2": 4589,
    "\u2581\u13c4\u13c5\u13c1\u13b8": 4590,
    "\u2581\u13a5\u13a9\u13d9": 4591,
    "\u2581\u13ac\u13e9\u13be\u13d5": 4592,
    "\u2581\u13e5\u13f0\u13b8": 4593,
    "\u13f0\u13b3\u13cd\u13d7": 4594,
    "\u13a4\u13b7\u13e8": 4595,
    "\u2581\u13d5\u13d7": 4596,
    "\u2581\u13a4\u13b5\u13e6\u13db": 4597,
    "\u13f2\u13cd\u13d3": 4598,
    "\u2581\u13a0\u13c2\u13aa\u13e9\u13d8\u13cd\u13ac": 4599,
    "\u13db\u13c1\u13b2\u13a2": 4600,
    "\u13ec\u13d7\u13a8": 4601,
    "\u2581\u13c7\u13d3\u13c1\u13b3\u13bb": 4602,
    "\u2581\u13e7\u13c2\u13a7\u13bf\u13e9\u13db\u13cd\u13d7": 4603,
    "\u2581\u13d7\u13ab\u13cd\u13d9\u13cd\u13d7": 4604,
    "\u2581\u13a0\u13cd\u13ab\u13d5\u13cd\u13d7": 4605,
    "\u2581\u13c2\u13d5\u13a6\u13ea\u13ce\u13b2": 4606,
    "\u13f2\u13b1\u13af\u13ce\u13b8\u13af": 4607,
    "\u13b0\u13e9": 4608,
    "\u2581\u13a4\u13ec\u13af\u13f3\u13c5": 4609,
    "\u13cd\u13d7\u13ad": 4610,
    "\u2581\u13d7\u13a8\u13ab\u13aa\u13d3\u13c1\u13d7": 4611,
    "\u2581\u13ed\u13b7\u13e4\u13b4": 4612,
    "\u13b4\u13cf": 4613,
    "\u13cf\u13d4\u13d7\u13cd\u13d7": 4614,
    "\u13d7\u13a6\u13b5\u13cd\u13d9\u13d7": 4615,
    "\u2581\u13ed\u13b6\u13af\u13cd\u13d7": 4616,
    "\u2581\u13a0\u13e5\u13c1\u13d7": 4617,
    "\u13d9\u13a1\u13cd\u13d7": 4618,
    "\u2581\u13d7\u13e3\u13b8\u13eb\u13cd\u13d3\u13c1\u13d7": 4619,
    "\u2581\u13a0\u13c7\u13d3\u13cd\u13d7": 4620,
    "\u13a3\u13cf": 4621,
    "\u2581\u13a4\u13be\u13d7\u13d4\u13cd\u13d7": 4622,
    "\u2581\u13a0\u13be\u13b3\u13cd\u13a6\u13b5\u13cd\u13a9": 4623,
    "\u2581\u13a0\u13be\u13d3\u13ad\u13f2\u13af": 4624,
    "\u2581\u13a0\u13c2\u13e5\u13ca\u13cf": 4625,
    "\u2581\u13a0\u13ec\u13ad\u13b5": 4626,
    "\u2581\u13a2\u13a8\u13ac\u13c1\u13b8\u13af": 4627,
    "\u2581\u13a2\u13b5\u13a1\u13cc": 4628,
    "\u2581\u13a4\u13cd\u13d4\u13f2\u13d2": 4629,
    "\u2581\u13a4\u13d6\u13b8\u13b3\u13db": 4630,
    "\u2581\u13a7\u13be\u13e5\u13cd\u13d5\u13e5": 4631,
    "\u2581\u13ab\u13eb\u13cd\u13ab\u13eb": 4632,
    "\u2581\u13ac\u13ec\u13af\u13f3\u13b2\u13cd\u13a9": 4633,
    "\u2581\u13ac\u13f2\u13ce\u13ad": 4634,
    "\u2581\u13b0\u13e2\u13d4\u13c5\u13ad": 4635,
    "\u2581\u13b4\u13a3\u13d7\u13cf\u13ef": 4636,
    "\u2581\u13bb\u13da\u13cf\u13b3": 4637,
    "\u2581\u13c2\u13e6\u13b5\u13ac\u13be": 4638,
    "\u2581\u13c7\u13e3\u13b5\u13b5": 4639,
    "\u2581\u13cd\u13d5\u13f1\u13d3": 4640,
    "\u2581\u13d3\u13c7\u13aa\u13d4\u13c5": 4641,
    "\u2581\u13d7\u13be\u13d9\u13b4\u13c6\u13cd\u13a9": 4642,
    "\u2581\u13d7\u13d3\u13b4\u13c5\u13d7\u13cd\u13a9": 4643,
    "\u2581\u13e3\u13a6\u13d1\u13b2\u13a2": 4644,
    "\u2581\u13e7\u13c2\u13e6\u13ef\u13cd\u13d7": 4645,
    "\u2581\u13a5\u13c6\u13b8\u13a2\u13db": 4646,
    "\u2581\u13af\u13cc\u13b3\u13db\u13a6": 4647,
    "\u2581\u13d7\u13ac\u13e9\u13a9\u13e8\u13d7": 4648,
    "\u2581\u13e5\u13c8\u13a3\u13c2": 4649,
    "\u2581\u13a4\u13c2\u13b5\u13c5\u13e8\u13af": 4650,
    "\u2581\u13a2\u13ef\u13db\u13c1\u13b5\u13d3\u13cd\u13d7": 4651,
    "\u2581\u13a4\u13b5\u13c3\u13af\u13f4\u13af": 4652,
    "\u2581\u13d3\u13d7\u13b6\u13c2": 4653,
    "\u2581\u13d7\u13e5\u13a8\u13eb": 4654,
    "\u2581\u13e5\u13c2\u13e8\u13ea\u13ce\u13b8\u13a9": 4655,
    "\u2581\u13e7\u13be\u13d7\u13a9\u13d3": 4656,
    "\u2581\u13a2\u13e5\u13c7\u13d3\u13b8": 4657,
    "\u2581\u13a2\u13f3\u13e9\u13ac\u13d7": 4658,
    "\u2581\u13a0\u13b5\u13cf\u13be\u13af\u13cd\u13d9\u13d7": 4659,
    "\u2581\u13a0\u13c2\u13aa\u13d7\u13f3": 4660,
    "\u2581\u13a4\u13ea\u13ef\u13b8\u13e4\u13a2": 4661,
    "\u2581\u13da\u13d5\u13f2\u13c1": 4662,
    "\u2581\u13a0\u13c6\u13d7\u13d4\u13cd\u13d7": 4663,
    "\u2581\u13a0\u13be\u13b5\u13d6\u13b8\u13b2\u13cd\u13a9": 4664,
    "\u2581\u13cd\u13aa\u13c2\u13d7\u13e2": 4665,
    "\u2581\u13d7\u13a8\u13d8\u13c2\u13d3\u13cd\u13d7": 4666,
    "\u2581\u13a4\u13b5\u13cd\u13db\u13e7\u13c1": 4667,
    "\u2581\u13b9\u13ba\u13b5": 4668,
    "\u2581\u13a0\u13c2\u13b6\u13cd\u13a9": 4669,
    "\u2581\u13a4\u13e6\u13a0\u13ce\u13d7": 4670,
    "\u2581\u13aa\u13af\u13f3\u13b2\u13cd\u13a8\u13cd\u13d7": 4671,
    "\u2581\u13a0\u13aa\u13b2\u13cd\u13d4\u13c5\u13af": 4672,
    "\u2581\u13a4\u13e2\u13d3\u13b8": 4673,
    "\u2581\u13a0\u13df\u13b6\u13a5": 4674,
    "\u2581\u13a4\u13a6\u13db\u13be\u13e8\u13af": 4675,
    "\u2581\u13e7\u13cf\u13e9": 4676,
    "\u2581\u13a6\u13b6\u13e3\u13d7": 4677,
    "\u13be\u13cc\u13be\u13a9": 4678,
    "\u2581\u13a0\u13c1\u13b8\u13d7\u13cd\u13a8\u13a2": 4679,
    "\u2581\u13a2\u13aa\u13c2\u13ef": 4680,
    "\u2581\u13a4\u13d9\u13b3\u13c5\u13cd\u13d7": 4681,
    "\u2581\u13d5\u13e5\u13c2\u13f4\u13ce\u13cd\u13d7": 4682,
    "\u2581\u13a2\u13e5\u13c1\u13ab": 4683,
    "\u2581\u13d7\u13a9\u13f2\u13b1\u13d2\u13af": 4684,
    "\u2581\u13c5\u13d3\u13f3\u13be\u13d3\u13b4\u13c5\u13af": 4685,
    "\u2581\u13be\u13c2\u13cd\u13a6\u13c5\u13be": 4686,
    "\u2581\u13d3\u13f2\u13e3\u13db\u13c1\u13b5": 4687,
    "\u2581\u13c6\u13cf\u13b9": 4688,
    "\u2581\u13be\u13c3\u13af\u13f3\u13b2\u13cd\u13ac\u13be": 4689,
    "\u2581\u13a0\u13d9\u13b4\u13b0\u13d2\u13af": 4690,
    "\u2581\u13ac\u13e9\u13d5\u13f1\u13db": 4691,
    "\u2581\u13d7\u13c2\u13c3\u13a8\u13c2": 4692,
    "\u2581\u13e7\u13ac\u13e9\u13b3\u13c5\u13af": 4693,
    "\u2581\u13e7\u13c8\u13ef": 4694,
    "\u13a9\u13cf\u13d5\u13a9": 4695,
    "\u2581\u13c4\u13be\u13db\u13c1\u13b5\u13d9\u13b8": 4696,
    "\u2581\u13a2\u13ac\u13c6\u13db\u13c1\u13d7": 4697,
    "\u2581\u13d6\u13b9": 4698,
    "\u2581\u13ed\u13d5\u13b5\u13e4": 4699,
    "\u2581\u13d7\u13c2\u13d0\u13af": 4700,
    "\u2581\u13f1\u13e5\u13aa\u13b5\u13f0\u13a3": 4701,
    "\u2581\u13a4\u13f4\u13b5\u13b4": 4702,
    "\u13d9\u13b4\u13cb": 4703,
    "\u13eb\u13c2\u13d7\u13e2": 4704,
    "\u2581\u13a2\u13f3\u13be\u13d3\u13b3": 4705,
    "\u2581\u13d3\u13d3\u13db\u13c2": 4706,
    "\u2581\u13a4\u13a6\u13c3\u13ee": 4707,
    "\u2581\u13c1\u13c6\u13b8": 4708,
    "\u2581\u13d3\u13a6\u13e5\u13c1\u13b5": 4709,
    "\u2581\u13d7\u13ac\u13e9\u13c2\u13f0\u13af": 4710,
    "\u2581\u13d8\u13a6\u13d9\u13b5": 4711,
    "\u2581\u13da\u13ea\u13a7\u13c5\u13a9": 4712,
    "\u2581\u13a4\u13c6\u13db\u13a9": 4713,
    "\u2581\u13e7\u13ec\u13e2\u13c5\u13af": 4714,
    "\u2581\u13d7\u13a6\u13be\u13cc\u13a2": 4715,
    "\u2581\u13da\u13ed\u13e2\u13d4\u13c5\u13a9": 4716,
    "\u2581\u13b6\u13e9\u13c2": 4717,
    "\u2581\u13e7\u13b5\u13ac\u13e9\u13df": 4718,
    "\u2581\u13a0\u13c6\u13df\u13c2\u13ac\u13c1\u13b8": 4719,
    "\u2581\u13a0\u13c2\u13b1\u13e3": 4720,
    "\u2581\u13e7\u13be\u13aa\u13c5\u13cd\u13d3\u13b5": 4721,
    "\u2581\u13e9\u13e5\u13b3": 4722,
    "\u2581\u13a5\u13c3\u13e5": 4723,
    "\u13d0\u13ad\u13db": 4724,
    "\u2581\u13f3\u13f2\u13b1\u13d2": 4725,
    "\u2581\u13a2\u13ef\u13d3\u13db\u13c1\u13af": 4726,
    "\u2581\u13d7\u13d5\u13f2\u13b2\u13cd\u13a9": 4727,
    "\u2581\u13eb\u13e5\u13f2\u13b5\u13a6": 4728,
    "\u2581\u13a0\u13c2\u13c3\u13ae\u13cd\u13a8": 4729,
    "\u2581\u13c5\u13c1\u13b8\u13ad": 4730,
    "\u2581\u13a2\u13ef\u13c6\u13b5\u13cd\u13d9\u13d7\u13f1": 4731,
    "\u2581\u13a4\u13be\u13da\u13b5\u13cd\u13a9": 4732,
    "\u2581\u13a6\u13e5\u13ef\u13c1\u13b3\u13c5\u13af": 4733,
    "\u2581\u13aa\u13a2\u13f3\u13b2\u13cd\u13a6": 4734,
    "\u2581\u13ad\u13db\u13d3\u13cd\u13d3": 4735,
[...]
